#version: 0.2
Ġ t
h e
Ġ a
Ġ .
i n
o u
Ġ ,
r e
Ġ w
Ġt he
Ġ s
h a
Ġ o
e r
n d
Ġ m
Ġ c
i t
i s
Ġ b
Ġ y
o n
Ġ f
in g
Ġt o
l l
Ġ d
Ġy ou
o r
Ġ n
e s
e n
Ġ p
a n
Ġ '
Ġo f
ha t
e d
Ġ l
a t
Ġ g
Ġa nd
Ġ in
a r
o m
Ġ I
v e
Ġ ?
o w
s t
e t
Ġt h
o t
i c
l e
Ġ h
Ġ ha
a l
Ġt hat
s e
Ġb e
Ġ he
Ġ e
Ġ it
a y
Ġ is
i on
i d
a s
Ġo n
Ġ u
Ġw e
l d
Ġ re
a c
Ġd o
v er
i m
g h
Ġf or
en t
u t
r o
' t
k e
Ġm e
ou t
Ġs t
r i
Ġ -
Y ou
a m
Ġ k
o o
T he
gh t
it h
a d
l y
e c
i r
Ġth is
Ġw ith
Ġa n
i ll
Ġha ve
Ġyou r
a ll
Ġ S
Ġa re
Ġl i
Ġw as
Ġn ot
he r
om e
u r
A nd
e l
Ġw h
u st
an t
W e
r a
at ion
Ġm y
i f
Ġ C
Ġn e
o p
Ġ A
ou ld
c e
t er
Ġa s
o re
Ġk n
i l
Ġg o
Ġ M
c h
ou r
Ġa ll
Ġs e
Ġa b
Ġw hat
Ġ j
Ġ !
p p
n t
es s
Ġc an
Ġkn ow
g e
er s
es t
r om
Ġ "
Ġw or
Ġs o
a u
Ġ :
Ġthe y
Ġa t
c t
o d
t h
I t
ha n
Ġp ro
Ġ B
Ġ L
at e
o l
Ġo r
Ġ P
Ġu p
on e
ver y
a ke
u s
Ġ out
u l
Ġab out
H e
Ġ T
all y
Ġ G
k ing
Ġc om
Ġu s
Ġf rom
Ġthe re
Ġw ill
i ve
Ġ D
Ġw he
u re
a nd
Ġe x
Ġli ke
Ġc on
Ġg et
Ġs h
e a
ar t
a in
a b
is t
o s
e m
q u
Ġ 1
Ġon e
u n
in d
i g
Ġa l
i e
Ġj ust
r y
e ar
W hat
Ġh im
Ġthe m
u m
in k
ac k
Ġ v
â Ģ
Ġ F
Ġ H
ec t
Ġw ant
it y
i es
Ġd e
oo d
Ġhe re
Ġ r
i ght
Ġs a
Ġ R
Ġ 2
Ġ E
a st
r ou
Ġb ut
Ġd id
in e
Ġs p
Ġp l
am e
oo k
Ġh is
Ġ our
or t
Ġwh o
e ll
T h
S o
Ġ âĢ
Ġc a
Ġb y
Ġan y
im e
Ġ )
re d
Ġm an
Ġ J
m ent
ri ght
Ġp e
Ġ N
f e
Ġs u
h ing
Ġth ink
on g
o st
id e
Ġhe r
c k
ic e
op le
Ġ if
Ġ right
Ġse e
re s
Ġs ha
Ġin t
ar d
Ġn o
. .
au se
Ġpe ople
Ġwe re
Ġt ime
p t
Ġs ome
u d
v en
Ġ W
Th is
Ġ ;
B ut
ac e
Ġ. ..
Ġ O
Ġg ot
ou s
Ġne ed
a g
Ġw ould
Ġn ow
Ġs ay
Ġthe ir
Ġm ore
Ġth ing
e p
Ġa g
Ġt r
ac t
ic h
Ġwhe n
Ġl o
t her
Ġha d
a ge
Ġ en
Ġof f
T hat
it e
ow n
Ġha s
re at
Ġgo ing
' m
Ġbe c
Ġs he
n a
0 0
b le
e nd
Ġh ow
p l
Ġ (
Ġb ack
ou nt
Ġc h
p er
Ġy ear
Ġw ay
Ġf e
b er
o se
i v
an s
Ġe very
The y
Ġ- -
re e
Ġbe en
ion s
Ġc ould
om et
w ay
Ġ U
Ġwh ich
o g
Ġsa id
a k
i z
Ġ im
Ġd ay
nd er
Ġg ood
D o
c i
W h
Ġo ver
it t
ic k
Ġo ther
Ġm ake
We ll
i ld
Ġ very
Ġsha ll
i a
se l
Ġ qu
Ġa m
Ġc l
f f
Ġthe se
c c
Ġwor k
or d
Ġt han
w e
ot her
re n
Ġp r
Ġg u
Ġl ook
Ġc o
Ġs omet
Ġd is
Ġd own
Ġre ally
Ġl e
as s
Ġha pp
Ġint o
Ġt ake
Ġc ome
f ore
ou nd
Ġa ct
o b
The re
H ow
i p
Ġwhe re
Ġ2 0
Ġu n
Ġt w
Ġa d
Ġbec ause
Ġt ell
or m
i re
Ġth ou
th ing
ab le
Ġc han
Ġsomet hing
Ġto o
Ġc all
Ġthe n
Ġ Y
Ġcom p
a re
ac h
Ġcon t
en ce
a h
Ġne w
Ġ ro
on na
Ġp er
Ġ V
u e
s o
Ġt al
Ġb l
a p
Ġon ly
ir st
Ġg onna
Ġsh ould
Ġb et
res s
Ġag ain
ig n
Ġa r
Ġ K
W he
Ġwor ld
Ġl et
ur n
ad e
I f
I n
b e
Ġp art
Ġf u
Ġb r
Ġdo es
er v
or y
Ġf l
a se
is h
a il
ation s
Ġhe l
Ġe ven
Ġb u
Ġtw o
N o
ve l
Ġm u
Ġu nder
Ġ 3
ic al
Ġp re
Ġyear s
Ġhapp en
ar y
v ing
itt le
S he
au ght
r u
Ġhel p
od y
f t
i le
Ġre s
e w
N ow
at ed
an ce
Ġf irst
o y
sel f
Ġmu ch
Ġl ittle
rou nd
Ġm ay
Ġs c
Ġbe fore
i al
Ġf ind
on s
ul t
u ally
Ġne ver
d u
at her
f ter
ĠS t
ver s
Ġha nd
o nd
ĠG od
Ġ ke
Ġa cc
Ġa pp
Ġthing s
ĠâĢ Ļ
ea h
w n
v es
Ġli fe
Ġal so
ra in
at er
n ing
Ġ You
u b
ent s
Ġu nt
ot el
f orm
is s
t ing
Ġim p
Ġst art
Ġd if
Ġu se
k s
re nt
Ġcom m
oo l
Ġk ill
Ġth ose
Ġw r
Ġm o
is e
Wh y
o ll
o in
o ld
Ġre m
Ġt e
Ġbe l
Ġl ong
g et
Ġl ea
y s
Ġs ec
Ġ20 1
Ġm ade
ar k
Ġg reat
Ġch ild
ou se
Ġd es
k ay
Ġm ost
rou gh
aught er
an g
ri end
or s
Ġdo ing
v ed
Ġlo ve
Ġp ut
h n
Ġin c
Ġe m
r ow
Ġt ry
Ġp h
a ve
Ġwh y
Ġg ive
t y
at h
Ġk ind
ad y
le ase
Ġth rough
Ġc ha
en s
n e
n g
i an
O h
Ġa fter
a v
Ġme an
x t
f ul
ĠI s
Ġtal k
he d
Ġman y
Ġfe el
p le
ter n
Ġ _
Ġwe ll
Ġdif fe
ĠI n
oo king
os s
d ay
Ġs m
O R
Ġo wn
Ġl ot
Ġc ar
r am
ol og
p e
Ġre c
Ġ 5
Ġst ill
' s
ic t
ow er
at es
Ġre al
A ll
Ġa round
i ly
ie w
i ous
o c
Ġthou ght
Ġpl ace
Ġact ually
i gh
Ġs y
it ion
ou gh
one y
Ġs erv
Ġc ame
Ġf riend
Ġw o
Ġsu pp
Ġ 4
Ġa way
M y
it ies
n ess
Ġ id
Ġbet ter
Ġh ouse
at ing
Ġp ers
Ġst ud
Ġn ame
L et
Ġs ame
I s
ĠC h
Ġsh ow
Ġany thing
Ġ He
Ġc ount
Ġd ec
Ġbel ie
ir l
Ġas k
Ġbe ing
Ġit s
Ġl ast
i ble
Ġs ure
al s
Ġe nd
Y eah
Ġo ld
b ody
Ġk ing
way s
od e
Ġe ver
a king
st and
at ch
Ġke ep
i ed
Ġh ome
Ġdis c
Ġm on
b s
d er
we h
Ġm ight
ah weh
c es
F or
er m
Whe n
l es
Ġdiffe rent
ment s
du ct
ble m
ot h
Ġm ust
Ġf ather
in ess
Ġe ar
Ġs ur
Ġf ound
Ġs on
Ġw om
Ġm en
Ġin st
p en
OR D
Ġf am
Ġpl ay
Ġ The
Ġd el
et h
a it
Ġpro blem
ĠL ORD
Ġunt o
em ber
t s
Ġd one
ĠL aughter
Ġg l
Ġc he
Ġha r
Ġm in
Ġw ent
e re
Ġth ree
p s
i b
o ck
Ġwor d
Ġca re
Ġchild ren
Ġn ight
ĠI t
n y
Ġs et
Ġt urn
i x
Ġc our
Ġb est
The n
Ġunder stand
p ect
p h
Ġ %
Ġb ig
Ġh um
Ġal ways
a w
m er
Ġb us
Ġe v
Ġ ent
Ġpers on
ĠY ahweh
Ġ /
st em
im es
e ver
ĠU n
Ġc ou
Ġsp ec
Ġh u
iz e
ation al
Ġ1 0
Ġto ld
ĠR e
Ġpl an
et s
ec hn
ut e
Ġqu est
u al
Ġre l
he s
j ect
c om
Ġin v
it ed
Ġin d
u ck
Ġan other
Ġk id
a le
Ġg irl
ing s
Ġbelie ve
on t
s ide
ak es
Ġe l
Ġpro g
ri ed
ar s
or ry
Whe re
Ġst r
J ust
ic es
A re
Ġa c
Ġtr ans
er t
g in
Ġb re
Ġm oney
Ġhe ad
Ġg en
Ġcall ed
w ard
Ġat t
Ġto day
it s
oll ow
Ġ We
Ġl and
Ġad d
l ine
le ct
oin t
Ġas s
ra el
Ġst op
he re
or k
Ġs l
Ġnot hing
Ġus ed
Ġl ooking
form ation
ĠIs rael
ar ch
Ġsy stem
Ġex per
N ot
ic s
Ġc le
Ġhe ar
Ġagain st
c y
Ġr un
Ġevery thing
i vers
e e
ĠH otel
Ġto get
Ġtoget her
ow ers
Ġf un
a z
Ġn um
n er
Ġt ra
Ġre p
Ġcon s
Ġc r
Ġle ft
Ġf in
Ġli ve
ch ool
Ġl ist
ĠâĢ ĵ
Ġoff er
Ġl ear
Ġs w
Ġday s
Ġp ass
ure s
o ve
if ic
Ġt echn
Ġpro duct
Ġh igh
Ġre g
Ġwant ed
Ġb it
Ġf ree
ec ause
Ġb as
Ġid ea
S t
u c
l t
Ġp ol
ĠN ew
v iew
Ġprog ram
' ll
ul ar
an y
l ed
r ic
el s
Ġe y
Ġwith out
D id
op e
Ġhappen ed
ĠâĢ Ŀ
Ġex t
Ġf act
Ġw ar
Ġ What
You r
Ġv is
' d
Ġs k
Ġg r
g y
l ic
Ġel se
Ġb ad
Ġp oss
Ġw ait
T han
Ġo pen
Ġimp ort
Ġp ri
Wh o
Ġm at
Ġ $
ce pt
Ġcom pl
Ġbus iness
u ll
ere st
Ġcom ing
ag es
il ity
g er
Ġs er
Ġne xt
Ġgu y
s s
Ġtoo k
Ġs in
Ġro om
Ġen ough
Ġin formation
Ġe ach
Ġs im
Ġcour se
Ġm om
Ġo kay
Ġst ay
Ġc ur
ir d
i ver
Ġ hat
Ġchan ge
Ġsu ch
Ġin ter
Ġhe art
Ġpr ot
Ġfe w
ut ion
G et
Ġtry ing
g an
g ed
Ġm ind
o ot
Ġmon th
Ġag o
c ed
C ome
Ġb ro
Ġ ra
Ġbu ild
l o
Ġth y
r an
Ġsay ing
if e
Ġlea ve
in es
Ġor der
Ġ1 9
re am
Ġs orry
Ġsa w
Ġhar d
Ġde ad
a ir
Ġh our
u p
en se
Ġp ay
as h
we en
vel op
Ġsec ond
Ġint erest
Ġ &
Ġwr ong
Ġre st
Ġhum an
Ġp ower
Ġp lease
u ro
Ġb oy
or n
Ġget ting
Ġw ater
B ecause
Ġst and
2 0
A s
Ġco ll
Ġ Â
Ġbr ing
Ġimport ant
00 0
er n
am es
Ġbet ween
h ip
c king
Ġd r
Ġpro v
ci al
C an
at a
ow s
Ġme et
Ġm other
Ġgu ys
Ġse en
ri es
Ġex c
Ġm od
Ġyour self
w are
a x
Ġp res
o ice
Ġb o
olog y
Ġb oth
Ġst ory
Ġj ob
Ġ 6
re t
c ri
ĠS p
Ġm iss
Ġsome one
it her
al th
Ġrem ember
Ġan s
Ġfam ily
M ay
or ies
Ġw al
Ġ â
He y
et e
Ġ ed
ĠF l
Ġf ar
Ġs chool
it es
re ady
Ġd ri
P N
ic ally
L ook
p on
Ġe as
Ġtal king
Ġpre t
ĠN o
d d
Ġp rom
Ġwe e
Ġre qu
Ġmo ve
Ġre t
Ġwho le
l ess
Ġhe ard
Ġde velop
as on
i er
ist s
ion al
Ġf ollow
Ġy et
Ġc ity
ill ion
ut h
O n
Ġm ed
Ġal ready
y ing
os ed
i ke
Ġ Z
Ġs ign
Ġ 7
ab y
Ġc reat
Ġsp ea
Ġfor m
Ġli ght
Ġab le
Ġwor king
Ġde p
Ġwh ile
Ġre ad
Ġnum ber
in king
Ġsay s
c ent
i ence
g g
Ġquest ion
Ġar t
Ġf our
c ess
Ġso l
i o
Ġ 8
Ġf ace
Ġcon f
O kay
Ġt ri
Ġcomm un
Ġlear n
Ġcha r
Ġb ook
Ġm ar
Ġo b
ĠM r
a ut
Ġhe ll
ĠA r
Ġe ff
Ġ And
ie ld
Ġpro f
ab ly
n ect
ĠJ o
Ġle ad
ru ct
ant s
g es
Ġbr other
l ud
m e
Ġm or
Ġl aw
Ġex pl
Ġlo c
iz ed
Ġg ra
Ġmat ter
i red
Ġh ope
Ġon line
Ġde al
Ġfu ll
iv es
Ġc re
Ġstart ed
T o
Ġd ata
Ġse em
us s
Ġs ci
Ġc ode
Ġfriend s
Ġdes ign
Ġthe e
ĠW h
Ġp at
Ġkn ew
Ġfu cking
Ġp oint
Ġex am
at ive
out h
t en
sel ves
ast er
Ġf ore
Ġs ound
Ġm ess
it al
Ġa v
ur al
Ġd ie
ĠâĢ ľ
e red
l and
Y es
Ġde v
l f
Ġgen er
Ġs ide
Ġsu b
ĠE uro
mer ic
Ġm et
Ġunt il
Ġd et
c on
Ġpret ty
ĠA pp
Ġme ans
Ġbe aut
Ġs le
Ġus ing
Ġup on
ĠT h
Ġprot ect
ĠD o
E very
rou ght
is ter
Ġp o
ha r
f ect
Ġt imes
at or
Than k
at t
at ure
Ġad v
Ġwom an
w er
Ġto p
is hed
Ġyou ng
Ġcount ry
ro l
ro ss
Ġbl ood
ĠA meric
p r
m b
am p
ent ion
Ġex p
ĠP ro
ert ain
ust om
Ġt est
Ġf ive
Ġd est
O ne
Ġw atch
Ġe at
The se
Ġ1 5
Ġf r
Ġg ame
Ġmay be
May be
Ġv al
ot e
ut es
u es
he n
id er
Ġb ody
u ff
Ġin tern
Ġmy self
ang u
Ġl ess
ac es
Ġsm all
ĠB e
Ġt rain
Ġs ent
Ġc ent
ire ct
Ġp ur
ivers ity
Ġf ight
Ġin s
Ġb rought
Ġey es
Ġbe h
ide o
l ing
Ġ 9
Ġex act
P lease
Ġhand s
Ġinc lud
id ent
om m
Ġwom en
w here
in s
S ome
ĠEuro pe
Ġb rain
Ġkill ed
Ġc or
Ġn ice
Ġde f
Ġnew s
w ork
He re
Ġdisc ount
Ġh old
lo ad
is m
Ġfu ck
Ġm akes
Ġbec ome
Ġh ur
Ġg row
Ġspec ial
Ġm aking
Ġserv ice
Ġre f
Ġs it
m an
Ġre se
e g
Ġs ir
Ġl ar
Ġd ist
Ġth inking
Ġ1 2
Ġcon nect
Ġâ Ļ
e f
Ġf il
Ġw ife
b ably
Ġha ving
in a
Ġwal k
ate g
Ġre ason
Ġar m
Ġen g
if ul
Ġt er
Ġca se
Ġph one
Ġh otel
ur ing
Ġspea k
E R
an k
Ġbre ak
Ġm ark
Ġf ire
Ġhour s
Ġn et
Ġc ra
Ġg one
pt ion
ĠA l
Ġlist en
Ġsupp ort
Ġper cent
Ġo per
Ġg ave
Ġword s
i ent
ĠT V
Ġt y
et y
H ave
Ġp ub
Ġs ing
t a
Ġstud ents
g s
e ad
Ġl angu
Ġpro cess
an na
ver n
Ġa ff
Ġo pp
Ġf ood
Ġon ce
Ġcom es
i ven
Ġc ut
Ġtr ust
Ġf ut
Ġmor ning
av id
O ur
Ġany one
ak en
ĠP h
Ġacc ess
Ġkid s
Ġsin ce
ĠS h
Ġchan n
S h
r ist
e b
i ec
on es
ir on
Ġp ain
e ed
con om
ac y
ro p
Ġcomp any
Ġpart ic
m ost
Ġmom ent
Ġposs ible
Ġal one
A t
Ġre ady
Ġso ft
Ġfut ure
Ġde ath
Ġha lf
Ġgu ess
Ġhe alth
Ġcompl ete
ot s
Ġsle ep
Ġc ell
ate ly
B e
id d
Ġans wer
p ort
is ed
ĠA s
ous and
Ġcomp ut
Ġret urn
Ġs ort
ĠS u
âĢ Ļ
Ġask ed
o v
Ġtra vel
o f
Ġa ir
Ġpr in
i qu
a red
ĠH ow
Ġtr ue
ot t
Ġwo nder
Ġl ost
ort un
Ġf ine
Ġd em
Ġt reat
ĠT hat
Ġpro bably
Ġsa ve
Ġneed s
Ġm us
Ġbe gin
il t
Ġp op
ĠA m
Ġl ater
Ġexact ly
Ġse nd
Ġth ousand
Ġproduct s
Ġp age
Ġacc ount
a pp
oo se
l et
Ġbeaut iful
Ġeas y
Ġche ck
Ġin side
l ish
a id
ate ll
Ġor gan
Ġb aby
Ġph ot
Ġ 0
are nt
os es
is ion
Ġp ar
Ġcont rol
Ġdo or
Ġco nd
c er
ord ing
Ġe qu
Ġle vel
Ġhapp y
al ity
Ġed uc
id es
Ġp ict
ren ce
Ġ3 0
ĠS he
ia h
ain s
Ġd irect
Ġc ustom
Ġ Q
Ġc ertain
Ġevery one
Ġ2 00
Ġ Well
O r
ur ity
ĠE x
r on
Ġlea st
Ġdr ink
o ke
Ġm illion
f ra
w w
Ġqu ite
Ġy es
Ġ ]
Ġf ield
Ġt aking
Ġre ce
Ġf ig
Ġcont in
Ġt re
Ġli ves
Ġam ong
Ġexam ple
Ġcle ar
Ġcl ose
G o
ter s
Ġwe bs
r act
ail able
Ġso on
Ġmin utes
Ġsa fe
rou p
or row
ĠIn tern
Ġp iec
id ed
i pp
ĠC l
ĠD avid
Ġst uff
Ġf all
Ġh ist
p ons
Ġan im
Ġrese arch
Ġwith in
v ious
Ġim ag
ĠC an
c hed
Ġcl ass
W ith
Ġstr ong
re en
nd red
Ġear th
m ed
Ġs ix
Ġgo vern
u se
it ing
Ġlook s
Ġmonth s
Ġwant s
ard s
E x
Ġexper ience
e v
Ġto ol
Ġd ra
o ver
Ġex pect
b o
Ġe conom
Ġd ream
at s
cc ess
Ġeff ect
Ġwork s
Ġ1 1
A ny
ri b
ĠP l
Ġav ailable
o k
z y
Ġtr uth
Ġv ideo
is on
b y
us h
Ġso cial
f l
ĠJo hn
j oy
Ġsoft ware
Ġme m
A l
Ġcount ries
e x
Ġt erm
Ġgo es
Ġn or
ĠE ng
Ġhu ndred
Ġsh it
Ġv iew
Ġcre ate
Ġw anna
a j
o le
Ġw ind
Ġp ast
Ġal most
ĠYou r
Ġte am
Ġy e
ĠV PN
b r
c le
Ġt aken
Ġ1 00
Ġcomm and
g ing
an e
ur y
Ġs ou
er y
le x
Ġpri v
Ġ es
Ġb ed
Ġli ving
atell ite
ĠâĻ «
t t
ĠA b
Ġf av
um p
Ġtechn ology
Ġm ain
u g
Ġpro ject
Ġs we
Ġm ine
Ġr is
Ġ1 8
Ġc op
Ġg iven
T ake
Ġ [
Ġl ine
Ġc ol
Ġpro p
Ġknow s
Ġca p
Ġall ow
ĠUn ited
Ġa p
re w
c ome
Ġc ost
Ġs ons
ĠB r
Ġsupp osed
Ġcur rent
ĠM an
Ġd aughter
i ally
Ġm ult
Ġf re
Ġ +
i en
le as
d om
ĠM ar
d y
Ġd i
Ġg un
ill s
Ġs ite
e al
ĠS o
os p
han ge
ĠCh rist
Ġc ause
v ent
Ġper fect
fra id
Ġe lect
Ġact iv
Ġh on
Ġp os
Ġother s
Ġw in
ang er
ĠI nd
Ġl au
L I
Ġen v
Ġp ost
Ġt ou
Ġhappen s
Ġd ied
an ge
iv ing
Ġd am
ĠA f
Ġle g
ĠL ord
Ġinc re
Ġchan ce
Ġa fraid
Ġway s
Ġgot ta
ĠSt ates
Ġ201 8
Ġwee k
Ġcont act
Ġst ep
ĠJ er
Ġg if
b it
Ġknow n
ure d
G ood
Ġlangu age
A n
m ore
ud e
Ġh ost
Ġw all
Ġm ag
ent ly
ĠG u
Ġprof ess
Ġs ense
Ġne ar
Ġcle an
a i
st ant
Ġis s
is c
ĠR es
Ġ ri
Ġw ish
Ġl uck
f er
Ġgl ob
Ġintern ational
Ġn ec
Ġbeh ind
r ing
Ġf ast
ĠA ll
Ġre view
Ġquest ions
h old
Ġthan k
Ġte ac
Ġdest ro
Ġget s
Ġvis it
Ġsp ace
Ġc ult
Ġcou pon
Ġthou gh
Ġ5 0
t on
Ġa ut
Ġout side
Ġ i
Ġwebs ite
it ions
Ġst ate
Ġhur t
Ġa w
Ġm il
Ġsim ple
Ġpub lic
ĠApp l
Ġproblem s
ĠT r
led ge
Ġbro ad
Ġcon c
k es
if ied
ĠE l
Ġf ear
Ġor d
ver t
a per
Ġt rou
ct or
ĠY eah
i or
Ġb ar
er gy
au s
id ence
Ġke y
al y
iz ation
Ġqu ick
i ans
ĠP r
ick ed
at ural
ra nd
Ġbuild ing
Ġt on
f ic
ĠU S
Ġcomput er
Ġnet work
A fter
un g
Ġperson al
ĠO n
Ġdel iver
in ation
Ġres ult
ĠC ar
Ġenv iron
Ġm ach
ĠA d
Ġbu y
er ing
ĠC om
Ġent ire
Ġs atellite
Ġdo ll
r al
Ġmark et
T ell
e y
20 1
Ġfr ont
Ġv ar
st er
Ġre d
Ġmin ute
Ġse x
Ġhim self
Ġl ab
ĠS am
ĠA n
Ġpr act
Ġadd ress
ĠAppl ause
c ha
ou ght
Ġca pt
Ġto m
ĠO h
Ġd ad
Ġpre p
Ġhist ory
in ed
Ġj ud
Ġen ergy
Ġ ide
on y
el f
Ġcoll ect
Ġinterest ing
ĠF or
Ġv oice
Ġo pt
Ġcou ple
Ġso ci
i um
ro om
Ġeng ine
Ġph ys
gy pt
Ġlong er
Ġfav or
Ġ2 5
og n
Ġd ark
Ġal ong
Ġl ate
Ġthem selves
Ġsec urity
as es
Ġrep ort
Ġsu ccess
Ġdestro y
c ast
Ġstud y
Ġfor g
G ive
it ive
b and
Ġp arent
ĠUn iversity
b ers
Ġacc ording
Ġ est
ĠC ou
Ġde ep
c hes
Ġac ross
ĠC on
ĠJ ud
Ġper form
H otel
ĠE gypt
Ġa ge
Ġcra zy
if y
s on
ĠB l
Ġ vers
Ġany more
ĠR uss
Ġserv ices
S ee
Ġt ried
Ġh it
Ġsha re
Ġen c
n ot
Ġsing le
ol ution
Ġapp ro
itt ing
ĠâĢ ¦
ater ial
og ra
Ġal ive
Ġpres ent
Ġton ight
r ation
Ġlook ed
s y
r or
Ġch oice
Ġwor ry
Ġtr ad
ha ps
az ing
it er
Ġwor th
Ġeduc ation
Ġc ities
Ġhat h
Ġbu ilt
he ad
Ġm outh
O f
Ġth ird
ĠAf ric
Ġenviron ment
Ġpro per
Ġchan ged
o id
a pt
au l
Ġb urn
Ġf ac
Ġoffer ing
ll en
Ġv ir
at ic
Ġtell ing
ĠRe view
Ġin n
Ġb i
Ġof ten
Ġwhe ther
ĠE ar
Ġdown load
ic y
Ġopp ortun
Ġtom orrow
e xt
Ġsci ent
Ġp ack
Ġknow ledge
Ġ2 4
Ġsou l
Ġturn ed
g le
Ġgo ld
m a
iv id
Ġfl owers
e ep
c ap
Ġf ail
Ġsp end
Ġneed ed
us band
re ad
ĠS e
Ġmus ic
Ġon es
V PN
W ould
Ġbas ed
Ġpict ure
Ġ ve
Ġsh oot
Ġlar ge
Ġinst all
gg est
Ġg round
le v
Ġpri est
el t
Ġse ven
Ġe ither
Ġ z
Ġen joy
Ġsome body
Ġsur pr
n ed
ec h
ct ion
i k
Ġhu h
ull y
m en
Ġswe et
ĠF ran
c ing
Ġpol it
Ġfollow ing
Ġt em
Ġsh ort
Ġs ister
Ġind ust
i et
ast e
S T
p ed
Ġpe ace
Ġ1 3
idd le
i ents
E D
i res
Ġser ious
Ġn atural
ĠF L
en cy
g th
Ġf ell
ĠL et
Ġman age
Ġfor get
Ġinv est
i very
Ġrun ning
Ġpartic ular
Ġext ra
Ġh usband
ent al
Ġem b
Ġrel ations
Ġsh ot
Ġglob al
Ġare a
Ġen em
au lt
Ġwait ing
Ġpl aces
Ġrec ord
ĠNew s
Ġsci ence
Ġbo x
B y
ne y
Ġhat e
Ġfor th
Ġch oose
Ġsur v
Ġc am
Ġloc al
Ġs un
n ow
Ġ201 9
Ġg roup
Ġgovern ment
Ġd ig
oc us
ĠEng lish
b ook
Ġl im
Ġchan ges
Ġf ly
L ike
Ġha ir
ar ing
Ġse arch
Ġcan not
Ġs il
re st
Ġam azing
Ġpiec e
Ġt akes
Ġgirl s
g est
Ġm ount
Ġab s
Ġad m
ic le
ob ile
Ġchann el
Ġdri ve
Ġc al
Ġl ow
Ġev il
Ġa i
u nt
Ġevery body
Ġpart y
ĠB en
i ol
Ġbe ha
Ġex ist
Ġtou ch
Ġem ail
Ġatt ack
Ġb en
Ġs al
er ve
o ly
Ġm ist
Ġc ool
id ing
ul es
it ch
Ġp ull
ĠG o
Ġd ou
Do es
Ġs elf
Ġc ry
ĠM y
Ġfeel ing
Ġcommun ity
Ġ1 6
Ġd in
Ġd uring
Ġst at
Ġind ivid
ĠÂ ·
un ch
ĠY ork
C h
z e
Ġd ru
Ġas king
Ġsu per
a ven
ĠM ore
m p
Ġf oot
Ġac cept
Ġbec ame
ĠJud ah
k en
Ġto t
Ġprov ide
he m
Ġc amp
ĠC ode
ul ation
Ġp ress
Ġto ward
Ġh or
Ġbl ack
ent ial
Ġst ore
Ġmess age
Ġne ither
Ġres pons
Ġy eah
Ġan t
cri be
H is
Ġwhat ever
Ġqu ality
Ġear ly
Ġcomplete ly
Ġb orn
ateg ories
Ġr ather
C l
Ġcha llen
Ġwork ed
Ġfam il
Ġto wn
du ce
ĠEar th
ĠM ay
iqu e
re et
Ġimp ro
m ing
in o
Ġd anger
Ġro b
Ġm aterial
Ġp leas
ie f
Ġsha lt
c um
Ġtrou ble
u ation
Ġl ink
un e
Ġhappen ing
in ary
Ġexpl ain
Ġ X
Ġn orm
Ġ1 4
ro id
Ġd ate
p es
Ġcommun ic
Ġf ix
em s
ic ro
att le
Ġam ount
it or
Ġan g
ens ive
d s
in ce
Ġb ur
ĠB ar
Ġfig ure
Ġm ur
aj or
Ġparent s
Ġde g
ĠB ut
Ġoff ers
Ġme as
fic ult
ĠS y
ur s
Ġpr ice
Ġc aus
Ġwee ks
Ġsee ing
Ġf ocus
ip s
Ġ201 7
Ġo cc
ĠIntern et
ight s
Ġoff ice
e ople
ĠA re
ĠG erm
f ully
Ġimag ine
Ġrec ogn
k ed
Ġid ent
Ġey e
er a
W ill
Ġyour s
pl oy
Ġc ir
Ġlo se
o on
o or
l ished
Ġdif ficult
u ly
Ġsec ret
Ġwr ite
ir th
ĠO ff
ĠAmeric an
Ġa ud
Ġc ard
Ġsomet imes
Ġgra nd
Ġseem s
P l
S omet
Than ks
p or
ale m
Ġpol ice
Ġtr ack
U s
ĠFl owers
d ing
Ġp ot
Ġwe b
her s
Ġpo or
pp ed
ĠH ar
Ġb ott
Ġse a
iver se
Ġus ers
Ġbu ll
ogra ph
Ġs ize
u ary
ou n
Ġinclud ing
Ġ ill
Ġfe et
Ġcomm on
Ġo il
ri ble
er al
Ġcomp an
Ġm er
Ġdo ctor
k y
is ing
us alem
im ate
ut ions
Ġcreat ed
ay s
ac ter
Ġe ight
ab ility
Ġplan et
ic ated
F l
ib ility
Ġp ick
Ġh ot
ea se
Ġr ad
ition al
Ġmo ving
Ġmo v
o h
Ġthere fore
ĠJer usalem
Ġrelations hip
ĠY es
ha m
Ġg ames
art ment
Ġse lect
Ġfu nd
/ /
: //
f ort
Ġtechn olog
ar ant
Ġse ll
Ġhotel s
Ġbroad cast
p ec
ĠN ow
Ġdet ail
Ġapp lic
ĠS c
Ġsh ut
G od
ĠT o
Ġr u
Ġdec ided
ĠW or
iv ed
f fe
Ġm ap
Ġst ren
Ġ1 7
iss ion
Ġso ld
Ġ4 0
Ġspec ific
s h
ir it
b ed
Ġoff ic
ĠS w
il ities
p ing
Ġob ject
Ġb reat
Ġinv ol
Ġcont ent
Ġnec ess
Ġst ra
Ġj oin
ĠF ree
ĠAmeric a
Ġh ig
oo gle
M ore
Ġs at
ĠHe y
Ġ >
our ces
Ġco ver
Ġres pect
Ġty pe
Ġup d
1 0
Ġli e
ĠN ot
n ers
Ġdoll ars
Ġab ove
ear ch
Ġsk in
ĠF ace
Ġs ick
ĠP ol
Ġo ri
Ġdo g
Ġmod ern
ĠH D
Ġgl ad
m y
es h
Ġdiffe rence
Ġmar ried
Ġj our
sy ch
Ġf elt
at ors
Wh ich
e en
Ġpr ay
up id
Ġfin ally
Ġanim als
ri v
od es
ĠIn st
Ġsw ord
Ġsystem s
Ġris k
ĠA p
Ġl ay
ri f
Ġpriv ate
Ġm ajor
as k
Ġr ate
Ġlo ved
Ġh osp
f ace
Ġf ill
Ġdis app
Ġdevelop ment
Ġwh om
Ġfe ed
Ġide as
P ro
Ġf ile
Ġd iv
pl es
Ġent er
Ġs um
Ġb all
C om
Ġfil es
es e
Ġlear ning
U n
e le
at ures
um e
Ġo p
Ġinterest ed
l er
Ġit self
Ġplay ing
Ġsound s
ĠT rain
Ġim age
Ġval ue
Ġmach ine
he l
Ġm id
u nd
âĢ ľ
ort s
ir m
ub s
Ġrequ est
Ġth reat
Ġinst ead
Ġcl ot
ĠWh y
Ġm ot
ĠD e
ce ll
ore d
N E
t ain
z z
Ġro ad
ĠAfric a
ent y
Ġst ar
Ġwh ite
ĠC ont
ress ion
Ġw ild
Ġc at
Ġsm art
Ġcons ider
Ġg iving
ĠU s
ea red
Ġcl os
Ġro ck
Ġfor ward
ĠJ e
ĠP ar
Ġpos ition
E n
ĠCh ina
ĠT w
Ġb illion
Ġsoci ety
Ġm ass
Ġb irth
ĠA nt
Ġpr ison
ou d
Ġcon vers
Ġany body
Ġfun ny
Ġst upid
ĠM oses
Ġsu ggest
u x
Ġt ab
Ġal t
Ġrequ ire
Ġha ng
Ġh y
Ġd w
Ġcompan ies
p ly
om es
Ġwe ap
ĠâĢ Ķ
Ġlearn ed
ci ous
our ce
ĠE m
E C
ad em
Ġw at
A b
ĠG et
Ġmed ia
m as
Ġe le
ĠF r
Ġcell s
Ġme ant
u be
in t
Ġm iddle
Ġc ook
r ad
Ġcustom er
Ġo bs
Ġt ar
is es
b or
Ġn ature
Ġf air
Ġv iol
Ġapp ear
ĠQ u
Ġcom b
Ġwor se
ĠO r
Ġvers ion
ro ll
ol ute
Ġfore ver
im in
Ġdel ive
itt en
p ar
Ġs ac
Ġs ens
Ġexc hange
ĠL e
ĠC ome
un k
Ġgr ad
Ġpur p
Ġbegin ning
Ġc ast
Ġb ud
et er
cap e
Ġn on
Ġhe aven
ĠJ ust
Ġunderstand ing
s es
Ġthousand s
Ġchann els
he t
Ġf ur
O W
P eople
Ġinc red
Ġf ool
air s
Ġte xt
Ġd ress
Ġcan cer
f riend
Ġour selves
ĠD ec
ent le
st ruct
Ġne igh
Ġco ld
it c
ĠD ad
ĠE n
ĠU p
ĠF ollow
Ġ201 6
Ġa head
Ġs qu
Ġcar ry
Ġp sych
ke y
um b
Ġn one
Ġdelive red
Ġst ri
as ed
ip ment
eth od
Ġt en
e ous
Ġp ort
ĠWor ld
Ġsp eed
Ġdra w
Ġ er
Ġboy s
Ġha st
ĠD oll
Ġke pt
ĠC har
ĠFace book
o ber
Ġp en
i od
Ġsk ills
ib ly
Ġp aper
ar c
Ġdel ivery
Ġcurrent ly
e ge
ĠN or
Ġc hat
ag s
Ġwonder ful
Ġopportun ity
Ġg ives
Ġf at
ĠS ha
ce ed
ĠG en
t o
Ġst ories
ĠM us
Ġord ers
l im
E ven
Ġan n
Ġindust ry
r ay
Ġatt ention
en ces
ĠD an
T w
g o
Ġbe gan
Ġli ved
ĠTh is
om s
ist en
pl ay
Ġest ab
A T
ĠK ing
Ġlea ving
Ġgif ts
Ġterm s
R ight
Ġdev ice
Ġben ef
Ġpower ful
let ter
Ġtool s
P ut
in y
re me
Ġpart s
or ist
ic a
Ġany way
Ġmeet ing
ound s
Ġcomp lex
Ġtrain ing
Ġd om
Ġper iod
Ġsub ject
Ġbeh old
a ur
Ġt able
ou qu
Ġhu ge
ĠEurope an
ww w
ĠG oogle
Ġman ag
Ġquick ly
c l
Ġcl ick
Ġbl ock
U se
ĠH ome
Ġpop ular
t ed
Ġu h
ect ion
Ġdam n
pec ially
Th ose
Ġsl ow
Ġprom ise
Ġbeha v
Ġare as
Ġthan ks
ĠM on
a im
arant ee
h ood
Ġse ver
Ġsu ff
Ġc atch
ĠPh il
M r
Ġre pl
Ġbl ue
Ġsim ply
Ġprom ot
Ġhosp ital
Ġs us
Ġp ath
ent ed
end ed
Ġsit uation
Ġeconom ic
On ly
Ġdesign ed
Ġbl ess
Ġdis ease
oc r
Ġabs olute
Ġcon v
Ġinst it
Ġrep res
Ġev ent
Ġexper im
Ġlau n
Ġtechnolog ies
uth or
on us
Ġfavor ite
op h
Ġdef in
Ġt ree
os h
Ġstren gth
G u
y ond
it ness
ast ic
Ġrem ain
Ġwatch ing
F rom
Ġm ethod
ren cy
N A
an uary
Ġres erv
ĠO N
Ġc red
Ġem ot
o x
ĠC ent
Ġsome where
ĠAnd roid
R e
m s
id ay
ĠG ood
em ent
U h
Fl owers
Ġcomp et
Ġbre ad
Ġnorm al
Ġw icked
Ġst ruct
ĠU k
Ġex cept
Ġsh op
Ġprogram s
Ġfur ther
Ġn ations
Ġtreat ment
Ġfather s
Ġprofess ional
Ġr id
ĠJ ack
Ġint ell
ĠO K
Ġspec ies
Ġconc ern
Ġstart ing
ĠOn line
u ri
Ġcou n
Ġst e
Ġst ru
iv ity
Ġtrans l
tt p
Ġh op
Ġst ick
ĠA g
Ġpl at
Ġiss ues
P er
a ff
an ces
Ġr an
is hing
H ome
R E
Ġm ill
am ed
Ġsec ure
Ġem ploy
M ake
ar r
r ite
ĠP rom
ĠD r
A m
ĠD isc
vious ly
Ġ ess
ĠW ind
Ġm is
Ġcom fort
rou d
itt ed
Ġsp irit
ide os
Ġc ross
Ġsp read
W as
Ġcent ury
Ġdin ner
b all
There fore
om b
ĠG ames
Ġmed ic
Ġs n
il ar
Ġsever al
Ġg reen
Ġsh ip
Ġmod el
Ġdev ices
Ġaut om
us iness
Ġus es
ist ic
g u
Ġs ong
Ġbel ong
Ġmem ory
F irst
Ġcontin ue
Ġright eous
Ġwho se
Ġany where
ĠW here
Ġstra ight
Ġd ro
Ġ2 1
Ġun iverse
Ġshow s
Ġbro ken
Ġdanger ous
Ġnecess ary
f or
Ġbit ch
Ġori gin
Ġbel ow
Ġs itting
Ġb ird
ir t
Ġim m
i ant
Ġb ri
ĠChrist mas
Ġs ight
Ġin f
ra b
Ġlo ck
Ġdisc uss
Ġev idence
Ġtar get
Ġ et
Ġsp ent
Ġ rain
es us
Ġter rible
V ER
y le
om en
ĠDoll ar
e k
re g
it ter
ĠC al
ac king
ch ie
o es
od ay
Ġsc ared
K eep
Ġu r
iz ing
5 0
ĠI f
Ġsa ved
Ġturn s
ĠWh o
Ġf ish
ĠC ha
Ġdec ision
Ġb le
Ġserv ant
p ond
Ġf a
Ġimpro ve
i ar
Ġbe yond
Ġfor ce
ĠR ed
it ude
ipp ing
Ġluck y
S orry
ĠS ec
Every thing
Ġright s
ll o
Ġco ffe
Ġte ach
Ġp roud
Ġsm ell
Ġcult ure
ac c
ĠC omm
ash ion
A ct
Ġbe at
Ġsa ith
O N
Ġp red
Ġre v
w or
am b
Ġaff ect
Ġcol or
Ġinn ov
S u
el come
ive ly
Ġnum bers
mb ers
en e
Ġg entle
ĠSu pp
ĠM ed
iv al
Ġdep end
Ġrece ive
Ġc y
Ġb ase
Ġfe atures
W ait
r um
ĠE d
ĠR ep
Ġcoffe e
C ould
ĠD E
Ġwr itten
Ġte eth
Ġset ting
Ġp oin
Ġper haps
ĠD id
Ġplat form
Ġmult ip
Ġm ention
g ue
Ġm ad
Ġp aid
Ġab ility
am a
Ġche m
ĠC he
Ġfl oor
Ġth row
Ġh oly
Ġr ules
Ġtalk ed
in ion
in ist
dd en
ĠNews letter
er c
ĠIntern ational
Ġh oney
Ġno body
Ġact ion
Ġforg ot
Ġre b
Ġcons um
as ons
Ġwe l
fe rence
Ġl ady
Ġreal ize
bo ard
Ġopt ions
as c
ĠA t
Ġv ol
Ġv ict
Ġstud ent
Ġcond itions
Ġmist ake
S e
Ġpolit ical
b t
T C
Ġbook s
Ġk iss
ce an
Ġim ages
ap an
Ġ6 0
ĠS chool
ver age
act ion
Ġreview s
Ġw aste
Ġresult s
b on
re p
al k
Ġkind s
Ġser ve
Ġhon est
ict ion
med i
p ut
Ġc art
Ġit ems
Not hing
A r
w ord
le y
c ies
Ġof fe
Ġthere of
iv il
Ġp al
Ġst ation
p ress
Ġwr ote
g en
Ġm aster
Ġwe ird
Ġrec omm
A N
Ġb an
Ġb ank
ren ch
olog ical
ĠWe b
Ġanim al
ĠTr ans
Ġw ood
Ġm m
at ter
Ġv ill
Ġsu bs
ĠC ity
Ex c
Ġd on
m ber
Ġli ft
el p
Ġdw ell
t e
Ġ20 20
Ġsol ution
Ġcertain ly
ra p
ous es
Ġcall ing
Ġbas ically
u f
Ġb attle
ĠP al
Ġequ ipment
Ġrequ ired
N ew
res h
Ġpart ner
Ġincre ase
ĠWind ows
T r
re ct
Ġ2 7
ĠE ast
Ġt aught
Ġr ich
Ġpol icy
ĠBe ach
ubs cribe
en ed
Ġdo cum
Ġd a
an ced
Ġre ach
ĠFran k
Ġa chie
Ġhe ro
ines e
Ġchar ge
Ġsu dden
3 0
Ġl iter
Ġag re
ĠB ooking
ond on
Ġlead ers
ĠCou pon
Ġmov ie
VER Y
Ġindivid ual
1 1
Ġm obile
ĠD el
ĠPl ay
Ġes pecially
ĠRuss ian
w ide
I N
i j
n el
re ci
ĠG e
Ġun ique
Ġw ine
ĠJ anuary
Ġserv ants
Tw o
ra vel
Ġmiss ing
as p
Ġd rop
ĠT han
Ġus er
How ever
Ġmo ved
M ost
S ha
Ġh ide
Ġst reet
ĠC ol
Ġleg al
L isten
ob ody
so ci
t le
Ġ ice
am s
ra ine
Ġpl ant
Ġlot s
R em
Ġb ouqu
Ġag ree
Ġexper ien
p ha
r ate
Ġs ad
Ġto r
Ġn ational
Ġtr ick
Ġconnect ion
Ġmanage ment
Ġr ange
Ġgl ass
le ar
ove red
Ġhig her
ac ob
Ġall ows
Ġac adem
cri ption
Ġt ick
Ġp an
ac le
Ġ =
ri a
ĠA ir
ord er
Ġgrow ing
Ġphot o
Ġbehav ior
um ber
Ġvar ious
ĠA dd
Ġse par
ep end
Ġdeg ree
Ġa uthor
Ġth ine
ĠO pen
Ġqu iet
Ġext reme
Ġar ch
Ġstr ange
im um
Ġem er
n am
Ġne g
Ġr ide
ĠW ill
f ast
et ic
Ġpat tern
ð Ł
Ġphys ical
ri l
A P
Ġfamil ies
S end
if t
ĠN et
Ġwind ow
Ab out
s et
am n
Ġmil es
Ġpurp ose
Ġim medi
Ġprotect ion
Ġw ide
Ġm icro
ra ge
Ġlo g
Ġbouqu ets
I ST
ĠB aby
Ġmed ical
as ino
ĠG l
Ġfl ight
Ġwr iting
Ġb ath
Ġf ault
ĠO F
ĠO ne
Ġcare er
l us
ĠL ondon
Ġiss ue
Ġinvol ved
ĠM ic
Ġpass ed
Ġpur cha
Ġarm y
m on
Ġu t
Ġwe ight
Ġabsolute ly
Ġdirect ly
l on
C on
Ġs ource
ĠS outh
Ġf ru
S p
Ġplan e
e es
al es
Ġcall s
du ced
Ġfore ign
ĠS ol
Ġ3 5
Ġ #
id ge
ir ty
Ġun iversity
Ġmean ing
ess ion
ard en
Ġfin ish
Ġmiss ion
Ġenem ies
ele br
O S
Ġwe ar
im ens
ĠP res
Ġcour t
Ġw is
Ġg ate
Ġpiec es
Ġfa ith
rou ps
Ġt ill
ĠD es
ĠM aster
Ġwor ried
ĠB u
Ġapp reci
Ġb ow
Ġus ually
Ġstand ing
LI NE
Ġcam era
Ġn amed
Ġun ivers
ĠCh inese
an a
Ġl ic
Ġreal ity
Ġint ro
Ġsc ale
Ġstop ped
ĠÂ £
ĠAr t
ĠJohn son
Ġl ord
Ġhand le
Ġb al
ĠJ apan
Ġimp act
oc ol
ific ation
C ategories
he red
Ġl oss
at est
Ġh ttp
od ies
Ġtre es
Ġbott om
u ed
or ing
ab or
ĠNor th
P h
i ot
p ir
Ġf em
ĠS aul
Ġro ll
Ġbo ard
A R
Ġb ra
am in
ĠB usiness
Ġgrow th
ĠM e
Ġop inion
c el
i ation
s c
ĠA ust
ers on
Ġgener al
ag ram
Ġwal king
u a
Ġthe ory
Ġf ing
Ġn ames
Ġde fe
Ġdig ital
Ġl ed
ru ary
Ġapp ly
eb ruary
OW ER
Ġbl ind
g round
m m
ed ding
ar on
th ough
Ġr ound
Ġen s
S er
u ate
Ġsim ilar
Ġscient ific
Ġtot ally
Ġl ying
Ġme mbers
ress ed
Ġsecond s
Ġdevelop ed
ĠDE LI
Ġb oss
we red
Ġmag ic
Somet hing
ĠI P
ag n
Ġbro ke
Ġ8 0
Ġlar gest
Ġallow ed
ĠDELI VERY
ic ed
and y
ea ve
Sh ould
i us
Ġw on
Ġd ear
ĠON LINE
H er
r is
Ġpat ient
Ġlike ly
Ġpict ures
Ġconvers ation
ĠFL OWER
ĠP er
C he
own load
ĠFL OR
b an
Ġli f
ĠFLOR IST
E S
Ġp un
at ur
Ġ2 2
ub lic
l i
m es
Ġre asons
us ed
Ġtri p
Ġcommand ed
Ġgif t
Ġclot hes
pt y
Ġtr uly
Ġpop ulation
l ier
Ġs ites
Ġr out
Ġcent er
o ices
u el
Ġty pes
Ġdem and
Ġenem y
Ġjour ney
ĠDisc ount
Ġsupp ose
Ġwel come
s ing
Ġc aught
Ġc ivil
Ġbe ar
Ġsp oke
Ġchan ging
Ġloc ation
Ġpoin ts
B I
Ġh ol
oo per
ĠJ acob
Ġpat ients
Ġter ror
T oday
os ing
ap h
Ġkill ing
Ġcustom ers
id s
ĠS erv
ĠT op
ĠPro duct
ðŁ Ĵ
u als
ĠW ith
ff ic
Ġfl ower
1 2
E L
Ġun c
Ġcop y
Ġha ck
ac ed
c ul
Ġt end
at ically
Ġex cell
Ġhum ans
ðŁĴ Ĳ
C ont
Ġnot ice
Ġbas k
Ġread ing
Ġth r
Ġeven ing
Ġans wered
o nder
it ary
ri an
ĠS er
Ġj ump
Ġcred it
Ġo ption
ĠF in
ĠF rench
Ġshow ed
Ġinclud e
Ġn ation
Ġst ood
Ġroom s
Ġpartic ip
T ube
ad a
Ġ19 9
i el
Ġse at
Ġcar s
Ġdru g
it ation
Ġgener ation
ust ain
On ce
Ġchar acter
ĠUk raine
l in
Ġb rand
Ġreal ized
erm s
Ġsac rif
ĠD ep
ber ry
ĠInd ia
Ġconnect ed
Ġvir us
Ġb ag
Ġking dom
Ġsol ve
ĠDec ember
le ment
ac hed
Ġacc ident
ic les
ĠD V
Ġass ist
lev ision
g ar
Ġt our
Ġis land
ĠM in
Ġres ources
Ġjud g
Ġdru gs
Ġgo ds
ĠM iss
idd en
Ġpract ice
age ment
Ġinst ruct
N ever
Ġproper ty
ĠA ng
Ġsee k
201 6
ĠO ut
oint ed
Ġfore st
Ġfight ing
Ġmid st
Ġneigh bor
Ġm ir
Ġrem ind
an cial
Ġsc reen
m ail
os it
Ġbr ows
Ġpre vent
b ack
Ġd ue
Ġg ar
Ġdist rib
Ġlevel s
Ġin fl
A dd
Ġf aster
Ġun f
Ġbl ow
Ġbrother s
Ġcr it
ateg ory
uf act
I D
f ety
en n
ĠT y
Ġdet erm
b ie
g n
Ġo cean
Ġbig ger
Ġsil ver
Ġchallen ge
Ġw ise
Ġwill ing
ĠO kay
Ġfin ished
Ġnor th
Ġin fect
ĠP riv
Ġgu arantee
oss ible
Ġav oid
M e
c he
w ers
Ġfre ed
Ġb ab
St op
N obody
Ġd ance
Ġtr ade
ri al
Ġun cle
ĠÂ »
ĠâĻ ª
Ġ There
ut y
Ġteac hing
Ġl ad
Ġr ing
Ġhundred s
Ġpack age
Ġoffe red
Ġan ger
ct ober
ĠW ord
Ġlau gh
Ġb odies
as ing
ĠB ra
Ġar ri
Ġproduct ion
ĠPres ident
Ġ2 8
Ġpot ential
Ġp u
ĠL ev
Ġst age
Ġsu it
Ġlet ter
Ġthrough out
A S
Ġw itness
Ġst ars
av y
Ġprov ides
Ġdem ocr
u ct
Ġa verage
ut s
Ġcare ful
Ġtechn ical
Ġfre qu
G ot
Ġd en
qu ire
Ġrel ig
F ind
ĠB est
ĠP art
ea k
Ġlangu ages
Ġri ver
Ġc elebr
om ing
Ġpl ans
Ġthink s
ĠHotel s
Ġintell ig
ru pt
Ġdet ect
ĠPar is
Ġalt ar
Ġw ake
Ġhe ld
Ġfor t
ĠA cc
Th ink
Ġwalk ed
Ġh ung
ĠRuss ia
Ġcor rect
Ġmur der
ĠT ED
Ġsp ok
Ġtr uck
Ġcoll ege
Ġbur nt
ĠL ook
Ġco ve
Ġb ooking
Ġse ed
Ġcond ition
F ree
ci ent
Ġbas ic
Ġvis ion
Ġappro ach
Ġl ower
Ġfin al
Ġstat us
Ġdetail s
Ġsw ear
h ow
an ish
Ġre nt
w ise
ĠS l
ous ly
Al so
ro ider
ĠM om
Ġfeel s
Ġstand ard
Ġ7 0
it ect
im s
os is
Ġmiss ed
i ber
an cy
Ġwe ak
Ġdes p
ĠIn stant
Ġrec ently
Ġreg ion
I T
Ġm atch
Ġap art
Per haps
C a
Ġn ine
Ġg ain
Ġin her
ic king
Ġwor st
ĠâĢ ĺ
Ġinter act
Ġaff ord
Ġru le
v est
Ġas soci
Ġbut ton
Ġdec ide
Ġjud ge
E N
o e
Ġin ha
op s
ĠM al
o ved
it iz
or ge
st it
Ġ2 3
Ġte levision
Pl ay
c han
g ram
Ġa st
ĠRe ad
roider y
L og
is f
ro ad
Ġput ting
Ġrel ated
Ġreg ard
Ġdestroy ed
Ġperform ance
Ġwat ers
ĠMus ic
M an
Ġreg ular
Ġs an
Ġsur face
Ġmeas ure
ĠD ay
ag ed
Ġpleas ure
ĠGerm an
T ry
r it
Ġp oll
il es
Ġr ates
Ġfind ing
ĠReview s
C A
Ġ ver
ar a
Ġcon vert
Ġhon or
W elcome
ĠA aron
Ġcap ital
Ġrecogn ize
Ġb ought
ill y
ter day
ĠP ark
Ġlaw y
Ġfil m
Ġphot os
Ġhor se
Act ually
r ated
ha ra
Ġro le
Ġland s
Ġo x
ak ed
Wh ile
Ġatt ract
is ions
Ġd ying
ra g
Ġgu est
Ġbig gest
Ġbus y
Ġsk y
Ġmill ions
z er
pt ember
Ġcont rib
Ġeconom y
ar ily
ve y
Ġu lt
ab les
Ġtw ice
ĠBr it
Ġactiv ities
Ġtot al
Ġstud ies
Ġsurpr ise
Ġsum mer
Ġincred ible
Ġg roups
Ġin form
Ġth us
ant ic
ward s
Ġspea king
Ġtoward s
Ġang ry
Ġrepres ent
Ġe ating
ĠG r
ĠR o
Ġar rest
Ġprogram me
Ġpart ners
Ġimp ossible
ĠTw itter
B l
L ess
in c
ha el
Ġb and
Ġon to
Ġst aff
ĠT ur
ĠJ une
Ġbec omes
Ġhelp ed
Ġgl ory
Ġrespons ible
H elp
ĠM or
Ġcon cept
Ġhigh ly
Ġpres ident
Ġprin ci
bo x
Ġsuccess ful
l ook
w ood
Ġg as
ĠM ac
ren ces
Ġprog ress
E G
at ory
ar ies
ĠC oll
Ġex ec
Th us
Ġtell s
O M
What ever
Ġint eg
Ġhelp ing
Ġfun ction
ipp ed
Ġcon g
Ġinvest ig
Ġmur d
Ġacadem ic
Ġspok en
l ie
Ġs outh
Ġbirth day
L L
Ġa ware
Ġm ail
Ġf old
il ing
Ġcur rency
Some one
Ġhealth y
o very
Ġc ases
Ġad ult
Ġadv ant
Ġdra g
I P
Ġt ap
Ġs ustain
ad es
Look s
Ġmultip le
Ġdri ving
ĠM o
em pt
Ġv ia
ĠF ebruary
Ġsha r
Ġking s
A pp
u gin
ink s
Ġcont ain
Ġem pty
Ġprep ared
om on
Ġli es
ite ly
Ġte le
Ġbeaut y
Ġeffect s
ĠOF F
Ġe p
d en
Ġw edding
Ġf le
Ġwe aring
Ġj oy
Ġeas ily
ĠL aw
Ġbo at
ĠWh ite
Ġsurv ive
Y ahweh
i ate
Ġevery where
ĠV al
ign ed
Ġst ream
Ġpr im
l ight
er o
Ġb es
Ġfam ous
Ġfun ct
Ġart icle
O K
P re
Ġ3 1
Ġrece ived
ĠGerm any
r ict
Ġbe g
ĠA rab
ĠJ ew
ci ence
Ġf ashion
ri e
Ġpur s
Ġactiv ity
4 5
O D
Ġsa ving
Ġbreak fast
ĠBl ack
Ġapplic ation
Ġrecomm end
b es
ĠD NA
Ġcommunic ation
Ġt ea
Ġb ill
ĠS ign
ain t
Ġ5 00
2 2
I S
m it
m ission
Ġg at
ĠYou Tube
Ġschool s
Ġvar i
in ing
re es
Ġm ale
Ġin it
ĠH igh
Ġlead ing
Ġimmedi ately
om an
Ġres pond
Ġeff ic
Ġmess ages
Ġex erc
Ġuse ful
ortun ately
Ġaud ience
Ġfl esh
Ġhead s
Ġadd ition
Ġopen ed
ĠAp ril
ĠBaby lon
Ġme at
ĠS earch
Ġlo ad
Ġcl aim
Ġcr ime
ug ust
Ġfamil iar
S ince
Ġgreat est
Ġlisten ing
Ġreturn ed
fl owers
ĠJe h
c her
Ġf it
Ġhu nt
Ġval id
apt ain
Ġf irm
Ġe ast
ist an
Ġpriest s
l s
Ġpro duce
Ġcreat ing
Ġmag n
Ġmaterial s
Ġcir c
d e
Ĥ ¬
ĠB el
Ġsat isf
Ġstruct ure
ĠSupp ort
B ooking
h ost
Ġt ax
Ġb are
Ġst eal
Ġkeep ing
ri age
ul f
Ġve h
Ġachie ve
P ress
n ie
Ġl atest
Ġadd ed
Every one
Ġfru it
O U
ur g
ul ations
ĠJ esus
Ġdream s
Ġexperim ent
D ad
he st
Ġr ise
sel s
Ġes cape
B est
T V
in ct
Ġg ather
Ġh ouses
ck s
ĠW in
Ġdisc overed
Ġfin ancial
Ġdou bt
B et
Ġc itiz
Ġl aid
Ġ9 0
Sh ow
Ġlab or
Ġ *
il ed
ĠE very
ĠW as
Ġun less
Ġkill er
Ġappreci ate
5 00
Ġli ked
ĠM arch
ĠT e
ĠFl orist
Ġinher it
A d
S ure
as y
ur ch
Ġsp ot
Ġfull y
Ġmem ber
Ġfund am
P S
Ġpay ment
Ġmod els
Ġeas ier
Ġbreat h
lim ited
Ġs and
Ġv ideos
Ġear lier
Ġhar m
ore s
Ġpro ve
ĠF re
Ġapp l
Ġev ents
Ġdevelop ing
ĠBe hold
Ġestab lished
Ġha ll
Ġshow ing
Ġsp e
ĠW ar
Ġsure ly
wor ks
Ġcove red
I A
Ġold er
Ġtrans fer
ĠFr ance
Ġcom ment
Ġexc iting
Ġyes terday
Ġinn oc
Ġmer cy
Ġfreed om
Ġ iron
Ġc up
ĠV ideo
Ġphot ograph
a ves
Ġp ra
ot o
Ġpress ure
Ġbud dy
9 9
l ict
Ġ ign
Ġf if
Ġf resh
se qu
ĠC odes
Ġsa fety
ĠW est
erv ed
Ġ3 00
Ġev olution
Ġsign al
Ġweap on
l ock
Ġt iny
Ġhe at
Ġpres ence
pon se
Ġc ru
ĠP re
ĠT ravel
O pen
S ave
t he
Ġ2 6
Ġrel ax
Ġhear ing
Ġsw im
cri pt
Every body
Ġeffect ive
C all
ren e
Ġ201 5
ph one
Ġclos er
1 5
Ġs ect
Ġmight y
Ġmar ry
Ġviol ence
Ġarch itect
ĠO ctober
Ġmount ain
Ġgentle men
c il
Ġext ensive
Ġstep s
Us ers
en ry
Ġin iqu
os en
Ġsign ific
Ġcaus ed
Ġwis dom
M any
e in
Ġn erv
am m
ĠH i
Ġweap ons
Ġcook ies
hara oh
ut ed
Ġexper t
ĠCom p
ĠPhil ist
ĠDV B
Ġc ash
op y
Ġpr ices
Ġend s
Ġcons cious
Ġexcell ent
Ġf ant
at han
Ġcomp ass
Ġgirl friend
Ġmatter s
Ġenc ou
Ġscient ists
m pt
n al
Ġt ired
ĠP ay
Ġgu ard
Ġproject s
Ġch ick
Ġche ap
ove mber
Ġfill ed
Ġsacrif ice
Ġt ent
Ġlo ves
Ġfe ature
Ġpre gn
Ġapp eared
Somet imes
ĠCont act
es ome
ĠSt ate
Ġcompl icated
Ġteac her
Rem ember
Ġl ines
Ġu nd
Ġme chan
Ġst one
Ġst uck
Ġan al
Ġsh own
Ġsc an
Ġdisc over
Ġnec k
er ness
Ġc ooper
ĠC or
ĠC han
Ġhold ing
Ġpriv acy
Ġprofess ion
Ġorigin al
S ir
ac ing
ĠM art
ag ing
ap s
aught ers
Ġstart s
Ġrob ot
ĠD et
Ġres ponse
ĠFran c
P r
ĠH ack
Ġpos itive
ar ter
Ġal tern
Ġjust ice
ear s
ĠH ouse
Ġgreat er
Ġwall s
Ġch ief
ĠInst agram
Ġg e
ĠC r
ul ate
Ġr ace
Ġfield s
Ġchem ical
i am
Ġc ub
The ir
ĠJ oin
Ġdep art
Ġmount ains
ĠB y
Ġno ise
Ġbr ings
Ġsur round
Ġans wers
Ġelect ric
Ġmil itary
Ġvir t
B ack
H old
m ark
ĠS m
Ġv an
Ġact ive
Ġser ies
Ġfollow ed
Ġdownload ed
v al
Ġo we
ran ge
Ġgat hered
Ġb order
ĠA ct
ĠT ool
Ġmove ment
rop ri
Ġcult ural
ĠM ark
ĠB ecause
ci pl
Ġprep are
Ã ©
Ġd aughters
ĠM a
ist ics
ĠJ im
Ġsha pe
Ġtw enty
Ġind epend
Ġextreme ly
ac hes
ĠM P
ĠU TC
Ġpre fer
ran k
Ġindivid uals
U S
Ġp ill
Ġ3 6
Ġ201 3
Ġplan ning
Ġlic ense
en ing
Ġsol utions
N ext
Ġst re
ĠB et
ose ph
Ġdes ire
Ġdou ble
Ġrad io
Che ck
Q u
h ouse
p onder
at ives
ĠN ovember
Ġra ise
Ġâ Ĥ¬
asp berry
et ers
Ġcont ract
Ġpass word
ĠSe ptember
Ġc ute
Ġv es
ak er
ĠSt ud
Ġtrans port
Ġliter ally
ĠSol omon
b ing
Ġb ound
Ġl unch
Ġre ve
ĠS an
Ġqu al
Ġdes erve
Ġcar ried
M L
Ġt ough
Ġfar m
hen s
Cl ick
p ro
Ġp ages
Ġdis play
Ġcour ses
Ġtrans form
Ġvis ual
Ġincre asing
Ġsudden ly
ĠB a
Ġrec ent
Ġind eed
Ġcor ner
Ġsurpr ised
st airs
ra ft
Ġam b
Ġco ven
Ġlove ly
Be hold
Ġopportun ities
Ġrequire ments
O ther
Ġm al
Ġgo d
Ġlim ited
Ġlaun ch
Ġp ark
Ġg rew
Ġpro s
ul ous
Ġcon struct
Ġhelp s
Ġlaw s
Ġadv ice
ur ance
Ġle gs
ĠMr s
Ġorgan ization
z il
all ey
ĠA ss
An other
L ast
Ġy ell
iz es
Ġear s
p her
Ġt aste
Ġd ry
et ing
et ed
us ion
Ġman ufact
Ġocc ur
Ġupd ate
Ġspe ech
ĠC y
Ġj oke
iz ations
Ġmo le
Ġmon itor
ĠSp anish
Ġfig ured
Ġparticular ly
Ġcomfort able
r ant
Ġmethod s
Ġhung ry
ar m
ent ially
Ġcomm er
Ġmain tain
Ġap artment
Ġcost s
Ġp ush
Ġre lease
ĠP haraoh
Ġadd itional
Ġjudg ment
O ver
R ead
Ġt it
Ġd ed
ĠP ort
Ġbl og
In stant
Ġinter view
ĠThan k
Ġacc om
Ġsus pect
Ġinha bit
S c
r s
Ġm ix
or g
ri ll
Th ree
Ġpre c
Ġdem on
0 4
b a
p age
re y
Ġf ed
Ġn uc
se c
ĠS im
Ġpl ugin
ĠO f
Ġend ed
Ġb acter
Ġre ven
ĠH ost
Ġsha me
St ay
T ime
g t
i ers
o king
Ġ x
ĠS a
if f
In st
Ġreg ist
Ġpain ting
Ġfem ale
pp ing
Ġsp orts
Ġpri or
her n
Ġcr imin
oun ce
r at
z a
Ġh ole
ĠT erms
erv ation
Ġinst rum
Ġbring ing
Ġadv anced
Ġt ask
ĠA c
ĠT om
Ġgot ten
Ġcaus es
W ant
Ġro of
Ġfl u
Ġsy mpt
Ġinclud es
Ġoper ating
Ġwild erness
Ser ver
Ġsan ct
Ġf ol
Ġp et
Ġp ool
ĠL u
ĠV en
Ġoper ation
S ec
en gth
Ġh idden
Ġgo al
Ġch osen
Ġoffer ings
Ġ19 8
Ġrev olution
Ġda ily
s hip
Ġm ut
es tern
Ġnot e
ĠA h
Ġsh oes
Ġke ys
Ġ201 4
Ġdam age
Ġemb roidery
in ations
ac ity
ra w
ĠH ol
Ġrest aur
Ġa im
in al
Ġd y
Ġarm s
Ġnear ly
Ġteac hers
Ġrespons ibility
Ġadvant age
ha b
Ġli kes
ĠA ugust
Ġcl osed
Ġcl imate
Ġens ure
I m
Ġs ake
ar i
ar ia
ic o
Ġwar m
rep rene
Ġinnoc ent
h ib
du c
Ġsupp ly
itc hen
Ġbrows er
Ġcoven ant
Ġc row
al ed
il s
Ġsur ger
Ġtri al
Ġob viously
y al
ic ious
Ġan aly
Ġind ic
L eave
Ġb omb
Ġser vers
Ġmedic ine
V ery
le ep
Ġsha d
Ġsha ring
Ġcomput ers
Ġcapt ain
Ġtrad itional
l og
ĠC asino
ord an
Ġsc ri
Ġdec l
Ġap olog
Ġb ast
ar ling
Ġhe avy
Ġr ul
Ġdis p
Ġref lect
T urn
Ġm ode
Ġc ow
Ġcon side
ron ic
ĠPhilist ines
Ġc ure
on a
an n
Ġknow ing
ĠF irst
Ġca kes
Ġres c
ĠSt e
Ġcomm it
Ġposs ibly
Ġdefin itely
Ġbath room
Ġstre ets
Ġ ir
Ġ They
ĠP at
Ġrem ove
Ġexc use
Ġed ge
Ġoffic ial
Ġinstit utions
Ġt un
Ġl osing
ĠB ob
Ġcon stant
Ġworld wide
Ġkeep s
Ġprin ces
Ġm a
ve re
Ġgo dd
Ġcal m
Ġpred ict
U p
u it
Ġb onus
Ġinst ant
Ġplay ed
land s
ĠPro gram
Ġe ld
Ġcr ack
ĠPr ot
Ġess ential
Log in
ĠP lease
ĠT echn
ĠJ ob
ĠJ uly
Ġthought s
Ġclear ly
Ġaw esome
Ġstru gg
Ġunivers ities
R es
Ġin j
ear n
ĠK ey
ĠIt aly
Ġtra ffic
Ġdr unk
ĠPol icy
Ġstru ck
g ers
Ġatt empt
Ġposs ess
Ġra re
Ġty p
Ġconside red
A M
F in
Ġcont ext
Ġsc ene
Ġfeel ings
Ġforg ive
Ġtem per
B A
Ġt ong
Ġw ast
Ġf aces
Ġp ure
and er
Ġmat hem
Ġjob s
Ġoper ator
Ġ ~
re l
Ġde b
ĠJ on
Ġgr own
ĠMan agement
Ġopt im
Ġautom atically
al ax
Ġact ions
ĠRes ort
Ġinfl u
en a
ĠC red
ĠP C
ys is
Ġexc ited
Ġpurcha se
Ġiniqu ity
h ole
Ġwe alth
all ow
ol es
Ġcl ient
Ġgun s
Ġdeliver ing
re ak
ĠS C
Ġli br
ĠB ud
ĠR ec
ĠR aspberry
Ġform s
ĠEx c
A g
z en
ĠS ky
pp er
Ġcon cer
Ġsm oke
Ġdel ivers
Ġdi agn
osh ua
ĠBra zil
Ġsignific ant
ĠM c
Ġbas is
Ġseem ed
ropri ate
Â °
ĠI nt
Ġsc rew
Ġcomm itted
oll y
ock s
T S
g or
v ention
ow ered
im ately
ĠK ore
Ġloc ated
Ġintern et
Be fore
Ġsetting s
imens ions
b orn
y a
ĠB onus
Ġser ver
Ġexp and
B u
p an
Ġd ust
Ġg arden
ĠâĢ ¢
Ġbl ame
Ġhist or
Ġs na
Ġc uri
Ġb unch
Ġh ors
se mb
Ġdo ct
ir us
ra ham
be red
Ġsw itch
ĠFl ower
Ġlead er
Ġmach ines
Ġevent ually
Ġhop ing
Ġet c
i est
Ġf al
Ġde als
Ġdes k
Ġcoll abor
Ġgra b
Ġexpect ed
Ġbird s
Ġvill age
ĠAcc ount
1 9
B ook
Ġent ry
Ġra ised
ĠVPN s
Ġfly ing
T e
ac hing
ĠM il
ĠM icro
Ġj ail
Ġlea ves
Ġtri be
2 5
Ġl ack
Ġcont roll
Ġph il
Ġsy mb
omm y
Ġwonder ing
2 4
t ime
Ġc and
st ood
ea st
Ġr ub
ĠJ ames
he art
re ate
Ġb right
Ġre pe
ĠH ave
Ġpers pect
Ġexp ensive
Ġnerv ous
l am
re ts
Ġe c
ur t
Ġsa le
Ġstay ing
Ġdest ruct
1 8
l ike
m ar
Ġcha ir
Ġchallen ges
Ġo dd
an cing
Ġha bit
ro g
os c
ild ren
Ġrem ote
Ġpass ion
Ġdri ver
Ġextra ord
0 3
1 6
Ġc ards
ĠC ause
ect ive
Ġmole c
n es
Ġt ag
Ġk itchen
ĠG reat
ĠF ather
Ġcl oud
Ġem p
Ġturn ing
St ud
Ġmar riage
Exc use
ĠAust ral
ĠLev ites
Ġw id
en ny
Ġv ac
Ġfl or
Ġev ol
Ġrep ro
Ġbrain s
Ġs am
Ġp icked
ĠJ ordan
Ġcl in
so ft
Ġmind s
Ġdr inking
ĠAs ia
Ġincred ibly
Ġbenef it
ĠWord Press
Ġlawy er
p ass
ĠU se
Ġbelie ved
Ġcop s
E T
Ġt im
as ion
Ġback ground
Ġprov ided
Ġlight s
Ġserious ly
Ġsympt oms
O ut
S am
g ency
Ġb other
Ġyour selves
ĠJ oseph
ĠW rite
Ġsleep ing
Ġcal cul
ĠMic hael
u ge
Ġre ward
Ġre leas
ir ing
ĠM ax
Ġch oices
ap ers
Ġadv ent
Ġbroadcast ing
S C
Ġre act
ĠB al
Ġ2 9
ag o
Ġres ist
Ġsol ar
pr ise
is a
ĠM ary
Ġcreat ive
Ġdefe nd
Ġcitiz ens
E ach
a ign
ĠW hen
Ġcommun ities
eg al
Ġlim it
a ire
u le
Ġdo ors
ĠC our
Ġsp l
Ġmo on
ĠAb out
Ġapplic ations
ĠUp d
Ġh iding
Ġst ret
um s
Ġcont ains
Ġval ues
W atch
ĠB er
Ġup set
and a
Ġher self
ĠU K
ĠMP EG
Ġsurger y
ĠM ex
ĠH enry
ĠHe llo
Ġear n
Ġob vious
RE E
Ġdocum ent
ic ide
Ġhe y
Ġnot iced
ĠD on
Ġspecial ize
ĠProm ot
Ġc ab
ĠI D
ĠT ime
lev ant
Ġfundam ental
N ice
ĠS ite
ĠL ive
ĠN e
Ġtest s
Ġrighteous ness
Ġinherit ance
0 1
y m
Ġp ig
Ġfl ow
A L
k a
Ġp iss
ĠS ee
Ġne ur
ang ers
Ġprom ised
Ġdark ness
Ġupd ated
Ġconcer ning
k er
Ġnet works
ĠGu est
Ġcrit ical
ĠC o
Ġr ough
ĠN ational
Ġshe ep
Ġcap able
Ġengine ering
R ec
We re
ĠHe re
Ġra p
Ġcap acity
W rite
p a
Ġbe ast
Ġre j
ĠM ars
ĠD a
ĠSh ow
app y
Ġdeliver ies
Ġbenef its
Instant Booking
ĠS un
il ty
est ions
Ġhow ever
y l
el es
He llo
Ġcl im
els at
Ġcoll ea
Ġfail ed
U R
Ġp us
Ġst ones
ĠP aul
ĠH am
Ġpl enty
ere m
ock et
Ġsend ing
6 0
F e
a res
Ġre n
ĠM ad
ĠP eter
ail s
Ġrequ ires
Ġhur ry
Ġmov ies
Ġfal se
Ġw ound
Ġv amp
ĠR ob
Ġlar ger
Ġwebs ites
Ġinnov ation
ĠPriv acy
Ġsymb ol
i as
ha l
ĠM obile
Ġprom o
osp here
ĠServ ice
Cont act
Ġ ing
Ġsome how
St art
har d
Ġgodd amn
if orn
ĠT ake
Ġgener ations
Ġperfect ly
Ġcong reg
Ġt ro
om as
Ġdis e
Ġdes cri
ĠInd ian
ĠOut look
Ġpregn ant
c a
i able
Ġbe ll
ĠS ur
Ġfe es
Ġcomp on
Ġfour th
Ġexp ress
Ġcor por
Ġadm inist
Ġsus p
N umber
Ġp it
ĠA ny
ĠA lex
Ġpro of
ĠL ess
Ġad vert
Ġbr an
Ġfl orist
Ġcar bon
ĠRe g
Ġboy friend
Ġintellig ence
A h
A cc
D is
J o
k in
Ġs ection
Ġb ond
ĠC aptain
ĠB ig
Ġpl ants
Ġid iot
Ġinter face
Ġpay ing
Ġexpl ore
arr ass
Ġnuc lear
I nd
Ġm ax
om a
se ct
id a
Ġbu ried
ens ion
Ġconcern ed
0 7
u nder
Ġc ategory
Ġf asc
Ġdo gs
Ġele ments
ĠChar lie
ĠPal ace
iforn ia
Ġb ones
ar ian
ac hel
Ġan cient
ĠB ack
ĠG rand
ĠR ome
ĠR oses
uc ha
Ġ19 7
Any way
Ġhig hest
Ġhors es
t ies
Ġp ed
ĠR ating
Ġdec e
Ġkid ding
ĠAmeric ans
Ġpar am
Ġdirect ion
por ary
Ġm ental
ĠI m
Ġh ook
um an
Ġ4 5
Ġinv ited
ĠGen eral
Ġdemocr acy
Ġfor ces
ag er
Ġlo ving
Ġfu el
Ġdec isions
ĠUn s
Ġcent ral
Ġair port
ĠDel ivery
Ġtong ue
Ġflor ists
r ome
Ġs now
Ġm ort
Ġbe er
Ġst orm
ĠM er
Ġag ent
Ġch ose
Ġqu it
Ġcl ub
ĠK en
ĠSt ar
Ġ201 0
Ġstr ateg
Ġpret end
ĠUS D
Ġcamp aign
Ġdoct ors
R A
h y
Ġ rom
Ġ ought
ĠI ran
ic ations
Ġst ress
Ġact ual
Ġconf ig
Ġburn ed
Ġemb arrass
Ġident ity
Ġbask ets
g r
Ġse ason
Ġcon sequ
Ġcommer cial
f ess
v a
ĠS ar
ĠB ill
ig er
Ġno se
Ġim pl
Ġexc lus
Ġopp os
Ġinhabit ants
nd s
Ġhe ight
ĠR ay
Ġgrad u
S ay
Y et
c o
i at
Ġb atter
Ġh un
Ġse vent
ĠJ ul
Ġqu een
Ġposs ibility
Ġbuild ings
Ġeff ort
Ġgra ph
Ġtrad ing
ĠJapan ese
Ġfing er
e em
Ġe gg
ĠR oy
Ġbec oming
Ġprof it
Ġlink s
ĠProm o
ĠP ass
Ġsp o
Ġsm ile
Ġmult i
n oon
Ġc m
al ian
Ġfuck ed
Ġcontin u
Ġprop he
Ġcir cum
ĠRep ublic
Ph one
Ġlad ies
Ġcongreg ation
Ġfor mer
am ent
ol f
ul ated
ĠR em
ĠO ur
ip e
ĠK eep
Ġunder stood
Ġcr is
Ġconf idence
Ġeduc ational
Ġbri ef
ĠP ost
Ġcon cent
Ġsp y
Ġsl ight
gg ing
Ġmarket ing
Ġcoun sel
Ġforgot ten
Ġbab ies
1 3
j ust
Ġst yle
Ġtre as
En ter
Ġ Ð
Ġst ates
ĠS al
ĠB ro
ĠG ive
Ġar k
Ġsc he
Ġopen ing
Ġconv in
B ring
Ġd arling
ĠC ategories
Ġat m
Ġsh ipping
.. .
Ġinv ent
ĠCent er
0 8
Ġt ight
Ġse qu
ĠT H
ĠF REE
ĠW al
Ġbre ast
Ġins p
Ġorgan izations
Ġsex ual
Ġdeg rees
Ġlock ed
H as
s ed
Ġl ength
Ġre duce
ac he
Ġconf lict
Ġaw ful
ony m
ĠSy stem
Ġthe rap
Ġn aked
ĠL inks
ĠF BI
Ġpl astic
ress ive
Ġ201 1
Ġdist ance
Ġpromot ion
Ġcompass ion
Ġfol ks
Ġextraord inary
it an
or age
el ie
Ġch urch
Ġgu ilty
Ġhapp iness
Ġad op
Ġfriend ly
Ġang el
Ġshop ping
1 4
Ġm ate
Ġd ating
Ġbe ach
Ġcond uct
C ar
I V
b les
Ġf ought
am ing
ul a
Ġafter noon
Ġass hole
Ġstand ards
Ġlead s
Ġ15 0
ĠMay be
it a
ĠW omen
Ġgu ide
Ġad apt
ĠY ear
Ġpre vious
Ġgr ant
Ġsin s
Ġfr ame
Ġhost s
En joy
ĠQu estions
Ġdistrib ution
Ġbacter ia
P al
v is
Ġwhe el
pl ace
Ġplay ers
Ġob tain
Ġburn ing
Ġer ror
G roup
ant a
ĠJ oshua
hing ton
Ġrem em
Ġsk ill
Some body
ĠSu ggest
ĠBen j
ĠCal ifornia
m in
Ġs ch
Ġd ude
Ġme al
ĠL ib
Ġmon ster
Ġrese arc
Ġobject s
A C
Ġd ram
Ġd irty
ĠS at
Ġv ote
Ġsha red
Ġlet ters
Ġimp lement
Ġwr ath
Ġserv ed
Ġhuman ity
ĠCou pons
Ġenvironment al
ĠSec urity
Ġpun ish
Ġneighbor hood
ĠBrit ish
Ġscri pt
Ġperspect ive
en er
am ily
Ġas semb
ĠM ike
Ġal though
St ill
Ġprop het
ĠAfric an
Ġinstit ution
Ġdise ases
O T
ha i
ĠM ag
ĠH er
Ġgood s
Ġother wise
acc ount
D r
Ġr ot
Ġass um
Ġart ist
Ġaud io
Ġfrequ ency
ill e
Ġse es
ry pt
Ġcl ients
Ġass ume
Ġpract ical
Ġexerc ise
O P
Ġm ath
on ard
st ers
ver ty
Ġkn ock
au d
Th ou
oc king
Ġpo verty
Ġjour nal
Ġdisapp ear
ĠT est
ord ers
Ġra nd
ĠAr m
eal ous
ĠInst it
Ġsqu are
ĠVen ice
Ġw ha
Ġn ut
ĠS ubscribe
ĠL ight
os m
Ġr at
ult y
ĠHe alth
Ġentire ly
Ġneigh b
Ġaccom pl
I C
in ating
Ġo h
ĠJ ane
ĠAr ch
Ġsmall er
Ġshoot ing
Ġrelationship s
Ġbast ard
Ġt ips
ill a
Ġpro ced
Ġrel ative
Ġpo ison
Ġcry ing
Ġut ter
Ġbal ance
Ġcub its
Ġrestaur ant
1 7
D e
ro at
ĠU nder
we et
Ġrem oved
Ġstay ed
ĠPh one
Ġmention ed
ol or
ĠD ownload
Ġco ast
Ġcre ation
ustom er
Ġrecord s
Ġsubs cri
c are
Ġw ond
Ġd at
qu ently
ĠW estern
ag ine
Ġapp ropriate
Ġplay er
Ġent ertain
Ġent reprene
Ġcons ult
Ġfail ure
Ġz ero
Ġpolit ics
Ġestab lish
Ġexperien ces
ld on
Ġfl at
Ġinter p
Ġpub lished
Ġpra ise
Ġlibr ary
Ġl oud
Ġg alax
im ent
ĠC am
Ġbr idge
Ġacc ur
Ġte en
Ġinc ome
het ic
ĠHome page
Su pp
Ġvol unt
Ġprofession als
F uck
on ed
Ġst ole
ob o
Ġpre m
Ġexper ts
Ġtrain ed
Ġref er
ĠEx press
Ġbott le
ĠCred its
Ġas pect
ab led
Ġsu c
ĠW i
Ġph ones
Ġsign s
Ġmanag er
ĠProduct s
Ġves sels
o oth
or a
Ġdes ert
Ġexam ples
Ġemot ional
u ries
Ġb oo
Ġg host
ver se
Ġk ick
ĠP an
Ġv ot
Ġch oo
Ġrem ark
Ġvari ety
Ġcris is
Ġrand om
M S
P ost
Ġli ps
ate gy
ĠW all
Ġstr ategy
Ġgen etic
cept ion
Ġprocess ing
ĠSe lect
Ġsal es
Ġcommunic ate
Ġtab ern
ĠWas hington
Ġfant astic
ĠMicro soft
L earn
M A
S ign
Ġp il
Ġwe ather
ĠC ond
Ġsp ect
Ġro ot
Ġtrust ed
Any thing
Ġdoll ar
Ġtick et
Ġsuc ceed
B ar
E O
I G
n et
om ed
Ġre levant
ĠS ome
Ġlaun ched
ĠUns ubscribe
a f
Ġne uro
Ġstud ying
Ġmil k
Ġmanag ed
Ġbri ll
Ġagre ed
Ġarri ved
Ġveh icle
Ġdy nam
Ġphil os
D es
Ġt um
ou red
Ġc ore
Ġc orn
Ġf an
ut elsat
ĠD ub
Ġcon ven
ĠSw ed
D F
p ot
et ime
ĠS R
ĠM en
Ġar range
Ġrem ains
Ġcha mp
Sh ut
Ġreport s
Ġdemon st
ac ters
Ġen able
Ġpay ments
Ġprof ile
Ġinclud ed
Ġpull ed
Ġoffic er
B en
Ġw ire
ha med
Ġp ha
ĠM od
ĠF EC
ĠE ph
ĠO ther
iv irus
Ġsc ore
v ation
ed ing
ĠP e
ĠD am
ĠN ext
Ġdes ol
duct ion
Ġmin imum
ĠApp le
ĠAm az
Ġstrong er
by e
Ġwind ows
Ġsell ing
Sha ll
b led
u able
at ics
Ġkn ife
ol ic
ĠT em
ĠF ore
Ġbu ying
Ġbre aking
Ġmot iv
Ġur ban
Ġlands cape
Ġparam eters
oo p
ur ation
ol a
ĠH is
ĠR ic
Ġsc en
ĠIs lam
ĠRe quire
Ġadv ance
ĠAs ked
arent ly
Ġincre ased
Ġrid ic
Ġindepend ent
g rad
Ġhe al
Ġfor ced
Ġli ber
ĠD ar
Ġqu ant
Ġact ing
olog ist
ism s
Ġsort s
Ġbless ed
if ying
ĠC ong
Ġwork ers
Ġar g
Ġhar der
Exc hange
Ġded icated
a ren
Ġd uty
ic on
ĠC ount
Ġpro du
ĠV er
Ġbeing s
iven ess
Ġaccount s
Ġtre m
EL EC
M om
v an
ĠC ap
ĠL in
ab b
ĠE s
Ġdis cipl
Ġun b
Ġstr anger
Ġprov iding
Ġcre w
Ġadm it
Ġsepar ate
Ġshad ow
ĠPromot ional
Ġrap id
ra im
Ġj ack
Ġj ealous
Ġv alley
Ġkind ness
Ġconf irm
Ġspend ing
ĠHar ry
Ġdro pped
Ġdestruct ion
ĠS on
ĠS il
ĠL ove
ĠG roup
Ġthem e
Ġro se
Ġsupport s
ĠSu per
Ġthr one
Ġassoci ated
G l
Ġf ab
as se
ĠB eth
ĠR ight
Ġpart ies
Ġsur ve
ib ilities
Ġsol id
Ġprin ce
Ġoppos ite
T ags
Ġf ro
Ġg ates
ĠG reen
Ġour s
Ġmost ly
Ġmass ive
ĠFr iday
Ġpattern s
r ical
Ġsc ream
Ġac qu
Ġmom ents
Ġchar acters
Ġins pir
Ġbra ve
Ġmurd ered
M ar
W or
Ġt ur
Ġst ock
ĠL ast
and s
ĠE duc
Ġco ck
ĠIn formation
Ġ7 5
Ġform at
ĠPh oto
Ġeffic ient
Acc ording
D ownload
k i
Ġt iss
en cies
Ġwas h
ĠA P
ĠA ut
Ġmo ves
Ġtest ed
Ġstri ke
Ġemploy ees
Ġemer gency
g ent
m other
Ġg ang
Ġk il
ĠL og
ĠL ady
ĠR ights
ub lished
Ġide al
Ġsuff ering
Ġexperien ced
Ġs ources
Ġp in
Ġg iant
st ances
Ġj u
ol en
ĠP I
Ġsp ake
Ġref uge
ĠQ ue
Ġball s
ĠGe orge
Ġtabern acle
as ks
Ġli ed
Ġsu ck
Ġapp s
Ġrece iver
ĠAb raham
Ġindust rial
Ġcoun ter
ĠArt icle
Ġguest s
M on
y n
Ġp hen
Ġlet ting
Ġsc ar
ĠIt alian
Ġprotect ed
Ġdefin ition
Ġanal ysis
Ġatm osphere
ĠBenj amin
L ive
Ġre ject
Ġre ached
ri fic
ĠA v
Ġas hamed
Ġhor rible
Ġselect ed
Ġappear s
Ġdom ain
Ġaltern ative
Ġcrimin al
d o
r id
r ont
in ated
ic ation
ĠG old
ĠE utelsat
Ġsp ell
Ġcha ri
Ġinst ance
Ġdep osit
Ġdef ault
Ġbegin s
ĠPr ice
Se lect
ij ah
Ġbrill iant
f ord
n ight
Ġg ri
ic ing
ĠG irl
Ġsh ock
um ent
Ġun limited
stand ing
ĠSp ain
Ġprin t
Ġsweet heart
Ġaccept ed
Ġste el
Ġox y
Ġsect or
Ġyell ow
D avid
ad s
ĠS ing
ĠC ons
ĠD is
ell a
ob al
Ġsec rets
ĠIs a
Ġgr ass
Ġident ify
ot ic
Ġdec ades
Ġbelie f
Ġdel ight
att oo
Ġmeas ures
Ġfocus ed
Ġdocum ents
G reat
c les
g ues
Ġf ulf
le an
ke nd
Ġsh irt
Ġv ine
Ġsp ring
ren cies
Ġmu se
Ġ201 2
Ġcur se
Ġheart s
Ġpost ed
Ġsuff er
ĠMo ab
u ke
Ġc ert
et te
ic ate
Ġre ign
Ġst orage
Ġas leep
Ġen han
Ġequ al
Ġbreat he
Ġdiv or
4 0
J esus
N one
Ġg ay
qu e
ĠE xt
Ġset tle
Ġfact s
Ġpain t
Ġfix ed
Ġsold iers
L ove
r ance
Ġw est
ĠM other
ĠB ay
ĠH ot
Ġar row
ĠFl or
Ġphys ic
2 3
N e
ĠI N
ĠS cience
ĠO ver
Ġact s
Ġfl o
Ġmen u
Ġhead ed
Ġexpect ing
Ġcompet ition
IN G
Ġc ake
Ġb one
st an
um n
Ġpre cious
Ġrun s
Ġpass port
Ġi P
p ires
Ġt ail
Ġd ies
Ġh om
Ġmy st
ce nd
Ġthere in
ĠH az
apt op
Ġphen omen
Ġb at
id ents
ast ers
Ġwat ched
Ġreserv ations
g ly
ĠA st
ĠB ird
Ġfl ed
Ġreg ister
Ġsign ed
Ġbed room
Ġbull et
ĠCent ral
Ġleaders hip
Ġneg ot
ocol ate
Ġadvent ure
Ġt all
Ġw ave
Ġs ides
Ġf urn
Ġd are
ed ia
Ġl ion
ĠS um
Ġab om
pp y
av ig
Al though
Ġc ream
id ers
Ġas ide
Ġnow here
Ġcha in
Ġmod ify
Ġwin ter
Ġemot ions
f ather
g han
o ff
Ġc ig
al m
ĠT or
ĠT reat
ĠD ou
ab ilities
Ġown er
Ġinterest s
ĠÂ ©
Ġeng age
tt ps
Ġmag az
ĠAg ent
ĠAt l
Ġassist ance
Ġtemper ature
ĠS D
ĠL ife
Ġext ract
itc oin
Inst ead
Ġdat ab
Ġc ro
Ġd umb
Ġth ick
Ġh ill
ĠM att
ĠL ou
ĠG OD
ĠF e
Ġ3 4
ĠSp ec
Ġsle pt
Ġval uable
Ġcut ting
Ġi Phone
Ġstate ment
Ġproper ly
A p
is it
end er
Ġfound ed
Ġblood y
Ġtest ing
Ġmist akes
H i
ĠS ea
ĠS ave
ĠM iddle
Ġab and
ĠV ideos
Ġbet ray
Ġless on
ĠCar ol
oun ced
Ġmot or
Ġlift ed
Ġfunct ions
w ater
Ġy a
Ġp our
Ġat e
us es
ĠR oman
Ġdes cribe
Ġgr ade
ĠRes earch
Ġphys ics
Ġsurv ival
Ġexist ing
ĠFre quently
Ġspl it
ĠMex ico
H z
I ON
Ġw ives
ut or
Ġst olen
el ve
ĠA LL
th ren
Ġcon ce
Ġman ner
ĠW ay
Ġfact ors
Ġhat ed
Ġsit u
Ġcollect ed
Ġfell ow
Ġhang ing
ĠDan iel
ĠColl ege
Ġresearc hers
Ġm ouse
Ġyou th
ĠI ra
ac o
ĠL at
Ġex ceed
ĠR ose
ĠN a
Ġ3 3
Ġarm ed
Ġmark ets
Ġgrad uate
Ġreleas ed
Ġc ried
Ġup load
os ition
oc ation
Ġprotect ing
Ġdi et
Ġenter prise
Ġheaven s
Ġappl ied
c an
u ch
er ry
Ġg all
ur se
Ġca ve
ĠN eb
og et
ĠUn ion
Ġpol ic
ric ult
Ġdep ression
Ġgra ve
Ġfall ing
ĠCan ada
Ġes cap
Ġexist ence
ober t
Ġcrow d
T A
i ance
p et
Ġf ired
ir a
ĠS ale
el er
Ġv ul
âĢ ĵ
Ġrec on
Ġdeal ing
Ġins urance
Ġfac ilities
Ġbull sh
Ġbud get
Ġdepend s
Ġneg ative
Ġconscious ness
Ġapolog ize
ĠInstit ute
es se
ĠI S
al d
ĠS ure
Ġse vere
nt il
ĠF rom
Ġmin ister
Ġvict im
Ġagre ement
2 6
en ger
Ġp m
Ġl in
ĠM ake
est y
Ġsp r
Ġsu gar
Ġhouse hold
ĠTh us
Ġcra p
Ġant i
Us er
ĠEm ail
Ġarchitect ure
l a
z ech
ĠI I
Ġfor s
Ġsh ield
Ġdri ven
ĠZ ion
Ġconnect ions
ĠCou n
ograph y
Ġchick en
Ġcooper ation
Ġresc ue
0 2
er as
Ġh omes
op les
Ġab road
Th ings
ber t
ĠSt reet
Ġdiffe rences
Ġbre thren
Ġexpl an
iqu es
ĠEng land
ĠAf ghan
Ġfoot ball
Ġill egal
put er
Ġinstruct ions
Ġp ants
ĠB o
Ġr ic
ĠE conom
fe rences
Ġen orm
Ġcou rage
Ġhy d
Ġport ion
Pre vious
opy right
ĠUpd ated
Ġrom antic
Ġchoo sing
S m
ĠM ont
est ic
Ġpro ceed
ath y
Ġbusiness es
ank ed
Ġcollect ion
Ġprophe ts
ĠRequire ments
b al
Ġm ood
Ġf east
Ġpro duced
ĠP ower
Ġup stairs
Ġbut t
Ġ... .
Ġun s
Ġreg ret
Ġcreat es
Ġinvest ment
Ġadult s
Ġbare ly
Ġcuri ous
S im
Ġun it
iss ions
Ġinv ented
Ġcons ist
Ġmem ories
ĠChrist ian
Ġpleas ed
Ġrelig ion
ĠWin ter
2 8
it z
ot y
ell y
Ġpe oples
ĠSt and
ĠCan a
Ġdeep ly
Ġmajor ity
Ġdress ed
Ġpu zz
Stud ents
2 1
S et
S ounds
b urg
in n
Ġd ump
ĠS ir
Ġcl ock
Ġdes per
Ġcare fully
Ġinv is
Ġcompl ain
ten ance
Ġeat en
Ġfall en
Ġcol ors
Ġi OS
aly a
Ġpray er
Ġintro duce
Ġbask et
Ġridic ulous
R u
ĠP DF
ist ry
Ġdev il
ĠDo ctor
Ġfing ers
Ġsustain able
Ġelectric ity
ĠHost el
ĠAustral ia
Ġvamp ire
Ġc odes
ar row
ĠS et
el ess
Ġex ists
Ġcon ference
Ġpl us
ual ity
Ġconf ident
Ġimag ination
Ġfre ak
ien cy
Ġsoci et
Ġcarry ing
Bet ter
Ġf right
Ġin sect
Ġsp ort
Ġpers ons
Ġdifferent ly
Ġgen ius
ĠTh omas
Ġinstall ation
Gu ess
Ġreserv ation
Im agine
osc ow
U m
W ow
Ġb ike
Ġus ual
ĠF i
Ġtr acking
ak ers
Ġput s
Ġdep th
ĠDo es
ĠSam uel
Ġpleas ant
ĠMus lim
for ce
Tr ans
Ġuncle an
Ġremark able
ĠEph raim
w in
â Ļ
Ġcon ver
Ġsu icide
Ġchan ces
Ġper man
Ġ4 00
uck er
ĠLe onard
Ġing red
a ving
ut en
ri ff
Ġsh out
are tt
olog ists
Ġatt end
Ġyoung er
Ġgrand mother
Ġintell ect
L e
w h
ha z
Ġc attle
or ation
st ein
Ġcha p
Ġpar king
Ġmult itude
Ġsal vation
ĠDes ign
Jo hn
Ġfulf ill
0 9
G O
l ies
Ġm our
Ġb orrow
ed s
ge on
os al
Ġrec over
Ġstand s
Ġcreat ures
Ġconstruct ion
Ġneur ons
ĠIra q
c raft
in ate
Ġre ci
ĠM ach
ĠP ublished
Ġv ou
ĠJ erem
Ġapp oint
Ġplan ned
Ġfact ory
Ġmet al
Ġprocess es
Ġtrad ition
Ġrepl ace
Ġbullsh it
er g
Ġto il
Ġp ocket
ĠM ount
ast y
Ġper mission
ĠV IP
Ġair pl
Ġcheck ed
Ch oose
Ġinnov ative
Ġfunct ional
Ġswim ming
Ġcollea gues
B aby
Ġm os
Ġin ner
ill ance
il i
ĠT ell
Ġr ating
Ġpl ate
Ġcomp are
ĠCh ris
Ġplan ets
Ġsim pl
Ġdep artment
Ġreport ed
ĠDad dy
Ġlif etime
Ġencou rage
Ġmanufact ure
gor ith
Ġconvin ced
obo am
Ġw ings
Ġp apers
ar ry
Ġh its
ad d
ĠS k
ĠD ata
Ġv ast
âĢ ¢
ild ing
Ġun p
du le
ĠIs land
Ġfound ation
Ġhead ing
Ġsl ain
ĠGu arantee
Ġess entially
Ġ27 500
V iew
f it
f ortunately
k iah
in cess
Ġb ite
Ġn uts
ĠT O
Ġcomp ared
Ġ3 2
tern al
Ġprogram mes
Ġdef ense
Ġtreat ed
ĠDep artment
ĠEduc ation
r ors
il iate
Ġal gorith
Ġag g
Ġun like
ĠSt op
ĠJo e
ĠPro fess
Ġsold ier
Ġeld ers
g a
z ing
Ġf ake
Ġd ancing
es ides
ĠC all
He ad
Ġv en
ĠE st
ĠN ord
Ġhelp ful
Ġown ers
ict or
Ġgen es
Ġcur rencies
hip s
Ġclass room
Ġsuccess fully
Ġbi ology
Ġdisapp eared
Com ments
ux ury
Ġtransl ation
Ġdesp ite
3 5
n own
y e
on el
Ġto oth
Ġd ick
et ry
Ġst om
Ġli qu
ust ed
Ġj ew
Ġv acc
Ġtri g
Ġob l
omm od
Ġmus cle
Ġocc up
Ġbelong s
erson al
Ġrelig ious
ĠPort ug
I nt
Ġf ate
en gers
Ġsh ower
ĠV iew
Ġwar ning
Ġdep os
Ġtri bes
Ġintern al
Ġgovern ments
ĠTw o
Ġtap e
c oh
r ick
Ġn avig
Ġfind s
Ġrep ut
Ġhell o
Ġnews p
atell ites
Ġbi ological
Ġinstall ed
ĠChan nel
Ġvirt ual
E l
v ity
Ġ eth
re hens
Ġo be
is ha
ĠS now
ĠC O
ĠB ang
ĠT ed
ĠH oly
Ġqu arter
Ġsc ary
ĠIn c
Ġche st
ret ty
Ġsent ence
Ġtravel ing
ĠUS A
Ġcam eras
Ġexperim ents
Ġpros per
Ġconstant ly
onym ous
S A
Ġin fra
ic ago
ĠA N
Ġwor ship
Ġpl aced
ĠO l
Ġshe w
ĠHe b
Ġhard ly
Ġcre ep
ĠEng ine
ĠGu Ru
Ġclean ing
ĠMed ia
Ġvul ner
8 0
Ġ. .
Ġb oot
Ġto wer
Ġh ire
al og
Ġu m
ĠM s
av a
Ġchar ges
Ġ200 8
Ġhost el
Ġsurpr ising
Ġrob ots
Ġblock s
Ġbatter y
ĠAmaz on
c ams
it ate
it zer
ing ly
ly mp
our s
Ġev al
Ġcompl eted
Ġmor al
Ġwin ning
Ġscient ist
Ġslow ly
rat ulations
Ġinflu ence
ĠArm ies
ĠCond itions
Ġoxy gen
D ec
T op
ing u
ro se
ĠD irect
Ġad just
Ġfl ights
ĠSt ep
ret e
ĠSp irit
Ġnorm ally
Ġsurve illance
B S
S S
i ac
n ce
o om
r us
im p
ĠL ike
Ġsh ift
Ġsp aces
ĠO b
ree k
Ġwee kend
Ġvisit ors
Ġtem ple
Pro bably
Ġclot hing
Ġprinci ples
Ġbes ide
Ġinterp ret
ĠJerem iah
C ons
M ust
c am
Ġb om
le nd
Ġu gly
ĠM et
ĠD imensions
ĠH on
ĠW ork
Ġback up
Ġshould er
Ġperson ally
Ġvis ited
Ġmother f
Ġdi am
ĠSo ft
Ġkey board
Ġele ment
Ġinstrum ents
Ġsanct uary
Ġcircum stances
ĠRic hard
Ġcig arett
Ġs en
ing er
ed y
ĠI T
ĠH or
ĠSt ark
Ġent ered
Ġcommand ments
More over
ĠUs er
Ġtit le
2 9
ac les
ol s
ĠG al
Ġsh ips
ĠE qu
Ġpl ain
Ġun us
Ġchild hood
Ġocc asion
Ġjoin ed
Ġpurp oses
E M
Ġs ke
Ġc e
it o
Ġl oose
Ġg rain
Ġth rew
ĠM oney
ĠT im
Ġal ien
Ġ2 000
Ġfe e
Ġbu g
ĠAnt on
Ġdraw ing
Ġvict ims
Ġdescri bed
ĠFlor ida
2 7
c ard
i os
r ating
in i
Ġch ocolate
ĠK now
Ġnight s
Ġstr angers
Ġtechn iques
Ġtick ets
ĠJim my
Ġsubscri bers
Ġinvis ible
0 6
E ng
m ond
w hat
he w
Ġs atellites
Ġh ired
ĠF il
Ġun its
Ġcont em
Ġinv ite
Ġpar ad
ĠPl an
Ġz one
Ġemot ion
Ġmir ror
Ġdeterm ine
Ġfif th
Ġstrugg le
Ġped est
F ive
T rain
Ġn est
et ch
od ed
Ġwhen ever
Ġres olution
Ġapp ointed
Ġdec ade
Ġtrans g
Ġrep air
Ġcr own
Ġcomb ination
Ġtor t
F ollow
it ors
as hed
ad ies
Ġsp are
pl ate
Ġass ess
Ġgr ate
Ġoper ate
Ġtou ched
Un fortunately
ĠServ ices
Ġencou ra
ĠExc hange
Ġslight ly
Ġremem bered
H appy
Ġc ous
Ġth in
ĠC zech
ter ing
ack s
Ġsa v
ag ue
ĠIn ter
Ġ200 9
Ġcir cle
ĠAnt alya
Ġrej oice
I M
M ove
u k
it able
Ġp or
Ġl ect
ĠM oscow
Ġab und
ĠG ame
rain ian
Ġem br
Ġprot ocol
Ġins ane
Ġsupport ed
ĠSu nd
Ġbreat hing
Ġfif ty
Ġexclus ive
Ġdatab ase
ĠCana an
Ġt attoo
Ġd ial
Ġp air
Ġl one
ly ing
Ġan x
est yle
Ġcom ments
Ġlo yal
Ġcomp ar
Ġkid na
Ġcle ver
Ġcr ash
Ġwar rant
Ġmet ers
Ġ9 9
Ġclass es
Ġord inary
arc oid
Ġgradu ates
y stem
Ġc ooking
ĠS AP
ell ing
Ġno vel
ĠIn s
Ġset s
ph ones
Ġrest rict
Ġref use
201 9
ĠDe als
ĠAss y
Ġprec ise
Ġtyp ical
Ġtiss ue
Ġenorm ous
arcoid osis
Ð °
Ġt ip
Ġa x
Ġh orn
Ġre igned
ĠS orry
ra ph
ĠC ur
op ular
ost er
itt y
Ġun com
ap a
Ġred eem
Ġvers ions
Ġselect ion
Ġrout e
ĠJew s
Ġhunt ing
Ġsatisf ied
0 5
d raw
Ġt ech
ly n
ĠC a
ĠD ist
os ure
Ġr ow
ĠR obert
ber g
Ġover all
Com p
f ield
Ġg ro
Ġth roat
ĠM ail
Ġwho ever
Ġman ip
Ġco at
Whe ther
Ġbr ass
ĠSt art
Ġaw ake
ĠQue en
ĠB on
ul s
Ġ... ?
ĠV ol
ĠCl ub
Ġsou ght
Ġris ks
Ġdad dy
Ġstat utes
Ar t
Ġauthor ity
ĠJeh o
ĠSar ah
Ġsch ol
Ġgrate ful
ot a
Ġbe am
ĠH T
Ġoper ations
Ġve get
Ġattack ed
Ġmonitor ing
Ġreven ue
Te K
itzer land
C ode
D ude
R ep
R eg
e qu
k ind
m itted
Ġt ear
Ġc her
Ġf rag
Ġit em
ĠB itcoin
ĠL os
ĠH an
ĠCh icago
Ġgl or
ĠSp a
Ġgener ate
Ġfr ust
ĠBar bie
ĠAdd ress
ĠDep osit
ĠPay Pal
Ag ain
Ġconsequ ences
Ġth irty
ac her
Ġst ab
ĠO lymp
Ġwhere ver
ile ad
Ġdist ur
ĠCl aire
Ex cept
Ġengine ers
Ġfac ing
Ġsens itive
Ġvac ation
ĠLin ux
e er
Ġm amm
ic ip
Ġe lev
art ments
Ġal coh
ĠW ould
Ġag ricult
Ġtal ks
Ġel imin
Ġprof ound
Ġexpl os
Ġsweet ie
Ġmot ion
Ġinsp ired
ĠAfghan istan
Ġsociet ies
Ġunus ual
B esides
g al
Ġd iversity
Ġst ations
ĠS lo
ĠA fter
ĠP ur
ĠH el
ap est
Ġhar vest
ĠWe TeK
isc o
Ġsil ence
Ġspecific ally
Ġconsum ed
Ġcelebr ate
ic ians
ĠA ccess
He alth
Ġde bt
ĠN ick
St and
Ġposs ession
As k
ĠÂ °
Ġrecogn ized
Ġill ness
Ġthreat s
Ġann ounce
Ġstruct ures
atur day
Ġincreasing ly
ĠDa ily
Ġcompon ents
Ġmax imum
T H
k nown
r ary
Ġc ord
Ġb ags
ri ve
It s
ĠT ri
ĠK ong
Ġinter rupt
Ġed itor
ĠCom ments
ĠGo vern
ĠDe velop
Ġarrest ed
Ġsevent h
Ġspo il
asse h
H igh
S on
t op
t ical
Ġm ob
Ġl aptop
ar ation
ic an
Ġre action
Ġnot es
Ġwh ore
ĠA ud
ĠP eople
Ġacc ommod
Ġset t
ĠJo ab
har m
Ġexp ression
Ġhur ts
Ġdi pl
ĠCont rol
Ġconv ince
Ġdepos its
U ntil
i h
Ġm aid
es ter
ri er
ĠC A
ĠA bs
ĠL au
Ġch im
Ġco inc
Ġtw elve
With out
Any one
Ġdeep er
Ġpromot ional
ĠComm un
ĠGr ace
Ġinvestig ation
ĠAc adem
ĠTechn ology
Ġmyst ery
B oth
H oney
L ife
P I
R T
T oo
Ġd imens
ĠP ut
ig ma
ĠH all
ĠH IV
ĠR am
ĠE t
ast ing
ĠN ight
ĠN ame
Ġdis m
Ġstud ied
Ġche aper
Ġsign als
Ġter rit
Ġphot ogra
Ġeffect ively
Ġhost ing
Ġappear ance
ĠPriv ate
Ġregard ing
Ġt ie
Ġa id
Ġa rose
ĠL eave
Ġor g
ĠR om
ĠE lect
ort hern
Ġdri ves
Ġfav our
Ġord ered
ĠAd m
Ġ25 0
Ġdin os
Ġdiv ided
Ġreserv ed
Ġcy cle
Ġprim ary
Ġsche dule
Ġarg ument
Ġstom ach
D uring
g l
v ail
he nt
Ġw et
Ġl un
ic ient
ro ke
ec e
ĠS atellite
ĠM ost
Ġso le
Ġsh r
ĠW ait
Ġag ents
Ġar gue
Ġsc r
ĠCh ief
Ġgener ally
Ġsurv iv
Ġbur den
ĠGl obal
Ġfold er
ĠMart in
ĠKore a
U nder
Ġc as
Ġh orm
ĠD eb
Ġfl ash
Ġres ource
Ġreg ions
Ġwait ed
Ġdri ll
ĠPro ject
Ġeng aged
Ġorgan ized
Ġactiv ated
Ġappro x
Ġgrand father
Un less
ĠAir port
ĠRo om
Ġadvert ising
Ġdesol ate
Ġexplan ation
3 3
T om
Ġp ounds
Ġin ch
ĠS ch
ĠW elcome
ĠV an
vers ion
ens es
Ġsl ide
Ġvis a
Ġart icles
ĠSh op
ĠBl ue
Ġdisapp ointed
Ġreb ell
Ġrecomm ended
Ġegg s
D el
Ġs illy
el a
Ġj oint
ĠT al
Ġex hib
ĠO pt
Ġfin ance
ific ations
ĠAm y
Ġcol on
Ġcapt ure
ĠThan ks
Ġdeterm ined
Ġfed eral
Bu y
C har
Ġw ww
Ġw itch
Ġf ishing
Ġn in
ar ters
ĠT ex
ĠH y
ĠW atch
Ġgood bye
ond ay
ĠMan asseh
Ġlow est
Ġcommunic ations
Ġfeed back
Ġlaugh ing
Ġregist ered
Ġlone ly
F our
o ves
u gg
Ġc ategories
it age
ĠM ill
ist ory
ĠF ar
ĠR est
Ġsha ke
ĠV iet
Ġbl ank
Ġfirst born
ĠSp ace
ĠAd am
Ġsearch ing
Ġoffic ers
struct ure
ĠSl ots
Ġphilos oph
B C
Ġb ars
Ġh id
ust ing
ĠE ve
ĠO ld
itt ee
Ġfl ock
Ġacc eler
ĠCh ildren
Ġtest im
Ġter rif
Ġcommand ment
ĠMar ra
Ġcapt ivity
Ġvir gin
Ġaspect s
Ġpil ot
uten ant
Ġpedest rian
Ġs ed
Ġm ig
Ġc osm
Ġb oring
Ġis ol
Ġdo zen
ĠM at
Ġint end
Ġdis aster
Ġacc ord
Ġsm oking
Ġloc ations
Ġpost s
ĠSpec ial
D amn
P ay
P riv
w ear
Ð ¸
it ure
ut ch
ke ys
Ġcon st
ry ption
Ġposs ibilities
Ġart ists
Ġtreat ments
201 7
Ġattack s
ĠOff ice
ĠSw itzerland
ĠEn ter
Sha re
ĠJon athan
Ġentertain ment
Ġconven ient
c est
Ġo w
or ter
Ġh i
all s
ĠP ac
ĠP ri
ĠG re
ĠD om
ĠR iver
Ġca res
Ġpr ide
Ġco ord
oc al
uc king
Ġconf used
Ġpract ices
Ġsubject s
Ġaffect ed
Ġfle e
Ġcru el
ĠComp any
Ġfasc inating
Ġmagaz ine
3 2
C han
D isc
S it
on om
ut ive
ĠS omet
ur ry
un ny
Ġv ent
Ġres ol
Ġimport ance
Ġprin cess
Ġprop hes
Ġhost els
ĠChar les
Dis play
Bar bie
ĠIsa ac
Ġsitu ations
oget her
Ġreput ation
Ġobe y
Â ©
nd rome
Ġbe es
Ġfor ty
ro s
out s
ad ing
Ġwh is
ĠM el
ĠM ess
us ing
un ning
Ġv oices
ĠO S
angu age
ĠAs h
ok ed
Ġwood s
ĠAng eles
Ġcorpor ate
Ġmuse um
Ġpolic ies
ĠSund ay
T alk
Ġf lex
Ġfor b
Ġan cest
ĠM em
ĠE mb
Ġcl ou
ĠAm mon
aj esty
Ġelect ronic
Ġsal t
Gu ys
Ġdepend ing
ĠSte ve
Ġevol ved
ĠTH E
ĠCoun cil
T echn
T ek
r as
it amin
Ġp ills
Ġme re
ĠS S
if orm
ĠA z
ĠL eb
Ġdis h
Ġwr iter
Ġfam ine
ĠRes erved
Ġru in
Ġcover ing
ĠKing dom
Ġescap ed
Ġmos qu
S l
b ul
d own
n s
Ġt res
Ġa irl
Ġw aves
ed d
ke ep
us hed
em on
ĠN ice
Ġrel iable
Ġimportant ly
Ġform ed
ĠCar l
Ġhol es
Ġmir acle
Ġhistor ical
Ġrepe at
ĠCour se
Ġdynam ic
Ġvou cher
J ack
O ff
S ame
it als
Ġb ore
Ġl am
Ġrec ording
Ġend ing
Ġdisc overy
erm an
Ġteam s
Ġconc lus
Ġtechnolog ical
Ġcast le
stit ution
Ġbes ides
Ġstret ch
B oy
H ope
d am
an i
Ġl est
Ġha m
ĠS en
ter y
ĠP R
em ic
Ġun known
ĠK at
Ġgreat ly
Ġsm ooth
Ġass ign
Ġcreat ivity
Ġpresent ed
Ġcamp us
Ġnecess arily
ĠNot hing
Ġcat alog
Ġfair ly
Post ed
K ill
O L
W H
f ish
o cc
ĠI r
ĠC S
ĠA ri
ĠP ink
ĠG ot
ĠG Hz
Ġen ables
erv es
Ġ3 9
Ġkill s
Ġfun eral
Ġdest ination
Ġlisten ed
ĠAs ian
vent ure
Ġinf in
pha nt
Ġglass es
Ġintellig ent
Ġweak ness
ĠTur k
Ġtag ged
Ġassemb ly
ĠSum mer
M ax
o j
y ard
Ġm ent
Ġp owers
st ate
out hern
Ġmy th
Ġj et
ĠF ac
ĠH im
Ġby e
ound ed
ĠV ictor
Ġmin or
az e
Ġrest ore
ĠEgypt ians
Ġrepres ents
Ġble eding
Ġden y
Ġpurs ue
Ġinit i
gt hen
Ġtres pass
b u
x y
le ments
Ġex it
iz za
Ġcomp ete
ious ly
Ġsin ned
Ġref und
let te
Ġview ing
Ġpriv ile
ĠGen er
ĠWeb cams
Ġinfect ion
Ġcontrib ute
Ġcommit ment
Fin ally
Ġcontroll ed
Ġutter ly
ĠAnton io
Ġc asino
en ced
al i
Ġst em
Ġup right
ĠT imes
Th rough
ĠU r
Ġdis s
Ġrec overy
Ġgen e
Ġext end
ĠÂ «
cha nt
Ġtab les
Ġobs ess
Ġfool ish
Ġtransl ate
ĠPart y
Ġbran ches
Ġaccur ate
Ġintellect ual
ĠAssy ria
i ors
Ġt asks
Ġo k
at o
ĠI d
Ġgo als
os ity
ĠH ong
ĠR el
ĠY OU
ĠShe ldon
Ġbox es
zz ar
Ġintro duced
Ġcand id
Ġadminist r
Ġtrem end
E xt
H ol
m l
p han
Ġc andy
Ġu pper
ĠT ha
ĠG PS
Ġv ib
Ġr ush
Ġfl ood
Ġsw allow
ĠBe fore
Ġdist ract
Ġsoon er
Ġmem or
ĠSo cial
Ġvol ume
Ġveh icles
D A
E s
j a
r ates
v able
Ġt ons
Ġa ward
ha h
is hes
ĠC are
Ġor bit
um ps
Ġevery day
ick s
Ġgu id
Ġfl our
Ġbu ck
Ġrec ru
Ġcou pons
Ġgr ace
Ġprot ein
Ġra b
iec e
Ġri vers
201 8
Ġdetail ed
Pro duct
Ġdro ve
atur a
Ġexpert ise
ĠCr ush
Ġtherap y
Ne ither
A ir
b ar
z ed
Ġ icon
Ġd rew
Ġp ump
Ġre in
Ġdo l
Ġst er
Ġli ar
Ġmy ster
ĠC ast
ĠB ea
ĠG ilead
ĠF ull
Ġwant ing
Ġr um
Ġsp ir
Ġhand ed
Ġsy n
ĠSh ipping
Ġcontact s
ĠEl i
Ġsister s
ze kiah
Ġfund s
Ġvirus es
Ġsurround ed
Ġinfra structure
g age
l or
is her
Ġn urse
Ġst im
Ġwh it
Ġkn ees
ĠL uc
ĠP S
ĠG all
Ġ1 20
ĠE v
Ġbut ter
Ġfl ag
Ġsur vey
pect ed
Ġcons ent
Ġsing ing
ĠPl us
Ġproper ties
Ġsoul s
Ġupd ates
ĠOr der
Ġban ks
I L
S earch
p al
Ġre ck
th ur
ĠD en
ĠE U
Ġshe l
Ġstud io
St ep
Ġ19 6
Ex pires
Ġmap s
Ġviol ent
atur ally
Ġbrand s
Ġunf ortunately
pher d
Ġsam ple
Ġenhan ce
Ġairpl ane
ĠPac ific
E asy
b i
f s
m al
Ġd er
Ġin put
Ġth res
ĠB ook
ĠD ress
Ġad vers
Ġ3 8
Ġdec or
aw s
fl ix
Ġlink ed
Ġamount s
ĠSy ria
Ġbless ing
amb ling
Su ch
Ġinform ed
Ġtele phone
Ġbill ions
Sec ond
Ġtreas ure
Ġchari ots
Ġtrig ger
C ong
h i
o ons
nd ing
st ance
ot al
Ġst ake
ĠM id
ĠP et
ĠD i
az a
Ġreg ional
ĠSp y
Ġequ ival
Ġallow ing
Ġtem pt
Pl us
Ġhol iday
Ġtransport ation
Ġtoil et
' ve
B ased
C oll
C omm
b its
i ety
Ġs ession
Ġo ath
ic er
Ġk m
Ġat h
th y
ĠL ow
ain e
ĠF ed
ĠF ound
Ġover w
Ġpre y
ru ption
Ġsc are
Ġtrans ition
Ġ19 5
Ġhold s
Ġcontin ues
Ġclose ly
Ġmain ly
Ġglob e
Ġenc ryption
Ġobs erve
Ġwicked ness
Ġble w
ĠSec ret
Ġparticip ate
Ġattract ive
ĠDet ective
Ġreve al
ĠBer lin
Ġrapid ly
K now
P L
Ġd iverse
Ġin ev
Ġso il
ĠB as
ul ator
ĠG arden
Ġgood ness
Ġun ex
ap ore
ific ate
Ġprov ider
ier ce
Ġcreat ure
Ġmar ks
Ġprofess or
ĠFor ce
Ġcompet itive
Ġstream ing
Ġmix ed
ĠSwed en
Ġdol ph
g ot
i ri
Ġt ast
Ġw ra
Ġm ile
is y
Ġto x
Ġg re
im eter
Ġli ver
ĠP aper
us ive
ul ating
em a
Ġadd ing
Ġprom ote
Ġpain ful
Ġactiv ate
Ġsex y
Ġcaus ing
Ġult imately
ĠFranc isco
Ġchemical s
ĠTex as
D P
O O
l ation
Ġ era
Ġc ogn
Ġn arr
ro v
ĠL ED
ĠH aw
Ġint ent
ĠW il
iz a
Ġimp ressive
Ġstr ing
Ġgr id
pr int
Ġdrink s
Ġcult ures
Ch rist
Re ally
Ġlif estyle
Ġcivil ization
Ġprinci ple
Ġinit ial
ucha rest
Ġsequ ence
ĠAcadem y
S pec
an o
Ġl ately
im a
ĠS T
ĠC IA
ĠB oy
ĠD ig
ĠF ashion
ag ers
sel ess
Ġro yal
ap se
Ġche cking
Ġconf ess
Ġeconom ics
Ġaddress es
Ġcapt ains
Ġsong s
Ġvict ory
Ġgrant ed
b oy
i xt
w ith
Ġt ank
ĠS ci
ĠM use
ĠB ed
ĠL ab
Ġv ow
Th ough
iv ate
og ue
Ġcomp rehens
Ġbel oved
Ġown ed
Ġrec all
Ġold est
ĠRe v
Ġgold en
Ġele phant
ĠSha w
Ġplatform s
Ġphenomen on
ĠLat in
Ġliqu id
p ack
u an
y c
ou lette
Ġn urs
Ġg ender
Ġth irst
Ġwith draw
if er
ĠM ind
ĠT urn
ĠF amily
ĠH ig
Ġar ts
Ġbu b
uck y
Ġ200 7
Ġclass ic
ĠCom puter
Ġfac ility
Ġemail s
Ġant ib
Ġop ens
Ġcomb ined
Ġdiscuss ion
Ġvill ages
Ġdepart ed
C ount
J oin
L adies
Ġw and
is ation
Ġn arrow
ro gen
ĠS anta
od ing
ĠB ru
ĠG i
Ġqu ote
ĠSt an
Ġ4 8
Ġdel icious
Ġpass ing
Ġstay s
Ġdist inct
Ġprison er
Ġtrick s
ĠDes cription
Ġclin ical
gr ade
ĠRoy al
Ġingred ients
b l
g ie
Ġs au
Ġp ink
at ical
al f
ĠC ard
ĠB ank
ĠT ric
Ġex ternal
ĠF ire
ĠR ad
ck now
Ġint ended
ard on
Ġper ce
Ġtal ent
ĠIn n
Ġtra p
Ġtra um
Ġtra pped
Ġwar ri
Ġhands ome
ster dam
Ġengine er
ĠCon vention
Ġrecord ed
Ġpull ing
ĠMon aco
Ġrelative ly
Ġkil omet
4 7
R L
T y
Ġt ears
ow der
Ġst aring
ir ts
ĠT ar
os ystem
ind er
ĠN eed
Ġshe ll
Ġdown stairs
ne ath
Ġ5 5
ĠRe al
Ġconf ir
Ġeff orts
Ġ12 3
Ġmain tenance
Ġelect rical
ĠPr incess
Us ing
ĠSw iss
Ġinfect ed
stit ute
ĠBa al
Ġneighb ors
omed ay
2 00
E m
P art
s a
Ġthe ore
Ġb orders
Ġf ancy
et urn
ic op
ĠM BA
ge nd
ea f
Ġag ency
Ġtr ump
Ġro d
Ġmon key
Ġvis iting
Ġspea ks
att ered
Ġaff iliate
Ġes c
Ġperform ed
Ġann ounced
ĠTy pe
Ġign ore
Ġdeb ate
Ġadop t
Ġschol ars
G en
Ġt ub
Ġt ied
Ġg ap
ent h
Ġme l
ag on
ci a
Ġwo ke
Ġview ers
ĠSam aria
Ġcapt ured
Ġsil ent
ĠSc ott
Ġet ern
AN D
New s
Ġeffic iency
Ġpunish ment
Ġgalax y
Ġcous in
ĠLeb an
Ġequival ent
3 8
at ible
et t
out ique
ad or
her lands
Ġex ha
ĠE dom
res pond
Ġplay s
ĠThe n
Ġtrans ponder
Ġ6 5
Ġins ist
anna h
Ġaccess ories
Ġest im
Ġexplain ed
Ġstren gthen
ĠUk rainian
Ġpus hing
Ġren ew
Ġdivor ce
E ar
H D
w ell
Ġto w
ar us
Ġh ills
Ġab use
ĠB ur
ĠH elp
Ġsp in
Ġcomp rom
Ġdec ent
Who ever
Ġhard ware
Ġdeal t
Ġdirect or
Ġview s
bit ration
fort able
Ġclos ing
Ġreb u
ĠBrit ain
Ġtremend ous
4 9
F rank
P retty
a wn
u ps
z o
Ġt v
Ġb ury
ĠB ell
ĠB ucharest
ĠJ esse
Ġper ish
Ġpat ent
Ġair craft
Ġcontin ually
Ġsurv ived
ograph ic
Ġperman ent
A ss
P A
b ec
h ttp
v in
al om
ur a
ĠC reate
ĠT ony
Ġv ital
Ġint u
Ġover come
fore st
Ġunder neath
ĠWe Tek
Ġwar n
Ġwal ks
Ġcontin ued
Al ways
eal and
ĠNet flix
Ġdrag on
Ġep id
Ġpill ars
ĠCong ress
v ille
Ġa cknow
it ches
Ġf ra
ot es
ac ement
ĠC ost
ĠL is
ĠN iger
ost on
iz z
Ġcl ue
ĠV ill
Ġdes cription
Ġset up
Ġmother s
Ġcent uries
Ġreason able
app ing
Ġrecogn ition
ffe red
Ġinvol ve
Ġcoinc idence
ou l
Ġs oph
Ġc able
ac ious
Ġst able
ri x
Ġse ar
Ġj er
ĠB ible
ĠP enny
ul se
ĠT ele
Ġr iding
ight y
Ġsee king
ĠV ery
ĠK e
ĠUn ivers
Ġgr ay
Ġgener ated
Ġdest iny
Ġfast est
Ġant ivirus
Ġrock et
Ġarri ve
Ġproced ure
Ġalcoh ol
Ġscr atch
b our
n ant
o is
om atic
ĠI M
Ġh ttps
ke l
el ine
ul pt
ĠG reek
ĠU N
ick ers
ĠHe zekiah
Ġperson ality
Ġsl ave
ific ial
ĠZ ealand
Ġob st
Ġdef ine
Ġris ing
Ġthreat ened
Ġconvers ations
Ġdom estic
Ġult imate
ĠTur key
ĠBel g
the less
aren ess
ĠSoft ware
Hol iday
f u
l ist
p arent
u ing
in os
Ġb its
Ġg ear
ĠS qu
Ġ! !
Ġsh ots
ĠF red
na p
Ġover l
Ġco vers
ĠK ev
Ġinc ense
Ġless ons
Ġcor rupt
Ġcor respond
Ġbreak s
ĠCl ass
ĠInd ust
Ġcry pt
Ġdemand s
orge ous
Ġast ron
Ġec osystem
Ġstrateg ies
abb ath
ĠNord VPN
Ġterrit ory
W ork
r ong
et es
ĠP ers
ĠP ete
ĠT re
Ġsh if
ĠE le
Ġint ense
so ever
ang ed
Ġbelie ves
ĠRe f
Ġstop ping
Ġsl aughter
Ġra il
Ġ6 00
Ġord in
ĠUS B
Ġstat istics
Ġmeas ured
ĠNet herlands
Ġtent h
Ġwast ing
A D
C ut
M iss
M oses
P rom
o ch
hat t
as er
Ġan ts
Ġan onymous
ĠS han
Ġpro b
ind a
Ġent ering
Ġmet aph
Ġcra ft
Ġelect ion
Ġtem porary
Ġgentle man
Ġclim b
âĻ «
Display ed
R el
V er
e ath
s p
Ġm arch
Ġy ea
Ġp le
Ġp oured
il and
ĠD ef
ort ex
og en
Ġdis g
are st
Ġsc ulpt
Ġsol ved
Ġcheck out
Ġaut hent
Ġcomplex ity
ouqu et
Ġcross ed
ĠOpen ELEC
Ġast on
Ġoccur red
Ġmolec ules
Ġvulner able
Ġuncom fortable
m n
r ans
Ġ <
he ll
he im
Ġp itch
ut ing
ĠB rand
ĠL and
ĠF riend
Ġde ploy
ĠR ick
Ġca lend
Ġpr ime
Ġlet s
Ġsm ote
ĠPh ot
ĠJohn ny
Ġenjoy ed
Ġben eath
Ġself ish
Ġrad iation
Ġtransl ated
Ġconsum ption
Ġsand w
ĠBud apest
Ġmotherf ucker
B ig
S ix
d a
en ess
at ar
Ġth ief
le ch
se y
Ġre ference
Ġme lt
Ġst airs
ĠS ay
ĠC op
ĠC andy
ĠC EO
ĠA D
ea king
Ġal arm
Ġr am
Th ought
Ġbr own
Ġear ned
Ġhum or
Ġappro ved
Ġconcern s
Ġsepar ated
Ġtum or
ĠSing apore
Ġorg ans
Ġaccord ance
Ġoverw hel
3 1
S ur
c hers
c ustomer
f o
Ġp icking
Ġg ut
st one
Ġwe ep
ĠS aturday
ĠA M
il a
ĠL anguage
ĠH ung
ĠR ate
ĠN umber
Ġun iform
Ġfl ies
Ġ3 7
ens ity
ner gy
ues day
Ġpartic les
ron ics
Ġwall et
Ġtrack s
Ġlay er
ĠMin ister
Ġinstrum ent
ĠKore an
E v
L ong
M oney
l ets
n on
r ace
ll a
Ġbe ating
ir gin
est s
ĠL ong
ie utenant
ĠJ ones
ag ger
ak istan
Ġhel icop
Ġsy nt
Ġinst inct
com ing
Ġchar ged
Ġsub ur
Ġins ult
ĠHow ard
ok es
ĠOn ly
Ġstore d
Ġpen gu
Ġcy ber
ĠSer ver
Ġjudg ments
Ġfirm ware
Ġmathem atics
ĠHT ML
P rep
T ravel
m o
m ate
u ous
re th
Ġn ail
Ġp izza
hat h
Ġin qu
ĠL ee
He ll
ĠO d
Ġinc ident
ne ys
Ġsur f
ĠThe me
Ġtra il
Ġinter action
Ġgener ous
Ġobject ive
Ġdw elt
alk er
Ġhero es
Ġthr own
Ġcollabor ation
Ġpiss ed
Ġjew el
Ġclou ds
A v
Ġt ens
Ġy ield
Ġe ase
im al
ĠP ra
um in
ĠR u
Ġpl ague
Ġch ip
iz er
ĠRe ese
Ġrel ie
Ġsk ull
Ġform ats
Ġdef ined
Be ing
Ġequ ipped
Ġfeed ing
Ġcomb at
Ġmedic ation
Ġhonest ly
Tr ust
Ġimmedi ate
Ġreven ge
ĠSite wide
ĠArch ives
Ġpha se
H ost
S w
Ġf ans
Ġl it
ot ed
Ġhe ark
ur rent
ĠB ouquet
ĠG ar
art s
ĠW ik
Ġtrain s
Ġfig ures
ĠJer oboam
ĠCar ter
Ġcollect ive
Ġinstall ing
ĠBar b
ĠDe an
Ġremain ed
ĠEast ern
Ġinstruct ion
Ġsuit able
Ġfort un
Ġdesper ate
* *
H A
L ittle
N eed
R ed
d ers
m are
Ġm ask
it is
Ġp ir
Ġp ity
om er
ĠB oston
ĠP erm
ĠP ersonal
ĠT oday
ĠG ad
Ġgu ards
In c
Ġapp arently
Ġsupp lies
Ġnum er
Ġtra ged
Ġvis ible
Ġref used
Ġaccess ible
ĠSh ould
Ġimm une
ĠTrans ponder
Ġpan ic
Ġrout ine
ĠArab ic
allow een
Ġaccompl ish
ĠLou is
ĠDevelop ment
ĠSci ences
ĠLeban on
D on
E ither
P owered
c ers
c hem
Ġw ing
Ġm ac
Ġd ict
Ġe h
ad o
ĠL ittle
ĠL isten
ĠN AS
Ġpre viously
Ġsc hed
Ġsy mm
Ġcount ing
Ġdel ete
Ġinv ention
Ġexc ess
ĠAm sterdam
Ġfall s
Ġimag ined
Ġexpect ations
ien na
Ġfac ulty
go ing
Ġut il
Ġdefe at
Ġmail box
Ġodd s
Ġstrateg ic
Ġunb elie
Ġpuzz le
Ġinsect s
ĠTric olor
C lear
P ass
P ull
Ġf rank
ĠC at
ĠM onday
Ġcan cel
ĠB illy
ul gar
ĠD ave
ĠN ic
Ġtw ist
ict ed
ĠWe bs
Ġstop s
Ġprot oty
Ġdr own
Ġdesign ers
Ġtop ic
Ġdist rict
Ġcra w
Ġpos itions
Ġlab el
Ġrock s
ucha d
Ġentreprene urs
ĠiP ad
ĠMuse um
Ð º
Ġto y
Ġre duced
ĠL L
ĠH as
Ġsa il
ĠN TV
Ġdis abled
Ġar ise
Ġac id
Ġatt itude
Ġmove ments
Ġexp osed
Ġdou b
ĠJe ff
Ġpal m
ĠPart ies
Ġlawy ers
Ġdecl are
ĠMil an
Ġinspir ation
Ġappoint ment
Ġbom bs
Ġdiam ond
Ġcontem porary
3 9
A i
M en
M ic
P at
R un
i ens
v o
Ġ ï
Ġs ack
ha p
Ġd imensions
Ġn aturally
an ks
as hing
op ath
ĠB ern
Ġout ta
ĠT ommy
ĠD oc
Ġr ings
ĠE nt
ĠN athan
act ica
Ġapp eal
Ġdec re
Ġhome work
Ġmon sters
Ġstr ict
Ġcur ric
Ġsle w
Ġdiscount s
Ġorgan ic
Ġdra wn
Ġpast e
Ġdi ab
Ġnear by
ĠAn na
Ġenjoy ing
Ġru ined
Ġbread th
Ġcab in
Ġframe work
ĠHon or
ĠAbs alom
ĠGre ece
1 00
u ction
Ġ vert
ou st
er able
Ġg orgeous
ic it
us hing
Ġal b
ĠF ro
ĠR achel
Ġbu cks
Ġdes erves
ere r
Ġ8 5
har k
ĠAl ice
Ġpub lish
Ġrece iving
ĠBr own
Ġdam aged
Ġleg it
Ġfear s
Ġlim its
Ġbeha lf
Ġrequest s
Ġremain ing
Ġkiss ed
pha s
Ġtor rent
Ġafford able
Ġshar p
Ġphotograph s
Ġpus hed
ĠAst ra
ĠProfess or
Cons ider
k ins
Ġw a
Ġw ars
Ġto ler
Ġn an
id ays
Ġwe igh
ce ans
ol t
ĠP ets
ĠP ublic
os er
Ġr it
ĠN ever
ian a
ĠUn cle
Ġgen ome
Ġcr ush
less ed
ĠAn n
Ġdiv ide
Ġcart oon
Ġfort une
Ġregist ration
Ġtro ops
Ġunex pected
4 8
C are
Z one
c ase
Ġf oss
or ough
an ing
Ġin ject
ar io
ĠC ert
ĠL y
ul um
ĠH uman
rou s
ĠN ob
ĠK ar
Ġdisc l
Ġdel ay
Ġnight mare
Ġent rance
Ġass ets
Ġcons ume
ran e
ĠAr thur
Ġmark ed
Any body
Ġprop osal
ĠCon nect
ĠBob by
Ġbran ch
ĠWal ter
Ġwond ered
Ġju ice
utor ial
ĠStand ard
Ġobl ig
Ġnewsp aper
Ġconfir med
B el
M T
M in
i op
m un
m ble
s ave
Â ®
nd a
is cipl
Ġp unch
Ġl ions
ĠS ide
Ġnot ion
ra se
Ġgo lf
ĠM ama
Ġab ilities
ge ant
ers ion
ain ed
Ġv ain
Ġpl ot
ĠN az
ĠW ant
ĠSt ay
Ġcomm ission
Ġdes ired
amp ed
Ġorgan isms
ĠBar cel
ĠOr gan
Ġthrow ing
Se ems
ĠAust ria
Ġterror ists
Ġjack et
ĠHaz el
B elie
C aptain
b reak
r ac
re r
or ney
Ġl ake
Ġg ambling
ĠS ex
ĠF our
ĠH old
Ġr ac
Ġsa fer
ĠJ ess
Ġdis ag
ĠSt ation
Ġinc or
Ġfact or
lic ation
Ġsol ving
Ġexpl o
Ġfood s
ĠEx per
ĠWill iam
Ġfarm ers
grad uate
Eng lish
ĠBarcel ona
A nt
D an
R I
b ut
e ans
v y
Ġs orrow
ha ll
Ġb ind
Ġd ign
Ġre du
ec k
ĠS her
ĠA T
ol m
ĠD ev
ĠN ik
Ġag encies
Ġar ray
Ġpur ple
Ġsafe ly
Ġaw areness
urs day
ĠInst all
Ġprison ers
ĠCent re
ĠChe ck
ĠNet work
EN T
Ġconvert ed
Ġshar k
ĠTe am
Ġmanufact uring
Ġfab ric
ĠAdm inist
Ġcomprehens ive
Ġcalend ar
G rand
S weet
y an
is k
Ġb ul
Ġb ored
on ia
om y
Ġhe av
id th
ĠC ould
ĠD em
ĠD utch
ear ning
Ġsha ped
Ġlo gs
Ġco al
Ġworld s
Ġsc re
Ġcha mber
Ġ4 9
ĠUn limited
Ġbad ly
Ġser ial
Ġgra vity
ef an
ĠInd ones
ĠAp artments
Ġobs erv
Ġpsych iat
ĠBu y
C reate
M ark
n ia
o ving
v ak
Ġto ys
at rain
ec ome
ĠS ub
ĠA tt
ĠA hab
ĠL a
ĠL il
Ġcon qu
ist icated
Ġr ang
Ġim per
Ġro ots
Ġsur re
Ġart ificial
Ġins pect
Ġspecial ized
Ġpub l
Ġmus cles
ĠEl ena
ĠAd venture
Ġhy p
Ġsuff icient
Ġpath s
BI Z
ĠDam on
ĠTreat ment
ĠNeb uchad
ĠEngine ering
Ġanx iety
ĠJeho i
B r
E d
F ine
P ol
b age
Ġl amp
Ġl amb
Ġg am
ar ge
Ġan ointed
ĠC D
ĠC reat
ĠM A
ĠB at
ĠP akistan
ĠG DP
ĠF ood
ĠE th
ĠN ature
Ġher itage
Ġlist ed
less ly
Ġgrow s
Ġpercent age
Ġaff lict
unt u
Ġexist ed
Ġpal ace
Ġauthor ities
Ġfaith ful
ĠStud ies
Ġmal aria
ĠSky pe
eles c
Ġproced ures
Ġaband oned
Ġlect ure
Ġkilomet ers
3 7
L E
O b
S erv
b et
b untu
l ife
n ik
v iron
Ġf ert
as ha
ĠC ook
ol i
ĠG il
ĠF un
ĠW ater
Ġlo an
ass y
Ġper pet
ile y
ub en
Ġem phas
Ġid ols
Ġext ent
Ġmed ium
Ġchar t
Ġsub stance
Ġenc oun
Ġpack ages
Ġann oy
Ġpan el
ĠFin ch
ID S
Ġresist ance
Ġfurn iture
M other
in ction
Ġc ats
ow nt
et ics
ic ity
ĠS ales
Ġout put
em ents
um es
ĠE ric
Ġlo b
Ġ20 22
ĠIs lands
Ġ4 7
ix ed
Ġatt ached
Ġrep ly
Did actica
Ġwar ned
Ġpri ze
Ġdri vers
Ġhope fully
Ġprop ose
Ġconc lud
Ġconc rete
Ġfac ed
ĠHar old
ask et
Ġmis under
Ġparticip ants
road cast
Ġbeg un
Ġprior ity
Ġscrew ed
ĠMach ine
ĠLis bon
A ut
F amily
G irl
h in
l ive
Ġo ceans
Ġc ease
it ched
Ġd irt
om p
ra st
ĠC as
Ġne ut
ore nce
Ġor ange
Ġex al
ĠF act
So on
ĠJ a
Ġint ention
Ġag es
Ġact or
Ġun w
Ġad s
Ġar gu
ult ural
uck s
Ġinter Didactica
Ġtri als
Ġfil ms
Ġident ified
Ġblock ed
Sure ly
ĠSm art
Ġreve aled
Ġglor ious
Ġtestim ony
Ġtraged y
6 7
I R
R uss
W omen
b ur
k ward
m aid
u its
Ð ²
in stein
Ġs ore
Ġn ative
Ġp oo
al a
Ġbe e
ro ph
Ġli vest
ation ally
og y
Ġun able
ĠV isa
Ġbr ut
Ġunder water
Ġrem nant
Ġche ese
Ġfollow s
Ġcent re
Ġins ight
Ġmus ical
app ed
Ġswe at
ĠBr us
Ġwin ner
Ġpolit icians
Ġabs or
Ġill ust
Ġfund ing
Ġconsider ing
Ġcomb ine
Ġsac rific
Ġrepl aced
Ġbeat en
ĠGe org
Ġdemocr atic
ĠKey board
Ġwound ed
Start ing
Ġdram atic
Ġcogn itive
Ġantib iot
P ick
c us
h ma
Ġthe ater
ha s
om i
Ġse ats
ul ed
ĠG N
ab eth
qu is
Ġal ert
ime lech
ĠW ars
ĠO per
ĠO OO
Ġtr ace
Ġshe d
ĠU lt
Ġcl ip
Ġgu ilt
Ġun lock
Ġpre vail
Ġbel t
ian o
Ġed it
Ġpo ly
Ġtreat ing
ĠPr ince
Ġenviron ments
Ġworth y
Ġaccept ing
Ġimpro ved
Ġexcept ion
Ġterror ist
Ġrent al
achel or
Ġcontinu ing
ĠIslam ic
ĠKev in
save atrain
iscipl inary
O per
l ings
m et
Ġw ilt
Ġto ast
as m
ri ans
Ġan gle
all el
el ah
ra h
ĠM ir
ĠB rian
Ġout come
ell ow
Ġen abled
Ġch op
iz ard
Ġle gend
ĠV irgin
Ġbr ide
Ġ4 2
Ġpers u
Ġatt ach
az ar
Ġsw ore
Ġtop ics
Ġcol umn
Ġlab our
Ġest ate
Ġchallen ging
Ġhy per
Ġhy pot
Ġda wn
Ġplant ed
Dad dy
Ġcompon ent
Ġprodu cing
Ġairl ine
Ġconclus ion
Spec ial
Ġsoph isticated
B ob
Ġw ax
ll y
Ġd ent
Ġd ates
Ġp owder
an z
ĠI b
Ġu na
ĠT er
Ġcon vent
ĠH ad
Ġsp ill
Ġpr on
ĠK az
ult ane
Ġimp ression
Ġland ing
Ġnum bered
Ġbit ter
20 20
Ġexpl ains
Ġexp ort
Ġdirect ions
rib ly
Ġri g
Ġmer c
ĠSc ot
ĠDan ny
aur a
Ġimm ig
Ġsmell s
Ġchem istry
Ġmicro sc
Ġfru its
Ġtun nel
Ġgalax ies
Ġchim pan
ĠTha iland
Cong ratulations
Belie ve
Ġlivest ock
C or
H ang
d oor
it arian
Ġf eared
Ġp ip
Ġl uxury
Ġh itting
Ġre ly
ust er
ant e
ĠC amp
Ġne arest
Ġgo at
ell er
Ġtr ash
ak eth
ĠV ienna
Ġapp le
Ġinc hes
pe ed
Ġprov iders
Ġfil ter
ĠAl m
Sh op
Ġ200 6
Al most
gu ard
Ġunivers al
Ġfle w
Ġclaim s
Ġsteal ing
Ġbell y
Ġprem ium
Ġcigarett e
C ou
a urs
he ast
Ġf ram
Ġd il
Ġp y
Ġh ous
am i
ĠM ur
Ġpro ven
ĠP ack
ĠD og
ĠD rag
ĠF ind
ĠH and
ĠN ations
Ġsu ffered
Ġcha sing
Ġcou ch
Ġproduct ive
Ġ8 00
Ġconf ront
Ġsou p
Ġaw kward
Ġhor iz
Ġrad ical
Ġhosp itals
Ġpsych ological
ĠBu ilding
Ġshar ks
ĠPre m
Ġwid ow
Ġdimens ional
Ġmyster ious
viron ment
C opyright
I F
T erms
u z
Ñ ĭ
or ites
Ġn ons
ĠC art
Ġse as
ĠP ot
âĢ ĺ
Ġr ural
ard ens
ĠW ood
ĠO s
ak h
ĠK im
Ġacc um
Ġimp ressed
Ġass ure
Ġass ass
Ġthy self
Ġaff air
ĠSh ut
Ġreturn s
ott ed
Ġjud ges
Ġvers us
Ġweb cam
Su per
Ġsubs cribe
ĠVal ent
Ġtyp ically
olly wood
Ġhun ter
Ġobsess ed
Ġtheore tical
P R
P opular
S a
p ers
p osh
in er
Ġth orough
Ġu seless
Ġre ception
ad ed
ad ian
Ġas ks
Ġsh ine
Ġsp ider
Ġca ps
Ġfe ver
ĠU h
Ġsomet ime
Ġar r
Ġcha ins
Ġdesign ing
Ġgovern or
Ġphys ically
Ġfair y
entle men
ĠMon th
Mr s
ĠCha ld
Ġterror ism
Ġload ed
Ġwast ed
Ġpassion ate
ĠPass word
Ġlin en
Ġconver ter
wh ile
Ġprecise ly
ĠBrus sels
D et
E A
H ad
J e
V isit
Ġp ie
ic ian
le g
ir s
ĠC hat
Ġab st
ĠL o
ure au
ĠH istory
ĠO ri
Ġag ing
ons cious
Ġ4 4
Ġwom b
pen se
com es
Ġlist s
ĠTh ree
Ġ9 5
Ġaut ism
Ġbeha ve
Ġtown s
Ġpot entially
Ġconsum er
Ġtor n
Ġgar ments
Ġcheap est
Ġembarrass ing
Ġconduct ed
ĠExt ra
Ġbetray ed
ĠAN D
ĠPS K
E ver
e ers
p ent
v ard
ou ch
ha d
Ġm ic
Ġth rill
ac on
ĠM ord
ĠL ea
Ġor phan
ĠT ra
un ior
ĠF ort
ĠE r
ĠU RL
iz abeth
Ġcl icking
ult s
row s
Ġcons ervation
Ġsw orn
Ġtri ll
Ġtravel ed
ĠAd v
Ġprep aring
Ġperform ing
Ġant icip
ask a
ĠSec ond
Ġmeaning ful
Ġregular ly
ĠJew ish
Ġsaving s
Book mark
ĠSat an
Ġsen ior
E uro
O ld
R anked
T en
re m
Ġthe ories
Ġs omeday
Ġb att
Ġp uss
st al
Ġre form
Ġdo in
ĠS ize
el ia
ĠB ulgar
ol n
Ġsu cks
ag ged
Ġacc red
get s
ĠRe uben
Ġass ault
Ġmeet ings
Ġâ Ĩ
Ġmess engers
Ġcontrol s
Ġpost er
Ġmag ical
Ġtrou bled
Ġstra w
Ġclos et
Ġbase ment
inist ry
Ġqual ified
Ġdisplay ed
Inst all
log ger
Ġrul er
Ġcow ard
Ġwha les
stan bul
Health care
Ġfra ud
3 6
H ar
c aster
Ġt ack
Ġm um
Ġc ust
Ġp harm
an es
Ġg ram
ve ll
am ine
Ġk icked
ĠS end
ĠM ajesty
Ġj oking
ĠL eg
He ar
ĠG ib
ĠD or
ĠH a
ĠH alloween
Ġsome what
Ġcomp atible
ĠK n
ĠK ra
ĠK ate
Ġbu ff
Ġinv itation
Ġhat es
ĠFl orence
Ġret ire
Ġsign ature
Ġpain ted
Ġdeath s
ilt on
Ġsend s
Ġcapt ive
Ġapplic able
Ġsens es
Re view
Ġinf o
Ġaffect s
Ġbase ball
ĠAt hens
Ġdetect ive
Ġpros pect
ĠDirect or
Ġsurviv ors
Es pecially
Ġwra pped
Ġmetaph or
9 0
S ol
c r
g ive
l asting
r ations
Ð µ
he th
Ġn erve
Ġl oo
Ġg ig
se ll
Ġre verse
Ġgo ats
ĠM S
ĠM ot
ĠM ult
ĠB i
un ction
ĠO k
Ġneed le
Ġdis k
Ġdis order
In tern
Ġcle ans
Ġform ula
Ġpat ience
Ġanswer ing
ung le
Ġdig ging
Ġmid night
Ġemer ging
Ġsacrif ices
Ġves sel
Ġabund ance
Ġagricult ure
M a
N IG
P ar
r ition
Ġw ounds
st ream
Ġbe ars
am an
ĠS of
ĠM eg
ĠL ock
ĠE M
ĠE ven
Ġcl ar
Ġco in
Ġar riv
ne zzar
Ġpres erve
Ġmet ab
Ġcent ers
ov al
Ġpan c
Ġcrit ic
Me et
Ġinteg rated
Show ing
ĠSm ith
Ġamb ul
Ġrepro ach
Ġrough ly
Ġbeast s
Ġhun ger
Ġneuro s
Ġchap ter
Ġdinos aurs
Ġphilosoph y
Ġath let
Ġdisg usting
ĠNAS A
B usiness
E ST
M arch
c ut
Ġa ims
Ġb ang
Ġn asty
ĠI C
al ink
oo f
ur is
Ġwh ist
ĠA IDS
ch o
ĠP es
Ġwhe els
Ġr acing
Ġca ge
Ġman kind
ĠJ ava
Ġen gin
ress ions
Ġtrans formation
Ġland ed
Ġra w
Ġ6 4
ĠFl ight
Ġdev our
Ġdist ingu
Ġequ ally
Ġleg is
Ġincre ases
Ġhop ed
Ġimm ort
Ġ199 0
inc oln
PS K
Ġsurround ing
ĠProt ection
ĠDub ai
Ġinterpret ation
Ġcurric ulum
Ġscre ens
9 5
u ine
re land
Ġc ed
Ġp i
at on
Ġst roke
if ies
ĠR ock
ell ig
Ġany time
Ġsha pes
act ive
cc er
Ġsc hem
Ġlea k
ĠThe se
Ġsl ip
az z
ĠFl ash
Ġdesign er
ues e
Ġ200 5
ĠGu ide
Ġpract ically
Ġpack ed
Ġstore s
Ġwis hes
Ġremind s
Ġlabor atory
Ġvan ity
Ġstret ched
Ġfro zen
Ġembr ace
Ġelev ator
ĠSomet hing
ĠFound ation
ĠPerm alink
A meric
L ooking
b ian
in ts
Ġw ins
Ġw olf
Ġm ales
Ġb old
Ġp atch
ec raft
ĠC ash
ĠM ass
od i
ĠB reak
ate ur
ĠR on
ĠR and
Ġsp ons
ĠJ os
ĠK y
Ġunder ground
Ġdec k
hes is
Ġamong st
ĠGu ard
Ġcollect ing
Ġforg iveness
Ġfac il
Ġroad s
Ġer rors
Ġwitness es
App arently
ĠVal id
Ġmechan ical
Ġsam ples
Ġadminist ration
Ġske let
Ġapprox imately
Ġdign ity
Ġabst ract
Ġambul ance
Ġengin es
C ategory
G e
J anuary
l ers
m ers
r im
in ent
in ery
Ġthe r
Ġf et
Ġha cking
Ġbe nd
ĠC ra
ĠM ain
Ġpro cl
ĠP age
ĠE nergy
Ġun re
Ġun ha
Ġper ception
ĠV in
Ġbl ast
Ġfl ocks
ĠSt ore
ub a
Ġsm arter
Ġserv ing
ĠCh urch
Ġac quire
Ġbo ards
Ġhur ting
Ġspeak er
Sh it
Ġdisapp oint
Ġsuggest s
Ġfool s
ĠMed ical
Ġgain ed
Ġmathem atical
ym ph
aud i
Ġdiscipl ine
Ġeth ical
Ġfoss il
Ġnons ense
S ub
is p
on ge
on ight
Ġp orn
Ġre ef
Ġso ck
Ġpro sec
Ġcom eth
ab e
ĠH appy
ĠR h
Ġpe e
ag raph
Ġen force
Ġcont est
ĠV eg
Ġcare ers
Ġcr imes
Ġtechn ique
Ġsim ultane
Ġdist ant
Ġdist ress
Ġspeak ers
Ġprop osed
Ġtouch ing
Cl ose
Re ady
Ġspirit ual
Ġachie ved
Ġlog ic
Ġinteract ions
Ġconcept s
ĠEvery thing
Ġflu id
Ġdecl ared
Ġconfig uration
ĠEs au
Ġdiscipl ines
Ġobst acles
4 6
H urry
L ord
M ight
V ideo
a ired
h us
r ics
in ity
Ġs izes
ha gen
Ġb ot
ĠS aint
Ġwas hed
ĠM inistry
Ġwhat soever
ge ons
ĠB re
ĠL ake
os o
Ġal ike
ĠF orm
ĠE mp
ĠO cean
ag a
ĠSt ock
Ġever lasting
Ġfree ly
Ġlight ning
Ġadv is
Ġtre nd
Ġenc rypt
Ġappro aches
ĠHar vard
Ġbull ets
Ġwide ly
Con vert
Ġparticip ation
Ġassist ant
Ġisland s
ufact ure
Ġtruck s
Ġpoll ution
Ġcirc uit
Ġinstant ly
Ġeld er
ĠCour t
Ġinfin ite
ĠGener ator
ĠGall ery
Prep are
A c
A w
H ot
P ower
S L
S ing
S cript
U C
U K
er ation
nd ed
Ġm ama
Ġto ss
Ġp owered
ed nes
ay er
ke ch
Ġst ages
ch in
ch or
Ġse al
ol ves
ie v
ĠF ast
Ġbet ting
ather ine
rain ed
Ġcha se
For get
Ġche ating
ix el
mer ce
Ġhu g
Ġcle ared
lo e
ĠAr my
Ġconnect ing
ĠAs soci
Ġcheck s
Ġsix th
Ġfac ial
Ġpeace ful
Ġmanag ing
cl usive
ĠComm ittee
ĠMor occ
Ġep is
Ġdiagn osis
Fe el
Ġscream ing
Ġabom inations
Ġfors aken
Ġalgorith ms
Ġancest ors
ĠTurk ish
Ġnumer ous
ednes day
C urrent
F ather
H ard
N or
f all
h t
n o
r ants
z ens
Ġa er
Ġb io
Ġf ence
Ġd eaf
ĠC ath
ĠT uesday
ĠG rey
Ġr hy
Ġwho a
Ġsu its
act ions
Ġlo ver
pl ed
Ġwork er
Ġsc ores
Ġpass es
Ġprof its
Ġeng agement
Ġdream ing
Ġsil k
Ġoffic ially
ĠPol and
ĠEn joy
Ġtarget s
Ġjump ed
Ġforest s
OM E
Ġbeg at
Ġexerc ises
Ġappl ies
iam i
Ġbound aries
Ġdiagn osed
ĠBird s
ĠCarol ine
heim er
Ġcust ody
Ġt one
Ġt ale
Ġw ard
Ġd ots
en g
Ġp ardon
Ġg ym
ut iful
if fe
op her
est ly
ct ic
ĠT own
un s
Ġmay or
Ġrel ief
Ġtrans mission
Ġsl a
ivers ary
Ġsci ences
ĠWh ich
Ġearth qu
ĠEl ijah
Ġprep aration
ĠAnt ivirus
Ġtab let
Ġcook ie
Ġimprove ment
ĠComm ission
ĠCol onel
Ġexcell ence
Pr ot
ĠHost els
pa rency
Fe ature
Ind eed
Ġaccompl ished
Ġspect rum
Ġcorn ers
ĠBelg ium
ĠNebuchad nezzar
ĠEth iop
ĠGN U
5 5
P ra
S elah
b ling
c ode
t ains
Ġt ents
Ġp est
Ġg rie
ĠC opyright
ĠA ff
ĠM u
Ġpro ved
ĠT v
Ġsh oe
Ġshe ets
pl ant
Ġgu arant
Ġche w
ĠAnd erson
Ġaw ait
room s
Ġlarge ly
Ġshort ly
Ġspeed s
Ġcoun cil
li ers
Ġgar bage
Ġblow ing
Ġrent als
Ġinteract ive
Ġinteg r
Ġheat hen
Ġpainting s
Ġrepe ated
Ġmolec ular
Ġquant um
Ġphotogra p
Ġspir its
NIG MA
D ou
T P
f ront
l ah
Ġb inary
Ġd an
ĠC ale
ĠT ok
ĠD ick
Ġr ude
Ġsp ear
Ġpl ug
Ġch ips
per or
Ġdis pl
ob e
ĠV alley
ĠV isit
Ġsc attered
Ġrel ation
ric ing
Ġgr at
dd ie
ĠZ eb
ĠAr bitration
Ġsub mit
Ġintern ationally
Ġcor al
Ġ0 1
Ġtrou bles
ĠCar rie
Ġsuggest ing
Ġsuggest ions
Ġdro ps
Ar ch
Bl ack
Ġexec ute
Ġfundam ent
Ġheal ing
Ġreject ed
ĠAtl antic
Ġaband on
PI O
4 2
A lex
W ind
b ird
i eth
l ate
w en
it i
Ġf aint
Ġd oth
Ġth read
ĠM atch
ĠL iber
Ġup grade
ea ble
ab el
em ap
Ġlo gin
Ġtal ents
Ġsc al
Ġrem ed
Ġmon keys
Ġhum ble
Ġbre ach
Ġmat ches
Ġcompl iment
ĠSp ring
Ġ7 00
Ġdev ast
Ġcor ruption
Ġnews letter
Ġcontin ent
Ġstrong ly
Ġcap abilities
Ġclos est
ĠSha ll
ĠRep ly
Ġbow ed
Ġcrimin als
ĠKen ya
ĠEconom ics
Ġtort ure
Ġexplos ion
Ġaccommod ation
Ġsett led
Ġmere ly
Ġshel ter
hatt an
ĠWebs ite
hap hat
uris d
6 9
A V
H on
f ire
k o
Ġa ven
Ġg ross
et ion
Ġst y
ri ah
Ġnot ch
Ġse m
ĠB os
ĠL ank
ĠT ips
ĠD ie
Ġco ins
ĠK or
ĠSt ill
Ġinc ent
Ġass et
Ġass igned
Ġext ension
Ġinter rog
Ġdr one
ĠNo ah
ĠZ er
ĠAnd rew
ĠWh it
ĠTh ou
ateg or
Ġopp osed
Ġ200 4
ev a
ĠBr ing
Ġglob ally
Ġindust ries
Ġadm ire
Ġfoot age
Ġbroadcast s
ĠEd ward
Ġliter ature
Ġroll ing
ĠHol iday
Ġsche me
Ġneighb our
ĠWay ne
ĠPortug al
ĠPortug uese
Product s
ĠMord ec
M ind
i per
Ġt elesc
er ies
Ġf itness
Ġf iction
en hagen
Ġp ound
Ġg est
ow ed
ri ers
ge ance
ĠP H
ĠT our
ĠT un
ĠF em
ĠH ard
ĠJ an
ĠN orthern
ĠW ow
Ġdis orders
Ġle an
Ġph rase
ph y
Ġtrans action
Ġatt orney
Ġsw ing
Ġra ising
Ġmod ified
Ġcover age
Ġbehav iors
Ġspread ing
ĠMe eting
ĠMor gan
ann ister
Ġinj ury
ĠAustral ian
Ġwond ers
Ġric hes
ĠFac ulty
Ġepid emic
Ġsandw ich
ĠAdminist ration
ĠPes o
E mb
I I
P ack
P eter
g ic
l ad
u is
or am
ac ular
ec ess
ĠL ic
ĠP L
ĠP en
ĠG PIO
ea ks
os haphat
Ġ1 000
um ents
ĠF ord
ĠH annah
ĠO SC
pl ete
Wh ose
Ġres id
ens ed
Ġche at
Ġwar ming
Who a
Ġfew er
Ġform al
ĠTh ursday
Ġoper ators
ipp er
Ġleg acy
ĠJer ry
Ġinvol ves
Ġsac red
struct ion
ĠMed ic
Ġgar age
Ġmechan ism
Ġadop ted
ĠLib re
Ġwha le
Ġalgorith m
Ġvacc ine
Ġloyal ty
Ġflex ible
Ġthres hold
ĠRev olution
ĠBru ce
Ġhelicop ter
Ġdiab etes
ĠOSC am
4 1
P age
a iah
r ot
t ics
u ce
Ñ Ī
Ġ ðŁĴĲ
he ne
Ġf o
Ġf its
Ġf iber
or able
Ġl es
Ġl od
Ġl ung
ĠI stanbul
ow ing
Ġhe m
Ġme als
Ġme ets
We b
ĠC ut
ĠA C
Ġse mes
Ġj unk
ĠF ile
ĠF oot
ĠE ll
Ġca red
Ġman if
ĠJ ed
ud d
Ġoff ices
Ġback s
She ldon
ĠYou ng
Ġmo ck
Ġdes cend
Ġafter wards
Ġsupp lements
Ġpers ist
Ġext ended
Ġexpl oring
Ġpo etry
Ġter ribly
Ġprocess ors
Ġ0 6
Ġtre nds
Ġident ical
Ġsens or
Ġann ual
Ġmis erable
Ġconsum ers
Ġgar ment
Ġpartners hip
ĠEvery one
Ġcuri osity
Ġrefer red
ĠDar win
Ġunlike ly
Dec ember
Ġinev itable
Ġunbelie vable
A ng
C hange
M ed
M ike
R eal
m ish
r ich
s wer
he ro
Ġa unt
ed ge
ar ks
ic ial
ir y
ĠC ooper
Ġat one
ol ine
ĠP y
ĠT ent
ĠD O
ĠD ays
Ġv ag
Ġr ay
ĠR og
ĠU buntu
ĠK han
Ġem issions
Ġcha os
Ġrec overed
Ġdisc on
Ġlight ing
Ġtri b
Ġob es
Ġexpl oration
Ġaff l
Ġpar agraph
Ġhon our
ĠAn nie
Ġsuper ior
ĠJe z
Ġsuggest ed
Ġperiod s
Ġcatch ing
ĠBu ying
li ament
Ġcorrect ly
Ġign or
Ġclin ic
AL E
Ġsusp icious
ĠMod el
ĠMarra kech
Ġtrill ion
ĠCath olic
7 5
B ea
B ecome
G rab
H L
H it
T ER
W in
g ant
m ates
w est
Ġt ries
Ġt ube
in ema
Ġw ip
Ġsh y
Ġal iens
Ġv ary
ĠF A
Ġsp ac
Ġtr unk
Ġhapp ier
ĠSt efan
Ġhand ling
Ġdec line
Ġgl oves
ock ets
Ġword press
Ġcons ists
Ġprot e
ĠPro v
Ġarm ies
Ġreport ing
ĠEm ily
Ġdro pping
ĠBel arus
Ġcitiz en
Ġcru cial
ĠCy ber
Ġrul ers
Ġtim ing
Ġcollea gue
ĠHeb ron
ĠHeb rew
Ġcher ub
Ġwarri or
Ġsubur bs
Ġjewel ry
ĠSof ia
8 8
G oogle
S ex
e ve
f ig
h op
l ines
t d
z ona
Ġw re
Ġw are
Ġc ough
Ġn om
Ġp eak
Ġof er
ĠI reland
ĠC N
ĠA na
ĠA haz
ĠM aterial
ĠM ommy
Ġat om
ĠT am
ĠT ower
um ble
ĠR en
Ġover t
orm al
Ġbr ush
Ġsupp lement
Ġsur geon
Ġchar ity
Ġdet ection
Ġ0 3
ĠEx pl
ĠCan adian
Ġswe ep
Ġve ter
Ġrob ber
ĠLe vel
Ġpsych ology
Ġmanag ers
Ġstick ers
Ġemploy ee
Ġcharacter istics
Ġevolution ary
Qu ite
Ġmulti pl
Ġarrow s
Ġnegot i
Ġce iling
Ġelimin ate
ĠKeyboard ing
Ġsla very
Ġobes ity
D rop
F ebruary
g iving
o ad
v as
z heimer
Ã ¼
Ġc ents
al king
ro vers
Ġst ir
ĠS audi
ĠB lo
ig en
ĠR os
ĠN at
Ġback wards
ans as
Ġwhere as
com mun
Ġgen uine
Ġref resh
Ġorgan ize
ĠCl ick
ĠBr other
Ġdestro ying
Ġpresent ation
Ġautom atic
Ġseed s
Ġir re
Ġinspir ing
Ġven geance
ĠDist ance
Ġnarr ative
Ver ified
Ġpengu ins
Ġunha ppy
ĠMordec ai
G entlemen
H aving
S il
f ers
l aus
t hat
re ction
Ġh o
al ty
Ġre aching
Ġdo zens
ĠS ov
el ines
ĠC H
ĠM ust
ĠB all
ĠL ot
ĠL im
ĠL ead
ĠT ry
ĠD un
Ġwhe at
ort ion
Ġlo vers
Ġlo go
Ġshe et
other ap
Ġfl ip
Ġapp et
Ġ5 2
ĠCh oose
Ġcount s
Ġatt rib
Ġsl aves
Ġmess ed
Ġcut s
Ġmus h
ĠMan hattan
ĠPr ime
ĠCon ference
Ġdiv ision
Ġrout es
Ġbab e
Ġmurd erer
ĠSim on
Ġdesk top
ĠSlo vak
Ġlun gs
Ġresol ve
Ġprophes y
edd ed
Ext ra
C H
D ep
S E
T onight
a ver
c ont
p n
u pl
Ð ¾
re ement
ut ies
ĠS nap
ĠB ox
ĠG B
ĠE ver
ĠE instein
ud es
ĠW E
Ġro pe
Ġlea p
oc ate
Ġmin i
Ġcur ve
ĠÂ ®
Ġexam ine
Ġdest inations
Ġhealth care
Ġclass ified
ĠBl og
Ġz omb
Ġdifficult y
Ġpromot ions
ĠMal ays
Ġhall uc
Ġscan ning
Ġcalcul ator
Ġembarrass ed
ĠSil ver
Gl ad
Ġfab ulous
Ġgri ef
Ġabom ination
Ġspr ink
Ġfright ened
Ġfunctional ity
akh stan
B as
E r
L S
N S
U L
Ġb icy
Ġf est
Ġf iring
Ġd ot
Ġn ic
Ġhe s
ri p
ĠS and
Ġli p
ĠC ars
Ġas pir
Ġj urisd
ĠL ieutenant
ĠL incoln
Ġal right
um my
ĠF TA
ĠH ur
ĠH ouses
ĠR A
ort ed
So cial
Ġint im
ip edia
Ġun le
ĠSt ickers
Ġrec yc
Ġrel ate
Ġelse where
Ġinter d
Get ting
Ġdead ly
Ġfuck in
ĠAl zheimer
Ġguess ing
Ġreturn ing
ĠMan ufacture
Ġdi agram
ĠRes ources
ĠRuss ians
Ġmass age
ĠOr ders
Ġhop es
cript ions
Ġcontroll ing
ĠPe ace
Mon th
ĠMatt hew
Ġcompar ison
ĠOpt ions
Ġantibiot ics
Ġarriv al
Ġdiscon nect
C ha
K ey
S un
U T
Ġm and
Ġc ere
Ġf ierce
Ġd un
Ġha bits
ro ve
Ġse aled
Ġj am
ess a
Ġso ap
ĠB ad
ĠD av
ĠF air
ĠR T
Ġint ensive
ĠY ellow
Ġcont rary
Ġ4 6
ĠCh uck
Ġpass enger
Ġfar mer
Ġprom ises
Ġtri ps
Ġloc ate
Ġhalf way
Ġclean ed
Ġtem por
Ġfell as
Ġadm in
Ġstick s
Ġur gent
Ġunc ertain
Ġtele phones
Ġaltern atives
ĠCur rency
ĠAri zona
Ġprivile ge
Ġencoun ter
Ð² Ðº
Ġconvent ional
5 9
J im
V C
V al
Y o
p ol
y o
Ġs d
Ġc ens
Ġf ib
Ġd read
Ġn ails
Ġl atter
Ġst ub
ri ving
ad el
ĠS ALE
ĠL annister
Ġor b
ĠP op
art y
ĠF uck
ĠH air
ell ed
Ġover th
ass es
Ġserv es
For give
Ġent hus
arch y
Ġgener ator
Ġexp ans
Ġ0 2
Ġpar allel
Ġdream ed
Ġfre aking
Ġdin ing
ĠOff icer
Ġthreat ening
ĠJe an
Ġsens ors
Ġste ady
Ġlog ical
Ġdistrib uted
Ġinteg ration
Ġgather ing
Ġcup c
ĠCor por
ĠCor fu
ĠFranc is
Ġqual ities
Ġinj ured
Ġrare ly
ĠUnder wood
Ġvot es
Ġflo ating
ĠUr ban
Ġsched uled
F i
p y
w all
Ġt act
Ġw ipe
Ġb ust
ed ek
Ġl aser
Ġh ob
Ġwe pt
Ġst ead
Ġwor m
Ġat oms
ĠL ist
ĠL td
Ġal pha
ĠR un
Ġsp ots
Ġsp inal
Ġwhere in
are t
Ġfl av
Ġhand ful
Ġret ail
Ġdep ressed
Ġread ers
Ġchar ming
Ġmar ine
Ġmess enger
At t
Ġocc urs
Ġill usion
ĠDe ath
Ġport ra
Ġrepres ented
Ġess ence
Ġcopy right
ĠArab ia
Ġund erest
Ap ril
Ġmosqu ito
Ġtraum a
Ġatone ment
7 7
A Y
P e
a way
b el
k ers
l an
Ġ 00
Ġs its
Ġn ap
Ġp ec
Ġp ace
Ġp ipe
Ġg reet
ĠS ri
ĠS ince
Ġup ward
ĠT ab
ĠT alk
ĠG ra
and o
end ing
Ġch ronic
Ġam az
Ġdis hes
ĠK ir
ĠK iev
Ġbr u
Ġwr it
Ġext inct
Ġprot est
ames e
io x
Ġdesign s
Ġsound ed
Ġpo em
rop ical
Ġap ology
Ġage nda
Ġball oon
Ġsuggest ion
Ġdom in
Ġinfect ions
ĠHigh ness
Ġcooper ate
Qu ick
ĠLu ke
Ġaim ed
Ġconfig ure
Ġconcent ration
Ġassum ed
ĠTed dy
Ġkidna pped
Ġveget ables
Ġcas ual
Ð¸ Ð²Ðº
ĠPri ze
Ġlam bs
Ġjer k
ĠCop enhagen
Ob viously
ĠChald eans
ĠLea gue
ÑĪ Ð¸Ð²Ðº
Ġspac ecraft
P M
b ow
Ĵ Ñĭ
Ġp ile
Ġe uro
as hes
Ġre duction
ĠC ass
ĠM IT
Ġpro l
ĠP ST
Ġout comes
ul u
ĠD ark
Ġman ual
ost ic
Ġch rom
Ġcont rovers
ress ing
Ġunder t
Ġres erve
Ġche er
Ġcour ts
Ġfin est
Ġsw itched
ĠSp orts
Ġexp ed
Ġsent ences
ĠAl aska
Ġoper ates
Ġ0 9
Ġcond em
Ġbed s
Ġcost ume
Ġelect ed
Ġimpro ving
Ġbur st
ĠPol ish
Ġorigin ally
ĠCal cul
Ġfrequ ently
Ġtax es
Ġmal ware
Ġstrugg ling
Ġsignificant ly
ĠBro ok
Ġjournal ist
ĠTem plate
ĠMuslim s
Ġmanufacture r
Priv acy
Gen eral
ĠVeg as
Ġprote ins
4 4
5 1
E W
H arry
O k
S aul
l ink
Ġb ump
Ġf ax
Ġd rank
or gan
ot ion
al ysis
im ize
Ġan ten
ĠS us
ĠC hem
ĠL ink
ĠP u
Ġup s
ĠT ob
Ġsp ark
Ġsp ray
ĠW right
ĠW alker
Ġag ed
Ġover se
Ġam bit
Ġper m
Ġbl ade
be k
Ġsc ales
ĠHe ad
Ġcount ed
Ġend ure
Ġdel iber
ps on
ĠIt ems
Ġsl ay
Ġcr iter
ific ent
Ġmonth ly
Ġrest ored
orn s
ĠAr ts
Ġexp osure
ĠAs a
ĠShe riff
Ġdirect ory
Or der
Go ing
ĠSam ple
ĠCon version
Ġrespons es
ĠSy rians
Ġmer chant
cl ock
Ġmedic ations
Ġble mish
Ġpurcha sed
ĠRo oms
Ġexec uted
Ġcontain ed
Ġtransfer red
ĠBy e
ĠBet hel
Sec urity
Ġtreas ures
Ġboo st
Ġbutt ons
Ġreci pe
Ġencoura ged
Ġguid ance
fs hark
ĠMid ian
ĠNiger ia
Ġsacrific ed
ĠIb iza
ĠAlm ighty
ĴÑĭ ÑĪÐ¸Ð²Ðº
5 6
F re
a am
f ly
h ttps
u um
Ġs arcoidosis
Ġf ires
or ne
Ġp ier
Ġl ens
Ġst ere
Ġnot ed
ĠC oin
ĠC ategory
ĠM iami
ĠP i
Ġout s
qu est
ĠH it
ĠR us
ĠR oot
Th y
ĠO sc
og a
Ġdes erved
Ġsm iling
ĠHe ll
Ġhigh way
Ġdevelop ments
Ġconf ession
Ġmar vel
Ġpoint ed
pr ing
Ġeng aging
Ġcomput ing
ĠAm orites
Ġequ ation
Ġtre mb
Ġcommand s
kes h
ĠEl izabeth
Ġ13 0
ĠNor way
Ġdwell ing
AR T
ĠDV D
Ġ198 0
Ġrestaur ants
Ġsymbol s
Ġdece it
Ġrestrict ions
Ġwhit ening
ĠSqu are
ĠEle azar
Ġfrank ly
Ġsurre nder
Ġhous ing
ĠJava Script
ĠAssoci ation
Ġintegr ity
edek iah
B reak
C ent
H alf
P res
R est
T v
p ite
Ġt utorial
Ġs ink
ha nd
st all
ĠS it
ĠS ant
ĠS ens
ĠC ustom
ĠC ustomer
op ard
Ġj ungle
Ġout er
qu arters
ĠH unt
ĠH ollywood
ĠE X
ide on
Ġint r
ud ge
Ġco ach
Ġro les
Ġbl own
ult ure
oc ated
Ġtrans actions
Ġprogram ming
Ġra pe
Ġcoll apse
Ġconf usion
Ġaff airs
Sh oot
br idge
Ġelect ronics
Ġprofess ors
ĠEgypt ian
Ġz oo
ĠUs ers
Ġsubs cription
Ser iously
aph one
ĠLev i
Ġexpand ing
Ġbond s
ĠSwed ish
Ġphysic ian
Ġrating s
ĠEst her
Ġcreep y
ĠFil m
Ġhorn s
ĠWik ipedia
ownt own
Ġaffl iction
3 4
T im
e z
i ro
v ia
he rent
re view
Ġo live
Ġm ast
Ġc ott
Ġd iction
Ġp ockets
Ġl oop
ar itan
ay ed
Ġst ain
ĠS MS
Ġas hes
ĠM ajor
ĠB asket
ol as
ĠG rap
ĠG ulf
Ġpl ates
ĠN atural
ĠN obody
ide oc
ĠW RT
ff ective
ĠSt ream
Ġlea f
Ġkind led
Ġcha mbers
olog ies
Ġfound ations
Ġunderstand s
ĠRe ally
Ġplan es
Ġreg ulations
ĠAnd y
Ġdev oted
Ġmet er
con nect
Ġadv ise
Ġarm or
ĠPh D
Ġeduc ated
Hotel s
Ġfell a
Ġfocus ing
Ġrespect ed
ĠEn igma
ĠGen eva
Ġlord s
Ġmembers hip
Never theless
Ġmagn et
Ġsatisf y
Ġpregn ancy
Ġanaly ze
Ġpretend ing
Ġobtain ed
ĠExpress VPN
Ġconce ived
Ġconsist ent
Ġterrif ied
Ġthirst y
Ġbub ble
ĠVill age
ĠKaz akhstan
Ġarr anged
ĠLibre ELEC
ĠGrap hene
7 0
C ard
N T
N ode
W ake
n ew
Ġ @
Ġp ion
ĠI ron
et he
Ġre nder
Ġst ew
ant h
ĠM ov
ĠM oon
ĠB ri
Ġout standing
ĠH u
ĠH ide
ĠR ab
ĠE C
ĠN SA
Ġtheir s
Ġbu gs
Ġown s
Ġ5 9
Ġreal m
ere my
ĠRe h
Where fore
Ġpol ar
Ġcur sed
Ġra ped
Ġ7 2
Ġsub stant
ĠApp eared
ĠCl ash
Ġri p
ĠBl u
umb led
Ġapply ing
ĠTy re
Ġregard less
Ġadvant ages
Ġtransform ed
ĠRob in
Ġconcent rate
ĠDou ble
ĠGovern or
ĠPrem ium
Ġpuss y
chin aphone
iffe rent
chinaphone review
F orm
H enry
L ight
L ots
R ates
c s
l oy
m el
v iol
w r
Â £
Ġd ome
Ġn arc
Ġp iano
Ġre nd
ad ium
ĠS n
ĠS ix
ant ed
ĠM un
ĠM ah
ch ief
ĠP ress
ĠR ich
ĠW onder
ag ne
ep ad
Ġoff ense
Ġqu arters
Ġbl ond
ĠK ids
iss a
ĠIs s
Ġsy ndrome
Ġdec ree
Ġtrans parency
Ġass es
Ġvis its
Ġfriends hip
ĠEx ec
Ġelect ro
ĠEl isha
Ġang els
Ġfocus es
ĠOff er
ĠTrain ing
Ġrequest ed
ux e
Ġport al
ĠCol or
Ġsepar ation
Ġhol idays
Ġtend er
Ġult ra
ĠRo ad
Ġvirt ually
ĠLu cy
ĠSelect ion
Ġscen ario
ĠBo ard
Ġprosper ity
ĠBon nie
ĠSecret ary
Ġtox ic
Ġsear ched
ĠNob el
Ġdisag ree
ĠCalcul ator
F ucking
J une
W o
W ord
j our
p oint
y pr
Ġ }
Ġw rap
Ġm ol
Ġc ortex
Ġb os
Ġb ills
Ġf art
Ġp ulse
ent ation
ri ger
ur able
ĠC le
Ġne at
ĠM ove
ĠL ocation
ack ed
ĠR ates
ĠJ et
ag le
Ġun n
Ġcont rad
Ġcont rast
Ġres ident
oin ting
ian ces
Ġhome less
Ġent it
Ġcons cience
ĠAr gent
Ġyoung est
Ġspecial ist
Ġprin ted
Ġorgan ism
Ġequ ality
osp ital
Ġenc amped
Ġworry ing
Ch ildren
ĠHar vey
Ġsick ness
Ġori ented
ĠJust ice
Ġrev ol
Ġprim arily
Ġlimit ations
Ġmort gage
ĠIran ian
Ġdemonst rate
Ġnegot iate
Ġhorm one
Ġtast es
ĠDig ital
Ġordin ances
ĠValent ine
Ġprocl aim
Ġearthqu ake
Ġmanif est
Ġwre ck
R ob
S at
i pt
p o
p ower
y ou
Ġy ard
Ġd ive
Ġp airs
Ġl aughter
ar re
ĠI mp
ĠA lt
ĠT itan
ĠF ight
ĠR oll
Ġpe ek
Ġno ble
ĠO x
ĠU t
Ġinc lus
Ġbuild s
Ġpay s
Ġexc han
Ġsub way
ins on
Ġdef iled
ĠAl bert
Ġsupport ing
ĠQ uality
With in
Ġris es
ĠCom ment
201 5
Ġrepl acement
Ġdiscuss ed
Ġpoin ting
Ġmultip ly
ĠPer form
che ster
Ġassoci ate
ĠJeh oshaphat
Ġcirc les
Ġtax i
Ġindic ator
erem ony
Ġimpl ications
ĠÐ ¸
Ġinsp ire
Ġnut ri
Ġarrange ment
ĠCount y
Ġmour n
WH AT
ĠBea uty
Ġetern al
Ġacknow ledge
ĠâĨ Ĵ
Intern ational
Ġfundament ally
C hat
D own
E lect
F ace
G old
O ctober
a is
f ol
l ace
n amese
o ir
Ġb on
Ġd ense
Ġl ame
se mble
ro y
ĠS P
ĠS W
ur d
ur ther
ĠC lear
our ge
han a
ĠL aura
ĠP ricing
ĠD ate
ĠH ill
Ġr ated
ell e
Ġby pass
og ram
Ġdes ires
ang le
Ġcar ing
Ġcar go
Ġ5 1
Ġ4 3
Ġcons pir
Ġproduct ivity
Ġaccount ing
Ġ0 8
Ġ200 3
ĠMar ia
Ġiss ued
ĠSy ndrome
Ġcat ast
Ġmeant ime
Ġchat ting
ĠMon itor
Ġemploy ment
Ġsn eak
Se ven
Ġkingdom s
Ġox en
Ġfunction ing
ĠPat rick
Ġdram atically
Ġknock ed
Ġchamp ion
ĠGold en
Ġchari ot
ĠGirl s
Ġmour ning
Ġpor ch
Ġredeem ed
ĠTri p
ĠViet nam
Ġtrump et
umin um
Pra ise
C am
C ol
C lean
D ress
T est
T ool
p se
y es
Ã ¡
Ġa f
Ġw ore
Ġs outhern
Ġc eremony
Ġb ail
Ġn a
en cing
Ġl ap
at us
Ġh ood
ro it
ad ab
ĠS H
ĠS har
ĠS oph
Ġwas hing
ĠA R
od d
Ġpro port
ĠT erm
ĠG ates
ĠF ive
ĠH al
Ġr ational
Ġdid st
Ġoff s
ĠY ah
Ġtal ented
Ġbl ah
ap e
Ġsy mp
Ġperson nel
Ġpass age
Ġpass engers
Ġeat s
Ġhon ored
Ġbar g
Ġbott les
Ġeight h
ĠEn vironment
ĠComm ander
Ġcontrib ution
Ġstream s
Pre viously
Ġsect ors
Ġfant asy
Pr ice
Ġresc ued
Ġmolec ule
Ġgraph ics
Ġspect acular
Ġcert ificate
Ġdolph ins
Ġrebu ild
Ġenforce ment
Current ly
Ġchrom os
Ġcriter ia
B O
K ind
K ids
M ary
N et
W ater
f le
g irl
o ft
r d
it ar
Ġf isher
Ġd ried
Ġth under
Ġh ip
Ġme g
ĠS E
ĠC ell
ĠC lean
ĠM es
ĠM iz
ĠM aps
our se
ĠB outique
ĠG AM
Ġcom ic
ig ue
ĠE UR
Ġact ively
ip her
ĠV irt
Ġshould ers
ĠSt r
ater al
Ġdel eted
Ġev ac
Ġtrans plant
Ġtra itor
Ġart istic
ĠJo han
ov a
Ġpar as
ĠShe chem
Ġcop ies
ĠRes pons
Ġteac hes
Ġbar rel
Ġsuper v
Ġpray ers
cell ent
Ġban king
Ġbehavior al
Ġunc onscious
ĠProgram s
Ġestablish ment
ĠiP od
Ġhyd rogen
Ġnavig ation
Ġdial ogue
ĠDom in
ĠMem bers
Ġiniti ative
Ġsau ce
Ġexal ted
ĠDrag on
ĠWRT Node
D epend
F ull
M C
M ap
O oh
g ence
g hai
j ud
w an
Ġt ags
Ġp ant
ri el
ad ays
ir ates
op ol
ĠA k
Ġkn ee
Ġgo in
han e
ĠB ear
ĠT ir
ĠG er
ĠD I
Ġsh ore
ain ts
ig m
ig o
ie ge
Ġv ice
ĠF er
ect or
Ġsha res
Ġqu ad
we ight
Ġcont ents
Ġhand maid
Ġcou ples
Ġind ex
Ġreg ime
Ġ19 60
ĠSp ort
Ġprom pt
Ġdeal er
Ġsub sequ
rop y
Ġemb edded
Ġabs ence
Ġalt ogether
Ġpen is
Ġpun ished
Ġexec ution
Ġsustain ability
Ġmagn etic
Ġvolunt eers
Ġliber ty
Ġprodu ces
Ġdivor ced
Techn ical
ĠCast le
ĠCost a
Ġheark en
Ġincor por
ĠUlt ra
otherap y
A F
F ast
L ow
M od
S ort
c ised
e ys
l est
Ġ {
is ons
Ġd iver
Ġd ash
Ġg um
Ġg ee
et ary
Ġth umb
ĠS peed
if ier
ĠC ase
ch ing
ĠG ord
em an
ĠJ av
ĠJ ason
Ġno on
ĠW ild
pl ess
Ġmake up
Ġdis rupt
ru ck
ĠSt one
Ġend less
ern ame
Ġdevelop ers
Ġsub t
Ġprin ting
ĠAb ram
Ġdig est
Ġsqu ee
Ġimm un
Ġut ility
Ġmort ality
Ġconsequ ence
Ġsevent y
Supp ort
Ġshock ed
Ġbelief s
Ġgall ery
Ġbasket ball
Ġagg ressive
ĠViet namese
Ġisol ated
Ġham mer
Ġintu itive
ĠPra gue
Ġafflict ed
Ġannoy ing
Ġneut ral
ellig ence
5 3
B ad
H u
O C
T aking
c ar
t es
Ġt ies
he a
as ant
if ully
ĠM all
ĠL earn
ĠT a
ĠT ick
ist ration
un ct
Ġsome place
Ġshe pherd
ak s
Ġcl iff
Ġdis abilities
Ġbro ker
Ġ19 50
Ġdr ones
Ġbook ed
Ġmar gin
Ġsub tle
Ġref riger
Ġaut onom
Ġfail ing
Ġaccept able
Ġocc as
Ġpray ing
Ġconvers ion
Ġobs ervation
wor king
Con nect
ĠMark eting
pro fit
Ġreflect ion
Ġbatter ies
Ġvot ing
Ġacqu ired
Ġfors ake
Ġnavig ate
Ġboot s
Ġcigarett es
ĠBas han
ĠRad io
Mic hael
Ġdil ig
ĠBulgar ia
ĠTok yo
6 6
A ccess
H el
P ort
g hed
g aret
Ġt u
Ġc ri
Ġp ets
Ġg aming
ot hing
Ġha unt
al ia
Ġbe ard
Ġhe aled
id ad
Ġfor um
ir al
Ġpro stitute
ĠB oo
ĠL ine
ig s
Ġal ter
Ġal ign
Ġr ats
Ġint ri
Ġneed y
act ly
Ġqu e
Ġle ather
ne ver
ple x
pe red
ĠCh ild
ĠHe ar
Ġcompl ications
Ġbo om
ĠZ edekiah
Ġprocess or
Ġdem o
Ġpop ulations
Ġeconom ies
Ġcap ability
ĠSo ci
Ġlau nd
Ġhost age
ai ro
Ġappro val
Ġburn s
ĠSe ven
Ġsun light
Ġexplain ing
ĠBut ton
Ġmeas uring
Ġshut tle
Ġsmart phone
Ġhy br
AT ION
Ġsn ake
asc us
Ġtrick y
Ġremind ed
Ġband s
Ġsatisf action
Ġrul ed
Ġvamp ires
Ġvolunt eer
Ġchamp ions
Ġabund ant
ĠOlymp ic
Tom orrow
oj i
Ġexha usted
Ġ!! !
Euro pe
ymph oma
ĠSov iet
ĠBrook lyn
5 8
G B
H and
M akes
Q uality
U k
c over
f old
y ards
z es
Ġto es
or ters
Ġl at
Ġin k
Ġhe ck
Ġon going
oo fer
ĠS ubs
ĠA ven
Ġj okes
ĠL ion
ĠD ol
Ġv oid
Ġde fect
ĠR E
ĠE nd
ment ed
ak im
Ġun st
ĠV ersion
ĠK o
Ġfl ags
Ġhand y
Ġtechn ically
Ġpres ents
ĠSp art
Ġter rific
Ġopp ress
ĠAs her
Ġ0 7
ĠMar io
Ġaut o
Ġconc ert
Ġjud ged
Ġadm itted
Ġben ch
Ġrob bed
Ġfill ing
En ough
ĠEm ma
Ġobs erved
Ġpen ny
Ġcred its
Ġste pped
ĠAg ency
Act ivate
Ġaffect ing
Ġquiet ly
Ġpoll en
ĠBet ter
Res erve
ĠBud d
ĠSome one
Ġscen es
ĠCons ult
ĠEt han
Ġtorrent ing
Ġsd card
Ġexpans ion
B ed
B lessed
M ain
N atura
P aul
r un
s port
he tt
Ġa ster
Ġb ay
Ġd owntown
or se
at ers
Ġg ardens
Ġin equ
out es
ill as
ĠS av
ĠA i
Ġj elly
ĠB ass
Ġup grad
Ġv ows
pt ions
Ġper imeter
Ġres idents
ting s
Ġrem oval
Ġear ning
cri bed
Ġpat hetic
Ġdev oured
Ġopp on
201 4
Ġsurpr ises
ik i
Ġele gant
Ġbelong ed
ĠTrans port
ĠPal est
ĠFin ance
Ġhorse men
Ġprinci pal
Ġachieve ment
Ġrub ber
Ġrej o
ĠSat urn
Ġassemb led
Ġentreprene ur
Ġteen agers
Wor king
ĠAccess ories
Ġassign ment
Ġesc ort
ĠRef und
4 3
H T
H uman
O ffic
R eturn
T E
n is
s en
Ġ Ã
in ates
Ġw ires
Ġm all
on ies
Ġd ental
Ġp ale
Ġdo se
ut ical
ke ls
ĠA w
Ġj ury
ĠP apa
ĠT hai
Ġthem es
Ġpl uck
ĠJ ay
res a
act s
Wh ite
Ġdoing s
Ġkind a
Ġid i
Ġbelie ving
Ġhar sh
Ġstr ings
Ġra ge
Ġdri ft
Ġmess ing
Ġprotect ive
Ġfil ters
Ġsing ers
ĠTr ack
Ġappro aching
Ġlay ers
Ġthreat en
Ġstri p
Ġann iversary
Ġlock s
Ġmultip lex
ĠTrans fer
Ġrepresent ative
ĠMo z
Ġmagn ificent
Ġmechan isms
Ġmathem atic
Ġhistor ic
Ġemp athy
Ġdocument ary
Ġnaked ness
ĠDou g
Priv ate
Ġrab bit
Ġvert ical
ĠMedic ine
Ġappet ite
Bas ically
C ustom
K ing
R oy
h olm
n ut
o ard
p read
r ases
ou nder
Ġw ag
er als
Ġp ix
Ġl a
Ġl end
Ġl oser
ad er
Ġan th
ĠS weet
ĠS outhern
ĠC up
il ize
ĠT en
ĠG ift
ĠD est
Ġr ams
ĠE ddie
fe re
ich o
Ġfe ather
Ġcl ay
Ġco c
ĠV itamin
Whe never
Ġinc on
For ce
Ġhead quarters
Ġtra gic
Ġchar m
ortun ate
Ġdem ons
Ġ200 1
Ex press
Ġterm inal
ĠAb imelech
ĠJer sey
ĠTr ade
Ġbroad caster
Ġinvest ed
Ġcross ing
Ġimprove ments
Ġforeign er
Ġfle et
Ġfeature d
Ġscan ner
Ġpig s
ĠSystem s
De ath
Ġmotiv ation
ĠLog in
Ġowners hip
ĠGovern ment
Ġcolon ies
pack ers
Ġwand ering
Ġauthent ic
Ġprototy pe
ĠOrgan ization
Ġmerc iful
Ġpy ram
Ġmetab ol
Ġsimultane ously
Ġrhy th
ĴÑĭÑĪÐ¸Ð²Ðº Ð°
V E
i y
i ad
i ability
j e
l aim
o en
r ons
t ail
w ar
in ue
Ġm aketh
it ol
Ġf ury
Ġp ins
Ġp acking
Ġha il
ay lor
Ġwe ary
Ġre aches
ĠC ool
Ġse w
Ġpro hib
ĠB ron
ĠB achelor
ĠD ream
ĠD uke
Ġcon vey
Ġsh irts
ig il
ĠR oulette
ĠE asy
ĠJ ake
ĠN ed
ace utical
Ġact ors
Ġsc roll
ĠSt ory
Ġgreat ness
Ġbre ed
Ġreg ards
Ġpol ite
Ġsk ins
ret t
Ġread er
ĠAr k
Ġeng ra
ĠShe pherd
Ġdirect ed
ĠCl ay
ats on
Ġwind s
ĠAb ner
Ġest imate
Ġpack aging
Ġpray ed
Ġrequire ment
Ġpsych opath
ĠPhil ipp
ĠRep ort
nam ent
Sp eaking
ĠMor ning
ĠHol mes
Ġbast ards
Ġattempt s
Ġevol ve
Ġreact ions
ĠCo ast
hy d
Ġconvin cing
ĠMag gie
Ġsucceed ed
ĠDam ascus
Ġmotiv ated
Wor ld
Ġcro ps
Ġphotogra pher
Ġcandid ate
Ġheav ily
bur gh
Ġdent ist
Ġsemes ter
ĠMalays ia
A G
C al
H y
M ad
N on
N ame
d i
p ool
t ered
w ind
it am
it ement
es is
ar n
Ġhe nce
id orm
Ġk it
ĠS el
ĠS abbath
ur l
op es
ĠA S
ĠA ge
ĠA unt
Ġpro c
ĠB and
ĠB ull
ĠL ily
ĠF al
ĠH ospital
ĠE aster
ĠE ML
Ġsp an
Ġher d
ep s
Ġshe lf
ount ain
ĠK ill
Ġfl ame
Ġbu zz
Ġreal istic
Ġrel atives
Ġfree zing
Ġret ain
ĠTh om
Ġfr act
ĠCl in
Ġcommand er
Ġcol ony
Ġcol ored
Ġ+ +
ĠJer icho
Ġfail s
Ġcam ps
Ġcam els
Ch ina
ze es
ĠLe o
Ġgrad ually
Ġpaper work
ĠJack son
Ġste am
Ġbow l
li est
Ġ199 9
ĠTy ler
Ġpu pp
Ġden ied
Ġdesp air
ĠRead ing
Ġpurs uit
ĠSte el
Ġinj uries
ĠExc use
ĠBrazil ian
Ġemp ower
Ġ197 0
Ġgradu ated
Ġgraph ic
Ġbreast s
Des pite
Ġjealous y
Ġnewsp apers
Ġeval uate
ĠShan ghai
Ġlob by
ĠVirgin ia
Ġschem es
ĠEmp ire
ideoc hat
6 8
A ud
F ore
L u
M obile
M icro
Q L
d ra
Ð »
he ld
in ions
Ġw it
Ġb id
Ġg uts
Ġre hab
ĠS id
Ġall erg
au nt
ĠL es
ĠP enn
ĠG ideon
ry ing
ĠH ank
Ġr anked
ĠR oss
Ġsha king
ĠW H
Ġcl ubs
ĠK aren
Ġem ulator
oc ur
Ġdisc har
oth y
Ġtrans mit
cy cle
Ġvis ions
Ġsecond ary
Ġbo il
Ġprom ising
ĠAr ctic
ĠPro Natura
Ġfight er
Ġoper ational
Be en
Ġimag ing
Ġdra ft
ĠMan ager
Ġdig it
aven ed
Un ited
ĠUs ing
Ġalt ars
Se ptember
Ġcart oons
Ġdon key
Ġmicro bes
ĠAng el
Ġunf air
Ġexec utive
Ġindepend ence
Other wise
pher ds
Ġmaintain ing
Ġinterview s
ĠTechn ical
ĠBal aam
ĠSun ny
Ġpit ched
Ġconven ience
ĠRoman ia
Ġmob ility
Ġlegit imate
ĠScot land
Ġbatt les
Ġepis ode
Ġremed ies
ategor ized
M I
M il
T ogether
m ons
s alm
t hen
Ġb iz
Ġn ets
Ġn orthern
Ġin ex
Ġhe ed
Ġre ar
Ġst ated
Ġst icking
ĠS U
ĠM ixed
nt om
ĠL ind
Ġout door
Ġus age
Ġsh o
ea v
ab ul
ear l
Ġv ault
ĠF itz
ĠR ig
ĠR ap
Ġca ves
Ġher s
Ġshe kels
Ġch ron
ĠU zz
Ġper mit
ign ation
ĠK ings
In ter
be on
Ġcomm od
Ġmo ist
oc a
Ġend eav
Ġhead ache
Ġhigh light
Ġsk i
Ġinter ior
On line
Ġins ights
Ġspecial ists
ER E
Ġ18 0
Ġtou ches
Ġmach inery
Ġinvest ors
Ġemb ed
Ġ16 0
Ġclot hed
Ġwat ches
Ġpromot ing
Ġexperim ental
ĠAg reement
ĠCol omb
Ġpan els
Ġbrows ing
Ġunf ortunate
Ġwitness ed
Ġcelebr ating
Ġdesp ised
Ġmurd ers
ĠMart y
Ġindic ate
Ġremote ly
Ġconfirm ation
Ġshout ing
Ġreci p
ĠOl iver
Ġax is
Ġterrif ying
Ġnurs es
Ġlegis lation
Ġware house
Ġunle avened
Ġbarg ain
itam ins
- -
F urther
T otal
c ore
m ad
m ade
m ary
Â ·
Ġm ild
Ġb ait
Ġy ards
Ġd uck
ĠA ch
ĠM ich
ch ron
ĠB our
ĠB od
ĠB ody
ĠL ux
ĠL atest
ĠL earning
Ġup side
ĠG hana
ĠD own
and al
um ph
ĠH ag
Ġsp here
are r
Ġbr on
Ġmin ing
ĠUn c
ont o
Ġass ured
Ġsk ip
Ġexc itement
Ġbo ats
Ġfil thy
Ġprin ter
Ġpar an
Ġsoci ally
Ġfavor ites
Ġforg iven
Ġemb assy
Ġgreen house
Ġrain forest
ĠTrans late
Ġwood en
ĠGl ass
Ġloss es
ĠSer geant
Ġdrag ons
Ġpill ar
Ġmut ual
Turn s
Ġofficial s
Ġren own
aud a
Ġnut rition
ĠWi Fi
Ġwire less
Ġfulfill ed
Ġparad ise
ĠPlan et
Ġdism iss
ĠMarra kesh
Ġdolph in
rov nik
Ġtub es
ĠPot ter
ĠLank a
ypr VPN
8 6
C y
D ear
G roups
b ell
Ġt id
Ġt ension
Ġm im
Ġm akers
Ġb um
Ġy oke
Ġf etch
ing ton
Ġd ug
Ġn it
Ġp od
an iah
Ġth igh
Ġst rain
Ġan at
Ġwh ither
th on
ĠB an
ĠB BC
ĠL oss
ĠL oc
ĠP ier
ĠD eg
Ġcon stit
ain ted
ĠF ru
ĠH ay
Ġr ans
ĠR eturn
Th row
Ġher bal
Ġneed ing
Ġshe riff
Ġhapp ily
Ġact ress
Ġfu els
Ġfl aw
Ġgive th
Ġcar ries
Ġel ite
Ġtrans parent
Ġret reat
Ġeduc ate
cha se
apt ops
Ġz oom
Ġsal ary
ĠX ML
uri al
Ġkiss ing
Ġthr ust
Ġcelebr ation
Ġ300 00
ĠDet roit
mark et
Ġhook ed
ĠJul ian
ĠBro dy
Ġrefuge es
âĻ ª
ĠProfess ional
ĠAud io
Count ries
ĠLil ies
ĠBreak fast
Ġencrypt ed
ĠDie go
ĠLic ense
Ġmultipl ied
5 7
B ox
C alm
M ag
W anna
f ell
g ien
r ison
z h
re he
re ation
Ġl ou
Ġst ink
ĠC T
th rough
us ions
ab ling
un a
Ġr ice
ĠE b
ĠN orm
ĠN GO
ren al
Ġdis ob
Ġle verage
ass ador
Ġad ul
Ġad equ
Ġthen ce
Ġhel pless
Ġunder lying
Ġpre vention
Ġwr ist
Ġph rases
Ġadd ict
Ġgr acious
Ġexc lud
Ġ6 9
Ġsub mitted
of fe
Ġrece ivers
Ġview ed
ĠChrist ians
Ġelect ions
cap es
Ġadm ission
Ġfund ed
ĠSw ap
Ġobject ives
Ġsword s
Ġop inions
Ġstar ving
int age
imin i
Ġfat al
Ġspread s
Ġvol can
Ġexperien cing
Ġsad d
Ġjump ing
Ġtour ism
Ġfort ress
ĠGr ant
Ġphotograph y
ĠAct iv
Ġscri be
alax y
Ag ent
Ġgrab bed
Ġcorpor ations
Ġcontinu ous
Ġteen ager
Ġarrange ments
Ġchamp agne
Ġeval uation
ĠStep hen
Ġtransg ressions
Char lie
Ġwhis per
ĠHaw ai
ĠIndust rial
ĠEnt reprene
ĠMot or
Ġwhist le
Prot ect
Ġguarant eed
ĠPH P
Ġentit led
A ugust
C ertain
F ar
F riend
I mp
J ane
J uly
M al
R S
S an
W al
h ot
n ic
r ade
r ise
s or
w ill
Ġt une
Ġw olves
or ia
al ph
Ġe ph
ut ors
ir man
ĠC ross
ĠA qu
ĠM T
ĠM any
ĠD iv
ig an
Ġv oc
Th ird
Ġpe er
pt ic
we g
Ġpr ick
Ġtw ins
Ġnew ly
ĠV e
Ġres idence
Ġsc ra
Ġacc idents
pect or
ars h
Ġsl ipped
Not e
Ġcons erv
ĠWhat s
Ġhat red
Ġprov in
Ġmod ule
ĠApp s
Ġpo le
Ġfight s
ĠQ PSK
fl ies
Ġlau ghed
LI C
An swer
ĠRes ervation
Ġenc oded
Ġtrad ers
Ġpress ing
ĠSy d
Ġtab lets
ĠEm irates
ĠQu inn
olute ly
Ġpen et
Ġhack ed
ĠSl ot
Ġcapital ism
Ġinvestig ate
ĠLaw rence
Ġpurs uing
ĠJeh u
ĠEvery body
Ġsect ions
Ġprefer red
ĠCy rus
Ġbonus es
Ġwealth y
Ġresist ant
ĠRay mond
Ġwheel cha
Ġflo ors
Ġhousehold s
Ġdump ed
Ġprotocol s
arcoidosis UK
Comp any
ĠHel en
Ġrebell ious
Ġforb id
Ġcandid ates
ĠEv ents
Ġadvers aries
Ġdoub ts
ĠSher lock
Ġbrut al
quis ite
ĠArgent ina
5 4
C o
D M
H ands
M P
T ed
b re
b at
b log
d ie
Ġa qu
Ġm aker
at ories
ar iah
ĠI ll
et able
Ġst iff
ri g
ĠS A
ĠC ivil
ĠM and
pp le
au x
ĠB il
ĠG am
ĠD ead
ĠD eep
ist or
âĢ ¦
ĠH oll
ud den
Ġback yard
Ġun in
Ġper sec
ap or
Ġar rog
Ġhand led
Ġsm ite
olog ically
Ġinter vention
Ġtest ify
Ġpur se
Ġprocess ed
ĠEx erc
ĠCan cer
Ġbar n
Ch ris
ĠOff ers
Ġrad ar
Ġspecific ations
Un iversity
Ġdom inion
Gu y
ĠAg ain
Ġautom ated
Ġble ed
Ġdon ation
Sp eak
Ġdesp ise
ĠPre vious
Ġshad ows
ĠProt on
ĠCred it
Ġimplement ed
Ġjournal ists
Ġghost s
Int erest
ĠEqu ipment
Ġfrag ile
Ġmamm als
ĠMess ages
ĠIr ish
ĠRel ations
Ġmicrosc ope
Ġaccred ited
ecess ary
Ġrobber y
Ġamaz ed
Ġnutri ents
Ġbiz arre
C R
E nd
L ist
L ink
M s
R ose
S y
Y e
c ling
d or
p ah
u er
x Bet
Ġw ider
Ġm ud
Ġc ater
it ating
Ġto ps
Ġd ensity
at i
Ġin quire
ar ms
Ġre ass
Ġk g
ch ildren
ess ions
Ġso ccer
ul in
Ġex pon
ab ad
em en
un o
Ġv s
ĠN OT
ĠW atson
per ial
ak i
Ġcomp ound
Ġacc used
Ġold s
Ġche ss
ib an
Ġrel ay
Ġadd s
az y
Ġbad ge
Ġmat ure
Ġprov oke
uth ors
ĠZ ur
Ġquestion ing
Ġ9 00
Ġ0 5
ĠEx pires
Ġvisit or
ĠAn aly
Ġdeep est
Ġve il
Ġsecret ly
Ġjoin ing
Ġintro duction
aph t
Ġmatch ing
Ġnerv es
ĠSte ven
ĠProt ocol
Ġoptim istic
Ġflow ing
Ġsusp ended
Ġadvert is
ĠRem ember
Ġimplement ation
Ġneuro log
Ġvine yard
ĠAtl anta
Head ings
Ġencoura ging
Ġagricult ural
Ġexhib ition
Ġple ad
Ġalb um
Ġfert il
ĠGeorg ia
Ġimmort al
Hon estly
ĠFA Q
commun ications
Ġbicy cle
J ud
J ames
k ow
l ar
n or
u j
u ated
Ġ \
in able
Ġy o
Ġf ond
or al
Ġl ament
Ġdo ses
Ġwor ms
Ġout break
ĠT hing
ĠF R
ĠF ab
ĠR io
ĠR imini
ĠJ our
Ġsu itc
In side
Ġfl ows
Ġ3 50
ru b
Ġsc atter
Ġke en
ub l
Ġsw ift
Ġgr asp
Ġcompl etion
ĠPro f
ĠPro cess
ortun e
ĠCl ar
ĠMar cus
ĠAn chor
head end
Ġrespons ibilities
Ġdress es
Ġstri kes
Ġpen cil
Ġpen alty
Ġshop s
Ġur ge
Ġmad ness
ĠSer ies
Ġtour ist
Bl ue
Ġpurs ued
ĠProgram me
Ġcrack ed
Ġhabit at
Ġhabit ation
Ġbother ing
ĠHam an
Ġtherap ist
ĠDub rovnik
Ġdepth s
Ġgro cer
Ġmanip ulate
Ġdistur b
Ġdipl om
Ġrecru it
Ġreck on
ĠDef ense
Ġsculpt ure
Ġoverwhel ming
ĠHung ary
Ġsymm etry
ĠJehoi ada
hma el
Ġchimpan zees
Ġced ar
ĠSens or
C r
F A
M ade
M ail
T rad
c ou
e ges
i ya
m ans
w idth
Ñ Ģ
in ator
re el
er ts
Ġm asters
Ġb ount
Ġf oster
Ġd ess
Ġd ivers
Ġd uties
es y
ri ous
ĠS om
ust y
Ġgo eth
Ġcan cell
Ġout fit
qu et
Ġv itamin
ast ics
Ġca f
Ġman ually
Ġsee ks
Ġam pl
Ġdis able
Ġad orable
Ġcomp ens
ĠV ice
Ġres et
Ġkill ers
Ġ5 8
ict ions
Ġdec iding
Ġhar ness
Ġhum ili
Ġkid ney
Ġac ne
Ġcr ushed
Ġcur tains
Ġprov ince
Ġmod ules
Ġpres cription
Ġbo ast
ĠNo v
Ġsign ing
Ġexp ressed
Ġspecial ization
port s
ĠPl aza
Ġpersonal ized
Ġred irect
ĠBl ood
Ġbi om
iol is
Ġrob ust
ĠEm peror
Tw enty
Ġpurcha ses
Ġattract ed
ĠAct ually
Ġvac uum
ĠReg ister
Ġdesol ation
van ia
Ġcomplain ing
Ġassess ment
Ġfavour ite
Ġhorm ones
oj is
Ġmemor ial
Ġestim ated
Ġelder ly
Ġgrat itude
Emb roidery
Ġvag ina
Ġinterd isciplinary
Ġstub born
Ġidi ots
A bs
F ood
M aster
M uch
P ublic
b ish
b ai
h ire
m asters
r ator
Ġo ven
er on
Ġm ice
it ated
Ġto ken
Ġd ough
Ġl ep
Ġha z
Ġne ural
Ġse am
Ġso ber
au n
Ġpro state
ĠL A
ĠP eters
ĠT oy
Ġsh orter
em oji
ig ious
ĠH op
Ġr oulette
ĠR iolis
Ġsp ite
ĠJ eb
ĠW ednesday
ĠO p
ĠO il
Ġlo gging
iv a
ick en
Ġwork place
Ġdis ability
Ġunder wear
Ġpre st
Ġacc ent
Ġrem oving
oth s
echn ology
Ġbit ches
ĠSp eak
Ġform ation
Ġface book
ĠAl an
ĠAb u
Ġenv y
ĠAn ne
Ġpract icing
cha nd
Ġmouth s
Ġbi ot
Ġdownload ing
Ġbull ock
Ġstri ve
Ġten nis
Ġmill enn
Ġarch ive
Ġfem in
Ġneck lace
Ġcontract s
Ġpossess ed
Ġexclus ively
ener ife
Ġdemonst ration
ĠVer ified
Ġdelight ed
Ġperman ently
Ġshew ed
ĠOb ama
ĠHor se
Ġannounce ment
Ġdinos aur
Ġaward ed
Ġperce ive
bour g
Ġfortun ate
ĠBat man
ĠFact ory
ĠMeg a
Ġpest il
Ġwip ed
Ġeph od
B ill
D a
E at
G host
L O
X X
d ies
l ined
n els
r ings
s is
u ity
x ml
Ġto ll
en cia
Ġg ird
Ġin herent
Ġhe ars
id ges
out heast
ir am
ĠC roat
Ġj ar
ĠF OR
ĠR a
ĠR ain
ĠâĢ ³
ĠW edding
so le
ĠK laus
Ġunder cover
ru g
Ġapp les
Ġafter ward
ĠIs hmael
ĠCh rome
ale k
Ġtrans m
ret ion
ĠZ e
Ġexam ination
Ġoper ated
Ġtre ad
ĠMar garet
Ġperform er
oid s
Ġfell ows
ĠBen idorm
Ġhor ror
Ġpsych ic
Ġran king
Ġbal d
Ġmagic ian
Ġsignific ance
ĠTool s
Ġpredict ions
Ġsna re
ĠMex ican
Ġclim bing
ĠSur fshark
Ġfasc inated
vis or
Ġrefuge e
Ġfrust rated
ĠVictor ia
ĠId ent
ĠFed eral
Ġintent ions
Ġtow el
Ġpir ate
Ġrit ual
Ġmisunder standing
Ġathlet es
Ġconspir acy
Ġcoc aine
Ġpestil ence
8 00
A my
C ook
D ata
D irect
G iven
M us
R ad
S ky
W oe
f ight
he res
Ġw age
Ġs abbath
Ġc od
Ġc uis
Ġp orts
Ġl oses
Ġst all
ĠS up
ĠM B
ĠL or
ĠP ole
ĠT R
ĠG O
ĠG ran
ĠG olf
ĠH itt
ĠH ug
Ġde w
Ġde eds
Ġman s
ick y
ĠV i
Ġbl ocking
ĠK odi
In formation
ving s
Ġmay est
Ġem ojis
Ġsl ides
Ġcons ol
Ġâ Ħ
Ġed ges
Ġret rie
Ġtravel s
Ġorgan is
ĠCl ark
Ex pl
ĠPl ans
Ġris ky
Ġdi ary
ĠOn ce
Ġest eem
Ġcry stal
Gu ard
Ġexcept ional
Ġimm ense
Ġdiscuss ing
ĠCol umb
Ġlic ensed
Ġbrows ers
Ġdistrib ute
Ġinteract ing
Ġver ify
Ġrepresent ation
aps ed
Ġnuc le
Ġprior ities
ĠJob s
Ġcalcul ate
Ġvine yards
ĠNa ples
Ġdesper ately
ĠShop ping
Ġdish on
Ġswallow ed
Ġperce ived
Ġadopt ion
Host els
Ġsymm et
ĠJess ica
Serv ice
ĠRh odes
Ġdan cer
Ġlaund ry
J oe
U B
a ith
f in
f urt
h ony
j an
r ine
Ġt anks
Ġc iv
at oes
Ġin app
ve mber
le m
al iah
Ġbe ef
im b
im ity
Ġst am
Ġst air
Ġli king
ĠC hange
op ic
ĠA ction
ore r
ĠM ap
Ġwor ries
ĠR aj
Ġpl edge
ime on
ĠJ ab
Ġpe an
ĠO ct
na h
iz ers
Ġco ff
Ġtw ent
Ġper cept
Ġbr ick
Ġpre ferences
ary l
Ġres ort
ial s
ors hip
ful ness
ition ally
Ġname ly
Ġdel icate
Ġatt acking
Ġfree ze
Ġser pent
Ġconnect s
Ġopp ressed
Ġsince re
Ġfig uring
Al ready
Ġprop osition
ĠBr ad
ĠEl sa
Ġbar rier
ĠCar n
Ġprep ares
rest rial
Ġmist aken
Ġsuper hero
Ġfoot print
Ġaud it
Pl an
ĠSc roll
Ġtext book
Ġemploy ed
Ġet hn
ĠFin ancial
Ġavoid ing
Ġrespond ing
Ġiron y
Ġsanct ify
Ġcand le
Ġsusp ic
Ġskill ed
ĠSure ly
Ġric her
ĠView s
oster one
ĠTal iban
Ġscholars hip
Ġcomprom ised
Min imum
Russ ia
ĠOri gin
Ġtack le
ĠJez reel
ĠBod rum
udden ly
D ef
E ight
M ommy
P oint
V illas
a el
b ies
b urn
p hew
re ls
Ġs essions
is ure
Ġn urt
Ġre cept
am il
ĠS od
ĠS ier
Ġli ken
ĠC ole
Ġne phew
ĠL arry
ĠP opular
ĠT aylor
Ġv om
Ġv ocal
ĠE sc
Ġsp it
Ġsu ite
Ġint imate
ĠW he
per t
Ġdis gu
Ġnew est
No vember
du cing
ĠIn vest
Ġsm ugg
Ġ4 1
ĠHe art
ete k
Ġform ing
Ġgra pes
ative ly
Ġbeaut ifully
Ġprotect s
Ġpo et
rop ol
ĠAm alek
Ġ0 4
Ġtre acher
Ġ11 0
Ġ14 0
Ġcommunic ating
Pl ace
Ġdiv ine
Ġpsych o
Ġmis ery
for ward
Ġinf ant
ĠEd en
Ġbra ke
Ġlif es
Ġhack er
Ġfrequ ent
Ġdrag ged
Ġep ic
Ġiniqu ities
Ġge omet
ĠStud y
Ġplugin s
Ġemp ire
Ġconflict s
Ġtum ors
ĠAP K
ĠDis ney
Ġcert ified
Ġconfident ial
Ġvacc ines
Ġdistur bing
Ġsurviv or
Ġvent ure
Ġcrypt ocur
Ġï ¼
ourge ois
ĠGord on
Ġanth rop
ĠThom pson
Ġwheelcha ir
A LL
B ro
C olor
F ire
L ady
M ine
M ult
M att
b ro
r one
r ina
x imity
Ñ Ĥ
Ġt iger
Ġthe ft
Ġd rain
Ġd iving
Ġp and
ed a
ĠI van
st on
Ġth rees
Ġbe gging
Ġhe ap
ac ies
Ġst atic
Ġst ability
ad ok
Ġall eg
ĠB art
ĠT it
ĠT oo
Ġex otic
ĠF ox
ĠR ural
ĠE c
ĠE z
ĠJ eremy
Ġoff line
Ġbl ink
be at
Ġres ur
Ġres il
Ġcomm ittee
Ġmo ld
Ġmin imal
Ġbus h
Ġac ids
Ġrep ay
Ġ8 2
Ġconf ounded
Ġav ail
ĠPro p
uff s
Ġsmall est
ĠBe at
ER S
Ġsupport ive
Ġpartic le
Ġimag ery
ex ter
Ġtou g
Ġleg ally
An n
Ġri pped
ĠTr ust
ĠSam aritan
ĠAn other
Ġforget ting
Un like
Ġhy gien
Ġfool ed
cl oth
Ġcompet ing
Ġhop eless
Per fect
Ġemer ged
Ġneg lect
ĠAng ela
Ġprevent ing
Ġpu ppy
Ġprim itive
Ġanal og
ĠInt elligence
yl um
ĠMad rid
Ġhyd ro
wh o
Ġblank et
Ġmosqu it
Ġguid elines
Christ mas
ĠHig gs
ĠGi beon
Ġprob ability
Ġdiamond s
ĠFro st
ĠDem ocr
ĠIndones ia
ĠIndones ian
Ġpsychiat rist
Review s
ĠEthiop ia
Arch ive
Ġresid ue
Ġjurisd iction
Ġintri gu
Ġinequ ality
ĠDeg ree
7 6
C reat
J oseph
U D
W ar
d es
j ack
Ġt in
Ġw ired
Ġs our
Ġs aints
Ġs iege
Ġc ul
Ġc ups
it ical
Ġd ia
Ġn aught
Ġhe el
ay an
ill ing
ĠS ound
ĠS imeon
Ġwh irl
ĠC ats
ĠB ec
ĠB irth
ĠP oint
ĠP sych
ĠG ed
ig ation
Ġv est
Ġint act
ĠW ol
ĠW izard
Ġover s
Ġover night
Ġam end
Ġro be
Ġro de
Ġfl ames
Ġhel met
vel ope
ru p
ĠSt at
Is rael
ĠHe aven
mer cial
Ġel abor
Ġrep orter
Ġdeal ers
ĠAl i
ĠSu ites
Ġorgan izing
ĠEx cel
Ġrece ipt
ĠCl oud
ĠBr at
ĠMar ie
Ġsuper n
Us ually
sh ine
ĠEm ploy
ĠQu ick
Ġsqu ad
Am ong
Ġstraight forward
Ġble nd
Ġdepend ent
ĠChe ats
ĠPal m
ift een
Ph il
cel and
ĠWith out
enn is
Try ing
Ġconvert or
Ġexec ut
Ġcirc us
pro duct
Ġfol k
Ġapolog ies
Ġsna p
ĠDub lin
ĠAut o
Ġingred ient
ĠCanaan ites
Ġtattoo s
Ġdimens ion
ĠEmb ed
Ġrum ors
ĠStan ford
Ġcomprom ise
Ġexcess ive
Ġdecre ase
Ġfacil itate
ĠZeb ul
Ġtelesc ope
Month ly
Ġanten na
ĠVirt ual
Ġpyram id
weg ian
7 1
D ue
L A
P oor
S ad
T RA
c oin
h or
i ary
j o
o vers
t or
v i
Ġ rib
Ġt ang
Ġa uthors
Ġs ized
Ġto mb
Ġd im
Ġd uration
Ġd iox
Ġn ick
an while
ed om
Ġl emon
om o
Ġh ub
Ġwe lf
Ġre un
ac el
im ental
Ġst unning
am ie
all as
ĠA irl
ĠM oo
Ġab oard
Ġpro xy
ĠB ow
Ġout rage
ĠT enerife
Ġcon j
ĠH ait
Ġcl own
Ġper f
Ġfind ings
ĠSt ars
ĠSt yle
Ġimp ress
Ġlong est
ang el
Ġinc oming
ath on
ĠIsrael i
ee red
Ġreg ulation
Ġsin ners
Ġeas iest
Ġ7 9
Ġlight er
Ġchar ter
Ġfore cast
Ġdet er
Ġadv ised
Ġstrong est
Ġgovern ance
Ġeconom ists
Ġview er
ane ous
ĠAb el
Ġbuy er
Ġopt ional
ma res
ĠSe attle
Ġabs urd
ĠAre a
Ġident ification
Ġcompan ions
Ġtext s
ĠDoll s
Ġfat igue
ĠCha irman
acc o
ij ing
pha h
Ġlog ged
ĠPer u
Ġunc over
ĠFin land
OD E
Ġfirm s
Ġsuspect ed
Ġtun a
Ġreward ed
yl an
Ġprophe cy
Ġscript s
Ġrat io
ĠFore st
Ġarg uments
ĠCount ry
Ġphysic ist
ĠCarol ina
ĠEqu ina
Reg ister
ĠEnter prise
Ġster il
PL i
Ty pe
ĠPhot os
Av oid
Ġredu cing
ĠAdv anced
Ġpharm aceutical
Ġsock ets
ĠRA ID
ĠReh oboam
ĠMun ich
Ġmol ten
oen ix
Ġparan oid
Ġwelf are
E qu
P ark
R P
S al
S ale
T ur
W E
g ment
t ic
u ates
ĺ ħ
ou ra
Ġc ram
Ġc unt
Ġb ureau
Ġb ourgeois
on gh
Ġn er
Ġg y
Ġand roid
et o
le ans
se ction
Ġe ager
Ġre he
Ġst ing
ĠC C
ĠC ir
ĠC AP
Ġall ey
au er
ĠB ath
ĠP M
ĠP OP
ul iar
ĠT ai
ĠD eal
ĠD NS
Ġcon sec
ist ered
um ans
Ġsp ouse
ĠJ ar
ĠN EW
ĠN apht
Ġher ds
Ġint el
ci p
Ġqu iz
Ġad renal
Ġcomp uls
ĠV is
Ġbet s
Ġbr ow
Ġpre ced
Ġ5 6
Ġmin us
aw a
Ġtrans pond
Ġext inction
Ġroom mate
Ġinter cept
Ġhard est
Ġdr un
Ġaff ection
port ant
ott e
Ġ[ -
An na
Ġhost ile
ĠAppl ied
Ġconc ub
sy l
Ġve ins
Ġground s
Ġstat ist
Ġrad i
Pro fess
ĠAnt ar
Ġdw ar
Ġmedic ines
ĠChe ap
Ġimpact s
Ġtour s
Ġband width
Ad v
Ġign ored
ĠBet a
ĠStud io
pro of
ĠJul ia
ĠRoy ale
Ġspo iled
Ġadapt ed
ĠFore x
Ġmagaz ines
ĠFe atures
Sm all
Le onard
Ġmanufacture rs
Ġparad igm
ĠVol vo
Ġsole mn
Ġshr ink
Disc ount
forest ation
ĠAD SL
Ġconqu er
Ġretire ment
Ġphotograp hed
ĠPL US
Ġhes itate
Ġtempor arily
Ġpec uliar
Ġexped ition
bek ah
ĠExec utive
Ġtranspond ers
3 00
B s
D ay
E st
E duc
I d
L ou
P an
S k
U pon
f a
h o
i ang
l ights
p at
p ace
x ual
Ġa ug
Ġto wers
Ġp ause
ed ience
ic he
ad der
Ġan k
ĠA uthor
il ation
Ġj aw
ĠL inda
Ġor al
ĠT agged
ĠG ab
Ġlike wise
Ġcon stitution
ig hed
ĠH un
ĠH ans
Ġsa kes
Ġsp am
Ġsp ying
ĠJ r
ĠJ ep
ĠN one
Ġcl ust
Ġun ion
Ġcomp osed
Ġcont amin
be an
Ġunder graduate
ew is
Ġlea gue
Ġcha sed
ple asant
Ġend urance
Ġnight mares
Ġcr ashed
Ġreg ener
Ġey eb
Ġinter connect
Ġbro ok
Ġtri ple
Ġav iation
pr ints
Ġbreak through
Ġoper a
vern ment
ĠSh il
Ġclear ance
Ex cellent
br ush
Ġphys i
Ġmer chand
ĠSc ar
Per form
ĠSec ure
amb urg
ĠDel hi
Ġpurcha sing
Ġappreci ated
aph os
Ġtend s
Bl ood
Ġclaim ed
Bet ween
Ġconstruct ed
Ġsuspect s
oles ter
oles ale
Ġexpand ed
Ġwid th
ĠDa isy
ĠAny thing
Ġdram a
ĠCam bridge
Ġliber al
Ġquant ity
Ġhom icide
Ġexceed ing
ĠEconom ic
ĠSet tings
ĠOlymp ics
ĠSomet imes
ĠDi pl
Ġacknow led
Ġastron aut
Ġstrict ly
Ġconclud e
Ġargu ing
Ge orge
rim ination
Ġdispl ays
Ġuncertain ty
adel ph
Ġwrit ers
fol io
ĠPeters burg
Ġinapp ropriate
ĠSier ra
Ġdiox ide
Ġ[- ]
6 4
C ity
D S
F ill
F ortunately
J ul
J oshua
S uddenly
W ay
a o
s it
Ġw itches
is le
Ġb in
Ġb ats
on ic
Ġf og
Ġd orm
Ġd imin
Ġl ingu
ĠS kin
Ġab ol
Ġwor sh
ĠB E
ĠB I
ĠB roadcast
ĠL isa
us hes
ĠT otal
ĠG MT
ĠD ora
Ġex pense
ĠF ine
ĠH oney
ĠN avy
Ġsha ve
ĠW ire
ag os
Ġen velope
ĠU g
Ġqu ot
ff ect
ip h
Ġun pleasant
ĠK iss
Ġunder way
ĠSt y
Ġ5 3
Ġdec ides
Ġche ated
ever al
Ġstr ang
Ġsl ots
Ġfin ishing
ific ates
els on
Ġrest ing
Ġprov ision
Ġpres um
Ġstory t
Ġcreat or
Ġmess y
ĠApp lication
Ġcor rel
Ġopp ression
ĠQ atar
ĠInd epend
Ġcontact ed
Ġpublic ation
ĠOh io
Ġvir al
ĠGerm ans
Ġgrand children
ĠPol ice
Ġmad am
te enth
Ġauthor ized
AP P
Ġfold ers
Ġload ing
Ġmechan ics
Ġreflect s
Ġinflu enced
Ġtim ber
ĠLib rary
Ġneighborhood s
Ġassum ing
Ġaccur acy
Ġteen age
Des cription
Mon itor
Ġdiam eter
Ġemotion ally
Ġfrust rating
Ġnin th
Ġprophes ied
Ġstim ul
ĠFriend s
Ġsack cloth
Ġpip es
ĠBlo is
Ġintim id
Ġambit ious
Ġcott on
Ġna ive
ĠRespons ibility
ĠSoci ety
Ġcuis ine
syl vania
adelph ia
A A
B atch
F ound
J acob
L ock
S ar
S outh
W alk
d og
e enth
h uman
p iece
r outes
w alk
Ã £
Ñ ģ
Ġt roll
Ġt ropical
re al
re ase
Ġw rest
Ġto re
Ġd ip
an ed
Ġg rill
ĠI ce
et ically
Ġth ie
le hem
Ġbe ats
ĠS ES
ur b
ĠC old
ĠA V
Ġas ylum
ore n
ĠB ag
ĠB ah
ĠB ase
ĠL iving
ĠT el
ĠT ext
ĠG rad
ĠD C
art en
Ġv itamins
ĠR w
Ġsp at
Ġpl acing
ĠJ oy
ard ed
Ġtr act
pl ing
Do ctor
Ġgu itar
ish ment
Ġwr ites
oin ts
pe e
Ġche f
Ġspec ified
az ine
Ġtra vell
Ġreg ul
Ġprogram med
Ġcoll eges
ax i
Ġret ired
ĠZ adok
Ġreason ing
ĠSh oot
ĠMar x
Ġclean se
Ġpublic ly
ĠCon ver
Ġtrad itions
Ġworth less
Ġbi as
Ġinvest ing
Ġchallen ged
Ġdeg rad
Ġenter pr
Ġalt itude
Ġestab l
ĠCha mp
Ġinnov ations
Ġreb el
ĠFin n
Ġ199 8
Ġremind er
Ġden ial
Ġver ification
Ġtele communications
Ġrelax ed
Ġchick ens
Ġindic ators
Res earch
ĠIm perial
Ġassum ption
Ġpoison ed
Ġentreprene urial
ĠBeth lehem
ĠAP P
Ġscar let
Ġexceed ingly
ĠMount ain
Disc over
Ġforb idden
Ġadministr ative
Ġsyn chron
Ġoverwhel med
Ġrelie ved
ĠBarb ies
Ġpoo rest
ĠWars aw
Cent ral
Ġunn ecessary
ĠOx ford
Ġmetabol ism
ĠUnc ategorized
Ġprovin ces
ĠThing s
ĠJeb us
ĠNapht ali
D ig
L uck
N ah
R a
T I
c hat
d ale
e ks
h ouses
l ord
o z
ha riah
Ġp c
Ġbe aring
Ġhe ights
Ġe go
Ġe agle
You ng
Ġan onym
op er
op sy
ĠA mb
Ġall ies
pp ers
ĠL ands
ĠP salm
em bed
Ġal uminum
ĠF ly
ĠH ob
Ġsa f
ĠR yan
ĠE p
ĠN O
ĠN in
ĠN ev
Ġen roll
Ġcl o
Ġun ited
are l
ile m
Ġinc om
Ġkind ly
ere k
Ġrep aired
Ġlist ing
Ġcoll ar
Ġmiss ile
ĠJo ash
Ġpat ents
ĠTh or
Ġval ued
Ġdist inction
Sh ort
Ġ11 9
Ġbi od
Ġcool ing
Ġgrand parent
Ġtrack ed
Ġmer ry
Ġdoctor al
Ġinvol ving
Ġ> >
ĠAp artment
Ġlay ing
Ġconsider ation
Ġalt ru
Ġobs ession
Ġsqu ir
Ġpsych ologist
Ġrepl acing
Ġmis chief
Ġagre ements
ĠPlay er
Ġbal anced
Ġhack ers
Ġpu rif
Ġrelig ions
Ġassoci ation
Ġfruit ful
Ġcub it
Ġindepend ently
Ġyell ing
Ġindic ates
Ġir r
ĠKey logger
Fin ch
ĠRem ove
Ġtiss ues
ĠIS O
Ġoccup ied
Ġanx ious
Ġisol ation
ixt ure
bour ne
Ġecosystem s
Ġaston ishing
Clear ly
Ġhypot hesis
Ġthrill ed
ĠJos iah
ĠBos nia
new s
Ġoffs pring
offe e
Ġmerchand ise
sit emap
A f
B i
C C
F ig
J apan
P G
R ather
f are
i our
m aster
p ired
r ust
Ã ¢
Ġa we
Ġw aking
Ġw ages
Ġw ander
ll ie
Ġg ases
Ġh ier
Ġh ipp
as ive
ac ea
Ġst amp
Ġare na
ĠA RE
ĠM ember
ge red
ĠB inary
ĠL as
ĠL ang
ĠP retty
ĠP aphos
ĠT een
ĠG ate
ĠG ary
ab a
ab ama
ist a
qu es
ĠH amm
Ġdid n
ĠJ u
ĠN on
ĠN am
ĠW oman
ĠO ak
ff rey
ĠY e
Ġar bit
ĠK elly
ĠSt ri
Ġapp arent
Ġfather less
Ġent ity
ĠRe bec
Ġsl ower
Ġext rem
Ġfact ories
Ġmat ched
Ġed iting
Ġfore ns
ĠTh y
Ġexp enses
ov ation
ĠAm os
Ġpar aly
Ġdam ned
Ġvar iation
Ġsun set
Ġlim b
Ġcal ories
Ġfix ing
Ġdifficult ies
ĠCont ent
Ġsens ation
Ġgrad uation
Ġdraw ings
ĠSha re
ĠPhil adelphia
Ġhero in
ĠOpen PLi
Ġroll ed
Ġinstruct ed
enn ifer
Ġbab ys
ĠAcc ording
Ġgain ing
rit is
Ġlands capes
Ġinvestig ating
Ġlibr aries
Ġdestruct ive
Ġevol ving
Ġdescri bes
Ġexpress ions
ĠPost s
Ġconcent rated
AC K
Ġpuzz les
Ġoccasion ally
Ġdism ayed
Ġconst rain
Coll abor
Ġsynt hetic
Ġrelie ve
ĠCert ificate
Ġbot hered
Ġmarvel ous
Ġpix els
ĠPenn sylvania
Ġrenown ed
ĠHawai i
ĠSyd ney
ĠHoll and
ĠSod om
C opy
E X
M W
R ay
S aid
U ST
u ght
z ee
Ġ vel
re a
Ġw rought
Ġo ak
Ġc rop
Ġb usted
Ġd ilem
es Zone
Ġl y
Ġg n
ĠI celand
st orm
Ġth irt
Ġre vel
im ents
im ming
im edia
Ġst rand
Ġst unt
Ġk icking
ĠS ina
ĠS ara
ĠS leep
ter ies
Ġas semble
ĠM os
ĠM ath
Ġab n
ĠB ol
ĠB right
ĠP ad
ĠT ara
ĠG alaxy
Ġthere by
Ġex agger
um m
ĠH erm
Ġr ug
res pect
ĠW at
Ġshe pherds
Ġday light
Ġgu ides
Ġwhere with
In s
Ġres on
ult ies
ĠCh loe
Ġhar p
Ġrep ent
uc ed
Ġgr ind
Ġrest art
Ġ8 9
Ġexpl ode
Ġpat rol
Ġref res
Ġ12 5
ĠAl abama
Ġty ping
ĠPh ys
ĠSh ield
Ex actly
fl ow
Ġpost ing
ĠEl ias
Ġpract ition
sh ot
Com ing
ĠPar liament
ĠSha d
Ġcompet itors
Ġste pping
Ġhonest y
Ġpal aces
Ġsubs id
Ġdefe ated
Ġdemand ing
Me anwhile
cient ists
Ġinha b
IS S
Pr incess
Ġmaintain ed
Ġoptim ize
Ġrub les
Ġdefend ing
Ġneur on
Ġdece ived
Dr ink
IC E
Ġgri ev
Ġmuse ums
Ġfurn ace
ĠSk ills
ĠFil ter
ĠSlo ven
Ġcas inos
Chan nel
keep ers
Air port
ĠDen mark
Ġinev it
ĠLab an
ĠHig her
ĠIM AP
ĠLand ing
oust on
Bel ow
Ġpubl ishing
ĠKra kow
Ġneuros cience
ĠStock holm
Wind ows
ĠRog er
loy d
ĠKo hath
Ġincon ven
Ġciv ic
ĠRebec ca
B ay
B ra
N orm
O l
T old
U N
r in
y nt
Ġt p
Ġa uction
Ġm ajesty
it udes
Ġf ame
Ġf itting
Ġf olly
Ġto b
or ah
Ġg aps
st ick
ot ive
Ġbe ans
Ġit ch
Ġdo ck
ec hes
ĠS ep
ĠS ister
ĠS ony
ĠC orn
ĠL am
ĠL uxury
ĠT es
ĠT ags
Ġsh ocking
em ploy
ĠH R
Ġde leg
Ġsa ves
ĠR alph
Ġman us
ĠN ort
ĠN ote
Ġher bs
Ġover d
Ġam ateur
Ġcomp ly
Ġbet a
Ġfl atter
ĠCh ile
Ġcount y
Ġdisc retion
Ġsur g
Ġinv iting
Ġbre eding
Ġinter fere
Ġdr um
Ġmod es
ĠZ en
ĠEuro sport
ĠTh ink
Ġpo ker
Ġfr action
Ġ9 6
Ġtrust ing
ov o
Ġrece ives
Ġanim ation
vent ually
ĠRes idence
Ġbar ley
ĠPr in
Ġspend s
Ġident ifying
Ġsecret ary
Ġselect ing
ĠTw in
Ġsens ory
Ġhast e
Ġconv ention
Ġtarget ed
ĠRed esZone
Ġrout er
Ġregard ed
Ġcontrib utions
Ġinteg rate
Ġpra ises
Ġamb ition
Ġpredict ed
Ġcontroll er
Ġbell s
ĠAlex ander
Ġrom ance
Ġsch iz
Ġinstitution al
ĠMag ic
Ġdynam ics
ĠFore ver
ĠWinter fell
Ġsurprising ly
Ġrestrict ed
Comp are
Ġcord s
Ġrebell ed
ĠRest aur
Ġadministr ators
Ġbuck et
Ġelephant s
Ġstrengthen ed
Ġspin ning
Ġweep ing
ĠHung arian
Inc lud
Ġrang ing
Ġthorough ly
Ġpanc reat
ĠMorocc o
Ġignor ance
Ġunderest imate
ĠHit ler
Ġproport ion
ĠGAM ES
Ġhybr id
Roy al
Ġrhyth m
Ġrans om
Ġtwent ieth
A B
F O
F ight
G H
M et
R ic
T D
T ook
U lt
b ly
l otte
ou b
Ġw estern
Ġc ope
Ġd rought
Ġp ad
Ġg ad
Ġth ither
Ġh ollow
Ġh ij
ion a
as cript
Ġre wards
Ġst are
Ġst adium
ad v
ĠS ans
Ġso da
od a
ĠB attle
ĠL yn
ol ve
ĠT ouch
ĠG em
ĠD in
ĠD ra
Ġcon ferences
ain less
ĠH amburg
Ġr ack
Ġr ounds
Ġpl a
ell s
red ict
Ġtr aces
Ġcl uster
How ard
Ġtw in
Ġcomp osition
ĠK ad
ru gu
ond s
Ġreal izing
All ow
Ġ4 50
ĠHe ight
Ġlast ing
Ġac res
Ġinter ference
Ġart if
Ġconf using
Ġtri umph
ĠAr du
Ġmor row
Ġseem ingly
har t
mb re
Ġcontin ents
Ġ18 9
ĠMar ine
ĠGu y
Ġri gor
iter rane
Ġcompan ion
osh op
ĠComm and
Ġmicro phone
Cont rol
Ġparticip ating
Ġpoll uted
Ġcong ratulations
Ġcontain ing
Ġrelax ing
Ġrobot ic
ĠMark et
Ġpill ow
Ġbacter ial
ann is
Ġinj ust
Ġcollabor ative
Ġphil anth
Ġadvent ures
ĠSur vey
ĠJul ie
Ġbrief ly
Ġremem bers
ĠCap itol
ĠTor onto
Ġsimpl er
Ġjew els
Ġstab bed
ĠPur chase
ĠSen ate
Ġvib rant
ĠLuc as
Prom ise
Rel ax
rans ponder
ĠBern ard
Ġattach ment
Cou pon
Ġhoriz ont
Americ an
oso ever
ĠTv headend
Dou ble
Ġtrib ute
Ġhob by
ĠRus sell
ĠJour nal
Ġbount y
Ġmanus cript
B outique
D om
S everal
T ra
c ue
f ox
l aw
n an
u gs
Ã ³
Ã Ń
Ġ Therefore
Ġt ense
re ced
Ġw izard
Ġm otel
Ġb orne
Ġf oul
Ġf ountain
or ite
Ġp ul
Ġg al
ar ium
ic ator
ic iency
Ġha ul
Ġe phah
as i
ri ver
ir able
ir cum
all eys
Ġso cks
ĠB it
ĠL if
ĠL loyd
ĠP ool
us k
Ġcom edy
Ġsh ining
Ġv alleys
ĠH at
ĠH ope
Ġr ank
Ġsp otted
ime i
ĠN ah
ĠN ike
ous y
ord e
Ġdis gr
Ġcomp lement
are th
Ġcont ag
ĠV oice
In fo
Ġfu g
Ġpre cept
Ġsc ope
Ġdif fer
Ġgl ue
Ġhar ass
Ġsk ies
Ġcompl aint
Ġmom my
Ġcur tain
Ġhat ch
Ġmind ed
Ġmind set
air y
Ġprov isions
Ġ6 7
ĠPro per
Ġnice ly
ĠAl b
Ġprin ts
Ġ200 2
Al ong
Ġswe ating
Ġcap ita
aus es
Ġmarket place
Ġcapt ives
Ġalong side
Ġappro ve
Ġmusic ian
Ġcool er
Ġstat ute
hem atics
Ġcommon ly
Ġrespect ive
Ġskin ny
Ġcook ed
ĠOr leans
ĠLe one
Ġdraw s
Ġbenef icial
Ġconv icted
oph ren
Ġreserv es
Ġpred ators
wor th
Ġreb uke
Ġconsum ing
Ġban ner
ĠMic ah
ĠPer haps
Ġaccident ally
Ġinfl amm
Ġfort ified
Ġcontain ers
ĠVal encia
Ġcirc uits
Ġdiscover ing
Ġ36 0
Ġreve als
ĠSa f
ĠSa fety
Ġcow boy
Up d
Ġpure ly
ĠUpd ate
Ġcorpor ation
Ġcontinu ously
Ġcock tail
oget ica
Ġelement ary
Ġtort ured
ĠIns pector
ih on
Ġexhib it
Ġrecru ited
Ġdict ators
Russ ian
Det ective
lah oma
ĠFem ales
Ġalpha bet
Ġdiction ary
ĠStr ateg
ĠZur ich
Ġsuitc ase
ĠSup reme
ĠHait i
ĠADSL Zone
ĠRw anda
Ġbiod iversity
Ġgrandparent s
D am
F ac
F ear
G onna
G reen
H oly
L earning
c ence
h ind
n as
o a
p ad
r idge
s m
s ung
t here
w ife
Ġa rom
Ġa wards
Ġw ished
Ġm ant
Ġm aze
Ġf ier
ĠI an
Ġth orns
Ġhe els
id al
ĠS eg
ĠS elf
ĠC able
ĠC amb
ĠC auda
ĠM ission
Ġcan vas
est ion
ol o
ĠP ha
Ġus ername
ĠD J
Ġsp ont
ĠâĢ ĭ
ĠJ unior
pl us
Ġcl oth
Ġcl ues
ĠY ears
Ġper vert
Ġbr acel
erv ing
ĠSt u
oll o
ang a
Ġcar c
ĠWe ight
Ġsl ice
St ar
Ġrest rain
Ġpres cribed
Ġ7 8
Ġprof iles
Ġloc ally
Ġgra ves
Ġins ert
Ġins ulin
Ġspecial ty
Ġter race
ĠAl ban
Ġpain s
Ġtravel ers
Ġpar ks
Ġtre ason
Al right
Ġprop ag
ĠMan chester
ĠInd ians
ĠAll ah
Ġvar ied
Ġ25 6
Ġappro ached
Ġtrad es
Ġpolit ician
Ġsell s
sh ore
Ġrespect s
Ġglad ness
bor ne
Ġcomb ines
umb ai
ĠNor wegian
Ġtransl ations
Ġcy l
Ġreb els
Rem ove
Ġemer ge
Ġfem ales
ĠMe gan
Ġtour ists
Ġring ing
Ġfrequ encies
Ġinit ially
Ġload s
Ġharm ony
Ġarchitect s
Ġpet ition
ari at
mar ks
ĠMars hall
ĠReg istration
Ġconfig ured
Ġprofit able
Supp ose
Ġefficient ly
Ġphenomen a
Ġunp reced
Ġwarrant y
Ġcoord inates
Ġreck less
Ġtwist ed
Ġrit uals
Ġexplo it
Ġemphas is
ĠSales Force
Ġimmig rants
ĠFoot ball
ĠPy thon
Ġzomb ies
Ġdomin ant
ĠConsult ing
ĠBron x
Ġadequ ate
Ġelabor ate
Ġdrun ken
Ġinhab ited
Ġtob acco
Ġschiz ophren
F ix
N atural
N HL
S um
h oles
p ng
t ech
v als
Ġo y
Ġc ows
Ġc oded
Ġy oga
on er
Ġf NHL
or ous
Ġl awn
at y
at he
ar ious
st s
ic us
Ġhe ir
Ġhe ating
ay a
Ġre vers
Ġdo p
ro be
ri k
ĠS pl
ĠS arcoidosisUK
if i
if ty
ĠC ore
ĠA ra
Ġas cend
Ġkn ight
ĠM E
ĠM ade
ĠM aker
ĠB ush
ĠL an
ĠL egal
ĠP ant
ĠT s
ĠT u
ĠG S
ĠD allas
Ġcon sole
ist ance
Ġal oud
ear ly
âĢ ĭ
ĠR uth
ĠR ental
Ġsp ices
Ġca ption
Ġno ises
Ġlo ans
Ġch olester
Ġfe at
iz able
ci le
Ġcont empt
Ġro oft
ĠK id
ĠK ansas
Ġdoes n
Ġbu nd
Ġsc ars
Ġrem edy
Ġem pt
oc ode
Ġsupp lication
Ġlast s
Ġear liest
Ġgl imp
ere rs
ĠRe bekah
Ġinv asion
Ġtrans mitted
Ġorder ing
Ġcoll apsed
Ġmiss ions
Ġfollow ers
Ġpat ri
Ġintern ship
Ġ9 11
eb ook
ĠAs aph
ousand s
ĠSu ite
Ġcontin ual
fl ower
ĠBr idge
Ġmult ic
Ġactiv ation
hold ers
Ġresult ing
cha e
ĠBl ock
Ġaccept ance
Ġweb page
Ġfeed s
Ġsum mon
zz le
Ġwild life
Ġhang ed
Ġgrad es
Ġlaun ches
Ġbelong ing
ĠMic key
agn etic
Ġpun ct
ĠMin i
Ġuncle ar
Got ta
ĠPark er
Ġcontrib uting
ĠColl ection
Ġjoy ful
Ġfashion ed
Ġrespond ed
Ġeast ward
de as
Ġdepart ments
Ġ198 4
Ġir rit
ĠBonus es
Ġreleas es
Ġinvent ions
Ġprodu cer
ĠFe ature
ĠMill er
Ġwarri ors
Ġrenew able
Ġheark ened
ĠGil gal
Ġprevail ed
Ġskelet on
Ġgrie ved
ĠCale b
Ġdevast ating
Ġgest ure
Bea utiful
ĠCars on
Ġrecyc ling
Ġorb ital
Ġportra it
ethe less
Ġbos om
Ġunst able
Ġoppon ent
Ġhygien e
ĠZebul un
Ġbrow se
adv ant
Ġinjust ice
Ġunpreced ented
Ġglimp se
0 15
5 2
B M
B roadcast
C S
C ool
C ute
D E
F il
F OR
F ashion
L ocation
M m
M or
M aking
O LI
S us
S ubscribe
T er
Y ea
b en
b ial
c ular
c ultural
g ary
h ots
m i
n ame
Ġt ide
Ġthe at
Ġs or
Ġc oding
Ġf ow
Ġd u
Ġd ys
Ġd ual
Ġp up
an ner
Ġl ousy
ar med
st ore
Ġwe ars
ac har
Ġdo c
am ous
Ġk in
ec hariah
ĠS andy
ĠC ru
ĠC ODE
ĠM ig
Ġse min
Ġab ide
Ġj azz
ĠB ry
ĠL ed
ĠP ope
ĠG ro
ĠG osp
ĠG reg
Ġcom ics
ĠD aryl
ie val
ĠF at
ĠF le
ĠF est
Ġr ays
Ġsp ies
Ġpl ag
ment ation
ĠN im
ĠN ine
ĠN ap
Ġover look
ob ia
Ġbl ows
ĠK h
ĠIn form
Ġcar ved
Ġcount less
Ġhar bor
Ġent ities
Where as
Ġstr ongh
Ġtrans cend
Ġfun g
any a
Ġra ven
Ġhuman itarian
Ġexc uses
Ġ6 6
ĠBe er
ĠBe ijing
ef its
Ġnet working
ots pot
Ġsix ty
ai ries
Ġlab s
ĠSam sung
Ġglobal ization
Ġsurv iving
Ġcal f
Cl aire
urs ed
ograph ical
eral d
irm ware
Ġchannels News
Ġtransl ator
Ġemploy ers
TC HA
ĠIP TV
Ġdetect ed
ĠLook s
Ġbooking s
Ġcondition ing
Ġrepresent ing
Ġcontain er
Ġmarry ing
Ġqual ifications
Ġsanct ified
Sec ure
Ġanaly tical
ĠRec overy
Ġperspect ives
Ġwid get
ĠPass port
De an
Ġpha ntom
Ġspr ings
Ġshield s
Ġshr imp
Techn ology
WH O
Ġthres hing
ĠWil son
Ġintu ition
Ġshif ts
Ġ< #
ĠDog s
ĠMult i
ĠExpl orer
Ġenthus i
Ġcupc akes
Ġsubstant ial
Ġaster oid
Ġsho vel
Ġdess ert
Ġstrongh old
E ventually
F unny
G ee
G rad
K iss
L ater
M arc
T ony
a fter
b ag
b lock
m od
t ra
t een
u ating
Ġ ounce
Ġc ured
Ġc ement
Ġc inema
it ivity
ing o
Ġd ated
Ġn ig
Ġl azy
ĠI ng
ec han
ĠS ad
ĠS ham
ĠS cript
Ġnot ebook
ĠC P
ĠC ON
ĠM ethod
Ġab hor
Ġpro ver
ĠB lessed
ĠL ewis
ĠP ict
ĠP rest
us co
ĠT ib
ĠG aza
ab lo
red ients
ĠJ en
ĠN ab
Ġint ensity
Ġnow adays
ich olas
Ġen light
Ġen chant
reat ed
ak a
Wh is
Ġact ed
ip le
ĠK atherine
Ġsc andal
ne um
ĠIn fo
Ġ5 4
Ġsupp liers
ib bean
Ġent ers
ĠUn iverse
ĠWe ek
cy cl
Ġtra ject
Ġwait ress
Ġhat s
Ġinter ven
Ġprov oked
Ġexpl icit
con y
ĠPro xy
Ġval iant
Some how
man n
ĠTV news
ĠPh oenix
eed s
Ġorgan isation
Ġcustom ize
Ġbar riers
Ġred ef
Ġtom ato
Ġdownload s
Ġsun rise
Ġblack mail
ĠBar ry
Ġmer cies
Ġdiv isions
ĠAnt i
Ġviol ation
Ġer ase
ĠMon ster
Ġinstit ute
Ġstrength s
ĠJack ie
Ġemploy er
Ġautom ation
wor thy
amb oo
Ġreb oot
Ġban ned
Ġbattle field
ĠFrank furt
Ġachie ving
Ġblind ness
ĠProduct ion
back s
Ġunf old
Ġpartners hips
EG O
Ġmagn itude
Ġdiscover ies
Ġaccom pan
ĠSim mons
Ġchair s
Ġcalcul ated
Ġresearc her
Ġairpl anes
Ġclassroom s
Ġce ased
ĠRom ans
Ġmig ration
ĠSen ator
Ġtempt ed
Ġtrump ets
Ġshif ting
Ġinstinct s
Ġsurf aces
ĠRu ble
Ġwa ist
Ġchimpan zee
Ġclar ity
Ġprol ong
ĠSus an
Ġstere oty
Ġchromos ome
Ġorganis ations
ĠSina i
Ġsurg ical
7 9
B G
C E
D R
L atest
M at
M AN
N ick
P enny
T O
e u
m ont
x es
nd ar
Ġm ixture
Ġb ent
Ġf uss
Ġf ox
Ġto e
es ar
Ġp ose
Ġp umps
ĠI mm
st e
st ar
Ġdo d
im ated
ĠS ev
ĠS EO
Ġli ability
Ġnot ification
el ing
ra ight
ĠC her
ĠC ream
ĠC airo
il ah
Ġpro st
Ġpro stitution
ĠB or
ĠB ureau
ĠL ut
ĠL abor
ĠL aptop
ĠP a
ĠP rep
ĠT all
ĠT ree
Ġv igil
ĠF ut
ĠF und
ĠH ang
Ġde ed
ell o
Ġpe ers
ĠN eg
ĠW IT
ci ally
Ġdis advant
Ġun employ
Ġcomp aring
Ġcomp elling
Ġlet hal
Ġbu ys
Ġres ume
Ġapp ar
Ġwr ink
ens us
Ġcar pet
Ġche ek
ps es
aw y
Ġind ignation
Ġkid neys
Ġac ute
Ġsl ap
uc ose
Ġsim ulation
Ġpres ervation
Ġed ition
Ġ7 4
ĠAl pha
Ġguess ed
ĠShe m
ĠShe ma
Ġclass ical
ĠPl aces
ĠGu ys
Ġclean er
ĠCar ibbean
Ġenc ount
ĠSe an
Ġz ones
Ġgrand ma
ĠTrain s
Ġstri king
Ġport folio
Ġclick s
Ġstruct ural
ĠMed iterrane
Sp y
Ġcourt esy
ĠMaster Card
ĠBu ild
Ph ot
Ġens ures
ĠPer fect
Ġunc overed
Ġvari ations
Ġlabor atories
ĠDet ails
ĠStud ents
Ġdisp osal
Ġattempt ing
Ġoptim ism
Ġdiagn ostic
Ġcollabor ate
ĠBal ak
Ġdescri bing
ĠGrand pa
ĠWal t
Ġjournal ism
Ġconsult ant
Ġrefer ring
ĠSil as
Ġsettle ment
umn i
Sim ply
Ġagg reg
Ġske pt
ĠKnow ledge
Ġdipl omatic
onom ic
Ġobey ed
Hope fully
Ġment ally
Ġprivile ged
ĠBed room
Ġestim ates
Ġinvolve ment
Ġcraw l
Ġfram ed
isp here
ĠMorocc an
ĠMaterial s
Ġcatast rop
Ġsquee ze
hett i
ĠAnaly tics
ĠConver ter
6 5
A st
A round
B ud
C ast
D i
D em
D eb
H istory
M em
R ef
i ated
i had
m oon
n i
r ators
s at
u w
u pp
Ġt urt
in ea
in burgh
Ġw ool
Ġb ass
Ġf rog
Ġd ice
Ġd ull
Ġin hib
ĠI gn
Ġth rive
ic ating
se en
id el
as a
Ġst ack
ri ages
ĠC ab
ĠC PA
ĠA ward
ce llen
Ġkn ocking
Ġpro ves
ĠB urn
ĠP el
ĠP od
ĠG ath
ĠD iam
ĠD ylan
qu o
qu ired
Ġv oy
Ġv ivid
ĠF DA
Ġsu ited
Ġoff ensive
pl ates
Ġch ill
ber ries
ĠU HD
ick er
Ġgu ided
ĠV S
ĠV illa
Ġbl o
Ġar c
oc key
Ġdisc rimination
Ġgen etically
Ġtra its
Ġpass ive
ĠZ ero
ĠZ echariah
Ġ8 4
Ġmor ality
aken ed
ĠAs k
bo ards
ĠPl ace
ien ces
Ġreview ed
Ġaw fully
Ġperform ers
Ġve nd
Ġshoot er
ned y
ĠYork er
Cl ub
Ġcir cul
Ġgrand son
EC T
ĠOr ion
Ġstri fe
Ġhospital ity
ĠTrans posh
Con version
Ġforeign ers
ĠArt icles
Ġcivil ian
che st
Ġcelebr ated
Ġbreakfast s
Ġrecommend ations
Ġcirc ulation
Ġiron ic
Ġguard ian
Ġpool s
ĠVen us
Ġrevolution ary
Ġtemper atures
ĠAlex and
Ġsubscri ber
Ġphilos opher
Des ign
Wor ks
Ġscar ce
ĠDis play
Ġpour ing
ĠII I
ĠLeonard o
Ġoccup ation
Ġlect ures
ĠRam ah
ĠThanks giving
Sl ow
Ġnurs ing
Ġwithdraw al
Ġfortun ately
ĠGib eah
ĠJed i
igen ous
Ġmand atory
Ġeuro s
Ġoverse as
ĠIss achar
Ġoccas ions
abul ary
ĠUg anda
Ġthie ves
Ġdop amine
ĠGosp el
Ġencount ered
B al
D ev
E ric
E mail
J A
L ift
L ucky
N C
Q ue
S leep
W idth
a sel
g un
o ic
s k
t r
Ġt ed
Ġt ire
Ġw ig
ha im
Ġm ing
Ġm ister
is er
Ġf are
Ġd ung
Ġn icer
Ġl ugg
Ġg au
st ic
st ransponder
Ġh int
Ġh ilar
Ġwe ed
ac us
ver ages
Ġme mb
Ġst eak
ĠC uba
op py
il st
ĠM esh
Ġcan opy
est hes
Ġso vere
Ġat he
ol ved
ĠP earl
os oph
em bourg
Ġjust ify
um bers
ĠH esh
Ġr ides
ĠJ ac
ĠN ina
ĠN elson
Ġint ake
ag u
ag hetti
Ġmore over
Ġen abling
Ġback ward
omet er
iz ational
Ġcl ips
Ġcomp os
Ġro ast
ĠV yprVPN
ĠK al
Ġpart ly
ĠSt orm
Ġ5 7
Ġinv al
Ġind ul
Ġra ises
Ġmod er
Ġmod est
Ġâ ľ
ĠNo va
Ġdevelop er
ĠZ o
Ġ7 3
Ġ8 6
Ġchar ging
Ġmor on
pr us
Ġexp ose
ĠPro blem
Ġfil ed
Ġcol our
Ġelect rom
ange red
Ġhost ages
Ġsex ually
ĠSam son
ĠCon nor
Ġfac ulties
Ġmusic ians
Ġtem plate
Ġdou bled
Ġbur d
ĠAnt hony
Ġobs c
ĠGen e
reg ular
Ġcy cles
asc ular
Ġoffe nded
Ġacadem ics
Ġmir rors
Ġarri ving
Ġcontrib uted
ĠCy prus
Ġrul ing
Sam uel
Ġreact or
Rec ently
Car l
Ġvot ed
Ġacqu aint
Ġbat he
Ġrecon cile
Ġcourage ous
Ġparad ox
Ġphilosoph ical
keep ing
Ġlam ps
Ġrein for
ĠLuc a
ĠFire fox
Ġetern ity
Ġordin ance
ĠRu pee
Ġdrown ed
Ġdiscl ose
Ġfram es
ĠOk lahoma
cont ent
ĠSnap Tube
ĠCorpor ation
Ġblond e
Ġengra ved
ĠPhilipp ines
Ġchron icles
Ġsuspic ion
Ġliken ess
Ġabn ormal
F ort
G erman
I X
I NE
M er
M ess
N O
P D
R ick
S ales
Y ep
b us
i ge
t im
v ents
w p
Ð ½
Ġ 000
Ġf ag
an as
at ra
Ġg room
Ġin e
Ġin sec
Ġbe et
Ġwe ighed
ro ach
ĠS em
ĠM RI
ĠM umbai
Ġse ize
Ġso lo
ĠP P
ĠT ea
ĠT ech
ĠG and
ĠD rop
ĠD iet
Ġex ter
Ġsh ipped
ry stal
ĠF av
ĠH omer
ĠR ac
Ġsp ook
ĠJ esh
ĠN OW
ĠW on
Ġun ac
Ġad oles
ish op
Ġsc am
Ġsc ans
ons in
iss ance
ens ions
OR E
Ġthought ful
Ġsupp ress
My Ass
Ġkeep er
ib al
Ġind oor
Where ver
ric ane
cept able
Ġdead line
Ġfar ming
Ġdevelop s
Ġ7 7
gg ers
Ġart work
Ġ8 7
ield s
Ġgra v
Ġmet als
Ġadv ances
Ġfight ers
Ġdef ines
Ġwalk ers
Ġsing er
Ġsing ular
Ġtrust s
Ġhealth ier
Ġcell ular
ĠSu ccess
ipp ers
ĠCl ose
Ġimag ining
Ġexpect ation
rib ution
Ġmain stream
Ġweek ly
Ġbuy ers
Ġcollect ively
Ġengine ered
ĠâĢ¦ .
ĠAfric ans
By e
Ġchannel stransponder
Ġsuper market
ĠNot epad
Ġmot ive
ĠEm pty
umb ling
Ġport able
Ġrain ing
Ġoffe nd
ĠGl enn
Ġcivil ians
Ġdetect or
Ġapart ments
Ġpoll s
Ġcong ress
ls a
Ad m
Ad am
Ġvan ished
Other s
Ġtit les
Ġinterview ed
duc ers
Ġoptim al
Ġemp owered
ĠDon ald
ĠGrand ma
iat ric
Ġhun ters
Ġrot ten
Ġpil ots
ĠAmaz iah
Gl obal
Ġfro gs
Ġreject ion
Ġfright ening
ĠDist rict
Ġrebell ion
ĠCS GO
Ġment or
ixt een
Ġdistinct ive
Ġoverl aid
Ġcorrespond ing
ogen ic
Ġdeploy ed
ĠExper ience
Ġinspect ion
Ġpron ounce
Ġirre levant
Ġflav or
ĠMov ie
Ġfart her
ĠSoph ie
ĠFal con
ĠEb ola
Ġcholester ol
Ġlugg age
C ap
C over
D ub
D eal
M ama
R O
S en
S ize
T or
T un
W ish
c od
d amn
f alls
h oot
k on
p any
Ġ ic
Ġs ab
Ġs ib
it ics
Ġb amboo
Ġf ran
ing ing
Ġn odes
Ġp ic
Ġp unk
an ny
Ġl ymphoma
Ġg ains
Ġin fer
as is
Ġre ct
Ġdo ve
Ġst ressed
ri ott
ĠS ud
ĠS iber
ĠC er
ĠC ities
ĠC oke
il itation
ĠM ort
ĠM ason
ers h
est hetic
Ġso jour
ct ica
ĠB auer
ĠG host
ĠF usco
ĠH OW
ĠR S
ĠR ub
ĠR oc
Ġman ners
ĠJ osh
ard o
ud y
ĠW isc
ĠO wen
Ġoff shore
Ġover r
ob i
Ġcomp r
Ġcomp ounds
Ġcont end
ĠK a
ĠK ent
ĠK itty
Ġpre jud
av ia
Ġcar riage
Ġcar rier
Ġlast ed
Ġdisc om
Ġgl ucose
ĠRe lease
Ġadd iction
Ġsl ut
Ġsw are
Ġey el
Ġcompl eting
Ġ6 8
Ġgra pe
Ġtest osterone
Ġcor pse
Ġdist ances
ĠSh imei
Ġequ ity
ides pread
ĠCan nes
Ġexpect ancy
ĠBr uno
Ġfre aked
Ġri fle
Ġstate ments
ĠBen aiah
Ġmist ress
Ch ief
urs ions
Ġpick s
Ġori entation
Ġsum mit
Ġconvers ions
EC O
itc hell
Re quest
ĠDisc overy
Ġcy cling
Ġdon or
ĠPal mer
Rem ind
Ġunivers es
Ph oto
iling ual
Ġharm less
Ġrelax ation
Ġfant as
ĠMart ha
Ġbound ary
Ġpredict able
ĠMc C
Ġec ological
ĠUse ful
Sam ple
ĠHam ath
Ġhook s
Supp orts
ĠCount ries
Ġtrem ble
Ġsevere ly
Ġtooth p
Ġdistur bed
Ġflex ibility
keep er
Ġwhit en
ĠLL C
Ġtoler ate
Ġoblig ation
Girl s
Ġunw anted
aton et
ĠMain tenance
Ġsty les
Ġdeliber ately
Ġmerchant s
Ġaf ar
AF UL
Ġrejo iced
ĠColomb ia
ĠNGO s
ĠWhats App
Ġprest igious
Ġretrie ve
Ġbureau cr
ĠTai wan
cycl op
tim ore
ĠWisc onsin
M art
S ite
T M
U M
b ra
d on
l ists
o ks
o ads
p ensive
t oc
x ting
x press
z or
Ġs ow
Ġm l
Ġy east
Ġl aptops
ar in
ĠI K
id o
ld er
Ġdo omed
ro ck
Ġst akes
ad ise
ĠA L
ĠA has
Ġkn ives
il izing
Ġgo ss
Ġse iz
ers ed
Ġwor n
Ġpro be
ĠB ir
ĠB ott
ĠL eah
ĠP ure
ĠP ath
ĠP eg
ĠG row
ĠD ude
Ġsh ipment
ie ur
ĠF old
ĠF iona
ĠH en
Ġde forestation
ĠR et
ĠR iley
Th omas
ĠN eal
ag en
Ġover head
Ġam mo
Ġwork force
ass ic
ĠK os
ĠK em
Ġunder p
Ġsc ram
Ġacc us
Ġte xting
Ġwell s
Ġid ol
Ġend angered
Ġgl ac
Ġind igenous
Ġtrans posh
Not ice
Ġtra vail
Ġlive th
Ġbit coin
St eve
Ġsk etch
ĠSp ider
ĠSp onge
Ġexam s
Ġgener ating
ott o
Ġequ als
ush i
Ġcop ied
Ġbar bec
ĠAd on
ĠAd mission
Ġred es
ĠSam my
Ġtrad em
Ġfail ures
Ġinvest ments
Ġpull s
Ġdin er
Ġimpro v
Ġbull s
Ġalt ered
Ġer ad
Ġpopular ity
Ġslow ing
uri ous
Ġdiscuss ions
Ġrain s
ĠRep air
Ġappreci ation
Ġens uring
Ġlif el
Ġunc ircum
Cont inue
Ġtour nament
Ġlad s
itect ure
IT E
Ġinher ited
Ġmeasure ments
Ġharm ful
Ã© s
Ġ36 5
Ġpark ed
Ġattempt ed
semb ly
Ġswitch ing
Ġbackground s
Ġcalcul ations
Ġairport s
De velop
ĠIsa iah
Ġmotor cycle
Sim ple
ĠCarl os
Off er
Second ly
Ear ly
ĠPhot oshop
Ġcabin et
Ġalb ums
Ġtoler ance
Ġredu ces
Ġperpet ual
Sa fe
ĠCra ig
Ġles bian
Tim etable
ĠTir ana
ĠLion el
ĠPalest in
Micro soft
ĠCroat ia
Ġnaught y
Ġwhirl wind
ĠCAP TCHA
Ġclust ers
Ric hard
Ġdisgr ace
cellen cy
B itcoin
D ead
F E
F r
F iled
J on
M aps
S P
U A
b est
h ill
h ops
i i
i ants
l ow
y g
z el
z zy
Ġ iv
in ental
in arily
re nd
Ġs aus
is ia
Ġb atch
ll e
en ance
an ia
Ġg ast
om ic
et a
Ġh ind
Ġh mm
as ia
Ġk ar
ad ette
ĠC hes
ĠC AS
ĠA lf
ĠB ased
ĠP ain
Ġup hold
ĠG if
ĠG raham
Ġthere on
ĠD exter
em ption
ĠF all
ĠF ocus
ĠH E
ĠH il
ĠH ind
ĠH ouston
Ġpl un
Ġpl astics
Ġno bles
ĠW oo
ĠW ard
Ġlo com
iv ia
ĠU A
Ġpr ud
Ġun he
Ġad j
Ġcomp elled
Ġbl u
Ġbl oss
Ġsc aring
ons ieur
ub ble
Ġph p
For got
erm aid
Ġbus es
ĠNew ton
Ġinter f
Ġra id
Ġ19 30
Ġhard ened
Ġ6 2
ĠZ AFUL
ĠTh ird
Ġ12 13
ndred s
br is
Ġelect ron
ĠCou l
ĠJud ge
head s
Ġthird s
Ġbi ologists
ĠSe ason
ik a
Ġhusband s
Ġsal ad
Ġident ities
Ġtrack er
ĠWor ks
Ġjoin ts
Com puter
Com merce
Ġrepl icate
Gu est
arr hea
wor ld
Tr ue
Ġdocum ented
Con f
li hood
Ġwise ly
Ġast ray
Ġrepresent atives
Ġsatisf ying
Ġpra ised
Ġvirt ue
Ġqual ification
Ġdisp ute
ĠKen nedy
iat har
ĠMag azine
Ġentertain ing
Ġdemonst rated
ĠFore ign
ĠCong o
Ġgri p
Ġextract ion
Ġsitu ated
Ġcrowd ed
Ġric hest
Trans ponder
Ġsimpl est
ĠVill as
ĠUnivers ities
ĠIndust ry
Ġpersu ade
ĠEM U
Ġreef s
Ġincent ive
ĠAhaz iah
ĠManufacture rs
Ġtremb ling
ĠMiz pah
Ġautonom ous
ĠBudd h
Ġfeather s
Ġdischar ge
ĠMich igan
Ġcoff in
ĠCarn ations
Equ ipment
Af ric
Collabor ation
oub ted
Ġinflamm ation
Ġuncircum cised
4 00
8 3
8 5
C at
D ifferent
F C
S B
S oph
S aturday
T ar
V illa
b one
t v
u ana
Ġt we
re b
Ġo t
Ġm isc
Ġc ube
is en
Ġf is
Ġn u
Ġl ined
at ched
Ġg ently
Ġg oogle
om bo
Ġh ither
Ġha y
im en
Ġst eep
Ġst itch
am ar
Ġwh ip
ĠC elebr
Ġas h
Ġknow eth
ĠB rain
ĠB ran
ĠP ed
ĠP ent
ĠP oly
Ġlike lihood
ie xpress
ĠH ann
ĠR ea
Ġ2 20
Ġsp aghetti
Ġwho lly
ĠN ancy
Ġsha ft
act iv
Ġback ed
Ġback pack
Ġam use
we b
ob s
Ġun g
Ġad verse
ah l
Ġro ar
Ġfl oss
Ġhel ium
Ġnever theless
Ġlea ks
Ġsec re
Ġcha st
OR T
Ġcar n
olog na
Ġent ries
St e
Ġpol es
Ġpres erved
Ġ7 6
ĠAr ise
ĠJo an
me gle
Ġfr idge
ĠBe ing
Ġ9 7
Ġdef ence
Ġrese mb
Ġbreak down
ĠPh ill
ĠAs sembly
ĠQ ur
Ġ11 7
Ġbed time
ĠAb iathar
Ġperfect ion
Ġactiv ist
Ġwin ners
Good bye
ĠTr ump
Ġsoci o
Ġpack s
Ġve t
Ġhair cut
ĠX clusive
Ġpot ato
Ġrad ically
Un limited
ĠDec l
Ġchat s
ĠDan ish
Ġbless ings
Ġcompet ent
Ġexcept ions
Ġtarget ing
ĠCha d
Ġpal ette
Ġroll er
Add itional
Ġdeterm ines
Ġsurround ings
ĠSm all
Ġcrow s
Bu ild
ĠJul iet
Ġinvent ors
Ġassum ptions
Ġdisappear ing
Ġinterp re
Ġaccur ately
Ġrandom ly
ĠSome body
ĠCap e
Ġphysic ians
Ġattend ing
Le ft
Ġtooth brush
ĠSnow den
Ġannounce ments
ĠVan cou
Ġnin ja
Ġcosm ic
Ġow es
ĠGot ham
ĠYOU R
Ġadvers ary
Ġtempt ation
Coll ect
Ġtast ed
Ġgre edy
Ġtow els
Ġcraft s
Ġinqu iry
Ġlabel ed
ĠLL M
ĠNaz i
Ġconfront ed
Ġhoriz on
Ġcleans ed
Ġincent ives
ĠSlovak ia
Ġhalluc inations
ĠEnvironment al
ĠEntreprene urs
uer us
Ġgrocer y
Ġpand emic
Ġthrees core
ĠGed aliah
ĠAntar ctica
Ġdwar f
Ġinevit ably
mbre lla
ĠMediterrane an
ĠHesh bon
ĠAhas uerus
Ġgoss ip
Ġ1213 32
oubted ly
6 00
8 9
C ost
G ener
H mm
L im
M ia
O ft
P op
V anish
b ot
b ella
f oot
g ran
k ens
l ete
m atic
Ġw idespread
Ġo oh
Ġo sc
er ic
Ġm art
Ġm esh
Ġm asks
Ġc em
Ġc unning
it ous
it ored
is ition
on nie
Ġf ounder
Ġn ost
Ġp ots
Ġg arr
ar ians
Ġbe aches
ay ing
Ġre ferences
ac ha
Ġfor ged
ith uan
ĠS ong
And roid
ĠC rete
ĠA zer
Ġkn e
Ġgo sh
ĠM ale
Ġse als
Ġpro ducers
ĠB ates
ĠB road
ĠB ella
ĠP ages
ĠP ablo
ĠT ag
ĠT erry
ĠD u
ĠD rive
ĠF ix
ĠH us
ood le
Ġr ud
ĠR out
ĠJ ax
ĠJ ennifer
ĠO mar
Ġlo ins
Ġen zy
ĠU rugu
Ġover he
Ġqu otes
Ġle isure
Ġun ity
Ġcomp rehe
Ġro ses
ĠV otes
Ġbl adder
ĠK i
Ġpart ial
Ġsc or
Ġsc rub
form ed
Ġkind erg
Ġsupp er
Ġhum bled
Ġtrans fers
Ġsl ot
Ġcr ude
Ġbas es
lt on
Ġsk irt
Ġbo iling
Ġremember ing
Ġfar ms
Ġprom ocode
Ġloc ust
Ġsub m
ĠTh ose
uff y
Some where
Ġcor rid
Ġref ined
Ġaff ili
Ġaccess ing
Ġsleep s
ĠAm en
Ġpar ade
Ġaddress ing
Ġbox ing
Ġcal am
Ġweb masters
oun cing
ĠWor king
Ab ility
ĠGet ting
bor g
Ġsens ing
Ġbud dies
Ġport ions
Ġran ks
Ġpred ator
ĠEd inburgh
Ar ise
Ġdon ations
Ġmeaning less
Ġfem inist
Ġbra kes
Ġtend ency
Ġwilling ly
Ġattract ion
Ġsustain ed
App ly
Ġeast ern
Ġoccur ring
Ġded ication
Ġaccom pany
Ġanaly zing
ĠRec ord
Ġhistor ically
Ġsna kes
ias at
Ġtro op
Ġmort al
Ġimpl ant
Ġcert ification
ION S
ĠSet up
Ġunp redict
Ġweakness es
Ġdistract ion
ĠBea utiful
Ġbub bles
Ġsear ches
ĠOd roid
Host el
Ġinject ion
ĠJehoi akim
ĠCook ies
Ġabsor b
Ġanticip ate
Ġspons or
ĠKy oto
Ġmush rooms
Ġfib ers
Ġimmun ity
Ġdilig ently
ĠAven ue
ĠWH O
Ġlou der
Friend s
Wal ter
mans hip
Ġavail ability
ĠShil oh
Ġenterpr ises
Luck ily
ĠLands cape
ĠSans a
ĠArdu ino
Whis per
Ġhilar ious
ĠCoul son
B oss
B less
C O
C ra
C asino
C ustomer
F ocus
H ide
P ur
P ain
P ete
T em
T rou
T ext
U I
V I
e ering
l en
m us
n iss
r h
t ar
w ash
Ã ±
â Ĩ
Ġt s
in ia
in itely
Ġw akes
Ġw iring
Ġm p
Ġm ater
Ġm apping
Ġc ass
Ġc ables
Ġb ake
Ġf aul
Ġn iece
en ch
an ah
at in
at ile
ar ote
ĠI V
ĠS ally
ĠC row
ĠC ham
ĠC raw
op l
ĠA y
ĠA le
ĠM i
Ġj unior
od ge
Ġpro ving
ĠB oss
ĠB ert
ĠP ine
He ard
ĠD ale
ĠD ennis
Ġsh red
um bs
Ġv ideochat
ĠH APP
ĠR ace
ĠR andy
ĠN Y
ĠN ag
ĠN AND
Ġsu cking
Ġshe kel
ĠV el
be e
be it
Ġfu rious
ĠSt aff
Ġlea se
Ġtalk in
hed ral
Ġlot tery
Ġreg ulated
Ġey ed
ĠWhat ever
Ġprot o
Ġmed itation
Ġread s
Ġchar ts
Ġprof ane
Ġdet on
ĠSh in
iec es
ov an
Ġtreat s
Ġtreat y
Ġpop ped
let t
Ġdra gging
bo at
Ġeffect iveness
ok er
Ġpast ure
Ġes p
Ġfav ors
Ġri val
Ġaut istic
ĠCar mel
ey n
ĠAn alysis
Ġaddress ed
Ġopt ical
ĠSe ir
Us ed
Ġlay out
Ġdisapp ears
Ġsum mar
roll ing
Ġdom inated
ocr acy
Ġpred iction
ĠEd itor
Tr ack
Ġarch ives
ocol ates
Ġdemand ed
ĠPart ners
Ġcelebr ity
Ġast hma
Ġver se
ĠPhilist ine
Ġpassword s
Ġamb ig
Ġblog s
Ġprec ision
ĠSa fe
Ġec ology
Ġclim bed
ĠMer ari
ĠCam eron
Ġsuck ed
Ġhom ose
Ġnegot iation
Ġinterrupt ing
Pay ment
Ġwhis key
ĠAz ariah
Ġadministr ator
Ġmel ting
Ġastron om
ĠPers ia
hell e
ĠDev il
Sweet heart
ĠCreat ive
Serv ices
Ġargu ed
anz arote
Ġpron ounced
Ġaccum ulated
ht hah
Ġignor ant
upl oads
Ġcontrovers y
ĠOsc ar
ĠStream ing
Form ula
Ġarrog ant
ĠProf ile
ĠClar ke
Sar ah
Ra ise
ĠSloven ia
ĠShema iah
Ġcatastrop he
Ġâľ ħ
ĠVancou ver
8 1
A ust
B urn
C ross
G row
H C
H ence
L ower
L ieutenant
M ill
M el
N in
N ine
O X
P ersonal
W all
Y S
d ict
f r
g raph
l u
l ot
n ational
o i
r ion
t han
u ph
z hen
Ġt ires
Ġw ow
Ġthe sis
Ġm it
it ative
Ġb od
on ing
Ġf usion
or f
Ġp ist
Ġl ure
Ġl ux
Ġin box
ĠI ris
ot le
Ġh omet
Ġh iring
Ġha l
Ġe g
id get
ac hers
im m
Ġfor cing
ir ut
ĠS ame
ĠS ites
ĠS ounds
ĠS ustain
ĠS ID
ĠS ihon
Ġnot icing
ur ger
ĠA lic
ĠM ong
ĠB R
ĠB uck
ĠB ologna
ĠL iver
ĠL EGO
ĠT rib
ĠD ear
ĠD onna
Ġsh itty
ig ible
Ġv ic
ĠF ig
ĠF arm
Ġde er
Ġr aces
Ġsa iling
ĠR an
ĠR ush
ĠE N
ĠE ye
Ġsp oon
Th ousands
Ġca ution
ĠJ ose
ĠN er
Ġsu e
Ġshe er
ree ze
ĠU ntil
ci um
Ġdis respect
Ġle ver
ob iles
ĠV lad
ĠK ay
ail ed
Ġlong itude
Ġsm itten
Ġreal ization
Ġshow ers
Ġind irect
Ġgen oc
ced es
Ġmed ieval
Ġob ese
ĠJo ffrey
Ġless er
Ġ9 4
Ġ9 8
Ġdef ile
ĠPh ones
ĠAm azing
let on
Ġpar ole
Ġequ ations
Ġcustom s
ĠQ ual
ĠEx am
ĠPl ant
ĠPl ugin
Ġmult id
Ġparent ing
ĠCon f
ĠEar l
Ġstat ue
Ġindivid ually
ĠMay or
Ġill um
Ġrad ius
Ġmass ac
ĠLe on
Ġnon profit
ĠDisc over
Ġchem otherapy
Ġhoney moon
Ġdon keys
ĠDel uxe
Ġ= "
ĠOpen VPN
Ġcrit ically
AS H
AS S
EN ED
Ġver ge
Ġhonor able
Ġinform ant
Ġpresident ial
Ġrecommend ation
cil iation
Ġchick s
Ġamb ush
Ġcommer ce
ĠSim ple
Ġbomb ing
Ġrub bish
ias m
Ġbond age
Ġdece ption
osm os
ĠMod ern
Ġphysic ists
Ġminister s
ĠMont real
Ġconsist ently
Ġcomplain ts
add le
uls ion
Ġprofound ly
Ġsole ly
Ġtestim onies
Ġvirgin s
Ġflour ish
Ġesc al
ĠPers ian
Ġrail way
Ġpir ates
Ġdrown ing
Ġappeal ing
Ġobserv ations
Ġconclud ed
Ġpi geon
Ġdisappoint ment
Ġsem i
Ġpersist ent
ĠCN N
Ġsprink le
ĠManufacture r
Val id
Ġoverth row
ĠChem ical
ĠPerform ance
Face book
ĠDomin ican
Ġsubsequ ent
ĠMoz art
ĠMoo re
Ġstatist ical
ĠWIT H
Ġunac ceptable
ĠHAPP ENED
Ġhomet own
A ye
B NIGMA
C ENT
D rive
F rench
H ouse
L arge
M onday
O ption
P ray
S har
a ust
b ia
d ad
f its
i ries
k ok
o ided
p ire
s ha
Ã º
Ñ ĥ
Ġs ang
Ġs ulf
Ġm aj
it ives
Ġb ol
Ġb unk
Ġb aked
Ġb achelor
Ġto kens
Ġn igh
Ġp ies
Ġin ward
st age
et ooth
ic hes
Ġh oo
Ġbe ams
Ġhe ated
im ag
im me
ro kes
Ġst umble
ri ved
ill ed
op t
ĠA B
ĠA id
ĠA ED
il ia
Ġab ode
Ġcan cers
ĠB A
ĠB reat
ĠB og
ĠL ad
ĠL anzarote
Ġor chest
ul ence
ĠT M
ĠT ah
ĠG ray
Ġsh ook
Ġsh iny
em ed
Ġal ib
Ġal umni
Ġde bris
Ġr amp
ĠR ent
ĠR od
ĠR ica
ĠR acing
ĠE ach
ĠN ear
Ġsu p
Ġno isy
ĠW ester
ĠO bed
Ġgu er
ound ing
ĠY emen
Ġshould est
Ġsc ares
ĠSt age
Ġimp rison
Ġdif f
Ġsec ured
ang s
OR N
pe re
Ġmon itored
Ġgl am
ps y
Ġhum ility
Ġev ident
gin a
Ġgen etics
Ġatt ended
Ġass holes
Ġsl am
Ġrun ner
Ġrep et
lic ations
up iter
ret ched
ĠZ oo
Ġconf ined
ĠJo el
ĠApp ly
ĠTh under
Ġfuck er
Ġpop s
ĠQ a
Ġcertain ty
Ġris en
ĠTr uth
Ġbroad er
vert ising
ĠPr ices
ĠAd ults
ĠSy l
ĠSy rian
Ġrecogn ised
Ġaud ition
ham mad
Ġmot ors
zz i
Ġstri pped
ĠChar ter
ĠChar lotte
Ġbehav iour
ĠPhil ip
Ġpred ic
ĠSupp liers
ĠEd ition
Ġwel coming
Ġbag gage
Add itionally
ĠMusic ian
ĠColl ect
Ġund o
Ġtransform ing
Ġtit an
Ġinhabit ant
ĠTom orrow
Ġmut ant
Ġreflect ed
ĠJon ah
Ġextraord inarily
Ġcitizens hip
Ġdocument ation
Ġembarrass ment
Ġsequ ences
IV E
Ġrot ate
rypt on
Ġcoast al
ĠSelect ed
ĠAP I
ĠAut om
Ġbat hing
Ap artments
Ġconce al
Ġrecon struct
Ġlin ear
Sim ilar
Ġborrow ed
Ġcreep ing
Ġtransg ression
Ġmaid s
ĠDeb bie
Ġdrill ing
Ġow ed
ĠSS L
ĠKat ie
Ġster ile
Ġcorrupt ed
Ġdiscl osure
Pol ice
ĠCook ie
Ġcolumn s
ĠGuard ian
Ġther mal
ĠVin cent
Ġscal p
Ġatom ic
viol ent
Ġnarc iss
ĠYah oo
Ġdash board
ĠCase y
ĠTick ets
Ġrefriger ator
ĠSubs cription
Further more
Ġanat omy
Ġadul tery
ĠHitt ite
Ġexecut ives
Sad ly
ĠAirl ines
Ġcontag ious
D ream
L M
M ur
S cience
U nt
W oman
b iqu
f ood
m ia
t i
w ick
z ier
â Ĥ¬
Ġa pt
ou rage
Ġs el
Ġm asc
or ic
or ph
or ca
Ġp ave
Ġha mb
id ity
as ure
ke e
Ġst ocks
am eless
ir ation
ĠS ac
ome gran
il n
ĠM X
ĠM olly
Ġall iance
ĠL ex
ĠP ocket
ul k
ĠG y
em ia
ig ail
ĠF el
ĠF alls
ĠH omo
Ġr ust
ĠR anger
ĠR ules
ĠE ase
Ġsp ared
ĠJ ama
ĠN ad
Ġwere w
ĠO wn
iz on
ia omi
Ġpr icing
Ġco ats
Ġdis ks
Ġcomp iled
Ġper verse
Ġbl uff
ĠK ish
Ġmu g
Ġres pir
Ġsc rat
Ġreal ities
uck ers
Ġsystem atic
Ġgr as
Ġopen ness
Ġmat rix
Ġcompl iance
Ġra v
Ġbo oth
alth y
Ġed itors
ĠZ a
cent ury
Ġmar row
Ġexpl ored
Ġhope ful
Ġsub stitute
Ġmet hane
Ġ12 8
Ġpar liament
ĠShe ol
ĠShe ba
ĠEx p
Ex per
bo hyd
Ġprop ri
Ġpost graduate
Ġcult iv
Ġbar ren
Ġcollect ions
Ġpresent ing
Ġtrad ed
Ġrecogn izes
Ġcard iac
Ġill eg
Ġru ins
ĠPol sat
Ġori g
tain ment
ĠDan a
Ġdom ains
Ġsuff ers
Ġdefin ing
Ġstick y
Ġsn iff
Ġsmell ed
Ġcolor ful
ene z
ij uana
ĠMic hel
Ġrent ed
Ġcapital ist
Ġgas oline
IP P
Ġvari able
Ġhunt ed
Ġfirm ly
Ġhall way
Ġarchitect ural
Ġund oubtedly
Ġrobot ics
ari os
Ġcrack s
Ġpossess ions
Ġdeb ts
Ġbright ness
Stud y
Ġhook er
Ġatm osp
ĠDar ius
Ġquant ities
ĠSon ic
ĠCons ider
Ġcro oked
Ġupload ed
Sm art
Ġunclean ness
ĠOpt im
Char les
Ġath lete
ĠTar gary
Ġweigh s
ĠLy on
Ġhyp ocr
Ġgam ble
Ġprosec ution
Ġawait s
ĠLiber ty
ĠKor an
ĠKor ah
Ġinterrog ation
Pack age
lad esh
Ġenthus iasm
Ġcupc ake
wr iting
Ġinclus ive
Ġjelly fish
ĠArk ansas
Ġallerg ic
ĠLux embourg
Educ ation
Ġstoryt elling
Ġestabl ishing
Ġparaly zed
Ġcyl inder
ĠFest ival
Ġaccompan ied
esthes ia
Ġinterf aces
Ġsecre cy
ĠQa eda
9 7
C atch
D est
E lsa
H air
L o
L inks
R D
R o
S chool
S atellite
S AT
T IP
V is
b il
b ons
c at
c Ã©
f ia
j i
t rans
z one
â Ħ
Ġa h
ha ran
it ations
Ġb ows
Ġb acon
Ġf ist
Ġf ifteen
Ġd upl
Ġp sy
Ġg or
Ġg ren
ar se
ĠI v
Ġh ott
se i
as per
Ġu ter
Ġst oned
Ġk ins
ĠS ke
Ġnot ified
Ġnot hin
ĠC inema
ĠC ulture
op ia
ĠM as
ĠM ia
ĠM asters
Ġab used
th otel
ĠB C
ĠL en
ĠL ane
ĠP ick
ĠP oll
ĠP owered
ĠT ube
ĠT attoo
Ġcom a
ĠD M
ĠD erek
un ks
ĠF IL
Ġsp iders
ĠN i
ĠN un
Ġsha de
ĠW etek
ĠO g
act ic
iz ards
ci ble
Ġam en
Ġhapp iest
ob ic
Ġper tain
ĠV X
Ġbr idges
Ġsy nd
Ġdisc ern
Ġplay ground
ĠThe ater
Ġmin erals
ĠRe ady
ĠRe vere
Ġplan k
Ġrel ating
az i
Ġsw ap
Ġopen ly
Ġbring eth
Ġpres ume
Ġ6 3
ĠSp ock
Ġprom inent
ĠZ one
Ġchar tering
Ġmar athon
Ġav oided
Ġsub stances
omm ended
ins k
Ġref ers
Ġter restrial
ĠSh ort
Ġequ ip
ĠShe l
Ġsafe guard
ĠCl aus
ĠCan al
ĠMar co
ĠInd ex
Ġtrou bling
Ġpract iced
ĠCon stitution
Ġbi ologist
Ġsun shine
Ġfoot st
Ġant id
Ġdeg ener
ĠHar bor
Ġjour neys
ĠFr ont
rad er
Ġobs er
Ġpromot ed
Ġorigin s
Ġbri be
Ġinf ilt
Ġcolor ing
Ġlift ing
Ġliter acy
ĠGe ographic
Ġbal cony
AR S
Ġcivil izations
Ġconcept ual
Ġbeg ged
Ġrespond s
ĠDet erm
Ġmix ing
Ġreven ues
hab i
urt is
ĠBal timore
UR G
UR Y
ĠRob b
ĠSur v
ĠIm age
ĠÐ ĴÑĭÑĪÐ¸Ð²ÐºÐ°
Ġtherap ies
Ġskill ful
Ġprem ises
Ġroot ed
Ġscen arios
Ġconce ive
Stand ard
ĠLau gh
ĠCommun ication
ĠElect ric
Ġow l
Ġcoord ination
ĠMess age
Ġrein vent
Ġspir al
Ġbutter fly
Comm un
ĠFed eration
Count ry
Ġshell s
Ġaston ished
Ġpengu in
Don ald
Ġobserv ing
Ġorphan age
Ġathlet ic
Americ a
Ġward robe
ĠTun nel
Ġfest ival
ĠDav is
Jim my
Ġinclus ion
Ġparas ite
ĠBoo v
Ġmathematic ians
Ġrecip ient
Certain ly
Ġpractition ers
Norm ally
Ġprecept s
Ġtraject ory
Ġappar atus
Que en
toc in
eyn man
CENT URY
6 1
9 1
B ern
C andy
E conom
F red
I CA
M ir
N ord
N ational
P C
R B
R TC
S und
T Y
V i
W ednesday
Y ear
e ur
i ams
m art
n ity
o ven
t age
u ish
v ous
v ial
Ã ¶
Ġt an
Ġt ails
he ries
Ġs ire
Ġs ung
ha ls
Ġm op
on i
Ġn our
Ġp omegran
an ity
Ġl acking
Ġh t
Ġh ust
se x
Ġre lev
ac ent
ĠS izes
ur ai
ĠC and
op hers
ĠM old
ch i
Ġj um
ers hip
ĠB ee
ĠL ocal
Ġup t
ul ates
ul ously
ĠT able
ĠG a
ĠG ersh
ist ing
um ines
Ġv iable
Ġv intage
ĠF ear
Ġsa p
ĠR ial
ĠE val
So ft
Ġsha ping
Ġint est
ĠW P
ĠW ays
ĠO range
Ġlo ft
Ġhas s
iv iger
ĠU C
ĠU riah
iz zy
Ġ20 50
Ġun for
Ġper mitted
erv ant
ons ider
Ġmo ons
oc aly
Ġplay back
ĠThe m
ph ony
Ġspec ially
Ġind icated
Ġac oust
Ġadd icted
Ġrep orters
St ick
gg s
ĠAr ist
Ġgra ven
Ġmet ric
Ġ9 3
Ġgovern ors
Ġworks hops
Ġri ot
Ġaut opsy
ĠFor um
ĠCon vert
Ġenc l
Ġpresent ations
Ġtrad er
Ġenjoy able
Ġbur gl
ĠBut ter
Ġaud iences
Pro v
Ġsum mary
lim inary
ĠMon ica
Ġste er
Am azing
Ġlock er
ĠCha p
Ġcart el
ĠFrank lin
Ġintro ducing
AR D
ĠAust in
Ġmir acles
Ġinfect ious
Man age
Man agement
Ġpurs u
Ġbill ing
IS A
Ġspe eches
ĠComp an
ĠContact s
Ġaltern ate
ĠSa haran
ĠRec e
Ġscrew ing
Ġreleas ing
Fe els
Ġwha ck
Ġsurve ys
ĠQue ens
Ġtall er
Ġtrig gered
Ġcous ins
Ġpor ters
Ġkidna pping
Ġveget able
Ġfrust ration
Ġalcoh olic
Ġelimin ating
ĠCommun ity
ĠElect ronic
Ġminor ity
Ġdistract ed
Ġder ived
Ġincor rect
Ġpsychiat ric
Ġgam ers
ĠCamp us
ĠMur phy
Ġdistingu ish
Ġimmort ality
ĠCra zy
Ġrepeated ly
Ġlod ge
Ġzomb ie
Ġrecyc led
Ġcondem n
ĠOsc am
ĠEX TRA
Ġstew ard
ĠMonitor ing
Hu ndreds
Ġpluck ed
Ġprohib ited
Ġcommod ities
ĠNorm an
ĠDiv ision
Ġconserv ative
DM CA
Interest ingly
Ġhaz ard
ropol itan
ĠEz ra
Ġmosquit oes
product s
ĠHun ter
Ġsaf est
Ġhorizont al
ĠStrateg ies
Ġarom a
ĠTib et
Ġvoy age
ECO VERY
ĠDecl aration
Ġorig ami
B ER
D V
D rag
F L
F ly
K E
K n
K ar
L C
L ot
S her
T reat
V ictor
h u
n atura
p aper
in th
Ġs ights
Ġs aint
er k
er os
Ġm as
Ġm eth
is l
Ġf ried
Ġd ummy
Ġn ort
Ġp s
Ġl ent
at ivity
Ġg oose
st ru
et ery
ic ates
al ks
Ġe Bay
id on
Ġfor k
ke nds
ri or
Ġk itty
oo by
Ġan oint
ĠS O
ra pe
ĠA uction
ĠM ak
ĠM ik
ĠM agn
ĠM TS
ĠM itchell
Ġcan n
est ed
od ka
ĠB oth
ĠB ON
ĠB aker
ĠL adies
ol an
ĠP harm
ĠT enn
ĠD uty
ĠD riving
Ġex h
Ġex quisite
um er
um or
Ġv icious
ĠF ish
ĠF inger
ĠR ing
Ġpl acement
ĠJ upiter
Ġher b
ĠW y
ĠO w
ak ota
Do c
ick et
Ġpr iced
Ġgu iding
Ġco vert
Ġdis ple
Ġdis asters
ob a
ob ar
Ġar bitration
Ġbr icks
Ġpre vents
ub b
Ġimp ose
Ġinc lined
av al
ĠIn v
Ġend ures
Ġdisc ont
Ġmon itors
ĠThe mes
Ġgl and
Ġche eks
ere th
Ġinv aded
Ġhead lines
Ġcons ensus
Ġreg rets
St rong
Ġsk irts
Ġheart beat
Ġra ft
Ġbo ils
Ġmed al
io v
Ġtri vial
Ġlearn s
Ġmess aging
Ġins uff
ĠAl anya
Ġaccess ed
Or gan
bo a
Ġeconom ically
Ġdi arrhea
Ġkey logger
ĠAn im
Ġcal ves
Ġcamp uses
ĠX box
rif ied
Ġcat aly
Ġmass es
Ab raham
Ġcomb ining
Ġmethod ology
Ġran ch
Ġmodel ing
Ġproud ly
ĠComm on
ĠSupp lier
Ġlog istics
Ġmagic ians
Ġ199 4
Ġprevent ed
Ġlad der
Ġprogress ive
Ġmail ing
OU T
ĠTe eth
Ġhall s
ĠMa ac
Ġregist ry
Ġmut ations
Ġcrow ds
Ġsurger ies
Ġanaly zed
Fin ish
ĠInt eg
ĠBal i
ĠNe il
Ġstorm s
ĠPost er
Ġslight est
ĠHer itage
Ġmanager ial
Ġtur tle
Ġflo at
ĠMont ana
Ġsport ing
Ġcompar able
Ġelimin ated
Ġexplos ives
Ġdipl oma
ĠRom ance
Ġmig rate
Chan ges
Off ice
ĠPR OM
Ġflood s
Ġsynt hes
Ġentrepreneurs hip
Care ful
Ġfaithful ness
Bob by
Par is
ĠLock hart
Ac cept
ĠAff airs
Ġsty lish
ĠCyber Ghost
ĠTam ar
Ġmush room
Ġcasual ties
ĠColor ado
Depend ing
Ġsubsequ ently
unct ional
Uk raine
Aud ience
Ġrehab ilitation
ĠExerc ises
Abs olutely
Ġfemin ine
Ġpercept ions
Ġcryptocur rency
Ġrehe ars
Ġinterconnect ed
Ġregul atory
Ġclo ak
Ġgriev ous
ĠSpl it
Ġmultic ultural
awy er
Ġskept ical
Ġdiscom fort
Ġkinderg arten
iln ius
A men
B rian
K S
K at
L ab
M ars
R ome
T alking
W A
b ury
c har
d ed
f ru
i rie
l if
l asses
t eth
v ian
Ã ¨
â ĺħ
Ġt its
in ter
re ll
it les
Ġb er
Ġb og
Ġp ond
Ġl ick
Ġg lean
Ġg iants
ot ics
se e
Ġbe ep
Ġre th
am el
ith m
ad i
ad iah
ec ca
ĠS ab
Ġnot ify
Ġwh osoever
if iable
ĠC ort
ĠC ute
ĠC OM
ĠA BS
Ġj umps
ĠB in
ĠB ab
ĠB ak
ĠB uc
ĠL C
ĠL ithuan
ĠP O
ĠP au
ĠP ull
Ġup coming
Ġout d
ĠG rab
Ġcom ed
ĠD iar
qu ent
Ġde bit
Ġr het
ĠE at
ĠE ffect
Ġbut cher
Th inking
Ġca fe
red it
Ġman ages
ĠJ es
ĠJ ill
ĠN ep
Ġsu g
ĠW ins
ĠW olf
ep r
Ġlo cking
iv able
Ġco ke
ĠV iol
ĠV iasat
In n
Ġfl ush
row ave
Ġrec y
Ġgl ow
Ġgl ove
Ġac re
ĠWe ather
Ġcr ashing
Ġwar fare
Ġvis ually
Ġ19 00
Ġ8 3
ĠJo ey
uss ion
Ġfore head
ĠTh rough
Ġadv ocate
Ġdef y
Ġfire wall
Ġpain ter
Ġmoment um
At l
Ġdem ographic
Ġcustom ized
fl u
ĠTr acking
ĠCom pl
Ġfront ier
Ġred emption
Ġjud ging
ĠCon c
Ġbi kes
Ġve x
Ġshort age
Ġrecord er
ĠBen net
Ġpress ed
Ġimpro ves
Ġnorm s
Ġang les
Ġplanet ary
Ġbroadcast ers
God damn
ĠAp ollo
Ġcat ches
Ġhy ster
Ġobs ol
Ġsens ible
Ġcast les
Ġnon etheless
Ġer rand
ĠSha phan
ĠPhil osoph
Ġpath ways
NA L
Ġrid ge
Ġsn ack
word s
ĠTrans lation
Ġsad ness
Ġacadem y
ĠWill iams
Ġcivil ized
Ġ199 7
ĠAng ry
Ġsan itation
Ġver dict
Ġtap es
Ġvari ables
OU R
ĠVideo Whisper
Ġign oring
ĠState ment
Ġamb assador
Ġlaunch ing
ĠSky link
ĠInt elsat
Ind ia
ĠRepublic an
Ġcompassion ate
ĠHealth y
Ġwond rous
Ġtur b
Ġoxy tocin
Ġpolic eman
Sim on
Ġfright en
Ġchap ters
Ġtoil ets
Ġsimpl icity
Ġtransg ressed
Ġmanip ulated
Del ivery
Ġacceler ate
Ġacceler ated
Ġresol ved
ĠEmb roidery
ĠEmb assy
Ġtox ins
ĠUnivers al
Ġmelt ed
Ġinqu ired
Ġcraw ling
ĠKar l
Ġimper ative
Aut omatic
Ġlegend ary
Ġcaps ule
Sol omon
ĠBrother s
Ġdun geon
Ġportra its
Ġcontrovers ial
ĠLink ed
ĠBasket ball
ĠHide MyAss
Ġmeg ap
Depend s
Ġfertil izer
Ġnucle us
Ġvom it
ĠBirth day
angel o
ĠGab riel
Ġhier archy
ĠCamb od
ĠâĢĭ âĢĭ
Ġelectrom agnetic
ĠAzer bai
Ġts un
ĠWester os
âĦ ¢
7 4
8 7
B o
B ull
B illy
H ank
I c
J ess
K id
L ily
L ead
M aterial
M erry
P ad
a a
c olm
d rop
f unction
i kes
m aker
m akers
r itional
r imin
u Info
in ner
ou ri
re f
Ġc um
Ġc ue
Ġf res
ic idal
al ie
Ġbe acon
Ġu biqu
ke ley
Ġst ains
Ġst umbled
ri ef
Ġwith stand
Ġan om
ĠS hen
ĠS QL
Ġnot ifications
if th
ĠC ooking
ĠC rypt
ĠC osm
ĠM ick
han iah
ĠB ai
Ġor ang
ĠT ro
ĠT anz
ĠT odd
ĠG R
ĠD ating
Ġcon form
ie ve
Ġjust ified
ĠH ulu
ĠH GH
Ġr ushing
Ġsp a
Ġsp lend
Ġman eu
ĠJ amie
Ġpe el
ĠN y
ĠN icholas
ĠO pp
ĠO tt
Ġen lar
Ġwhere fore
Ġro ds
ĠK it
Ġfl aws
Ġpre acher
Ġres ign
ĠSt asi
ning s
Ġcar pent
Ġmin es
ib les
ever ly
Ġrel ent
Ġkid do
gin s
Ġsl ack
Ġsl oth
Ġbit tern
Ġbusiness man
Ġinter section
ran o
Ġrest ed
Ġcoll ateral
Ġ7 1
Ġcreat ors
Ġtri angle
Ġcommun ist
Ġmar riages
Ġsub c
ĠDo or
Ġref uses
Ġconnect ivity
ank ton
ĠAl bu
Be at
idd ing
let ters
Ġorgan izational
Ġpar ach
ug ene
ĠChrist opher
Ġactiv ists
ĠRes cue
ĠAll en
Ġdark est
ik tor
iet ies
Ġemb od
Ġabs ent
Ch inese
Ġrob bers
Ġfix es
Ġfund ra
ĠSc reen
Ġru ining
Ġtar iff
Ġtext ure
ĠDec or
Ġfat ty
ĠGood bye
Ġautom obile
ĠCha in
ĠCha llen
Ġban ana
Ġdon ate
Ġdon ated
Ġagre es
ĠCol ombo
nam ents
ĠNet works
Sp ace
ĠSol ar
ĠPer cy
Ġ199 1
Ġ199 2
ID E
Ġdeterm ination
che ck
Ġden ying
cient ific
Ġachieve ments
ĠTe resa
Ġcooper ative
Ġge o
Ġmut ation
ĠJob Description
rel ated
ĠInt erest
Ġing en
Ġdece ive
Ġcampaign s
Ġpoison ing
Ġconsult ation
Ġmotiv ate
Ġunb lock
ĠExt ract
Ġpassport s
Ġdatab ases
Ġfreak s
Ġeth ics
ĠInc red
ĠMet at
Ġcontem pl
Ġsav our
ĠElect ronics
ĠMel bourne
Ġrein force
Ġadvers ity
Ġdecor ate
Ġsculpt ures
ĠOd essa
Ġnan ot
Dan iel
Ġchop per
Ġcleans ing
Ġdistingu ished
ĠVin ci
Ġaven ge
Ġgest ures
Bea uty
Ġnegoti ating
ĠLead er
Ġattrib utes
Ġdisconnect ed
Pe ace
ĠCustom ers
Ġcontrad iction
Ġinex pensive
Ġtoug her
Ġsupern atural
Ġcontamin ated
Ġspat ial
ĠRestaur ant
ĠSeg uInfo
Ġschizophren ia
ĠJesh ua
Oft en
Ġproto cell
Ġgenoc ide
ĠRevere nd
Sund ay
Ġrelev ance
ĠBON US
Ġobsol ete
ĠJobDescription Sample
6 2
B re
B oo
C oin
D og
F ran
H ack
L ay
M U
M c
N G
P P
P ure
P erson
S D
S n
S ense
b ea
d ress
e ged
m os
p ox
r t
r iting
v ision
v pn
w a
Ã §
Ġt iles
in ational
Ġs igh
Ġc ries
it as
Ġb il
Ġb itten
Ġb aker
Ġb ounce
Ġd ucks
Ġp ine
Ġp ork
Ġp awn
ĠI deas
ve t
st ad
et ts
Ġh ike
Ġhe d
Ġe cho
Ġre ap
Ġdo s
Ġdo eth
ut t
ut ic
ro sy
Ġst ool
Ġst inks
am y
ec onomic
Ġwith hold
ĠS K
ĠS ue
ĠS eb
Ġwh iter
ĠC E
ĠC V
ĠC atherine
ĠA ug
il iation
ĠM illion
Ġab dom
Ġj e
Ġknow est
Ġpro ximity
ĠL AT
ol k
ĠT ruck
ĠG ear
ĠG lo
ĠD ur
ĠD habi
art a
ie re
Ġv pn
ĠF itness
ĠH av
ĠR oles
ĠE mer
ĠE ss
Ġsp ine
Ġsp ins
Ġpe pper
Ġpe nding
pl an
Ġch in
ĠU z
Ġcl aws
Ġco zy
Ġdis se
are z
ach us
Ġro gue
Ġar chae
ian e
Ġrec laim
Ġdisc reet
Ġmin imize
Ġcou pled
Ġspec ify
Ġtrans it
Ġgen eal
Ġsystem atically
Ġreg ulate
Ġpol io
Ġwee kends
ier a
Ġmed s
Ġdep ressing
Ġquestion ed
Ġart ic
ĠAr n
Ġmor ph
Ġsub du
ĠBe irut
ĠCl ans
Ġ11 5
Ġtruth s
ole on
ĠAb by
Ġmult imedia
Ġbar rels
Ġquick er
ĠCon way
ĠCon ax
See ing
Ġones elf
Ġenjoy s
Ġmount ed
Cl oud
Ġang uish
Ġrecogn izing
oun ge
Ġsell er
Ġlie utenant
cell or
Ġsmart est
Ġcomb inations
Ġcast ing
Ġconv iction
aff old
arr ator
ĠChe at
Ġbank rupt
Tr uth
Ġunique ly
ĠAir ways
Ġmicro bial
Ph ys
ĠAust rian
Ġcharacter istic
ĠLev ite
ĠSl ider
Ġfold ing
Ġep ip
the ning
Ġprofession ally
Ġge ography
ĠAct ive
Ġprior it
Ġ198 9
Ġaim ing
ĠRec ent
Ġsna ps
Te ach
mar is
Rec all
ĠMad am
ĠMad ame
Ġmax imize
ĠStar b
ĠRem ote
Car oline
Ġvolunt ary
ĠPan el
IG HT
Ġphilos ophers
Ġfro st
Ġtur key
ĠLog an
ĠNa omi
Ġgall eries
ĠEconom y
Ġfeast s
Ġeth ic
ĠBang kok
Ġprosper ous
Ġassess ments
Ġterrit ories
ĠMat hematics
Boy s
Ġiniti ated
Ġicon ic
Ġrum or
Ġinsist ed
Ġshif ted
Ġple a
ĠMir anda
Ġanticip ated
ĠMu hammad
Ġdan cers
ĠCale ndar
Ġtelesc opes
Ġcherub ims
Ġendure th
ĠBlu etooth
Ġwag ering
Lu cy
Ġmoist ure
Ġdiplom acy
Ġstair case
ĠBrat z
Ġnick name
Ġperf ume
ĠJar vis
ĠJep hthah
Ġgad gets
Ġgrav it
Dub ai
Ġsab ot
cyclop edia
Ġbarbec ue
Ġunpredict able
Ġalib i
ĠEval uation
Ġnort heast
C ars
D arling
F act
G ame
H S
I O
J ason
L iving
L ET
L AND
M o
N ight
O il
O NE
R og
R oll
R obert
S now
S AP
T OP
T axi
e lect
l ied
p ea
u ven
u ations
w oman
x bet
Ð ĴÑĭÑĪÐ¸Ð²ÐºÐ°
Ġ ðŁ
Ġt uck
Ġa pe
Ġa isle
Ġs i
Ġs hat
Ġo ct
Ġm ates
is hai
on al
on ian
Ġf ade
Ġd itch
Ġp ent
Ġp its
Ġl ice
Ġl uc
Ġl ump
Ġl ining
Ġl onel
Ġth ro
ot ch
Ġh ives
ut ter
ro sc
ĠS ter
ĠS ort
ĠC opy
il ot
ĠM um
ĠL it
ĠL ooking
ĠP itt
ĠP ract
ul ic
ĠG or
ĠG om
and ert
os ia
ĠF eynman
ĠR C
ĠE k
ĠE cho
ĠE yes
Th irty
ĠJ enny
ĠJ oram
Ġsha ken
ĠO z
Ġwhere by
Ġcomp ress
Ġro pes
Ġar tery
Ġar teries
Ġpart ially
Ġfl uct
Ġunder m
Ġpre liminary
ĠSt ew
ĠSt annis
iss on
ath s
ne e
Ġrec onsider
ict ional
Ġgl owing
Ġmin eral
ib a
Ġunderstand able
ĠWe nd
ific ant
Ġmat tered
cept ible
As ian
Ġ6 1
ĠFl ights
Ġ7 50
Ġsol itary
Ġpat ron
Ġexam ined
Ġfore x
Ġfore front
Yes terday
Ġdev ised
Ġgener ic
Ġadv oc
Ġtest ified
Ġval or
Ġfil mm
ĠAl ways
Ġty ran
eb el
Ġbegin ners
ĠAm anda
ĠAm non
Ġaccount ability
Ġresearch ing
Ġris king
Ġcost umes
ĠMar riott
ĠMar maris
Ġsite wide
Ġpost ers
Ġbar bar
ĠCom mercial
ĠFor get
ogra pher
Ġlim itation
Ġamazing ly
Ch ild
Ġang i
Ġselect ive
Com plete
Ġele ven
ĠQu iviger
Ġfool ing
Ġdress ing
Ġpsych ologists
Ġthanks giving
ĠMon key
Ġsn iper
ĠWho a
ĠCha se
Ġplant ing
Ġsepar ately
Ġemer gence
Ġ22 000
li able
ĠMin utes
Ġarri ves
ĠPart s
stit utes
Ġver ified
ĠPark inson
Ġcong rat
Ġcru ise
Ġanal ogy
Ġscan ned
Ġindic ation
Ġir res
Ġoptim ization
Fe atures
Ind ust
ĠMer cedes
Ġstress ful
Ġinvent or
Ġconduct ing
ĠCam era
Ġadvance ment
Live Security
Ġspell s
Ġexplan ations
Ġembr acing
Ġschol ar
iri am
Ġmarch ing
Ġhelicop ters
Ġutil ize
Ġdelay ed
Ġrang es
roph ic
ĠOper a
Ġgram mar
Ġskelet al
ĠFem ale
Ġcherub im
Ġcens orship
Break fast
umbled ore
Ġrend ered
Ġexchan ges
Ġsymp athy
Ġtu ition
Uk rainian
Ġmathematic ian
Cy ber
Ġvoc abulary
Ġlament ation
Ġhumili ated
ĠIdent ifying
Cook ies
Ġcod ec
Ġpean ut
ĠDipl oma
Ġrigor ous
ĠSaf ari
idel ity
ĠAlexand ria
Ġprejud ice
Ġantid ote
ĠDiar io
Ġubiqu itous
A aron
C ase
C ert
G E
K ate
L D
L aw
L ocated
N a
P T
S QL
b ound
c ond
c rypt
d eto
p it
he ba
Ġm un
Ġc ort
Ġb ark
or ious
Ġn ause
Ġp av
Ġp osed
Ġl ag
Ġl ays
at hetic
Ġg ru
ar ations
ar ming
Ġe un
Ġe rect
id i
id as
ac io
im ir
ut an
am as
am per
ly de
ill es
ĠS outheast
Ġwh ilst
op us
ĠM ode
ĠM Sc
Ġall y
ct ors
ĠB eck
ĠB ORN
ĠL ec
ate mal
ĠP ir
ul ative
ĠT ru
ĠD al
ĠD ual
ĠF u
ĠH ood
ĠH idden
Ġr ash
Ġr att
ĠO R
act ed
og ens
itt ens
Ġqu arant
Ġdis in
Ġdis par
Ġcomp artment
irst y
ĠK om
ĠK ick
Ġpre view
aught ered
ody nam
Ġsc affold
du ces
Ġhand ing
Ġte ens
Ġlea ked
ens ing
ne red
ĠIn vent
Ġreal ise
ily n
oc l
Ġend uring
Ġhome made
Ġfound ing
Ġent ropy
Ġspec ulation
Ġatt ain
ĠWe LiveSecurity
Ġsl iding
Ġtra ps
St ate
Ġser geant
Ġmom s
Ġbro kers
Ġrequ iring
Ġret ina
Ġconf use
Ġnews letters
Ġtrust worthy
ĠSh oes
Ġclear ing
Ġgovern ed
Ġdra wer
ane ously
Ġproject ion
Ġcost ly
Ġdestro ys
ĠEl am
Ġinteresting ly
Ġshoot s
Ġemb ry
ĠGo ing
Ġaccept s
Ġshut ting
ĠSw itch
Com pl
Ġrequest ing
Ġstar ters
Ġsmart phones
ĠPar king
ĠFr ame
Ġann ually
Ġcompet ence
Ġmill imeter
Ġur ine
ĠRed wood
Ġban anas
Sp are
Ġbow els
Ġhol istic
Ġ199 5
Ġdeterm ining
ĠWord press
ĠMal ta
Ġast rol
Ġver bal
Ġult ras
ĠTur in
Ġinteg ral
Ġfold s
Ġshar pen
App ro
Ġinit iate
ĠTe levision
ĠFre edom
Ġcru c
Ġtun ed
Ġstrugg led
ena issance
ĠMc G
Ġexpand s
ĠMil ky
Ġcand les
Ġrepro duce
Ġbother s
ĠUpd ates
Rec e
ĠRome o
Ġchoo ses
ĠSon ny
Ġkil ogram
Ġdiet ary
ĠChristian ity
El ena
ĠBang al
Ġvulner ability
Ġgrain s
Ġax e
Rep ort
ĠAud ience
edd ings
ĠIr deto
Ġstim ulate
Ġenhance ment
Ġgre ed
Ġwand ered
ĠInn ovation
ĠBarb ara
Dan ny
ĠDev ice
ĠInstall ing
Ġbul b
Je ff
Ġmic rowave
Ġmetab olic
Ġced ars
Ġpi geons
Ġunre liable
ĠEll ie
opard y
Gold en
Col onel
Tool s
ĠShar on
ĠAR M
Ġdismiss ed
Ġdisob edience
ĠActiv ities
arsh ish
Ġexpon ential
Da ily
Ġinherent ly
ĠColumb ia
Ġethn ic
amil iar
Ġdisgu ise
Ġoutrage ous
Ġconcub ine
ĠNam ib
ĠKad esh
Fac ulty
ĠTall inn
Ġburd ens
Ġic ons
Fr iday
Ġcem etery
Ġcalam ity
Ġguer rill
IPP ING
ĠDeterm ining
Ġbittern ess
achus etts
Ġeun uch
! !
7 2
B it
B rand
F ifty
G ames
H G
P leas
P ardon
R oman
S ays
T ips
T ommy
c al
g ress
k om
p ill
p ose
r ice
r ative
t rain
w oofer
Ã ¤
Ġt aketh
Ġw ail
Ġo dor
er xes
on ica
Ġf er
Ġf el
Ġd ens
Ġp ony
Ġp neum
Ġl as
Ġl os
et on
Ġh ut
Ġh ides
Ġh ockey
se ld
Ġbe verages
Ġdo pe
Ġfor ums
Ġst alking
oo s
Ġan ointing
ĠS in
ant is
ĠC re
ĠC ake
ĠC offee
ĠA ur
il ized
Ġall eged
Ġcan s
Ġ" >
od or
od iac
th ritis
Ġpro let
ĠL ucky
Ġor acle
He art
ĠT rees
ĠT arshish
ĠG ED
os a
em b
un al
Ġal ga
ie zer
Ġr ows
ĠE S
ĠE llen
Ġsp erm
ĠW OR
ĠO m
ĠO t
Ġen velop
na Ãº
iv an
itt im
ff iti
Ġco als
Ġun int
Ġper ipher
ĠV ac
ĠV iac
Ġbl unt
ĠK ind
ĠK rypton
Ġbr ink
Ġpre ference
Ġsc rap
oll en
Ġrem ix
Ġrem oves
Ġwell ness
Ġcar bohyd
Ġrec ession
Ġcount enance
Ġsur geons
Ġche ats
Ġ10 5
com ed
com merce
Ġatt ent
Ġsl aughtered
ee k
Ġwar mer
Your s
Ġrest less
Ġ8 1
Ġtri ang
Ġcommun ism
Ġmar king
Ġprof aned
Ġpat ches
Ġgener osity
Ġsle eve
Ġexp end
Ġdest ined
Ġsent imental
Ġins ign
Ġfil ing
Ġmark er
Ġfire fight
Ġwonder fully
Ġdem ol
Ġdream t
fl ict
ĠSo ccer
ĠRes istance
Ġnec ks
kes pea
ung al
cha in
elf th
ĠCon struction
Ġbi ol
Ġtem p
Ġsal ute
Ġcamp ing
Ġpot atoes
Ġpoor ly
Ġ17 0
Pro cess
Pro gram
Ġsens itivity
Ġer ased
ĠChar ming
Ġrepl ied
Ġfa res
Ġwel comed
Ġmaster piece
Ġban quet
Ġhero ic
Ġsad ly
Ġbow ls
Ġbal ances
ĠIP Vanish
12 3
ĠFin al
Ġscreen ing
Find ing
Ġassoci ates
Ġpoll ut
Ġver b
Ġsouth ward
App le
ĠStud ent
ML E
Ġrepro duction
ĠBer keley
ĠNe ither
ĠNe andert
ĠIm agine
ĠPass over
ĠPost ed
ĠArch itecture
Ġvolunt eered
Ġprem ature
ĠSil icon
Ġcounter p
Ġenhan ced
ĠExt reme
Ġthick ness
ĠNeb at
Ġrecon ciliation
Ġcomplain ed
Ġven ue
Ġliqu or
ĠGal ile
Ġtransg ress
ĠCa esar
Ġmanip ulation
Ġmamm al
Ġwhore dom
ĠCommun ications
ĠPut in
gl as
Ġnarr atives
Ġvow ed
Ġepid em
Ġcancel ed
ĠNic ole
Ġbul k
Ġmisunder stood
Ġlegis l
Ġscreens hots
ĠMass achusetts
Nor th
ĠZer u
ĠHebrew s
fig ure
Att ention
Ġperm issions
Ġsuperv ision
Ġski ing
Ġmim ic
Jud ah
Ġresur rection
ĠSty les
ĠNev ada
ĠOak land
Ġdilem ma
ynt h
Ġpla que
Ġfug itive
ĠProper ty
Ġfier y
Ġrooft op
ĠInform ations
ĠLut her
Ġacquaint ance
Ġlifel ong
Ġblu epr
Ġfis heries
Ġcomprehe nd
Ġmultid isciplinary
aust roph
ĠTargary en
Ġtsun ami
Ġgravit ational
seld orf
naÃº ba
6 3
9 2
C our
D raw
E li
F T
F air
F itness
F rance
G al
I ES
J ump
K A
K ick
L P
L and
L ost
R en
b ecause
b ane
c hen
e at
l arge
o ah
s ky
t ically
Ģ ¬
er ia
Ġm g
Ġm ute
Ġm otto
Ġc it
is ive
Ġb acking
Ġf ir
Ġd agger
Ġd izzy
en et
Ġp ac
Ġp itc
Ġp oop
ed es
Ġl inking
Ġg el
Ġg aze
ar ity
ĠI R
st rong
ic ure
le e
Ġha ird
ay ers
Ġdo st
Ġdo od
ent o
out ube
ĠS M
ĠS or
ĠS ET
ur ches
ant y
ĠC urtis
il ated
ĠM au
ch ise
ge nds
ĠL ost
ol is
ĠP red
ĠP ID
ul ators
ĠG ore
ĠG us
ĠD uring
ĠD TH
ĠD MC
Ġex ile
ist ically
ĠF ortune
ĠH art
ĠH ERE
ĠH otspot
ect ed
Ġr iddle
ĠR av
ĠR iad
ĠN apa
fe ira
Ġint ric
ud a
ĠU m
ĠU nt
Ġpr isons
Ġco ated
Ġco ating
Ġtw elfth
Ġnew born
Ġro aring
Ġper il
Ġbl aming
ĠK ed
ĠK ep
Ġ3 45
Ġpre cip
Ġsc um
iss ors
Ġimp ulse
ise ases
ĠIs h
ĠIn box
Ġsm ash
Ġsm ashed
Ġsy rup
Ġmin im
uck le
Ġel igible
Ġtrans national
ĠWe re
Ġrep osit
Ġfin an
Ġsw elling
Ġbit es
Ġbas ics
Ġmiss iles
Ġpret t
ĠZ ak
Ġ8 8
aut ions
me ga
Ġpoint less
Ġfore most
Ġdev ise
Ġfr iction
angu ages
Ġhold ers
Ġmark ers
ĠAl iexpress
ĠAm m
Ġstuff ed
ev o
Ġpriv ately
ĠAb igail
Ġmult inational
Ġri pe
Ġthank ful
ĠTr ad
Ġz ip
Ġlim bs
Ġhair s
Ġhair y
ĠBen efits
Ġstat istic
ĠBar uch
Ġill usions
Ġnecess ity
ĠAp k
Ġball et
Ġsqu id
Ġer r
ĠMon ro
Gu ests
Ġstruct ured
ĠWhere fore
reg on
Ġthrow s
Ġdon ors
ij a
ĠGe or
Ġbath s
Ġlic enses
Ġpun ched
ĠFin ally
che th
ĠMal colm
Ġcontrib utes
ĠColl ins
Ġinvestig ations
Ġbes ie
ĠWar ren
Ġscan ners
ĠCr ack
Ġdy e
Ġir regular
Ġgodd ess
ĠMc K
16 8
Ġtim eline
ĠCour ses
Rec ent
ĠAny way
Ġ197 1
Ġoppos ition
ĠLib ya
Ġboo ze
Ġkick s
ĠPan ama
Ġvot ers
Ġremark ably
ĠCap ital
ĠAv iation
Ġwest ward
Ap art
ĠBang ladesh
Ġmotherf uckers
Eng ine
Train ing
Ġencoura ges
ĠLau n
ĠAdm iral
Ġlun atic
Del iver
ĠHy dra
ĠKat rina
Ġmyster ies
Ġconfess ed
ĠTurn er
ĠNiger ian
ĠBrand on
Ġsurf ing
Ġprototy pes
Ġimper fect
Br other
Ġillust rate
Ġunlock ed
Ġimmig ration
ĠPack age
ĠOs lo
Ġgram s
Ġcritic ism
Ġadvis or
Ġchew ing
Med ical
ĠLim ited
Ġfest iv
Ġaspir in
Ġtact ics
Ġcondem ned
Pres ident
Ġrevol utions
ĠTitan ic
ĠDI ED
ĠTick et
Ġhaunt ed
Ġabundant ly
ĠTrack er
Ġlep rosy
Ġgeomet ry
Ġtang ible
Adv anced
Ġlingu istic
Ġworsh ipped
Ġconstrain ts
Ġbracel et
Ġiv ory
Ġprud ent
Ġreth ink
ĠPhilosoph y
Ġmegap ixel
ĠMetat rader
kespea re
9 8
B L
B ella
C ON
C ourse
E B
F un
H al
I ron
J ob
J esse
L inda
M oving
N athan
R om
R ule
R oom
R unning
S ide
T ea
T ech
T ON
T agged
V ersion
a ution
b rand
c or
c ity
e ven
g ling
g thening
r own
t aking
u ctor
u ador
Ġt icking
Ġw ither
Ġthe rape
Ġs ar
Ġs ip
Ġo l
Ġo v
Ġc ache
Ġb aking
Ġb ese
on ts
Ġf ries
ing e
es ium
Ġp apa
Ġl ur
at form
ot ine
Ġha w
al onia
Ġbe an
Ġbe ers
Ġ- >
am o
ec at
ĠS eth
Ġli eth
ur ally
ĠA ce
ĠM is
ĠM aking
ĠM NIGMA
Ġall oy
Ġall ergy
Ġse g
Ġse ated
Ġse asons
ĠB rows
ĠL est
ĠL iz
us c
ĠG as
Ġsh itting
ea ky
ist ant
ig ers
Ġthem atic
ĠF isk
Ġr uth
ĠR ow
ĠR uf
ĠR angers
Ġsp ears
Ġpl ains
ost ics
Ġsha ved
ĠO regon
Ġtr ay
Ġch ol
Ġch oir
Ġday time
Ġqu o
Ġcl oses
Ġwork out
ass a
Ġun load
ĠY an
ĠV I
ĠV ia
Ġbl ur
ĠK ru
ĠK yle
In it
Ġfl own
vel and
ew are
ĠSt rong
Ġinc ap
Ġem an
Ġcar riers
Ġrec om
oc ity
ĠThe ir
Ġdel ights
ere y
Ġspec s
Ġinv ade
Ġsl og
Ġcr acking
Ġcr ashes
Ġsw ell
Ġreg ain
St raight
Ġbro om
Ġbuild ed
Ġ19 2
Ġpay load
ret ch
Ġdep uty
Ġfour teenth
Ġmor gue
Ġlaw ful
Ġexpl oded
ĠWh ile
Ġfore s
Ġgener ates
Ġsub mar
Ġcountry side
Ġblood s
Ġ15 00
Ġsmall pox
Ġref in
Ġcra b
ĠPh ine
rist ol
Ġaccount ant
Ġeduc ating
Ġeconom ist
Ġworks hop
ĠAb ishai
ĠMar ilyn
vent ions
ai ge
Ġresult ed
ĠAd obe
ĠCom plete
Ġaccording ly
ĠBl ake
Ġworth while
Ġtem plates
Ġinvest or
Ġshot gun
Ġadm ired
Ġdou che
ino is
Ġmur m
oun ces
Ġeight een
Ġpick up
arant eed
Ġobject ion
Ġconsider able
ĠUs ed
Ġbeginning s
ĠJust in
ĠDec iding
AT E
AT O
AT ES
Ġpromot es
Ġwicked ly
Ġsecure ly
Ġcomfort ed
Act ive
ĠChe ster
Ġkiss es
Ġbank ers
Ġvill a
ĠCol a
Ġagree ing
ĠBu zz
Ġroll s
Ġboss es
Ġhol iness
Ġ199 6
Ġdemocr at
uts ch
Ġcondition ed
Ġweak er
Bl ow
ĠStud ios
ĠBa iley
Read ing
Ġprec aution
Sec ret
Ġdisp os
Ġtun ing
Ġtun nels
ĠInt el
Ġrepe ating
Ġclin ics
Ġdece ased
De fe
Ġconsult ing
Ġconsult ants
omed ical
ĠRequire ment
Mar io
Ġtur bul
Ġju ven
ĠTreat y
ĠAtl as
Ġ34 6
Ġ34 7
Trans port
Ġobl iv
ĠWork ers
ĠEqu ival
ĠIns urance
Ġtear ing
Ġcher ry
ĠPur ple
Ġacceler ating
Ġconst ell
ĠKingdom s
Ġconclus ions
ĠPR O
Ġiniti atives
Ear th
ĠUnivers it
sp y
ogen esis
Ġsandw iches
Av ailable
ĠDoc ument
Ġoblig ed
ĠNaz is
ĠSex y
Ġrig id
Cou ple
ĠLeg o
Ġprospect s
Ġgig antic
Ġclar ify
Ġdescend ed
Ġovert ake
Ġnegoti ations
Ġgenuine ly
Ġdread ful
ĠTab let
ĠGra il
ĠKir k
ĠTyre ll
Ġendeav or
Ġbron ch
Ġnit rogen
ĠLoc ke
Ġconstit u
bre aking
ĠJab esh
Ġresil ience
ĠGrad uate
ĠGem ma
Dam on
ĠAra bs
Ġbund le
Ġsemin ars
ĠNap oleon
ĠIng redients
Ġinterven e
Ġmemb rane
ĠSiber ia
Ġtoothp aste
ĠPalestin ian
Afric a
Soph ie
Ġsel ves
Ġhass le
atemal a
ĠZeru iah
ĠMonro e
7 00
B ET
F resh
M O
N ature
O cc
P H
T our
T uesday
W onder
b eth
c uts
k ara
k top
m id
t ub
v n
w ares
Ġt et
Ġt ipping
Ġs arc
ha ch
Ġm ating
Ġm apped
en y
Ġp ension
Ġl akes
Ġl ane
at able
Ġg er
ĠI Q
ve red
ow a
ot ing
Ġh in
Ġh over
id erman
Ġre ed
ri um
am al
ĠS ection
ĠS aga
ĠC it
ĠC ody
ĠC hen
op oly
ĠA x
ĠA er
il ion
ĠM I
ĠM echan
Ġse ized
Ġab ortion
est one
od s
han y
ĠB MW
ol ese
ĠP urs
ĠG ree
ĠG ardens
Ġex its
qu er
ĠF unny
ĠH K
ĠH P
ĠH ud
ĠH ands
Ġde pl
Ġr ider
ĠR enaissance
Ġ2 99
ĠE sh
ast ian
ook ie
Ġman iac
ĠN em
pt on
Ġtr an
Ġtr icked
Ġch lor
ĠU V
Ġover view
Ġover weight
Ġam ino
ord ination
Ġpr ic
Ġun ified
ĠY et
Ġcomp act
Ġcomp ression
ach in
Ġper ished
ĠV iv
ĠV ision
Ġbl asp
Ġbl ameless
ign ant
be es
Ġsc ent
Ġhand c
Ġapp ropri
ub ile
Ġmo cking
ors es
Ġcha l
olog ne
Ġreal izes
oc hem
Ġdec omp
Ġkeep ers
Ġhum p
ĠRe quired
Ġrel iability
Ġprog ression
ert o
Ġgen res
az er
Ġrep ell
Ġwar p
Ġbad ass
Ġra zor
lo or
Ġthy roid
Ġexc el
ĠSp ot
ĠSp ins
ĠFl int
Ġmed itate
ĠZ i
ĠZ oe
Ġlight ly
Ġchar ities
Ġloc als
pr on
Ġcent ered
Ġcor als
Ġfil th
ER V
Ġaff irm
Sh ipping
Ġaccount ed
ĠCl othing
Ġhist ories
Ġexpect s
Ġ11 8
ĠPl astic
Ġterm inate
Ġris ked
Ġsupposed ly
Ġelect rons
Ġmil it
ĠAd ams
Ġide ology
elf ast
Ġhit ch
Ġsurv ives
Ġbeha ved
ĠAre na
Ġpot ent
ĠHar ris
Ġstar ve
ĠPar adise
Ġviol ated
Ġsqu ares
Ġer otic
Ġsus ceptible
Ġinnov ate
Ġcy cl
ĠEd it
Ġauthor itarian
Sp end
iot ic
sc reen
Ġscientific ally
mail s
Ġfreed oms
Play er
Ġmeasure ment
Ġattract ing
Ġinvestig ator
Ġfashion able
Ġclaim ing
Ġcirc ular
Ġinnoc ence
ĠPay ment
ĠCr own
US S
Ġcontract or
Ġtransport ed
Ġmanufact ured
ĠHol idays
Ġbathroom s
ĠInt ro
Ġspl itting
ĠDon nie
Ġfalse hood
Ġtro phy
ĠIm port
gr im
Ġfinger print
Ġbrief case
Ġtight ly
Ġsexual ity
ĠMike y
Ġconfirm s
Ġacqu isition
ĠSing le
ĠCons ervation
Love ly
ĠRoman ian
Trans fer
Trans lation
Ġconver ting
Ġfee ble
Ġax es
Rep ly
ĠHan aniah
ĠTal king
Ġcolon ial
Ġsmooth ly
Ġrab bits
Ġstim ulating
Ġ195 8
ĠHaw king
ĠBelg ian
Prom o
ĠShan e
Ġrac ial
ĠGil bert
Oper ations
Sa fety
Ġbuff et
ĠRand all
onge vity
Ġepis odes
Ġperm its
ĠCoin s
Ġdeceit ful
ĠRich ie
Ġproclaim ed
Ġupgrad ed
ĠTransport ation
ĠClin ton
Ġrecip ients
ĠLoc ations
istor ical
ĠFR OM
Ġbiot echnology
ĠZe us
Mus ic
ĠHug hes
Ġsincere ly
Ġtextbook s
Ġintrigu ing
Id ent
Ġacknowled ged
Ġforens ics
Ġinconven ience
ĠNort on
Ġphilanth ropy
orde aux
there fore
ĠPict ures
uw ait
Ġming led
Ġinsec ure
Ġpic nic
Ġsaus age
ĠBuddh ist
Ġamuse ment
Ġwerew olf
Ġrespir atory
ubb abel
ĠAzerbai jan
Ġultras ound
Ġbiol umines
B URG
C rypt
D ie
D ave
D eep
F S
F eed
L uxury
M ac
R ich
R eb
R iad
S ound
V ideos
W B
d od
h ur
h otel
l ily
n ies
p ic
w art
w ives
w hen
z ah
Ġa esthetic
re as
Ġw oo
Ġs ane
Ġo mn
Ġf ry
Ġf ats
Ġf ences
or i
Ġn ud
Ġp ap
Ġp aj
ar cer
ĠI z
ot on
ot hel
Ġha ven
Ġha mm
al o
Ġhe h
Ġu mbrella
Ġwe ights
Ġre w
im eters
ent ura
ut o
Ġst agger
oo sing
ec d
ĠS ou
ĠS is
And y
ĠC ind
Ġkn it
ĠM D
ĠM R
ĠM ack
Ġab duct
Ġcan e
au g
Ġpro stitutes
ĠB ond
ĠL ud
ĠL ights
ĠL TD
ĠP o
ĠP ic
ĠP am
ĠT B
ĠT as
ĠG ay
ĠG mail
ĠD D
ist ine
em y
ry s
um i
um ing
Ġv ile
ĠF ried
ĠF TP
ĠH os
ĠH els
ĠH ector
ĠR ail
ĠR ober
ĠE V
ĠE y
ĠE uph
Ġpl ent
Ġpe ac
ĠN Z
Ġen rich
pl aces
pl ifier
og ical
Ġover re
ild o
Ġqu ar
Ġqu eries
Ġle opard
ass o
Ġun ite
Ġun equ
ach i
Ġro ok
ĠV enez
ĠK iri
Ġ3 000
She riff
Ġres ent
Ġhand writing
ub ba
Ġimp osed
Ġimp aired
row se
ian cÃ©
ĠIn f
Ġrec ur
Ġsy na
ĠCh in
Ġbelie ver
Ġend orse
bs on
Ġplay lists
Ġdel ic
Ġmin istry
Ġplan ner
Ġsl ums
Ġcons pired
Ġcr ank
Ġpass over
Ġhigh ways
ger y
ĠSp rings
Ġmiss es
Ġsign atures
Ġlight weight
Ġfour teen
Ġtri ggers
Ġmar ijuana
Ġdesign ated
ĠAmeric as
amp us
ustom ed
Ġwatch man
Ġval ve
uff le
Ġtrain er
Ġdef icit
Ġ12 9
Ġarm our
ĠSh im
ĠWell ness
Ex am
rib es
ok o
Al an
Ġallow ance
Ġap es
ĠMar bella
osp ace
Ġothers I
Ġdoll s
Ġlab els
ĠAn imal
Ġground ed
ik am
Ġdig its
Ġcal ib
Ġcal cium
Ġsal on
Ġhor rific
ĠX tra
Ġbur ger
Ġweb cams
AT V
Ġsubject ive
aur us
RE X
ĠDr ink
Ġsn acks
ĠSupp ly
Ġvol umes
ĠWeb RTC
Ġice berg
ĠGl ad
Ġ# >
Ġgate way
Ġens la
Ġsimilar ly
ĠPer izz
Ġcharacter ized
ĠMin nes
ĠAng els
Ġwilling ness
Me aning
Ġdetect ing
Ġassoci ations
ĠMal ay
Ġinform al
ĠChan cellor
ĠHack er
Ġdepart ure
Qu estion
Ġvisual ize
ĠPort land
Ġsympt om
Ġanaly tics
Ġcommit ments
Ġeld est
ĠProt ect
Ġtong ues
ĠExc ursions
Ġbright er
Ġemp ath
Ġdefend ant
ĠIndian a
Ġ197 5
Ġcircum cised
ĠSal t
Ġbreast plate
Car rie
ĠHer z
Ġrot ting
Ġmath s
Ġdisappear ance
ĠLight ning
Ġflat ulence
Ġsuck er
ĠAv ailable
do ors
lean or
ĠHaz ael
ĠDou glas
ĠMake over
Ġsociet al
Ġagg ression
Ġven om
Ġoccup y
ĠInc lud
Ġspaces hip
Follow ing
Reg ular
Ġinterrupt ed
Ġcruel ty
ĠMem ory
ĠKat niss
Ġinfin ity
Ġpump kin
Ġreck oned
Know ing
Ġtraum atic
ĠIM F
hatt ered
Ġheav ier
Ġexal t
Ġuna v
PR O
ĠMonth s
Ġaccred itation
Har vey
Ġsimultane ous
ĠAff iliate
Ġdevast ated
ĠZer ubbabel
Ġsprink led
Ġintim acy
ĠLannister s
ĠCorpor ate
Fre quently
Ġcatast rophic
ĠSH IPPING
Ġfisher man
ĠJohan an
ĠJohan nes
Mod ern
Ġgee k
Ġchampions hip
Ġpupp ies
Ġcater pill
Ġcaf eter
Ġmillenn ia
ĠHug o
Ġalleg iance
Profess ional
Ġrefres hing
ĠAlban ia
Ġnig ger
ĠDiam ond
Fort y
ĠAdon ijah
ĠHil kiah
Ġgarr ison
ĠSyl via
Ġhott est
ĠBennet t
Ġsubdu ed
Ġlos ers
Ġbese ech
Ġrecom pense
ĠMinnes ota
7 8
A rab
C op
G ather
I K
I Z
L au
L uc
N D
N ope
N XX
Q U
R ate
R aj
S lo
S ev
T T
T OS
V IP
W est
c het
e uro
g ia
j ah
p ost
t in
u i
x x
y on
» ¿
Â «
ï ¼
in ished
Ġs hattered
Ġm arty
Ġc os
Ġb un
Ġf iancÃ©
Ġd ances
or us
ow itz
st ep
st ock
se a
im mer
ent er
ro d
ad ata
Ġan emia
ĠS ax
Ġwh ores
ĠC ay
ĠC rist
ĠC ards
ĠC oca
ĠA va
ĠA LS
ĠM m
ĠM ouse
Ġse er
est ro
ĠB ing
ĠB ishop
ĠB elfast
ĠL ar
ĠP all
ĠP ierce
ĠT uc
ĠT ax
ĠD ong
and ra
un ky
um a
Ġv odka
ĠF airies
ĠH iv
ĠH anna
ĠR y
ĠR AM
Ġca ut
ĠN ar
ĠN ut
ĠW ide
ĠW ag
ĠW ish
ĠW ings
ĠW ife
ĠW ax
ĠO ption
ĠO UR
ĠO mn
Ġtr uce
Ġen erg
Ġcl am
Ġcl austroph
Ġun armed
ĠY E
ĠV ase
Ġtal es
Ġar ises
ĠK r
ĠK le
Ġworld view
Ġfl aming
Ġsc out
Ġsc issors
ĠSt ren
iss ipp
Ġdes irable
Ġsm iles
Ġgl ance
hes es
Ġhead aches
Ġgen omes
Ġtra ff
Ġrep ublic
Ġext rac
Who le
Ġinter c
Ġrest oration
Ġcoll ision
Ġread ily
Ġsub mission
att e
Ġbody guard
Ġdef ensive
ER ECOVERY
Ġcra ppy
Ġoper ative
ĠSu gar
Ġtravel er
Ġpar able
Ġcond om
Ġcond oms
Ġsocial ism
Al ice
Ġterm in
br ance
Ġcop ying
Ġprop osing
Ġfre el
Ġhon ors
Ġlau nder
Ġri bs
Ġcult ivate
ĠTr ading
ĠAn onymous
Ġpolit ically
ĠBar ney
Ġsea food
ham ar
Ġupd ating
ĠPol itical
Un cle
Ġhang s
int end
Ġviol in
Ġnon violent
go vernment
Ġperiod ic
ĠCha nd
put ers
Ġbank er
atter y
Ġdwell s
ĠDel ete
IN S
Ġbow ling
lin ing
ĠMiss ouri
Ġgar lic
Ġunf inished
EN TS
Play ing
Ġox ide
Ġappl ause
mpt oms
ĠSa vings
ĠHol m
ĠJon as
ĠBud va
ĠMc Donald
Ġlack s
Ġbright est
Ġhabit ats
Ġtim er
Out look
Ġcalcul ating
ĠNe web
Rec ommended
Ġfalse ly
Ġsusp end
ĠAny one
ĠReg ion
Ġcounsel or
ĠSal v
Ġabom inable
ĠMont erey
Ġrecover ing
Ġencourage ment
Ġinfra red
Ġsen ator
ĠHor ne
Ġcompar ative
ĠCur rent
Ġfrag ments
icip al
ĠNick y
ĠAud rey
ih u
ĠAbs olutely
ĠSpace X
Ġancest or
ĠSen ior
bu y
Em ily
Ġcorrespond s
Ġcyber cr
Ġnail ed
Ġtrail er
Sw itch
Ġï Ģ¬
Ġfert ility
Ġuna uthor
Ġmicrosc opic
Ġpip eline
ĠCart oon
Install ation
ĠGib bs
Ġbang ing
Ġspons ored
Ġfet us
Ġfet ched
Ġunre al
Ġguarant ees
ĠTour ism
Ġhem isphere
Ġveter ans
ĠLead ership
ĠSnap chat
Ġtempor al
Ġadmin ister
Ġpier cing
Ġstere o
ĠMov ies
ĠSoph ia
Ġoccas ional
zh ou
Ġpenet rate
ĠIll inois
Ġneurolog ical
Ġnurt ure
Ġrecept or
Ġintrigu ed
Ġank le
ĠIndepend ent
Ġenroll ed
Ġirr ational
Japan ese
ĠShad ow
ĠTes la
Ġartif acts
ĠFut ure
Dev ices
ĠRac ine
Ġsib lings
Ġsojour n
Ġfantas ies
ĠLiver pool
Ġdisple ased
iov ascular
ithm etic
Rog er
ĠDiario TI
Ġalga e
Ġbesie ged
A ge
B ell
B reat
C le
C ale
D ist
E h
G ar
H a
H umans
L Y
P ER
R and
R achel
S ep
T ill
T ouch
V oice
b op
c orn
c ulation
d in
l ance
n ical
p as
p ixel
r atch
t able
t les
u per
w ald
Å ¡
Ġt asty
in et
in stall
Ġw ate
Ġw ishing
Ġw agon
ha cks
ha zzar
Ġo g
Ġo ve
Ġm es
Ġm arsh
it ime
is dom
Ġb ip
Ġb unny
Ġd ar
en burg
Ġp a
Ġp ow
Ġp als
Ġp ars
an che
Ġl ith
Ġl ust
Ġl itter
Ġg inger
ar o
Ġ? ?
et ta
ot he
Ġh unch
Ġwe ld
Ġre ver
im i
im it
im at
ro ved
ro aches
ad ors
ill o
ĠS au
ĠS hip
Ġli able
Ġmy r
Ġmy cel
ĠC F
ĠC ant
op atra
ĠA BC
ĠM ole
ĠM AC
ch ild
It aly
ĠB olt
ĠL ower
ĠL arge
ol ar
ĠP as
ĠP BNIGMA
us han
ĠT OR
ĠG oose
ĠD amn
Ġcon gest
ab lan
ink i
ink le
Ġv ague
ĠF U
ĠF ant
ĠF ucking
ĠH OT
ies el
Ġr ushed
ĠR abb
ĠE ur
ĠE ugene
Ġpl ed
ime o
ĠJ S
ĠJ ot
ĠJ uan
ide red
res ent
Ġint ang
ĠO bs
act ivity
Ġlo be
Ġen for
ĠU PS
Do ing
Ġover load
Ġsomet hin
Ġun l
ĠY u
ĠY ale
ĠY outube
ĠK urt
In v
Ġfu zzy
erv ations
vel ength
ub ar
Ġwr oth
Ġsm oked
ict ory
ĠHe z
Ġdec oration
Ġcare less
ĠIt hamar
Ġev apor
Ġ10 1
Ġ10 9
Ġinv ites
Ġatt itudes
Ġadd itions
Ġsl it
ee z
Ġrep airs
Ġhigh lights
Ġmat t
Ġcur ves
Ġ19 20
Ġpower less
Ġside walk
ĠPro bably
Ġcent res
Ġins anity
Ġ9 2
Ġcor rection
Ġdef enses
Ġfil ming
Ġter rain
ĠAl ber
aken ing
rop ic
Be hind
ov ina
ĠAm ateur
ĠEx cept
Go vern
Ġimag inary
aj evo
ĠAb ility
Ġfre ight
ĠGu atemala
ĠEl ves
ĠUS MLE
Ġcollect or
Ġvers a
Ġenc amp
Ġsun ny
Ġpleas es
Ġpleas ures
Ġoil s
Fl ight
ffe ine
Ġstra p
ĠFace Time
Ġdisapp ointing
Com b
Ġthreat ens
Ġclos ure
Ġspeed ing
Ġpath way
Ġstick er
Am elia
Ġvol tage
ĠSchool s
ĠTrans l
Ġvill ain
Tr ade
Ġliter ary
Ġut most
ĠSol utions
Ġbra very
uel ing
ffic ient
Ġnation ally
Ġdrug ged
ĠMiss issipp
ĠTy rion
Ġlaugh s
Ġspok es
EN D
ĠMal d
Ġmurd erers
Ġeffic acy
Ġexerc ising
Ġ* **
ĠBet ty
ĠBa asha
Ġmal icious
ĠAss ign
Ġinterview ing
Sc ott
Ġprec autions
Ġ198 8
Ġmut ually
Ġdecl ined
Ġcontext s
ĠBud dy
ĠPromot ion
Ġnut ritional
ĠWall ace
ĠTem ple
ĠVer onica
Ġdelight ful
ĠTor rent
ĠFe el
Ġbetray al
Ġupload ing
Ġshout ed
Ġattend ance
Ġreci pes
ĠMach ir
Ġtradition ally
Ġbom ber
Ġembr aced
Ġuncom mon
Ġveget arian
Ġaccommod ate
Ġaccommod ations
Ġmaid en
Ġcosm os
ĠDom ain
ĠAsh dod
Sl ot
Ġassign ments
ĠTurk men
Ġupright ness
ĠDen ver
with standing
ĠStan ley
Ġauthent icity
Ġuniform s
Ġinqu iries
ĠJeff erson
Ġrac ist
ĠExper t
ĠNik ita
Ġimper ial
ĠCreat or
Ġemphas ize
Ġhypot het
ĠHad ad
Ġassass in
ĠBulgar ian
Ġtoss ed
ĠTun isia
Sex y
Ġdiagram s
Ġcere al
ĠFair y
Ġtact ical
Ġbru ises
Ġambit ions
Ġtremb led
viol et
Elect ric
Ġdigest ive
igs aw
Offic ial
Express VPN
ĠSid on
Ġbron ze
Ġtid ings
Ġconstit utes
ĠFru it
Ġdisob ey
Ġwhisper ing
ĠVe h
Ġcancell ation
Ġcompens ation
Ġlifes pan
Mult iple
Ġovers ight
Ġdeter ior
oura ble
Lou is
Ġaug mented
Ġconstitution al
Ġregener ate
ĠDora emon
ĠChamp ions
ĠStu art
ĠNab oth
Ġted dy
Mess age
hoot ing
kon ur
ĠCer sei
Ġbloss om
Tar get
ĠHann ibal
ĠPhill ip
Ġkne el
Ġcorrid or
ĠNY PD
ĠAlic ia
Similar ly
Nord VPN
Ġsung lasses
Ġht ml
DV B
ĠFinger print
Ġinsuff icient
ĠBai konur
ĠTanz ania
Ġsubc onscious
Ġparach ute
ĠStarb ucks
ĠLec ter
ynth os
ĠZak ynthos
Ġruth less
Ġchol era
ĠEquival ence
ablan ca
B an
B ear
C I
C elebr
D ar
E ast
E yes
F F
F at
J an
K I
M ach
M ajor
N at
P ers
P aid
P haraoh
R on
S ports
T ip
T een
V en
c ol
d irect
i be
i ator
j ago
k ill
m able
n als
n igma
t ale
u v
Ã Ĺ
Ġt ilt
in as
re quisite
Ġw aving
ha iah
Ġm ars
Ġc in
Ġc el
Ġc ush
Ġb reeze
on z
Ġd and
Ġd ime
en na
Ġp uff
ed er
Ġl ing
Ġl ongevity
Ġg oo
Ġg erm
ĠI BM
st als
ic ides
ic olor
Ġbe nding
Ġre per
Ġst roll
Ġst amped
ith op
ec oming
ill in
ĠS i
ĠS ell
ĠC lyde
ĠA RA
ĠM iriam
Ġj ets
Ġj eans
pp el
od o
th od
ĠB ordeaux
ĠL ach
ĠL ara
ĠL enny
ĠP ill
ĠP oints
Ġout ward
Ġout look
ĠG un
ĠG ang
ĠG ems
ĠG TA
qu iry
um ed
Ġv ase
Ġv oic
ĠH iram
Ġr ally
ĠR O
ĠR ot
Ġpl umb
ĠJ in
Ġpe nd
ĠN ak
Ġsu icidal
Ġshe ba
pl oad
Ġch unk
per ature
Ġfe as
ci ples
Ġover flow
ick ness
Ġpr one
Ġco co
Ġ20 30
Ġun en
Ġun reg
Ġcomp oser
ĠV ar
ĠV oy
ĠV iktor
ĠK are
Ġbr ittle
Ġfl ap
ase iah
Ġmu le
ru ff
ile en
Ġsc orn
ult ures
Ġunt ou
Ġimp at
ys s
Ġlove th
Ġinc arcer
Ġem peror
av ascript
Ġsy ring
Ġsupp lied
Is a
Ġmust ard
Ġmust ache
Ġmen us
eth oven
ph p
Ġbus hes
Ġrel ates
Ġgen ital
Ġcr ust
St ainless
Ġext r
Ġvis as
Ġgr im
Ġsin ful
Ġsin ner
As h
Ġdr ums
ĠSp arrow
ason ic
Ġmed d
ĠZ ante
gg le
ĠAr non
Ġfriends hips
Ġblood stream
Ġsent iment
Ġins ulation
Ġref lex
eg ovina
Ġlar va
Ġspeak eth
Ġsort ed
ĠSu ch
Ġaccount able
ipp le
Ġanim ated
Ġmem o
Ġswe pt
ĠMan aging
Ġgun shot
ĠInd us
Ġgif ted
fer VPN
Ġpersonal ities
ĠCar lo
Ġvar ieties
head ed
Ġglobal ized
book s
Ġsuper visor
Ġhot ter
Pro per
Ġrock ets
ĠFollow ers
Ġer u
ĠChar lest
ĠSha kespeare
play er
Ġhuge ly
Ġcoun sell
Ġtransl ates
arr anty
ĠDr ac
Ġinf ring
reg n
ĠCal vin
ĠSupp lements
Ar thur
Ġsubs criptions
ĠBooking s
ĠBu en
AR Y
ĠPer cept
Ġ199 3
Ġmir ac
Ġnorth ward
Ġcelebr ities
ĠVal ve
Ġexperiment ing
ĠTravel ing
Ġge ographical
ĠMa aseiah
ĠBa ham
Sc rew
sec urity
Ġx ml
Ġroof s
Ġ198 2
ĠAh ijah
Ġanaly se
ĠTechn ologies
Ġoptim ized
Bu ilding
Ġsna il
ĠMil k
Ġcand lest
Ġwid ows
Ġsymbol ic
Ġadvert ise
ĠBack packers
Ġ197 3
ĠMer ry
Ġimplement ing
ĠMen u
ĠEduc ational
esse e
Ġfulfill ing
Ġmos que
Ġadjust ed
Ġcrown ed
ĠStart ed
uls ive
ĠVol m
Art icle
ĠEve lyn
Ġvirgin ity
Ġsed uced
ĠEnter tainment
Ġcoord inate
ĠMess enger
Ġairl ines
Kill ing
Ġmyth s
ĠId eal
Ġmemor able
Ġmel ody
Ġexha ust
Ġprob able
Ġaston ishment
Ev ents
Ġdistrict s
ĠFro do
Ġoblig ations
Ġexplo itation
Sweet ie
Aut om
Ġabsor bed
Ġspill ed
ĠDor othy
Ġloo ps
ĠRand om
Sub mit
Ġprosec utor
eng ine
Ġscal ing
Ġparagraph s
ĠNat alie
Ġdeliber ate
ĠRoot ed
Ġdiction aries
Ġstain less
Ġsubstant ially
ĠWonder ful
Ġresident ial
Ġchromos omes
Ġfisher men
Ġincorpor ate
Ġcri pp
ĠPalest ine
Custom ers
ĠVi king
Ġconsol id
ĠâĦ ĸ
Ġsymmet ries
Ġreun ion
Ġincom plete
ĠLang ley
ĠPhys ics
Ġdictators hip
Ġfeat uring
Grad uates
Ġprover b
Ġprost hetic
ĠHOW TOS
ĠPeg gy
Ġredes ign
Ġosc am
ĠUrugu ayan
Cra zy
Ġsummar ize
Ġlux urious
ĠVlad imir
Ġpave ment
ĠGersh on
ocaly pse
ĠArist otle
ĠPROM O
ĠShen zhen
Ġmaneu ver
ĠArn old
ĠAur ora
Ġtherape utic
ĠPhine has
ĠGree ks
ĠHud son
ĠEuph rates
ĠHerz egovina
ĠMississipp i
/ âĢĵ
9 4
A qu
B ow
C ond
D O
D ate
E nt
F all
F ile
G r
H am
H op
L ea
M ass
M edia
N Y
N ad
O pt
P apa
R ide
S anta
S omeday
T PS
V an
b ear
b read
c ro
d ia
f ree
g on
h ou
l ady
m aking
n em
q q
s ers
w ing
z burg
Ġa rou
re k
re ro
Ġs outheast
is an
is hers
Ġf ec
Ġf ont
Ġf ills
Ġp ixel
ĠI ts
Ġhe ct
Ġe b
im ab
Ġme ad
Ġst ature
ad os
Ġan chor
Ġan ecd
ĠS ons
ĠS ere
ĠS asha
ĠS awyer
el and
ĠC R
ĠC el
ĠC ain
ĠC ub
ĠC ave
ĠC itiz
ĠC OU
ĠA G
Ġgo ver
ĠM ut
ĠM ills
Ġall iances
Ġab usive
Ġso y
Ġso fa
ĠB TC
ĠB EST
ĠB everly
ate urs
ol ences
ĠT ul
ĠT ina
ĠG round
ĠG ret
ĠD er
ĠD ance
ĠD raw
ĠD iseases
Ġsh ove
ist ent
os heth
Ġal mond
ear im
ink er
Ġv apor
Ġr idd
ĠR iv
ĠR OM
ĠR osen
Ġsp onge
ĠJ F
ĠN ate
ĠN av
Ġsu cc
ide press
ĠW anna
ĠO cc
Ġtr aced
Ġen ric
ber ty
og ging
ak est
we ed
Ġlook out
Ġun ic
ĠV ilnius
Ġar thritis
ĠK eller
ĠK uwait
Ġbr othel
Ġfl ashing
Now adays
Ġacc ustomed
Ġlea ven
Ġinc omp
Ġem u
Ġem pir
Ġph os
Ġcar b
Ġsupp lier
ĠCh icken
Ġshow case
ĠHe m
duct ions
Ġplay ful
Ġdel usion
Ġhar lot
Ġev ildo
Ġrel oad
ject ion
com pass
ars i
here th
Ġsl oppy
Ġcle ave
Ġnum b
Ġfin ancing
Ġlist ens
Ġpass ions
Ġprogram mers
Ġinter ventions
Ġbuild ers
Ġcoll ap
ern el
Ġret ro
ĠZ amb
Ġread ings
Ġfour s
Ġgra vey
Ġgra ffiti
Ġdev otion
ĠEurope ans
eg ro
Ġ12 2
Ġfil med
ER N
ĠAl ien
eb a
Ġcell ul
iqu id
Ġdirect ors
ĠJohn s
br al
Ġproject ed
Ġprop os
Ġdam ages
Ġhost ed
ĠGu inea
ĠAll iance
Ġaut ocl
vert ed
Ġkey st
ĠCom plex
ĠAn swer
ĠAn kara
cha ble
Ġdark er
Ġpack et
Ġ24 0
ik ed
Ġemb ark
ĠGo als
Ch loe
ze k
Ġrespons ive
Ġant idepress
ĠX NXX
ĠBar athe
Ġrecogn ise
Ġcard iovascular
Fl ash
ĠInst ruct
Ġsum s
Com pan
Ġclot he
NE T
Ġwild lings
Ġcat ar
ux imab
Ġpsych otic
Re lease
Ġcompet itions
Ġautom obiles
Ġbri g
Ġfa vel
Wait ing
ĠChe ers
Ġlift s
rate gy
ĠMic helle
Che ap
ĠDep uty
Me ans
Ġprim ates
istan i
ĠTe aching
Ġconscious ly
Ġgirlfriend s
ĠChan ging
Ġqual ify
Ġtransform ative
Ġvisual ization
Ġdry ing
Ġpet ty
ĠLu cia
Ġ198 5
Ġ198 7
ĠAh ithop
Ġwarm th
Ġdiagn ose
SC O
ĠHam ilton
Ġsusp ension
Ġmax im
ĠBack up
Ġped iatric
Ġfinger prints
ĠCond uct
ĠOther s
Ġunb ear
ĠAut omatic
ĠAv oid
ĠBo az
Ġcreep s
ĠInter pol
Ġelev ated
Ġharvest ing
ĠEt here
ĠEve rest
Ġcoord inated
Ġbore dom
Ġshel ves
Comm on
Ġsau na
ĠBur und
Ġdecre ased
Ġcommission ed
Ġbul bs
Ġconqu ered
Ġwax ed
Ġuna ware
Shop ping
ĠJos ie
Sing le
Ġdispl aced
ĠShall um
Ġfo ie
Win ter
vas ive
ĠRT O
Ġunderest imated
Ġintr ins
ĠCle veland
ĠMove ment
Ġevac uate
ĠMembers hip
ĠDI Y
Hu h
Ġcri pple
ĠSpart acus
Offic er
Ġcommod ity
ĠHag g
ĠExerc ise
Ġhumili ating
Ġstam ps
Ġstam ina
Ġpean uts
ĠAmalek ites
ĠEc uador
Ġresil ient
Ġconj unction
Ġner d
Ġadrenal ine
Profess or
ĠIndepend ence
ĠFinn ish
Ġsquir rel
Bra zil
Ġpancreat itis
Ult imately
OLI DA
Ġfow ls
ĠCP U
asel ine
Ġgau ge
Ġinfer ior
Ġoverr ide
Ġfaul ty
Ġhamb urger
Ġsynd icator
Ġobser ver
ĠTenn essee
ĠCambod ia
Ġenlar ged
Ġlonel iness
ĠEk ron
Ġbronch itis
ĠAhithop hel
1 99
8 2
9 00
C zech
C reation
E ss
G race
H an
H OW
I gn
L ondon
L ength
O ri
P en
P et
P ract
R ated
R ub
S ch
T R
U r
W ood
c ents
d al
d aughter
h ran
m at
n ea
n osis
p hat
r usted
s ize
u zzi
w d
w hy
x ic
z ip
Ġt ics
he ts
Ġw eddings
Ġs way
Ġs ixteen
Ġb ak
Ġf ainted
Ġf ictional
Ġd anced
Ġd airy
or ie
Ġn avy
Ġn aming
Ġp el
Ġp eaks
Ġl s
Ġin ability
om nia
ĠI vy
ic ular
Ġdo om
im mon
ent imes
Ġst un
Ġst itches
The m
The me
ad ena
ĠS ib
ĠS ands
ur ities
ĠC ush
op ause
op ened
ĠA ld
Ġse gment
Ġj ock
nt y
est het
ĠB Y
ĠB oot
ĠB ash
ĠB IG
ol ph
ĠP ul
ĠP ig
us er
ĠT ess
ĠT uring
ĠT utorial
ĠG ri
ĠG ust
ĠG ard
ĠD umbledore
ig al
ry v
ĠF eed
ĠH um
Ġhere by
ĠR ise
ĠR ule
ĠE ther
ĠE NIGMA
Ġsp acious
Ġsp heres
ell ar
ĠJ AM
ĠN A
ĠN ash
Ġthink ers
Ġright ly
Ġint ol
ĠW alk
ĠO P
ĠO megle
ous ing
ag les
Ġen compass
Ġch oke
Ġgood ly
itt eth
Ġam using
Ġthan king
other mal
Ġco cks
Ġle wd
ass ium
Ġbl amed
In vest
Ġunder go
Ġsc ored
ĠSt orage
Ġimp art
Ġlea king
Ġem l
ĠHe ather
irl ing
Ġinst ability
Ġinst ances
Ġturn key
ph is
Ġspec imen
ale za
Ġsl umber
Ġsw ims
Ġsw ollen
St r
St ation
St efan
Ġprogram mer
Ġheart ed
Ġpres idents
ĠZ omb
Ġtri bal
Ġmar ble
Ġmar vell
Ġmet a
Ġexp ired
ĠBe ethoven
Ġdist orted
ĠAl v
Ġlisten er
Ġty ped
Ġsleep y
Ġcell ar
Ġpop ping
arent s
Ġfig s
Go vernment
ters on
Ġclass mates
Ġ11 2
Al tern
Ġ18 00
ĠMar ina
ĠInd eed
ĠRes ults
Ġluck ily
ĠTr acy
ĠAd ult
ĠAn s
ĠAn cient
Ġide als
ĠFor got
ĠCon stant
ĠBl air
iter ate
Ġshort s
ĠLet ter
Ġcool est
Ġsuper fic
Cl assic
ĠX P
Ġbull ocks
Ġeight y
ĠSw an
Ġjour nals
ĠAp art
Pro ject
Ġball oons
Ġconsider ably
Ġappear ing
Ġstri pes
Ġport ray
ĠHome land
Ġrepl ies
Ġinstit utes
Ġsn eaking
Ġrev ive
asc al
Ġban ners
Ġvill agers
Ġnational ity
Sp ain
Ġwis er
uel a
Ġunc ont
ĠSer bia
Ġparticip ated
ĠSl ow
ĠMal aga
Ġattract ions
Ġinform ative
ĠMor ris
ĠMac Book
Ġbreath taking
ĠHi ro
Ġanal ys
Ġtransform s
ĠSa hara
Ġinstrum ental
Im portant
Ġcand ies
Ġreward ing
Ġdocument ing
ias is
Ġexpress ing
Ġcentral ized
Ġobtain ing
Ġcoast s
iment ary
ĠVer ona
ĠEs p
Ġgang s
Ġcro cod
Ġproceed ings
ĠMount ains
ĠNord en
Ġworship ed
Ġadjust ments
ĠMet al
ĠSlo an
Ġillness es
Ġsett ling
ras mus
occ up
Ġmyth ology
Ġdecor ated
Ġgre ase
ĠGi bson
ett es
Ġoverl ay
Ġdict ator
ĠBern adette
Ġwa velength
Ant i
ĠAT M
Ġpubl isher
ĠJa ime
Ġcaps ules
Ġreform s
ĠDor is
ĠKn ights
ĠBi ogetica
Ġgrie ve
ĠLank an
Ġlod ged
ĠJez ebel
Er ror
Ġorb iting
Ġtutorial s
Hel en
Ġwag ons
aunt ing
ĠFru ity
Ġflaw ed
Ġvolcan o
LIC K
ĠAgain st
aun ch
Ġdishon est
Ġtreacher ously
ĠPsych ology
Ġastronaut s
Ġtravell ing
Ġanonym ously
ĠDra ke
Ġpropag anda
Ġempt ied
Ġsummon ed
ĠMesh ull
ĠSud an
Ġtradem ark
ĠUA E
Mill ions
Ġpropri etary
Ġgren ade
Ġfootst eps
ĠCompan ies
isl ava
Ġoutd ated
Ic ecat
ĠStew art
Ġangi ogenesis
Ġquarant ine
Ġpollut ants
ĠBrows er
Ġjuven ile
ĠSis era
ĠTas man
Ġbak ery
7 3
A ff
C L
C rystal
D ora
D uration
E I
E le
H ur
I E
K im
S qu
S yn
S peed
b n
b ob
b ps
g el
g ood
g les
h mm
l ia
n ote
n ostic
r ach
t z
Ġt ipped
Ġt weet
in ators
re rs
Ġw ed
ha le
Ġo d
Ġo zone
Ġb out
Ġb isc
Ġy og
Ġf erry
or ama
or rah
Ġn ect
es ters
Ġp iles
Ġp rag
an c
Ġl id
Ġg own
Ġin duced
ĠI owa
st op
st ones
Ġth umbs
Ġha ught
Ġhe ter
Ġu tt
im o
ro st
ro ps
Ġst ove
ad ir
ir k
ir ting
Ġli ars
her ic
el ry
Ġwh olesale
ant ly
ĠC any
ĠC hel
op p
ĠA way
ĠA wards
ĠM O
ĠM ature
Ġso d
ĠB ou
ĠB ot
ĠB uff
ĠB anks
ĠB ecome
ĠL ester
ĠL issa
ĠP oor
ĠP ET
ul ent
ĠT aj
ĠG ru
ĠG ram
ĠD A
ab outs
qu ency
un ished
ig ate
Ġv ide
ĠF ry
ĠF ishing
ĠH ero
ĠH alf
ĠH ilton
Ġde emed
Ġsa ils
ĠR ou
ĠR ocket
ĠR SS
ĠR isk
ĠE rasmus
Ġpe as
Ġsu nd
Ġsha ck
ven ce
iz u
ci als
Wh it
Ġover ly
Ġshall ow
Ġam id
Ġcl aw
Ġpr imate
Ġle ash
ass adors
Ġtw ined
ĠY o
ĠV ers
so on
Ġar se
Ġar che
ĠK er
ĠK an
Ġbr ushing
Ġfl ute
Ġfl ipped
vel t
Ġmu ff
Ġhand ic
Ġhand ler
ond a
ub by
ks at
Ġdes criptions
Ġinc ub
Ġsm okes
Ġrec reate
oc y
ĠCh P
ĠCh o
Ġear rings
Ġmen stru
Ġfam ously
Ġproblem atic
Ġhar ps
Ġcour ty
ĠRe x
ĠRe z
Ġass urance
Ġsl ing
Ġsl ick
Ġsl ipp
Ġcle arer
Ġcons iders
Ġlive ly
Ġsw am
St ream
Ġsk ipped
Ġgr an
Ġwait s
Ġimport ing
Ġprot ests
lo id
ran ium
Ġ19 45
Ġrest s
Ġhuman kind
ĠSp end
pon ents
ĠZ ar
ĠZ ep
Ġdep rived
Ġconf isc
Ġmar ched
aut ical
Ġmet adata
Ġpo etic
Ġexp osing
Ġ9 1
Ġhur ricane
Ġrese ar
Ġrese mble
ef it
eb ra
Ġsleep er
Be yond
Ġcomput ational
Ġdem os
oose velt
ĠCan cel
ok i
ĠAb ijah
ump y
Ġswe ater
An nie
ĠAll ison
Ġbroad band
ĠCom par
ĠCom edy
Ġfront al
Ġvar ies
Ġtom atoes
Ġprep arations
Ġben ign
ĠMy stic
unch y
Ġsuper st
Ġpress ures
ĠOff icial
Ġcard board
ĠNot ification
riv ation
Ġviol ate
Ġstri pper
AT IM
Ġste ering
Ġsn uck
Ġsn uff
Ġautom otive
ĠCal m
Ġur gency
ival di
ĠDE A
Ġpal ms
AN G
Ġhide ous
rate ful
Ġtor ped
ĠAdd ing
Ġstrange ly
Ġsimilar ities
ĠDep ression
lement ine
Ġunf amiliar
ĠTy pes
Ġpu berty
Ġdemocr acies
cient ist
CA M
Ġconcept ion
ĠBlack jack
Ġguard ing
Ġpositive ly
Ġge ographic
ĠAct ivity
ĠBet ween
ĠAc cept
ĠAh ikam
hab iah
Ġdecl aration
Bu ying
Ġhistor ian
Ġneur ot
Ġadminist ered
Ġ197 9
co al
Ġinvent ory
Ġremem brance
Ġrot ation
Ġconsult ed
ĠCong olese
abb age
Ġscar f
Ġcream s
Ġescap ing
Ġbudget s
ĠCoun sel
ĠPower Point
ĠIraq i
add ock
ĠInc rease
Ġvulner abilities
Ġsav age
ĠRam oth
Ġnin ety
Ġclou dy
ĠSS R
Ġsyn c
ĠBook s
ĠLED s
Ġintent ional
Ġantib odies
Ġscholars hips
Ġdecent ral
Ġrebu ilding
Ġrail road
Sur v
Ġsynt hesis
Ġmac ro
Ġutil izing
Ġsail or
Ġnan ny
ĠAnn ual
Care er
Mark eting
ĠCas pere
Ġantibiot ic
asm uch
Ġpersu asive
Ġbitter ly
Ġrig ged
ĠMur ray
ĠURL s
Har old
Ġprospect ive
Ġther m
Power ful
ĠZer ah
ĠRog ers
ĠMatthew s
Ġcere bral
Ġjam med
Ġoverth rown
Ġ} }
ĠUt ilizing
Ġpant ies
ĠGer ber
Ġque ue
Europe an
Ġdefect ive
ĠLes lie
Ġthigh s
Ġexclud ed
Ġexpon entially
Ġadvertis ement
Ġboast s
ĠToy ota
Ġgird le
Ġsymmet rical
ĠStat istics
Ġphysi ology
ĠAmb assador
Ġirr itation
Fig ure
Ġvel ocity
Ġflatter ing
Ġpancreat ic
Dom in
ĠDJ I
Sum mer
Ġoy ster
ĠMade ira
Marc us
Bud dy
Ġturt les
Ġseiz ure
Ġlocom otion
Ġunhe althy
ĠEntrepreneurs hip
Ġenzy mes
fr ame
Ġpist ol
Ġvic inity
ĠBreat h
Ġpredic ting
ĠEase mon
Ġplank ton
ĠSurv ival
Ġloft y
Ġber ries
ĠAlbu feira
ĠGlo ves
Ġdisse min
ĠGom orrah
Ġtyran ny
ĠFrame work
ĠARM v
Ġprolet ariat
ĠSET I
ĠKep ler
ĠTrad itional
ĠKru ger
Ġchal k
Ġpaj amas
Ġcafeter ia
euro pe
Ġmycel ium
Ġcoco a
ĠPercept iveness
nem outh
qq ani
ĠBarathe on
Compan ies
B ri
B us
B rowse
C B
C as
C OM
D inner
E P
E gypt
F em
H OME
I mm
L ocal
M G
P ON
R ise
R aspberry
S aw
S ystem
T re
T it
T ele
W S
Y ears
a haz
e als
e ffective
i u
m om
m ination
n ier
r iss
t ails
y re
Ġt ad
in ers
Ġw ink
ha w
Ġo st
er oon
Ġb ough
Ġf enced
Ġd um
Ġd angers
or ative
Ġl inger
Ġl enses
Ġg in
Ġin mates
ar ag
ot hes
ic ators
Ġhe aps
Ġhe ifer
ion e
id able
ac ia
im ination
Ġst ash
ad an
ad im
ad ers
all ed
ur u
ant age
We bs
ĠC AN
ĠA j
ĠM Y
ĠM am
ĠM ist
ĠM ix
ĠM akes
ĠM ee
ĠM ermaid
Ġj ihad
Ġcan non
au c
Ġat ro
han k
han ie
ĠB us
ĠB ike
ĠB ristol
ĠL ag
ĠP aid
Ġout law
ul ars
ĠT iny
ĠG h
ĠG ent
ĠG os
ĠG inger
ĠG wen
Ġcom in
ĠD j
ĠD y
ĠD ent
ĠD ri
ĠD iane
Ġsh ores
ab out
ab we
ig ram
ry n
ear ance
ĠF an
ĠF ury
ĠF resh
ĠF ifth
ĠH o
ĠH ale
ĠH ollow
ĠH orn
ĠH ills
ĠH BO
ĠE ight
Ġsp awn
right eous
Ġpe ach
ud o
ĠW es
ag an
Ġtr ac
Ġtr am
Ġen list
Ġen large
Ġch urches
Ġover fl
Ġover board
Ġqu itting
Ġco con
Ġun imag
ĠV as
ĠV erv
ĠV era
ĠK K
ĠK enny
urn iture
Ġfl attered
No v
Ġpre ach
ĠSt icker
Ġcomm itting
Ġdes erts
ne x
ĠIs ob
ĠIn iti
ĠCh ocolates
Ġdisc oura
Ġmon etary
Ġmon opoly
Ġsur plus
Ġhum iliation
Ġ10 8
Ġel bow
Ġsl ate
Ġsl ipping
Ġtra ils
Ġsw amp
Ġbit ing
Ġbas in
St range
Ġsk et
Ġwait er
Ġimport ed
Ġhat ing
Ġinter vals
Ġ19 29
ash i
ows ki
Ġmod ification
ĠFl u
ĠZ imb
Ġform ulated
Ġdep rivation
gg ie
Ġsol ves
ĠAr men
Ġgra bs
ĠWh ose
Ġdev ote
Ġdet ox
pr ising
ĠBe yond
Ġhur ried
Ġref ill
Ġfil tering
Ġreason ably
ĠAm elia
Ġcond olences
ĠWell ington
ĠBr idget
dom ain
ĠMar got
Ġenv ision
ĠGu ess
Ġfast ened
ĠCom ing
ĠCom merce
ĠAn ath
Ġcapt uring
ĠJud y
Ġant ique
ĠBar on
Will iam
Ġbull y
Ġmer ge
Ġapplic ants
Ġ40 4
ĠAp ache
Ġconsider ations
Ġmass ively
Ġtab oo
Ġfair ness
imin als
Ġhast y
ĠSha h
Ġrepl en
Ġrepl ica
Ġdefin ite
uri fic
Ġtransl ating
Keep ing
Ġchem o
ĠChe ng
AN T
Most ly
Ġbra g
Ġfing ert
Her b
Ġinvestig ative
Ġmagn ets
Ġmagn ified
Ġappl iances
ĠComp are
Ġcompass ed
ĠPay ments
Ġmechan ic
ĠCor ps
ĠCor inth
Qu estions
Ġprec inct
ĠSim ply
Ġbacter ium
Ġanaly st
Ġdisp ersed
Ġstrugg les
Ġconcer ts
Ġchair man
ĠNe o
Ġtro dden
sect s
Ġlength s
Ġadop ting
Ġutter most
Supp ly
Ġpil grim
ĠCong ratulations
Ġcrew s
ĠSuper man
Ġacqu iring
ĠLast Pass
que z
Ġgall on
Ġrecon nect
estic ides
Ġproceed s
Ġconsist ing
John ny
Ġinterpret ed
ĠCanaan ite
Rep eat
Reg istration
Ġcher ish
Ġglor ified
ĠCommun ist
ĠRom antic
ĠVan essa
ĠMat rix
Ġhi king
bu ilding
Ġextend ing
Ġinput s
ĠDi agn
Ġtempt ing
ĠKe ilah
Ġscratch ing
ĠFred die
ĠTre nds
Ġdeploy ment
ĠRick y
ĠSay id
ĠWebs ites
ĠCert ification
mun ition
ĠNaz ir
Ġsorrow s
ĠCD C
oli ath
Ġsweat y
Ġimmig rant
Ġaccum ulate
Ġassass ination
Ġhem or
Ġnic kel
Ġhob bies
Ġgreet ing
iox id
Ġundert ake
ĠPu erto
Ġintr ud
ĠEC TS
ĠFight ing
Ġmargin al
Port ug
ĠBudd ha
Ġearning s
ĠBour nemouth
ĠGrant ham
sor iasis
Ġarrog ance
Ġadvertis ements
Ġseam lessly
ĠJebus ite
Ġanonym ity
Ġaltru ism
Bi ogetica
Ġgn omes
Ġthirt een
Ġrevel ation
Ol iver
Ġenthusi ast
Ġwrink les
ĠBott om
ĠKem er
Ġglac ier
ĠAlf red
ĠCrow ley
ĠMichel angelo
ĠPharm acy
Ġdos age
Ġpent house
ĠPitt s
Indust rial
ĠViac cess
Ġinsign ificant
Ġsubmar ine
Ġensla ved
Ġmarty r
Ġcaut ious
Ġunauthor ized
Ġwate red
Ġintang ible
ubar ak
Ġhypothet ical
ĠLach ish
Isa ac
Ġgravey ard
Ġsuperfic ial
ĠMeshull am
ĠVerv aco
B ody
B onnie
C old
C ash
D s
F ab
F irmware
G erm
H ub
H app
M um
P ict
P erm
P ublished
S H
S W
S ell
S eal
S olution
T ri
T ob
T akes
W ash
b ike
b ott
c op
g gy
i ago
l iness
l osure
m phony
r ots
s er
v ar
Â ²
ã ĥ
Ġt as
Ġt rop
Ġw ager
Ġm ete
it ess
is eth
Ġb aff
Ġb umps
on ite
Ġto dd
or ate
en i
Ġp iv
at re
ic ans
ic illin
al t
al in
Ġbe verage
Ġhe ave
Ġon ion
Ġon stage
Ġwe akened
Ġre int
ac ements
im an
ro le
Ġk ite
oo ps
ad venture
Ġwith held
We ight
ĠC ob
ĠC lo
ĠC reek
op ha
ĠA ram
ĠA verage
ĠM K
ĠM M
ĠM ol
ĠM oss
ĠM aj
ĠM uch
ĠM ubarak
Ġj aws
Ġso lic
Ġ: :
od er
ĠB B
ĠL agos
ĠL HC
ĠP ast
ĠP isa
Ġout let
ĠT ap
ĠT roy
ĠG oo
Ġthere with
ĠD if
ab lished
qu al
ig el
Ġv anish
ĠF eb
ĠH ore
ĠH og
ĠH acking
ood les
ĠR immon
ĠE g
ĠE vent
Ġsp ike
ook s
Th ursday
So ld
ment ing
ĠN ation
ĠN ail
ĠN ATO
Ġsha ving
ĠO ph
Ġgoing s
00 2017
ans on
ĠU NE
ĠU FO
Ġcl ap
Ġcl ams
Ġlook in
Ġun con
Ġun leas
Ġun used
ĠV eter
Ġbl ed
Ġfu se
Ġbr im
No ah
vel i
Ġmu nd
Ġ3 20
ru gs
Ġapp rent
Ġapp arel
ys c
ys on
kay a
ang ing
Ġinc idents
ne g
Ġsm iled
Ġ5 000
Ġmon k
erm ost
duct ive
oth ra
Ġinst agram
Ġgl ands
ĠUn it
Ġhu ll
ĠRe gina
Ġcle ars
Ġrun ners
Ġfun nel
Ġtra it
Ġfin ances
Ġlear ner
Ġfree SAT
els ior
Ġext ensions
Ġpri zes
ull ied
Ġmind ful
Ġbro ch
Ġpay pal
Ġpay check
Ġwater ing
ĠSp in
ĠFl ix
Ġmed i
Ġexam ining
Ġside ways
ister s
Ġsent enced
ins ki
Ġcor on
Ġhold er
Ġter rors
ĠSh it
ott ie
ĠAm plifier
ĠEx po
Ex clusive
ĠPl ane
Ġpast ures
ĠBr is
Ġmult if
vent h
Ġdam sel
Ġincre ment
Ġcult urally
Ġbar ber
ĠPr ay
ĠAd vertising
ĠAd Sense
ey er
Ġsuccess es
Ġbi omedical
Ġinstall ations
Ġz eal
Ġshort cut
Like wise
Ġsil icon
Ġbeha ving
Ġsuper com
Ġfoot prints
Cl ar
Cl ay
Ġ2017 2017
Ġpot ter
ĠSc he
ĠSc ene
Ġstren gthening
ĠInst ead
ĠDe utsch
zz o
ĠTw enty
Ab ove
int ed
imin al
Ġsqu at
ĠWorld wide
Ġann ih
Ġmis con
Ġcomfort ing
Ġcross es
Ġrain bow
ĠWho ever
acc ur
Ġchem ist
ĠFrank ie
ĠCol on
Ġtor ch
Ġacadem ia
Ġauthor ization
Ġbath tub
ĠMic hal
ĠDes igned
Ġbow el
Ġboard ing
Che cking
Add ress
Ġteaching s
oe ing
Ġinvestig ated
Ġfold ed
Ġsustain ing
Ġcontain ment
Pre m
[...]
