{
  "version": "1.0",
  "truncation": null,
  "padding": null,
  "added_tokens": [
    {
      "id": 0,
      "content": "<|endoftext|>",
      "single_word": false,
      "lstrip": false,
      "rstrip": false,
      "normalized": true,
      "special": true
    }
  ],
  "normalizer": null,
  "pre_tokenizer": {
    "type": "ByteLevel",
    "add_prefix_space": false,
    "trim_offsets": true,
    "use_regex": true
  },
  "post_processor": {
    "type": "ByteLevel",
    "add_prefix_space": true,
    "trim_offsets": false,
    "use_regex": true
  },
  "decoder": {
    "type": "ByteLevel",
    "add_prefix_space": true,
    "trim_offsets": true,
    "use_regex": true
  },
  "model": {
    "type": "BPE",
    "dropout": null,
    "unk_token": null,
    "continuing_subword_prefix": "",
    "end_of_word_suffix": "",
    "fuse_unk": false,
    "byte_fallback": false,
    "vocab": {
      "<|endoftext|>": 0,
      "!": 1,
      "\"": 2,
      "#": 3,
      "$": 4,
      "%": 5,
      "&": 6,
      "'": 7,
      "(": 8,
      ")": 9,
      "*": 10,
      "+": 11,
      ",": 12,
      "-": 13,
      ".": 14,
      "/": 15,
      "0": 16,
      "1": 17,
      "2": 18,
      "3": 19,
      "4": 20,
      "5": 21,
      "6": 22,
      "7": 23,
      "8": 24,
      "9": 25,
      ":": 26,
      ";": 27,
      "<": 28,
      "=": 29,
      ">": 30,
      "?": 31,
      "@": 32,
      "A": 33,
      "B": 34,
      "C": 35,
      "D": 36,
      "E": 37,
      "F": 38,
      "G": 39,
      "H": 40,
      "I": 41,
      "J": 42,
      "K": 43,
      "L": 44,
      "M": 45,
      "N": 46,
      "O": 47,
      "P": 48,
      "Q": 49,
      "R": 50,
      "S": 51,
      "T": 52,
      "U": 53,
      "V": 54,
      "W": 55,
      "X": 56,
      "Y": 57,
      "Z": 58,
      "[": 59,
      "\\": 60,
      "]": 61,
      "^": 62,
      "_": 63,
      "`": 64,
      "a": 65,
      "b": 66,
      "c": 67,
      "d": 68,
      "e": 69,
      "f": 70,
      "g": 71,
      "h": 72,
      "i": 73,
      "j": 74,
      "k": 75,
      "l": 76,
      "m": 77,
      "n": 78,
      "o": 79,
      "p": 80,
      "q": 81,
      "r": 82,
      "s": 83,
      "t": 84,
      "u": 85,
      "v": 86,
      "w": 87,
      "x": 88,
      "y": 89,
      "z": 90,
      "{": 91,
      "|": 92,
      "}": 93,
      "~": 94,
      "¡": 95,
      "¢": 96,
      "£": 97,
      "¤": 98,
      "¥": 99,
      "¦": 100,
      "§": 101,
      "¨": 102,
      "©": 103,
      "ª": 104,
      "«": 105,
      "¬": 106,
      "®": 107,
      "¯": 108,
      "°": 109,
      "±": 110,
      "²": 111,
      "³": 112,
      "´": 113,
      "µ": 114,
      "¶": 115,
      "·": 116,
      "¸": 117,
      "¹": 118,
      "º": 119,
      "»": 120,
      "¼": 121,
      "½": 122,
      "¾": 123,
      "¿": 124,
      "À": 125,
      "Á": 126,
      "Â": 127,
      "Ã": 128,
      "Ä": 129,
      "Å": 130,
      "Æ": 131,
      "Ç": 132,
      "È": 133,
      "É": 134,
      "Ê": 135,
      "Ë": 136,
      "Ì": 137,
      "Í": 138,
      "Î": 139,
      "Ï": 140,
      "Ð": 141,
      "Ñ": 142,
      "Ò": 143,
      "Ó": 144,
      "Ô": 145,
      "Õ": 146,
      "Ö": 147,
      "×": 148,
      "Ø": 149,
      "Ù": 150,
      "Ú": 151,
      "Û": 152,
      "Ü": 153,
      "Ý": 154,
      "Þ": 155,
      "ß": 156,
      "à": 157,
      "á": 158,
      "â": 159,
      "ã": 160,
      "ä": 161,
      "å": 162,
      "æ": 163,
      "ç": 164,
      "è": 165,
      "é": 166,
      "ê": 167,
      "ë": 168,
      "ì": 169,
      "í": 170,
      "î": 171,
      "ï": 172,
      "ð": 173,
      "ñ": 174,
      "ò": 175,
      "ó": 176,
      "ô": 177,
      "õ": 178,
      "ö": 179,
      "÷": 180,
      "ø": 181,
      "ù": 182,
      "ú": 183,
      "û": 184,
      "ü": 185,
      "ý": 186,
      "þ": 187,
      "ÿ": 188,
      "Ā": 189,
      "ā": 190,
      "Ă": 191,
      "ă": 192,
      "Ą": 193,
      "ą": 194,
      "Ć": 195,
      "ć": 196,
      "Ĉ": 197,
      "ĉ": 198,
      "Ċ": 199,
      "ċ": 200,
      "Č": 201,
      "č": 202,
      "Ď": 203,
      "ď": 204,
      "Đ": 205,
      "đ": 206,
      "Ē": 207,
      "ē": 208,
      "Ĕ": 209,
      "ĕ": 210,
      "Ė": 211,
      "ė": 212,
      "Ę": 213,
      "ę": 214,
      "Ě": 215,
      "ě": 216,
      "Ĝ": 217,
      "ĝ": 218,
      "Ğ": 219,
      "ğ": 220,
      "Ġ": 221,
      "ġ": 222,
      "Ģ": 223,
      "ģ": 224,
      "Ĥ": 225,
      "ĥ": 226,
      "Ħ": 227,
      "ħ": 228,
      "Ĩ": 229,
      "ĩ": 230,
      "Ī": 231,
      "ī": 232,
      "Ĭ": 233,
      "ĭ": 234,
      "Į": 235,
      "į": 236,
      "İ": 237,
      "ı": 238,
      "Ĳ": 239,
      "ĳ": 240,
      "Ĵ": 241,
      "ĵ": 242,
      "Ķ": 243,
      "ķ": 244,
      "ĸ": 245,
      "Ĺ": 246,
      "ĺ": 247,
      "Ļ": 248,
      "ļ": 249,
      "Ľ": 250,
      "ľ": 251,
      "Ŀ": 252,
      "ŀ": 253,
      "Ł": 254,
      "ł": 255,
      "Ń": 256,
      "Ġt": 257,
      "he": 258,
      "Ġa": 259,
      "Ġ.": 260,
      "in": 261,
      "ou": 262,
      "Ġ,": 263,
      "re": 264,
      "Ġw": 265,
      "Ġthe": 266,
      "Ġs": 267,
      "ha": 268,
      "Ġo": 269,
      "er": 270,
      "nd": 271,
      "Ġm": 272,
      "Ġc": 273,
      "it": 274,
      "is": 275,
      "Ġb": 276,
      "Ġy": 277,
      "on": 278,
      "Ġf": 279,
      "ing": 280,
      "Ġto": 281,
      "ll": 282,
      "Ġd": 283,
      "Ġyou": 284,
      "or": 285,
      "Ġn": 286,
      "es": 287,
      "en": 288,
      "Ġp": 289,
      "an": 290,
      "Ġ'": 291,
      "Ġof": 292,
      "hat": 293,
      "ed": 294,
      "Ġl": 295,
      "at": 296,
      "Ġg": 297,
      "Ġand": 298,
      "Ġin": 299,
      "ar": 300,
      "om": 301,
      "ĠI": 302,
      "ve": 303,
      "Ġ?": 304,
      "ow": 305,
      "st": 306,
      "et": 307,
      "Ġth": 308,
      "ot": 309,
      "ic": 310,
      "le": 311,
      "Ġh": 312,
      "Ġha": 313,
      "al": 314,
      "Ġthat": 315,
      "se": 316,
      "Ġbe": 317,
      "Ġhe": 318,
      "Ġe": 319,
      "Ġit": 320,
      "ay": 321,
      "Ġis": 322,
      "ion": 323,
      "id": 324,
      "as": 325,
      "Ġon": 326,
      "Ġu": 327,
      "Ġwe": 328,
      "ld": 329,
      "Ġre": 330,
      "ac": 331,
      "Ġdo": 332,
      "ver": 333,
      "im": 334,
      "gh": 335,
      "Ġfor": 336,
      "ent": 337,
      "ut": 338,
      "ro": 339,
      "'t": 340,
      "ke": 341,
      "Ġme": 342,
      "out": 343,
      "Ġst": 344,
      "ri": 345,
      "Ġ-": 346,
      "You": 347,
      "am": 348,
      "Ġk": 349,
      "oo": 350,
      "The": 351,
      "ght": 352,
      "ith": 353,
      "ad": 354,
      "ly": 355,
      "ec": 356,
      "ir": 357,
      "Ġthis": 358,
      "Ġwith": 359,
      "Ġan": 360,
      "ill": 361,
      "Ġhave": 362,
      "Ġyour": 363,
      "all": 364,
      "ĠS": 365,
      "Ġare": 366,
      "Ġli": 367,
      "Ġwas": 368,
      "Ġnot": 369,
      "her": 370,
      "ome": 371,
      "ur": 372,
      "And": 373,
      "el": 374,
      "Ġwh": 375,
      "ust": 376,
      "ant": 377,
      "We": 378,
      "ra": 379,
      "ation": 380,
      "Ġmy": 381,
      "if": 382,
      "ĠC": 383,
      "Ġne": 384,
      "op": 385,
      "ĠA": 386,
      "ould": 387,
      "ce": 388,
      "ter": 389,
      "Ġas": 390,
      "ore": 391,
      "Ġkn": 392,
      "il": 393,
      "Ġgo": 394,
      "ĠM": 395,
      "ch": 396,
      "our": 397,
      "Ġall": 398,
      "Ġse": 399,
      "Ġab": 400,
      "Ġwhat": 401,
      "Ġj": 402,
      "Ġ!": 403,
      "pp": 404,
      "nt": 405,
      "ess": 406,
      "Ġcan": 407,
      "Ġknow": 408,
      "ge": 409,
      "ers": 410,
      "est": 411,
      "rom": 412,
      "Ġ\"": 413,
      "Ġwor": 414,
      "Ġso": 415,
      "au": 416,
      "Ġ:": 417,
      "Ġthey": 418,
      "Ġat": 419,
      "ct": 420,
      "od": 421,
      "th": 422,
      "It": 423,
      "han": 424,
      "Ġpro": 425,
      "ĠB": 426,
      "ĠL": 427,
      "ate": 428,
      "ol": 429,
      "Ġor": 430,
      "ĠP": 431,
      "Ġup": 432,
      "one": 433,
      "very": 434,
      "ake": 435,
      "us": 436,
      "Ġout": 437,
      "ul": 438,
      "Ġabout": 439,
      "He": 440,
      "ĠT": 441,
      "ally": 442,
      "ĠG": 443,
      "king": 444,
      "Ġcom": 445,
      "Ġus": 446,
      "Ġfrom": 447,
      "Ġthere": 448,
      "Ġwill": 449,
      "ive": 450,
      "ĠD": 451,
      "Ġwhe": 452,
      "ure": 453,
      "and": 454,
      "Ġex": 455,
      "Ġlike": 456,
      "Ġcon": 457,
      "Ġget": 458,
      "Ġsh": 459,
      "ea": 460,
      "art": 461,
      "ain": 462,
      "ab": 463,
      "ist": 464,
      "os": 465,
      "em": 466,
      "qu": 467,
      "Ġ1": 468,
      "Ġone": 469,
      "un": 470,
      "ind": 471,
      "ig": 472,
      "Ġal": 473,
      "ie": 474,
      "Ġjust": 475,
      "ry": 476,
      "ear": 477,
      "What": 478,
      "Ġhim": 479,
      "Ġthem": 480,
      "um": 481,
      "ink": 482,
      "ack": 483,
      "Ġv": 484,
      "âĢ": 485,
      "ĠF": 486,
      "ĠH": 487,
      "ect": 488,
      "Ġwant": 489,
      "ity": 490,
      "ies": 491,
      "Ġde": 492,
      "ood": 493,
      "Ġhere": 494,
      "Ġr": 495,
      "ight": 496,
      "Ġsa": 497,
      "ĠR": 498,
      "Ġ2": 499,
      "ĠE": 500,
      "ast": 501,
      "rou": 502,
      "Ġbut": 503,
      "Ġdid": 504,
      "ine": 505,
      "Ġsp": 506,
      "Ġpl": 507,
      "ame": 508,
      "ook": 509,
      "Ġhis": 510,
      "Ġour": 511,
      "ort": 512,
      "Ġwho": 513,
      "ell": 514,
      "Th": 515,
      "So": 516,
      "ĠâĢ": 517,
      "Ġca": 518,
      "Ġby": 519,
      "Ġany": 520,
      "ime": 521,
      "Ġ)": 522,
      "red": 523,
      "Ġman": 524,
      "ĠJ": 525,
      "ment": 526,
      "right": 527,
      "Ġpe": 528,
      "ĠN": 529,
      "fe": 530,
      "Ġsu": 531,
      "hing": 532,
      "Ġthink": 533,
      "ong": 534,
      "ost": 535,
      "ide": 536,
      "Ġher": 537,
      "ck": 538,
      "ice": 539,
      "ople": 540,
      "Ġif": 541,
      "Ġright": 542,
      "Ġsee": 543,
      "res": 544,
      "Ġsha": 545,
      "Ġint": 546,
      "ard": 547,
      "Ġno": 548,
      "..": 549,
      "ause": 550,
      "Ġpeople": 551,
      "Ġwere": 552,
      "Ġtime": 553,
      "pt": 554,
      "Ġsome": 555,
      "ud": 556,
      "ven": 557,
      "ĠW": 558,
      "This": 559,
      "Ġ;": 560,
      "But": 561,
      "ace": 562,
      "Ġ...": 563,
      "ĠO": 564,
      "Ġgot": 565,
      "ous": 566,
      "Ġneed": 567,
      "ag": 568,
      "Ġwould": 569,
      "Ġnow": 570,
      "Ġsay": 571,
      "Ġtheir": 572,
      "Ġmore": 573,
      "Ġthing": 574,
      "ep": 575,
      "Ġag": 576,
      "Ġtr": 577,
      "act": 578,
      "ich": 579,
      "Ġwhen": 580,
      "Ġlo": 581,
      "ther": 582,
      "Ġhad": 583,
      "age": 584,
      "Ġen": 585,
      "Ġoff": 586,
      "That": 587,
      "ite": 588,
      "own": 589,
      "Ġhas": 590,
      "reat": 591,
      "Ġgoing": 592,
      "'m": 593,
      "Ġbec": 594,
      "Ġshe": 595,
      "na": 596,
      "00": 597,
      "ble": 598,
      "end": 599,
      "Ġhow": 600,
      "pl": 601,
      "Ġ(": 602,
      "Ġback": 603,
      "ount": 604,
      "Ġch": 605,
      "per": 606,
      "Ġyear": 607,
      "Ġway": 608,
      "Ġfe": 609,
      "ber": 610,
      "ose": 611,
      "iv": 612,
      "ans": 613,
      "Ġevery": 614,
      "They": 615,
      "Ġ--": 616,
      "ree": 617,
      "Ġbeen": 618,
      "ions": 619,
      "Ġcould": 620,
      "omet": 621,
      "way": 622,
      "ĠU": 623,
      "Ġwhich": 624,
      "og": 625,
      "Ġsaid": 626,
      "ak": 627,
      "iz": 628,
      "Ġim": 629,
      "Ġday": 630,
      "nder": 631,
      "Ġgood": 632,
      "Do": 633,
      "ci": 634,
      "Wh": 635,
      "Ġover": 636,
      "itt": 637,
      "ick": 638,
      "Ġother": 639,
      "Ġmake": 640,
      "Well": 641,
      "ild": 642,
      "Ġvery": 643,
      "Ġshall": 644,
      "ia": 645,
      "sel": 646,
      "Ġqu": 647,
      "Ġam": 648,
      "Ġcl": 649,
      "ff": 650,
      "Ġthese": 651,
      "cc": 652,
      "Ġwork": 653,
      "ord": 654,
      "Ġthan": 655,
      "we": 656,
      "other": 657,
      "ren": 658,
      "Ġpr": 659,
      "Ġgu": 660,
      "Ġlook": 661,
      "Ġco": 662,
      "Ġsomet": 663,
      "Ġdis": 664,
      "Ġdown": 665,
      "Ġreally": 666,
      "Ġle": 667,
      "ass": 668,
      "Ġhapp": 669,
      "Ġinto": 670,
      "Ġtake": 671,
      "Ġcome": 672,
      "fore": 673,
      "ound": 674,
      "Ġact": 675,
      "ob": 676,
      "There": 677,
      "How": 678,
      "ip": 679,
      "Ġwhere": 680,
      "Ġ20": 681,
      "Ġun": 682,
      "Ġtw": 683,
      "Ġad": 684,
      "Ġbecause": 685,
      "Ġtell": 686,
      "orm": 687,
      "ire": 688,
      "Ġthou": 689,
      "thing": 690,
      "able": 691,
      "Ġchan": 692,
      "Ġsomething": 693,
      "Ġtoo": 694,
      "Ġcall": 695,
      "Ġthen": 696,
      "ĠY": 697,
      "Ġcomp": 698,
      "are": 699,
      "ach": 700,
      "Ġcont": 701,
      "ence": 702,
      "ah": 703,
      "Ġnew": 704,
      "Ġro": 705,
      "onna": 706,
      "Ġper": 707,
      "ĠV": 708,
      "ue": 709,
      "so": 710,
      "Ġtal": 711,
      "Ġbl": 712,
      "ap": 713,
      "Ġonly": 714,
      "irst": 715,
      "Ġgonna": 716,
      "Ġshould": 717,
      "Ġbet": 718,
      "ress": 719,
      "Ġagain": 720,
      "ign": 721,
      "Ġar": 722,
      "ĠK": 723,
      "Whe": 724,
      "Ġworld": 725,
      "Ġlet": 726,
      "urn": 727,
      "ade": 728,
      "If": 729,
      "In": 730,
      "be": 731,
      "Ġpart": 732,
      "Ġfu": 733,
      "Ġbr": 734,
      "Ġdoes": 735,
      "erv": 736,
      "ory": 737,
      "Ġfl": 738,
      "ase": 739,
      "ish": 740,
      "ail": 741,
      "ations": 742,
      "Ġhel": 743,
      "Ġeven": 744,
      "Ġbu": 745,
      "Ġtwo": 746,
      "No": 747,
      "vel": 748,
      "Ġmu": 749,
      "Ġunder": 750,
      "Ġ3": 751,
      "ical": 752,
      "Ġpre": 753,
      "Ġyears": 754,
      "Ġhappen": 755,
      "ary": 756,
      "ving": 757,
      "ittle": 758,
      "She": 759,
      "aught": 760,
      "ru": 761,
      "Ġhelp": 762,
      "ody": 763,
      "ft": 764,
      "ile": 765,
      "Ġres": 766,
      "ew": 767,
      "Now": 768,
      "ated": 769,
      "ance": 770,
      "Ġfirst": 771,
      "oy": 772,
      "self": 773,
      "Ġmuch": 774,
      "Ġlittle": 775,
      "round": 776,
      "Ġmay": 777,
      "Ġsc": 778,
      "Ġbefore": 779,
      "ial": 780,
      "Ġfind": 781,
      "ons": 782,
      "ult": 783,
      "ually": 784,
      "Ġnever": 785,
      "du": 786,
      "ather": 787,
      "fter": 788,
      "ĠSt": 789,
      "vers": 790,
      "Ġhand": 791,
      "ond": 792,
      "ĠGod": 793,
      "Ġke": 794,
      "Ġacc": 795,
      "Ġapp": 796,
      "Ġthings": 797,
      "ĠâĢĻ": 798,
      "eah": 799,
      "wn": 800,
      "ves": 801,
      "Ġlife": 802,
      "Ġalso": 803,
      "rain": 804,
      "ater": 805,
      "ning": 806,
      "ĠYou": 807,
      "ub": 808,
      "ents": 809,
      "Ġunt": 810,
      "otel": 811,
      "form": 812,
      "iss": 813,
      "ting": 814,
      "Ġimp": 815,
      "Ġstart": 816,
      "Ġdif": 817,
      "Ġuse": 818,
      "ks": 819,
      "rent": 820,
      "Ġcomm": 821,
      "ool": 822,
      "Ġkill": 823,
      "Ġthose": 824,
      "Ġwr": 825,
      "Ġmo": 826,
      "ise": 827,
      "Why": 828,
      "oll": 829,
      "oin": 830,
      "old": 831,
      "Ġrem": 832,
      "Ġte": 833,
      "Ġbel": 834,
      "Ġlong": 835,
      "get": 836,
      "Ġlea": 837,
      "ys": 838,
      "Ġsec": 839,
      "Ġ201": 840,
      "Ġmade": 841,
      "ark": 842,
      "Ġgreat": 843,
      "Ġchild": 844,
      "ouse": 845,
      "Ġdes": 846,
      "kay": 847,
      "Ġmost": 848,
      "rough": 849,
      "aughter": 850,
      "ang": 851,
      "riend": 852,
      "ors": 853,
      "Ġdoing": 854,
      "ved": 855,
      "Ġlove": 856,
      "Ġput": 857,
      "hn": 858,
      "Ġinc": 859,
      "Ġem": 860,
      "row": 861,
      "Ġtry": 862,
      "Ġph": 863,
      "ave": 864,
      "Ġwhy": 865,
      "Ġgive": 866,
      "ty": 867,
      "ath": 868,
      "Ġkind": 869,
      "ady": 870,
      "lease": 871,
      "Ġthrough": 872,
      "Ġcha": 873,
      "ens": 874,
      "ne": 875,
      "ng": 876,
      "ian": 877,
      "Oh": 878,
      "Ġafter": 879,
      "av": 880,
      "Ġmean": 881,
      "xt": 882,
      "ful": 883,
      "ĠIs": 884,
      "Ġtalk": 885,
      "hed": 886,
      "Ġmany": 887,
      "Ġfeel": 888,
      "ple": 889,
      "tern": 890,
      "Ġ_": 891,
      "Ġwell": 892,
      "Ġdiffe": 893,
      "ĠIn": 894,
      "ooking": 895,
      "oss": 896,
      "day": 897,
      "Ġsm": 898,
      "OR": 899,
      "Ġown": 900,
      "Ġlot": 901,
      "Ġcar": 902,
      "ram": 903,
      "olog": 904,
      "pe": 905,
      "Ġrec": 906,
      "Ġ5": 907,
      "Ġstill": 908,
      "'s": 909,
      "ict": 910,
      "ower": 911,
      "ates": 912,
      "Ġreal": 913,
      "All": 914,
      "Ġaround": 915,
      "ily": 916,
      "iew": 917,
      "ious": 918,
      "oc": 919,
      "Ġthought": 920,
      "Ġplace": 921,
      "Ġactually": 922,
      "igh": 923,
      "Ġsy": 924,
      "ition": 925,
      "ough": 926,
      "oney": 927,
      "Ġserv": 928,
      "Ġcame": 929,
      "Ġfriend": 930,
      "Ġwo": 931,
      "Ġsupp": 932,
      "Ġ4": 933,
      "Ġaway": 934,
      "My": 935,
      "ities": 936,
      "ness": 937,
      "Ġid": 938,
      "Ġbetter": 939,
      "Ġhouse": 940,
      "ating": 941,
      "Ġpers": 942,
      "Ġstud": 943,
      "Ġname": 944,
      "Let": 945,
      "Ġsame": 946,
      "Is": 947,
      "ĠCh": 948,
      "Ġshow": 949,
      "Ġanything": 950,
      "ĠHe": 951,
      "Ġcount": 952,
      "Ġdec": 953,
      "Ġbelie": 954,
      "irl": 955,
      "Ġask": 956,
      "Ġbeing": 957,
      "Ġits": 958,
      "Ġlast": 959,
      "ible": 960,
      "Ġsure": 961,
      "als": 962,
      "Ġend": 963,
      "Yeah": 964,
      "Ġold": 965,
      "body": 966,
      "Ġking": 967,
      "ways": 968,
      "ode": 969,
      "Ġever": 970,
      "aking": 971,
      "stand": 972,
      "atch": 973,
      "Ġkeep": 974,
      "ied": 975,
      "Ġhome": 976,
      "Ġdisc": 977,
      "Ġmon": 978,
      "bs": 979,
      "der": 980,
      "weh": 981,
      "Ġmight": 982,
      "ahweh": 983,
      "ces": 984,
      "For": 985,
      "erm": 986,
      "When": 987,
      "les": 988,
      "Ġdifferent": 989,
      "ments": 990,
      "duct": 991,
      "blem": 992,
      "oth": 993,
      "Ġmust": 994,
      "Ġfather": 995,
      "iness": 996,
      "Ġear": 997,
      "Ġsur": 998,
      "Ġfound": 999,
      "Ġson": 1000,
      "Ġwom": 1001,
      "Ġmen": 1002,
      "Ġinst": 1003,
      "pen": 1004,
      "ORD": 1005,
      "Ġfam": 1006,
      "Ġplay": 1007,
      "ĠThe": 1008,
      "Ġdel": 1009,
      "eth": 1010,
      "ait": 1011,
      "Ġproblem": 1012,
      "ĠLORD": 1013,
      "Ġunto": 1014,
      "ember": 1015,
      "ts": 1016,
      "Ġdone": 1017,
      "ĠLaughter": 1018,
      "Ġgl": 1019,
      "Ġche": 1020,
      "Ġhar": 1021,
      "Ġmin": 1022,
      "Ġwent": 1023,
      "ere": 1024,
      "Ġthree": 1025,
      "ps": 1026,
      "ib": 1027,
      "ock": 1028,
      "Ġword": 1029,
      "Ġcare": 1030,
      "Ġchildren": 1031,
      "Ġnight": 1032,
      "ĠIt": 1033,
      "ny": 1034,
      "Ġset": 1035,
      "Ġturn": 1036,
      "ix": 1037,
      "Ġcour": 1038,
      "Ġbest": 1039,
      "Then": 1040,
      "Ġunderstand": 1041,
      "pect": 1042,
      "ph": 1043,
      "Ġ%": 1044,
      "Ġbig": 1045,
      "Ġhum": 1046,
      "Ġalways": 1047,
      "aw": 1048,
      "mer": 1049,
      "Ġbus": 1050,
      "Ġev": 1051,
      "Ġent": 1052,
      "Ġperson": 1053,
      "ĠYahweh": 1054,
      "Ġ/": 1055,
      "stem": 1056,
      "imes": 1057,
      "ever": 1058,
      "ĠUn": 1059,
      "Ġcou": 1060,
      "Ġspec": 1061,
      "Ġhu": 1062,
      "ize": 1063,
      "ational": 1064,
      "Ġ10": 1065,
      "Ġtold": 1066,
      "ĠRe": 1067,
      "Ġplan": 1068,
      "ets": 1069,
      "echn": 1070,
      "ute": 1071,
      "Ġquest": 1072,
      "ual": 1073,
      "Ġrel": 1074,
      "hes": 1075,
      "ject": 1076,
      "com": 1077,
      "Ġinv": 1078,
      "ited": 1079,
      "Ġind": 1080,
      "uck": 1081,
      "Ġanother": 1082,
      "Ġkid": 1083,
      "ale": 1084,
      "Ġgirl": 1085,
      "ings": 1086,
      "Ġbelieve": 1087,
      "ont": 1088,
      "side": 1089,
      "akes": 1090,
      "Ġel": 1091,
      "Ġprog": 1092,
      "ried": 1093,
      "ars": 1094,
      "orry": 1095,
      "Where": 1096,
      "Ġstr": 1097,
      "Just": 1098,
      "ices": 1099,
      "Are": 1100,
      "Ġac": 1101,
      "Ġtrans": 1102,
      "ert": 1103,
      "gin": 1104,
      "Ġbre": 1105,
      "Ġmoney": 1106,
      "Ġhead": 1107,
      "Ġgen": 1108,
      "Ġcalled": 1109,
      "ward": 1110,
      "Ġatt": 1111,
      "Ġtoday": 1112,
      "its": 1113,
      "ollow": 1114,
      "ĠWe": 1115,
      "Ġland": 1116,
      "Ġadd": 1117,
      "line": 1118,
      "lect": 1119,
      "oint": 1120,
      "Ġass": 1121,
      "rael": 1122,
      "Ġstop": 1123,
      "here": 1124,
      "ork": 1125,
      "Ġsl": 1126,
      "Ġnothing": 1127,
      "Ġused": 1128,
      "Ġlooking": 1129,
      "formation": 1130,
      "ĠIsrael": 1131,
      "arch": 1132,
      "Ġsystem": 1133,
      "Ġexper": 1134,
      "Not": 1135,
      "ics": 1136,
      "Ġcle": 1137,
      "Ġhear": 1138,
      "Ġagainst": 1139,
      "cy": 1140,
      "Ġrun": 1141,
      "Ġeverything": 1142,
      "ivers": 1143,
      "ee": 1144,
      "ĠHotel": 1145,
      "Ġtoget": 1146,
      "Ġtogether": 1147,
      "owers": 1148,
      "Ġfun": 1149,
      "az": 1150,
      "Ġnum": 1151,
      "ner": 1152,
      "Ġtra": 1153,
      "Ġrep": 1154,
      "Ġcons": 1155,
      "Ġcr": 1156,
      "Ġleft": 1157,
      "Ġfin": 1158,
      "Ġlive": 1159,
      "chool": 1160,
      "Ġlist": 1161,
      "ĠâĢĵ": 1162,
      "Ġoffer": 1163,
      "Ġlear": 1164,
      "Ġsw": 1165,
      "Ġdays": 1166,
      "Ġpass": 1167,
      "ures": 1168,
      "ove": 1169,
      "ific": 1170,
      "Ġtechn": 1171,
      "Ġproduct": 1172,
      "Ġhigh": 1173,
      "Ġreg": 1174,
      "Ġwanted": 1175,
      "Ġbit": 1176,
      "Ġfree": 1177,
      "ecause": 1178,
      "Ġbas": 1179,
      "Ġidea": 1180,
      "St": 1181,
      "uc": 1182,
      "lt": 1183,
      "Ġpol": 1184,
      "ĠNew": 1185,
      "view": 1186,
      "Ġprogram": 1187,
      "'ll": 1188,
      "ular": 1189,
      "any": 1190,
      "led": 1191,
      "ric": 1192,
      "els": 1193,
      "Ġey": 1194,
      "Ġwithout": 1195,
      "Did": 1196,
      "ope": 1197,
      "Ġhappened": 1198,
      "ĠâĢĿ": 1199,
      "Ġext": 1200,
      "Ġfact": 1201,
      "Ġwar": 1202,
      "ĠWhat": 1203,
      "Your": 1204,
      "Ġvis": 1205,
      "'d": 1206,
      "Ġsk": 1207,
      "Ġgr": 1208,
      "gy": 1209,
      "lic": 1210,
      "Ġelse": 1211,
      "Ġbad": 1212,
      "Ġposs": 1213,
      "Ġwait": 1214,
      "Than": 1215,
      "Ġopen": 1216,
      "Ġimport": 1217,
      "Ġpri": 1218,
      "Who": 1219,
      "Ġmat": 1220,
      "Ġ$": 1221,
      "cept": 1222,
      "Ġcompl": 1223,
      "Ġbusiness": 1224,
      "ull": 1225,
      "erest": 1226,
      "Ġcoming": 1227,
      "ages": 1228,
      "ility": 1229,
      "ger": 1230,
      "Ġser": 1231,
      "Ġnext": 1232,
      "Ġguy": 1233,
      "ss": 1234,
      "Ġtook": 1235,
      "Ġsin": 1236,
      "Ġroom": 1237,
      "Ġenough": 1238,
      "Ġinformation": 1239,
      "Ġeach": 1240,
      "Ġsim": 1241,
      "Ġcourse": 1242,
      "Ġmom": 1243,
      "Ġokay": 1244,
      "Ġstay": 1245,
      "Ġcur": 1246,
      "ird": 1247,
      "iver": 1248,
      "Ġhat": 1249,
      "Ġchange": 1250,
      "Ġsuch": 1251,
      "Ġinter": 1252,
      "Ġheart": 1253,
      "Ġprot": 1254,
      "Ġfew": 1255,
      "ution": 1256,
      "Get": 1257,
      "Ġtrying": 1258,
      "gan": 1259,
      "ged": 1260,
      "Ġmind": 1261,
      "oot": 1262,
      "Ġmonth": 1263,
      "Ġago": 1264,
      "ced": 1265,
      "Come": 1266,
      "Ġbro": 1267,
      "Ġra": 1268,
      "Ġbuild": 1269,
      "lo": 1270,
      "Ġthy": 1271,
      "ran": 1272,
      "Ġsaying": 1273,
      "ife": 1274,
      "Ġleave": 1275,
      "ines": 1276,
      "Ġorder": 1277,
      "Ġ19": 1278,
      "ream": 1279,
      "Ġsorry": 1280,
      "Ġsaw": 1281,
      "Ġhard": 1282,
      "Ġdead": 1283,
      "air": 1284,
      "Ġhour": 1285,
      "up": 1286,
      "ense": 1287,
      "Ġpay": 1288,
      "ash": 1289,
      "ween": 1290,
      "velop": 1291,
      "Ġsecond": 1292,
      "Ġinterest": 1293,
      "Ġ&": 1294,
      "Ġwrong": 1295,
      "Ġrest": 1296,
      "Ġhuman": 1297,
      "Ġpower": 1298,
      "Ġplease": 1299,
      "uro": 1300,
      "Ġboy": 1301,
      "orn": 1302,
      "Ġgetting": 1303,
      "Ġwater": 1304,
      "Because": 1305,
      "Ġstand": 1306,
      "20": 1307,
      "As": 1308,
      "Ġcoll": 1309,
      "ĠÂ": 1310,
      "Ġbring": 1311,
      "Ġimportant": 1312,
      "000": 1313,
      "ern": 1314,
      "ames": 1315,
      "Ġbetween": 1316,
      "hip": 1317,
      "cking": 1318,
      "Ġdr": 1319,
      "Ġprov": 1320,
      "cial": 1321,
      "Can": 1322,
      "ata": 1323,
      "ows": 1324,
      "Ġmeet": 1325,
      "Ġmother": 1326,
      "Ġguys": 1327,
      "Ġseen": 1328,
      "ries": 1329,
      "Ġexc": 1330,
      "Ġmod": 1331,
      "Ġyourself": 1332,
      "ware": 1333,
      "ax": 1334,
      "Ġpres": 1335,
      "oice": 1336,
      "Ġbo": 1337,
      "ology": 1338,
      "Ġboth": 1339,
      "Ġstory": 1340,
      "Ġjob": 1341,
      "Ġ6": 1342,
      "ret": 1343,
      "cri": 1344,
      "ĠSp": 1345,
      "Ġmiss": 1346,
      "Ġsomeone": 1347,
      "ither": 1348,
      "alth": 1349,
      "Ġremember": 1350,
      "Ġans": 1351,
      "Ġfamily": 1352,
      "May": 1353,
      "ories": 1354,
      "Ġwal": 1355,
      "Ġâ": 1356,
      "Hey": 1357,
      "ete": 1358,
      "Ġed": 1359,
      "ĠFl": 1360,
      "Ġfar": 1361,
      "Ġschool": 1362,
      "ites": 1363,
      "ready": 1364,
      "Ġdri": 1365,
      "PN": 1366,
      "ically": 1367,
      "Look": 1368,
      "pon": 1369,
      "Ġeas": 1370,
      "Ġtalking": 1371,
      "Ġpret": 1372,
      "ĠNo": 1373,
      "dd": 1374,
      "Ġprom": 1375,
      "Ġwee": 1376,
      "Ġrequ": 1377,
      "Ġmove": 1378,
      "Ġret": 1379,
      "Ġwhole": 1380,
      "less": 1381,
      "Ġheard": 1382,
      "Ġdevelop": 1383,
      "ason": 1384,
      "ier": 1385,
      "ists": 1386,
      "ional": 1387,
      "Ġfollow": 1388,
      "Ġyet": 1389,
      "Ġcity": 1390,
      "illion": 1391,
      "uth": 1392,
      "On": 1393,
      "Ġmed": 1394,
      "Ġalready": 1395,
      "ying": 1396,
      "osed": 1397,
      "ike": 1398,
      "ĠZ": 1399,
      "Ġsign": 1400,
      "Ġ7": 1401,
      "aby": 1402,
      "Ġcreat": 1403,
      "Ġspea": 1404,
      "Ġform": 1405,
      "Ġlight": 1406,
      "Ġable": 1407,
      "Ġworking": 1408,
      "Ġdep": 1409,
      "Ġwhile": 1410,
      "Ġread": 1411,
      "Ġnumber": 1412,
      "inking": 1413,
      "Ġsays": 1414,
      "cent": 1415,
      "ience": 1416,
      "gg": 1417,
      "Ġquestion": 1418,
      "Ġart": 1419,
      "Ġfour": 1420,
      "cess": 1421,
      "Ġsol": 1422,
      "io": 1423,
      "Ġ8": 1424,
      "Ġface": 1425,
      "Ġconf": 1426,
      "Okay": 1427,
      "Ġtri": 1428,
      "Ġcommun": 1429,
      "Ġlearn": 1430,
      "Ġchar": 1431,
      "Ġbook": 1432,
      "Ġmar": 1433,
      "Ġob": 1434,
      "ĠMr": 1435,
      "aut": 1436,
      "Ġhell": 1437,
      "ĠAr": 1438,
      "Ġeff": 1439,
      "ĠAnd": 1440,
      "ield": 1441,
      "Ġprof": 1442,
      "ably": 1443,
      "nect": 1444,
      "ĠJo": 1445,
      "Ġlead": 1446,
      "ruct": 1447,
      "ants": 1448,
      "ges": 1449,
      "Ġbrother": 1450,
      "lud": 1451,
      "me": 1452,
      "Ġmor": 1453,
      "Ġlaw": 1454,
      "Ġexpl": 1455,
      "Ġloc": 1456,
      "ized": 1457,
      "Ġgra": 1458,
      "Ġmatter": 1459,
      "ired": 1460,
      "Ġhope": 1461,
      "Ġonline": 1462,
      "Ġdeal": 1463,
      "Ġfull": 1464,
      "ives": 1465,
      "Ġcre": 1466,
      "Ġstarted": 1467,
      "To": 1468,
      "Ġdata": 1469,
      "Ġseem": 1470,
      "uss": 1471,
      "Ġsci": 1472,
      "Ġcode": 1473,
      "Ġfriends": 1474,
      "Ġdesign": 1475,
      "Ġthee": 1476,
      "ĠWh": 1477,
      "Ġpat": 1478,
      "Ġknew": 1479,
      "Ġfucking": 1480,
      "Ġpoint": 1481,
      "Ġexam": 1482,
      "ative": 1483,
      "outh": 1484,
      "ten": 1485,
      "selves": 1486,
      "aster": 1487,
      "Ġfore": 1488,
      "Ġsound": 1489,
      "Ġmess": 1490,
      "ital": 1491,
      "Ġav": 1492,
      "ural": 1493,
      "Ġdie": 1494,
      "ĠâĢľ": 1495,
      "ered": 1496,
      "land": 1497,
      "Yes": 1498,
      "Ġdev": 1499,
      "lf": 1500,
      "Ġgener": 1501,
      "Ġside": 1502,
      "Ġsub": 1503,
      "ĠEuro": 1504,
      "meric": 1505,
      "Ġmet": 1506,
      "Ġuntil": 1507,
      "Ġdet": 1508,
      "con": 1509,
      "Ġpretty": 1510,
      "ĠApp": 1511,
      "Ġmeans": 1512,
      "Ġbeaut": 1513,
      "Ġsle": 1514,
      "Ġusing": 1515,
      "Ġupon": 1516,
      "ĠTh": 1517,
      "Ġprotect": 1518,
      "ĠDo": 1519,
      "Every": 1520,
      "rought": 1521,
      "ister": 1522,
      "Ġpo": 1523,
      "har": 1524,
      "fect": 1525,
      "Ġtimes": 1526,
      "ator": 1527,
      "Thank": 1528,
      "att": 1529,
      "ature": 1530,
      "Ġadv": 1531,
      "Ġwoman": 1532,
      "wer": 1533,
      "Ġtop": 1534,
      "ished": 1535,
      "Ġyoung": 1536,
      "Ġcountry": 1537,
      "rol": 1538,
      "ross": 1539,
      "Ġblood": 1540,
      "ĠAmeric": 1541,
      "pr": 1542,
      "mb": 1543,
      "amp": 1544,
      "ention": 1545,
      "Ġexp": 1546,
      "ĠPro": 1547,
      "ertain": 1548,
      "ustom": 1549,
      "Ġtest": 1550,
      "Ġfive": 1551,
      "Ġdest": 1552,
      "One": 1553,
      "Ġwatch": 1554,
      "Ġeat": 1555,
      "These": 1556,
      "Ġ15": 1557,
      "Ġfr": 1558,
      "Ġgame": 1559,
      "Ġmaybe": 1560,
      "Maybe": 1561,
      "Ġval": 1562,
      "ote": 1563,
      "utes": 1564,
      "ues": 1565,
      "hen": 1566,
      "ider": 1567,
      "Ġbody": 1568,
      "uff": 1569,
      "Ġintern": 1570,
      "Ġmyself": 1571,
      "angu": 1572,
      "Ġless": 1573,
      "aces": 1574,
      "Ġsmall": 1575,
      "ĠBe": 1576,
      "Ġtrain": 1577,
      "Ġsent": 1578,
      "Ġcent": 1579,
      "irect": 1580,
      "Ġpur": 1581,
      "iversity": 1582,
      "Ġfight": 1583,
      "Ġins": 1584,
      "Ġbrought": 1585,
      "Ġeyes": 1586,
      "Ġbeh": 1587,
      "ideo": 1588,
      "ling": 1589,
      "Ġ9": 1590,
      "Ġexact": 1591,
      "Please": 1592,
      "Ġhands": 1593,
      "Ġinclud": 1594,
      "ident": 1595,
      "omm": 1596,
      "Ġwomen": 1597,
      "where": 1598,
      "ins": 1599,
      "Some": 1600,
      "ĠEurope": 1601,
      "Ġbrain": 1602,
      "Ġkilled": 1603,
      "Ġcor": 1604,
      "Ġnice": 1605,
      "Ġdef": 1606,
      "Ġnews": 1607,
      "work": 1608,
      "Here": 1609,
      "Ġdiscount": 1610,
      "Ġhold": 1611,
      "load": 1612,
      "ism": 1613,
      "Ġfuck": 1614,
      "Ġmakes": 1615,
      "Ġbecome": 1616,
      "Ġhur": 1617,
      "Ġgrow": 1618,
      "Ġspecial": 1619,
      "Ġmaking": 1620,
      "Ġservice": 1621,
      "Ġref": 1622,
      "Ġsit": 1623,
      "man": 1624,
      "Ġrese": 1625,
      "eg": 1626,
      "Ġsir": 1627,
      "Ġlar": 1628,
      "Ġdist": 1629,
      "Ġthinking": 1630,
      "Ġ12": 1631,
      "Ġconnect": 1632,
      "ĠâĻ": 1633,
      "ef": 1634,
      "Ġfil": 1635,
      "Ġwife": 1636,
      "bably": 1637,
      "Ġhaving": 1638,
      "ina": 1639,
      "Ġwalk": 1640,
      "ateg": 1641,
      "Ġreason": 1642,
      "Ġarm": 1643,
      "Ġeng": 1644,
      "iful": 1645,
      "Ġter": 1646,
      "Ġcase": 1647,
      "Ġphone": 1648,
      "Ġhotel": 1649,
      "uring": 1650,
      "Ġspeak": 1651,
      "ER": 1652,
      "ank": 1653,
      "Ġbreak": 1654,
      "Ġmark": 1655,
      "Ġfire": 1656,
      "Ġhours": 1657,
      "Ġnet": 1658,
      "Ġcra": 1659,
      "Ġgone": 1660,
      "ption": 1661,
      "ĠAl": 1662,
      "Ġlisten": 1663,
      "Ġsupport": 1664,
      "Ġpercent": 1665,
      "Ġoper": 1666,
      "Ġgave": 1667,
      "Ġwords": 1668,
      "ient": 1669,
      "ĠTV": 1670,
      "Ġty": 1671,
      "ety": 1672,
      "Have": 1673,
      "Ġpub": 1674,
      "Ġsing": 1675,
      "ta": 1676,
      "Ġstudents": 1677,
      "gs": 1678,
      "ead": 1679,
      "Ġlangu": 1680,
      "Ġprocess": 1681,
      "anna": 1682,
      "vern": 1683,
      "Ġaff": 1684,
      "Ġopp": 1685,
      "Ġfood": 1686,
      "Ġonce": 1687,
      "Ġcomes": 1688,
      "iven": 1689,
      "Ġcut": 1690,
      "Ġtrust": 1691,
      "Ġfut": 1692,
      "Ġmorning": 1693,
      "avid": 1694,
      "Our": 1695,
      "Ġanyone": 1696,
      "aken": 1697,
      "ĠPh": 1698,
      "Ġaccess": 1699,
      "Ġkids": 1700,
      "Ġsince": 1701,
      "ĠSh": 1702,
      "Ġchann": 1703,
      "Sh": 1704,
      "rist": 1705,
      "eb": 1706,
      "iec": 1707,
      "ones": 1708,
      "iron": 1709,
      "Ġpain": 1710,
      "eed": 1711,
      "conom": 1712,
      "acy": 1713,
      "rop": 1714,
      "Ġcompany": 1715,
      "Ġpartic": 1716,
      "most": 1717,
      "Ġmoment": 1718,
      "Ġpossible": 1719,
      "Ġalone": 1720,
      "At": 1721,
      "Ġready": 1722,
      "Ġsoft": 1723,
      "Ġfuture": 1724,
      "Ġdeath": 1725,
      "Ġhalf": 1726,
      "Ġguess": 1727,
      "Ġhealth": 1728,
      "Ġcomplete": 1729,
      "ots": 1730,
      "Ġsleep": 1731,
      "Ġcell": 1732,
      "ately": 1733,
      "Be": 1734,
      "idd": 1735,
      "Ġanswer": 1736,
      "port": 1737,
      "ised": 1738,
      "ĠAs": 1739,
      "ousand": 1740,
      "Ġcomput": 1741,
      "Ġreturn": 1742,
      "Ġsort": 1743,
      "ĠSu": 1744,
      "âĢĻ": 1745,
      "Ġasked": 1746,
      "ov": 1747,
      "Ġtravel": 1748,
      "of": 1749,
      "Ġair": 1750,
      "Ġprin": 1751,
      "iqu": 1752,
      "ared": 1753,
      "ĠHow": 1754,
      "Ġtrue": 1755,
      "ott": 1756,
      "Ġwonder": 1757,
      "Ġlost": 1758,
      "ortun": 1759,
      "Ġfine": 1760,
      "Ġdem": 1761,
      "Ġtreat": 1762,
      "ĠThat": 1763,
      "Ġprobably": 1764,
      "Ġsave": 1765,
      "Ġneeds": 1766,
      "Ġmus": 1767,
      "Ġbegin": 1768,
      "ilt": 1769,
      "Ġpop": 1770,
      "ĠAm": 1771,
      "Ġlater": 1772,
      "Ġexactly": 1773,
      "Ġsend": 1774,
      "Ġthousand": 1775,
      "Ġproducts": 1776,
      "Ġpage": 1777,
      "Ġaccount": 1778,
      "app": 1779,
      "oose": 1780,
      "let": 1781,
      "Ġbeautiful": 1782,
      "Ġeasy": 1783,
      "Ġcheck": 1784,
      "Ġinside": 1785,
      "lish": 1786,
      "aid": 1787,
      "atell": 1788,
      "Ġorgan": 1789,
      "Ġbaby": 1790,
      "Ġphot": 1791,
      "Ġ0": 1792,
      "arent": 1793,
      "oses": 1794,
      "ision": 1795,
      "Ġpar": 1796,
      "Ġcontrol": 1797,
      "Ġdoor": 1798,
      "Ġcond": 1799,
      "cer": 1800,
      "ording": 1801,
      "Ġequ": 1802,
      "Ġlevel": 1803,
      "Ġhappy": 1804,
      "ality": 1805,
      "Ġeduc": 1806,
      "ides": 1807,
      "Ġpict": 1808,
      "rence": 1809,
      "Ġ30": 1810,
      "ĠShe": 1811,
      "iah": 1812,
      "ains": 1813,
      "Ġdirect": 1814,
      "Ġcustom": 1815,
      "ĠQ": 1816,
      "Ġcertain": 1817,
      "Ġeveryone": 1818,
      "Ġ200": 1819,
      "ĠWell": 1820,
      "Or": 1821,
      "urity": 1822,
      "ĠEx": 1823,
      "ron": 1824,
      "Ġleast": 1825,
      "Ġdrink": 1826,
      "oke": 1827,
      "Ġmillion": 1828,
      "fra": 1829,
      "ww": 1830,
      "Ġquite": 1831,
      "Ġyes": 1832,
      "Ġ]": 1833,
      "Ġfield": 1834,
      "Ġtaking": 1835,
      "Ġrece": 1836,
      "Ġfig": 1837,
      "Ġcontin": 1838,
      "Ġtre": 1839,
      "Ġlives": 1840,
      "Ġamong": 1841,
      "Ġexample": 1842,
      "Ġclear": 1843,
      "Ġclose": 1844,
      "Go": 1845,
      "ters": 1846,
      "Ġwebs": 1847,
      "ract": 1848,
      "ailable": 1849,
      "Ġsoon": 1850,
      "Ġminutes": 1851,
      "Ġsafe": 1852,
      "roup": 1853,
      "orrow": 1854,
      "ĠIntern": 1855,
      "Ġpiec": 1856,
      "ided": 1857,
      "ipp": 1858,
      "ĠCl": 1859,
      "ĠDavid": 1860,
      "Ġstuff": 1861,
      "Ġfall": 1862,
      "Ġhist": 1863,
      "pons": 1864,
      "Ġanim": 1865,
      "Ġresearch": 1866,
      "Ġwithin": 1867,
      "vious": 1868,
      "Ġimag": 1869,
      "ĠCan": 1870,
      "ched": 1871,
      "Ġclass": 1872,
      "With": 1873,
      "Ġstrong": 1874,
      "reen": 1875,
      "ndred": 1876,
      "Ġearth": 1877,
      "med": 1878,
      "Ġsix": 1879,
      "Ġgovern": 1880,
      "use": 1881,
      "iting": 1882,
      "Ġlooks": 1883,
      "Ġmonths": 1884,
      "Ġwants": 1885,
      "ards": 1886,
      "Ex": 1887,
      "Ġexperience": 1888,
      "ev": 1889,
      "Ġtool": 1890,
      "Ġdra": 1891,
      "over": 1892,
      "Ġexpect": 1893,
      "bo": 1894,
      "Ġeconom": 1895,
      "Ġdream": 1896,
      "ats": 1897,
      "ccess": 1898,
      "Ġeffect": 1899,
      "Ġworks": 1900,
      "Ġ11": 1901,
      "Any": 1902,
      "rib": 1903,
      "ĠPl": 1904,
      "Ġavailable": 1905,
      "ok": 1906,
      "zy": 1907,
      "Ġtruth": 1908,
      "Ġvideo": 1909,
      "ison": 1910,
      "by": 1911,
      "ush": 1912,
      "Ġsocial": 1913,
      "fl": 1914,
      "ĠJohn": 1915,
      "joy": 1916,
      "Ġsoftware": 1917,
      "Ġmem": 1918,
      "Al": 1919,
      "Ġcountries": 1920,
      "ex": 1921,
      "Ġterm": 1922,
      "Ġgoes": 1923,
      "Ġnor": 1924,
      "ĠEng": 1925,
      "Ġhundred": 1926,
      "Ġshit": 1927,
      "Ġview": 1928,
      "Ġcreate": 1929,
      "Ġwanna": 1930,
      "aj": 1931,
      "ole": 1932,
      "Ġwind": 1933,
      "Ġpast": 1934,
      "Ġalmost": 1935,
      "ĠYour": 1936,
      "Ġteam": 1937,
      "Ġye": 1938,
      "ĠVPN": 1939,
      "br": 1940,
      "cle": 1941,
      "Ġtaken": 1942,
      "Ġ100": 1943,
      "Ġcommand": 1944,
      "ging": 1945,
      "ane": 1946,
      "ury": 1947,
      "Ġsou": 1948,
      "ery": 1949,
      "lex": 1950,
      "Ġpriv": 1951,
      "Ġes": 1952,
      "Ġbed": 1953,
      "Ġliving": 1954,
      "atellite": 1955,
      "ĠâĻ«": 1956,
      "tt": 1957,
      "ĠAb": 1958,
      "Ġfav": 1959,
      "ump": 1960,
      "Ġtechnology": 1961,
      "Ġmain": 1962,
      "ug": 1963,
      "Ġproject": 1964,
      "Ġswe": 1965,
      "Ġmine": 1966,
      "Ġris": 1967,
      "Ġ18": 1968,
      "Ġcop": 1969,
      "Ġgiven": 1970,
      "Take": 1971,
      "Ġ[": 1972,
      "Ġline": 1973,
      "Ġcol": 1974,
      "Ġprop": 1975,
      "Ġknows": 1976,
      "Ġcap": 1977,
      "Ġallow": 1978,
      "ĠUnited": 1979,
      "Ġap": 1980,
      "rew": 1981,
      "come": 1982,
      "Ġcost": 1983,
      "Ġsons": 1984,
      "ĠBr": 1985,
      "Ġsupposed": 1986,
      "Ġcurrent": 1987,
      "ĠMan": 1988,
      "Ġdaughter": 1989,
      "ially": 1990,
      "Ġmult": 1991,
      "Ġfre": 1992,
      "Ġ+": 1993,
      "ien": 1994,
      "leas": 1995,
      "dom": 1996,
      "ĠMar": 1997,
      "dy": 1998,
      "Ġdi": 1999,
      "Ġgun": 2000,
      "ills": 2001,
      "Ġsite": 2002,
      "eal": 2003,
      "ĠSo": 2004,
      "osp": 2005,
      "hange": 2006,
      "ĠChrist": 2007,
      "Ġcause": 2008,
      "vent": 2009,
      "Ġperfect": 2010,
      "fraid": 2011,
      "Ġelect": 2012,
      "Ġactiv": 2013,
      "Ġhon": 2014,
      "Ġpos": 2015,
      "Ġothers": 2016,
      "Ġwin": 2017,
      "anger": 2018,
      "ĠInd": 2019,
      "Ġlau": 2020,
      "LI": 2021,
      "Ġenv": 2022,
      "Ġpost": 2023,
      "Ġtou": 2024,
      "Ġhappens": 2025,
      "Ġdied": 2026,
      "ange": 2027,
      "iving": 2028,
      "Ġdam": 2029,
      "ĠAf": 2030,
      "Ġleg": 2031,
      "ĠLord": 2032,
      "Ġincre": 2033,
      "Ġchance": 2034,
      "Ġafraid": 2035,
      "Ġways": 2036,
      "Ġgotta": 2037,
      "ĠStates": 2038,
      "Ġ2018": 2039,
      "Ġweek": 2040,
      "Ġcontact": 2041,
      "Ġstep": 2042,
      "ĠJer": 2043,
      "Ġgif": 2044,
      "bit": 2045,
      "Ġknown": 2046,
      "ured": 2047,
      "Good": 2048,
      "Ġlanguage": 2049,
      "An": 2050,
      "more": 2051,
      "ude": 2052,
      "Ġhost": 2053,
      "Ġwall": 2054,
      "Ġmag": 2055,
      "ently": 2056,
      "ĠGu": 2057,
      "Ġprofess": 2058,
      "Ġsense": 2059,
      "Ġnear": 2060,
      "Ġclean": 2061,
      "ai": 2062,
      "stant": 2063,
      "Ġiss": 2064,
      "isc": 2065,
      "ĠRes": 2066,
      "Ġri": 2067,
      "Ġwish": 2068,
      "Ġluck": 2069,
      "fer": 2070,
      "Ġglob": 2071,
      "Ġinternational": 2072,
      "Ġnec": 2073,
      "Ġbehind": 2074,
      "ring": 2075,
      "Ġfast": 2076,
      "ĠAll": 2077,
      "Ġreview": 2078,
      "Ġquestions": 2079,
      "hold": 2080,
      "Ġthank": 2081,
      "Ġteac": 2082,
      "Ġdestro": 2083,
      "Ġgets": 2084,
      "Ġvisit": 2085,
      "Ġspace": 2086,
      "Ġcult": 2087,
      "Ġcoupon": 2088,
      "Ġthough": 2089,
      "Ġ50": 2090,
      "ton": 2091,
      "Ġaut": 2092,
      "Ġoutside": 2093,
      "Ġi": 2094,
      "Ġwebsite": 2095,
      "itions": 2096,
      "Ġstate": 2097,
      "Ġhurt": 2098,
      "Ġaw": 2099,
      "Ġmil": 2100,
      "Ġsimple": 2101,
      "Ġpublic": 2102,
      "ĠAppl": 2103,
      "Ġproblems": 2104,
      "ĠTr": 2105,
      "ledge": 2106,
      "Ġbroad": 2107,
      "Ġconc": 2108,
      "kes": 2109,
      "ified": 2110,
      "ĠEl": 2111,
      "Ġfear": 2112,
      "Ġord": 2113,
      "vert": 2114,
      "aper": 2115,
      "Ġtrou": 2116,
      "ctor": 2117,
      "ĠYeah": 2118,
      "ior": 2119,
      "Ġbar": 2120,
      "ergy": 2121,
      "aus": 2122,
      "idence": 2123,
      "Ġkey": 2124,
      "aly": 2125,
      "ization": 2126,
      "Ġquick": 2127,
      "ians": 2128,
      "ĠPr": 2129,
      "icked": 2130,
      "atural": 2131,
      "rand": 2132,
      "Ġbuilding": 2133,
      "Ġton": 2134,
      "fic": 2135,
      "ĠUS": 2136,
      "Ġcomputer": 2137,
      "Ġnetwork": 2138,
      "After": 2139,
      "ung": 2140,
      "Ġpersonal": 2141,
      "ĠOn": 2142,
      "Ġdeliver": 2143,
      "ination": 2144,
      "Ġresult": 2145,
      "ĠCar": 2146,
      "Ġenviron": 2147,
      "Ġmach": 2148,
      "ĠAd": 2149,
      "Ġbuy": 2150,
      "ering": 2151,
      "ĠCom": 2152,
      "Ġentire": 2153,
      "Ġsatellite": 2154,
      "Ġdoll": 2155,
      "ral": 2156,
      "Ġmarket": 2157,
      "Tell": 2158,
      "ey": 2159,
      "201": 2160,
      "Ġfront": 2161,
      "Ġvar": 2162,
      "ster": 2163,
      "Ġred": 2164,
      "Ġminute": 2165,
      "Ġsex": 2166,
      "Ġhimself": 2167,
      "Ġlab": 2168,
      "ĠSam": 2169,
      "ĠAn": 2170,
      "Ġpract": 2171,
      "Ġaddress": 2172,
      "ĠApplause": 2173,
      "cha": 2174,
      "ought": 2175,
      "Ġcapt": 2176,
      "Ġtom": 2177,
      "ĠOh": 2178,
      "Ġdad": 2179,
      "Ġprep": 2180,
      "Ġhistory": 2181,
      "ined": 2182,
      "Ġjud": 2183,
      "Ġenergy": 2184,
      "Ġide": 2185,
      "ony": 2186,
      "elf": 2187,
      "Ġcollect": 2188,
      "Ġinteresting": 2189,
      "ĠFor": 2190,
      "Ġvoice": 2191,
      "Ġopt": 2192,
      "Ġcouple": 2193,
      "Ġsoci": 2194,
      "ium": 2195,
      "room": 2196,
      "Ġengine": 2197,
      "Ġphys": 2198,
      "gypt": 2199,
      "Ġlonger": 2200,
      "Ġfavor": 2201,
      "Ġ25": 2202,
      "ogn": 2203,
      "Ġdark": 2204,
      "Ġalong": 2205,
      "Ġlate": 2206,
      "Ġthemselves": 2207,
      "Ġsecurity": 2208,
      "ases": 2209,
      "Ġreport": 2210,
      "Ġsuccess": 2211,
      "Ġdestroy": 2212,
      "cast": 2213,
      "Ġstudy": 2214,
      "Ġforg": 2215,
      "Give": 2216,
      "itive": 2217,
      "band": 2218,
      "Ġparent": 2219,
      "ĠUniversity": 2220,
      "bers": 2221,
      "Ġaccording": 2222,
      "Ġest": 2223,
      "ĠCou": 2224,
      "Ġdeep": 2225,
      "ches": 2226,
      "Ġacross": 2227,
      "ĠCon": 2228,
      "ĠJud": 2229,
      "Ġperform": 2230,
      "Hotel": 2231,
      "ĠEgypt": 2232,
      "Ġage": 2233,
      "Ġcrazy": 2234,
      "ify": 2235,
      "son": 2236,
      "ĠBl": 2237,
      "Ġvers": 2238,
      "Ġanymore": 2239,
      "ĠRuss": 2240,
      "Ġservices": 2241,
      "See": 2242,
      "Ġtried": 2243,
      "Ġhit": 2244,
      "Ġshare": 2245,
      "Ġenc": 2246,
      "not": 2247,
      "Ġsingle": 2248,
      "olution": 2249,
      "Ġappro": 2250,
      "itting": 2251,
      "ĠâĢ¦": 2252,
      "aterial": 2253,
      "ogra": 2254,
      "Ġalive": 2255,
      "Ġpresent": 2256,
      "Ġtonight": 2257,
      "ration": 2258,
      "Ġlooked": 2259,
      "sy": 2260,
      "ror": 2261,
      "Ġchoice": 2262,
      "Ġworry": 2263,
      "Ġtrad": 2264,
      "haps": 2265,
      "azing": 2266,
      "iter": 2267,
      "Ġworth": 2268,
      "Ġeducation": 2269,
      "Ġcities": 2270,
      "Ġhath": 2271,
      "Ġbuilt": 2272,
      "head": 2273,
      "Ġmouth": 2274,
      "Of": 2275,
      "Ġthird": 2276,
      "ĠAfric": 2277,
      "Ġenvironment": 2278,
      "Ġproper": 2279,
      "Ġchanged": 2280,
      "oid": 2281,
      "apt": 2282,
      "aul": 2283,
      "Ġburn": 2284,
      "Ġfac": 2285,
      "Ġoffering": 2286,
      "llen": 2287,
      "Ġvir": 2288,
      "atic": 2289,
      "Ġtelling": 2290,
      "ĠReview": 2291,
      "Ġinn": 2292,
      "Ġbi": 2293,
      "Ġoften": 2294,
      "Ġwhether": 2295,
      "ĠEar": 2296,
      "Ġdownload": 2297,
      "icy": 2298,
      "Ġopportun": 2299,
      "Ġtomorrow": 2300,
      "ext": 2301,
      "Ġscient": 2302,
      "Ġpack": 2303,
      "Ġknowledge": 2304,
      "Ġ24": 2305,
      "Ġsoul": 2306,
      "Ġturned": 2307,
      "gle": 2308,
      "Ġgold": 2309,
      "ma": 2310,
      "ivid": 2311,
      "Ġflowers": 2312,
      "eep": 2313,
      "cap": 2314,
      "Ġfail": 2315,
      "Ġspend": 2316,
      "Ġneeded": 2317,
      "usband": 2318,
      "read": 2319,
      "ĠSe": 2320,
      "Ġmusic": 2321,
      "Ġones": 2322,
      "VPN": 2323,
      "Would": 2324,
      "Ġbased": 2325,
      "Ġpicture": 2326,
      "Ġve": 2327,
      "Ġshoot": 2328,
      "Ġlarge": 2329,
      "Ġinstall": 2330,
      "ggest": 2331,
      "Ġground": 2332,
      "lev": 2333,
      "Ġpriest": 2334,
      "elt": 2335,
      "Ġseven": 2336,
      "Ġeither": 2337,
      "Ġz": 2338,
      "Ġenjoy": 2339,
      "Ġsomebody": 2340,
      "Ġsurpr": 2341,
      "ned": 2342,
      "ech": 2343,
      "ction": 2344,
      "ik": 2345,
      "Ġhuh": 2346,
      "ully": 2347,
      "men": 2348,
      "Ġsweet": 2349,
      "ĠFran": 2350,
      "cing": 2351,
      "Ġpolit": 2352,
      "Ġfollowing": 2353,
      "Ġtem": 2354,
      "Ġshort": 2355,
      "Ġsister": 2356,
      "Ġindust": 2357,
      "iet": 2358,
      "aste": 2359,
      "ST": 2360,
      "ped": 2361,
      "Ġpeace": 2362,
      "Ġ13": 2363,
      "iddle": 2364,
      "ients": 2365,
      "ED": 2366,
      "ires": 2367,
      "Ġserious": 2368,
      "Ġnatural": 2369,
      "ĠFL": 2370,
      "ency": 2371,
      "gth": 2372,
      "Ġfell": 2373,
      "ĠLet": 2374,
      "Ġmanage": 2375,
      "Ġforget": 2376,
      "Ġinvest": 2377,
      "ivery": 2378,
      "Ġrunning": 2379,
      "Ġparticular": 2380,
      "Ġextra": 2381,
      "Ġhusband": 2382,
      "ental": 2383,
      "Ġemb": 2384,
      "Ġrelations": 2385,
      "Ġshot": 2386,
      "Ġglobal": 2387,
      "Ġarea": 2388,
      "Ġenem": 2389,
      "ault": 2390,
      "Ġwaiting": 2391,
      "Ġplaces": 2392,
      "Ġrecord": 2393,
      "ĠNews": 2394,
      "Ġscience": 2395,
      "Ġbox": 2396,
      "By": 2397,
      "ney": 2398,
      "Ġhate": 2399,
      "Ġforth": 2400,
      "Ġchoose": 2401,
      "Ġsurv": 2402,
      "Ġcam": 2403,
      "Ġlocal": 2404,
      "Ġsun": 2405,
      "now": 2406,
      "Ġ2019": 2407,
      "Ġgroup": 2408,
      "Ġgovernment": 2409,
      "Ġdig": 2410,
      "ocus": 2411,
      "ĠEnglish": 2412,
      "book": 2413,
      "Ġlim": 2414,
      "Ġchanges": 2415,
      "Ġfly": 2416,
      "Like": 2417,
      "Ġhair": 2418,
      "aring": 2419,
      "Ġsearch": 2420,
      "Ġcannot": 2421,
      "Ġsil": 2422,
      "rest": 2423,
      "Ġamazing": 2424,
      "Ġpiece": 2425,
      "Ġtakes": 2426,
      "Ġgirls": 2427,
      "gest": 2428,
      "Ġmount": 2429,
      "Ġabs": 2430,
      "Ġadm": 2431,
      "icle": 2432,
      "obile": 2433,
      "Ġchannel": 2434,
      "Ġdrive": 2435,
      "Ġcal": 2436,
      "Ġlow": 2437,
      "Ġevil": 2438,
      "Ġai": 2439,
      "unt": 2440,
      "Ġeverybody": 2441,
      "Ġparty": 2442,
      "ĠBen": 2443,
      "iol": 2444,
      "Ġbeha": 2445,
      "Ġexist": 2446,
      "Ġtouch": 2447,
      "Ġemail": 2448,
      "Ġattack": 2449,
      "Ġben": 2450,
      "Ġsal": 2451,
      "erve": 2452,
      "oly": 2453,
      "Ġmist": 2454,
      "Ġcool": 2455,
      "iding": 2456,
      "ules": 2457,
      "itch": 2458,
      "Ġpull": 2459,
      "ĠGo": 2460,
      "Ġdou": 2461,
      "Does": 2462,
      "Ġself": 2463,
      "Ġcry": 2464,
      "ĠMy": 2465,
      "Ġfeeling": 2466,
      "Ġcommunity": 2467,
      "Ġ16": 2468,
      "Ġdin": 2469,
      "Ġduring": 2470,
      "Ġstat": 2471,
      "Ġindivid": 2472,
      "ĠÂ·": 2473,
      "unch": 2474,
      "ĠYork": 2475,
      "Ch": 2476,
      "ze": 2477,
      "Ġdru": 2478,
      "Ġasking": 2479,
      "Ġsuper": 2480,
      "aven": 2481,
      "ĠMore": 2482,
      "mp": 2483,
      "Ġfoot": 2484,
      "Ġaccept": 2485,
      "Ġbecame": 2486,
      "ĠJudah": 2487,
      "ken": 2488,
      "Ġtot": 2489,
      "Ġprovide": 2490,
      "hem": 2491,
      "Ġcamp": 2492,
      "ĠCode": 2493,
      "ulation": 2494,
      "Ġpress": 2495,
      "Ġtoward": 2496,
      "Ġhor": 2497,
      "Ġblack": 2498,
      "ential": 2499,
      "Ġstore": 2500,
      "Ġmessage": 2501,
      "Ġneither": 2502,
      "Ġrespons": 2503,
      "Ġyeah": 2504,
      "Ġant": 2505,
      "cribe": 2506,
      "His": 2507,
      "Ġwhatever": 2508,
      "Ġquality": 2509,
      "Ġearly": 2510,
      "Ġcompletely": 2511,
      "Ġborn": 2512,
      "ategories": 2513,
      "Ġrather": 2514,
      "Cl": 2515,
      "Ġchallen": 2516,
      "Ġworked": 2517,
      "Ġfamil": 2518,
      "Ġtown": 2519,
      "duce": 2520,
      "ĠEarth": 2521,
      "ĠMay": 2522,
      "ique": 2523,
      "reet": 2524,
      "Ġimpro": 2525,
      "ming": 2526,
      "ino": 2527,
      "Ġdanger": 2528,
      "Ġrob": 2529,
      "Ġmaterial": 2530,
      "Ġpleas": 2531,
      "ief": 2532,
      "Ġshalt": 2533,
      "cum": 2534,
      "Ġtrouble": 2535,
      "uation": 2536,
      "Ġlink": 2537,
      "une": 2538,
      "Ġhappening": 2539,
      "inary": 2540,
      "Ġexplain": 2541,
      "ĠX": 2542,
      "Ġnorm": 2543,
      "Ġ14": 2544,
      "roid": 2545,
      "Ġdate": 2546,
      "pes": 2547,
      "Ġcommunic": 2548,
      "Ġfix": 2549,
      "ems": 2550,
      "icro": 2551,
      "attle": 2552,
      "Ġamount": 2553,
      "itor": 2554,
      "Ġang": 2555,
      "ensive": 2556,
      "ds": 2557,
      "ince": 2558,
      "Ġbur": 2559,
      "ĠBar": 2560,
      "Ġfigure": 2561,
      "Ġmur": 2562,
      "ajor": 2563,
      "Ġparents": 2564,
      "Ġdeg": 2565,
      "ĠBut": 2566,
      "Ġoffers": 2567,
      "Ġmeas": 2568,
      "ficult": 2569,
      "ĠSy": 2570,
      "urs": 2571,
      "Ġprice": 2572,
      "Ġcaus": 2573,
      "Ġweeks": 2574,
      "Ġseeing": 2575,
      "Ġfocus": 2576,
      "ips": 2577,
      "Ġ2017": 2578,
      "Ġocc": 2579,
      "ĠInternet": 2580,
      "ights": 2581,
      "Ġoffice": 2582,
      "eople": 2583,
      "ĠAre": 2584,
      "ĠGerm": 2585,
      "fully": 2586,
      "Ġimagine": 2587,
      "Ġrecogn": 2588,
      "ked": 2589,
      "Ġident": 2590,
      "Ġeye": 2591,
      "era": 2592,
      "Will": 2593,
      "Ġyours": 2594,
      "ploy": 2595,
      "Ġcir": 2596,
      "Ġlose": 2597,
      "oon": 2598,
      "oor": 2599,
      "lished": 2600,
      "Ġdifficult": 2601,
      "uly": 2602,
      "Ġsecret": 2603,
      "Ġwrite": 2604,
      "irth": 2605,
      "ĠOff": 2606,
      "ĠAmerican": 2607,
      "Ġaud": 2608,
      "Ġcard": 2609,
      "Ġsometimes": 2610,
      "Ġgrand": 2611,
      "Ġseems": 2612,
      "Pl": 2613,
      "Somet": 2614,
      "Thanks": 2615,
      "por": 2616,
      "alem": 2617,
      "Ġpolice": 2618,
      "Ġtrack": 2619,
      "Us": 2620,
      "ĠFlowers": 2621,
      "ding": 2622,
      "Ġpot": 2623,
      "Ġweb": 2624,
      "hers": 2625,
      "Ġpoor": 2626,
      "pped": 2627,
      "ĠHar": 2628,
      "Ġbott": 2629,
      "Ġsea": 2630,
      "iverse": 2631,
      "Ġusers": 2632,
      "Ġbull": 2633,
      "ograph": 2634,
      "Ġsize": 2635,
      "uary": 2636,
      "oun": 2637,
      "Ġincluding": 2638,
      "Ġill": 2639,
      "Ġfeet": 2640,
      "Ġcommon": 2641,
      "Ġoil": 2642,
      "rible": 2643,
      "eral": 2644,
      "Ġcompan": 2645,
      "Ġmer": 2646,
      "Ġdoctor": 2647,
      "ky": 2648,
      "ising": 2649,
      "usalem": 2650,
      "imate": 2651,
      "utions": 2652,
      "Ġcreated": 2653,
      "ays": 2654,
      "acter": 2655,
      "Ġeight": 2656,
      "ability": 2657,
      "Ġplanet": 2658,
      "icated": 2659,
      "Fl": 2660,
      "ibility": 2661,
      "Ġpick": 2662,
      "Ġhot": 2663,
      "ease": 2664,
      "Ġrad": 2665,
      "itional": 2666,
      "Ġmoving": 2667,
      "Ġmov": 2668,
      "oh": 2669,
      "Ġtherefore": 2670,
      "ĠJerusalem": 2671,
      "Ġrelationship": 2672,
      "ĠYes": 2673,
      "ham": 2674,
      "Ġgames": 2675,
      "artment": 2676,
      "Ġselect": 2677,
      "Ġfund": 2678,
      "//": 2679,
      "://": 2680,
      "fort": 2681,
      "Ġtechnolog": 2682,
      "arant": 2683,
      "Ġsell": 2684,
      "Ġhotels": 2685,
      "Ġbroadcast": 2686,
      "pec": 2687,
      "ĠNow": 2688,
      "Ġdetail": 2689,
      "Ġapplic": 2690,
      "ĠSc": 2691,
      "Ġshut": 2692,
      "God": 2693,
      "ĠTo": 2694,
      "Ġru": 2695,
      "Ġdecided": 2696,
      "ĠWor": 2697,
      "ived": 2698,
      "ffe": 2699,
      "Ġmap": 2700,
      "Ġstren": 2701,
      "Ġ17": 2702,
      "ission": 2703,
      "Ġsold": 2704,
      "Ġ40": 2705,
      "Ġspecific": 2706,
      "sh": 2707,
      "irit": 2708,
      "bed": 2709,
      "Ġoffic": 2710,
      "ĠSw": 2711,
      "ilities": 2712,
      "ping": 2713,
      "Ġobject": 2714,
      "Ġbreat": 2715,
      "Ġinvol": 2716,
      "Ġcontent": 2717,
      "Ġnecess": 2718,
      "Ġstra": 2719,
      "Ġjoin": 2720,
      "ĠFree": 2721,
      "ĠAmerica": 2722,
      "Ġhig": 2723,
      "oogle": 2724,
      "More": 2725,
      "Ġsat": 2726,
      "ĠHey": 2727,
      "Ġ>": 2728,
      "ources": 2729,
      "Ġcover": 2730,
      "Ġrespect": 2731,
      "Ġtype": 2732,
      "Ġupd": 2733,
      "10": 2734,
      "Ġlie": 2735,
      "ĠNot": 2736,
      "ners": 2737,
      "Ġdollars": 2738,
      "Ġabove": 2739,
      "earch": 2740,
      "Ġskin": 2741,
      "ĠFace": 2742,
      "Ġsick": 2743,
      "ĠPol": 2744,
      "Ġori": 2745,
      "Ġdog": 2746,
      "Ġmodern": 2747,
      "ĠHD": 2748,
      "Ġglad": 2749,
      "my": 2750,
      "esh": 2751,
      "Ġdifference": 2752,
      "Ġmarried": 2753,
      "Ġjour": 2754,
      "sych": 2755,
      "Ġfelt": 2756,
      "ators": 2757,
      "Which": 2758,
      "een": 2759,
      "Ġpray": 2760,
      "upid": 2761,
      "Ġfinally": 2762,
      "Ġanimals": 2763,
      "riv": 2764,
      "odes": 2765,
      "ĠInst": 2766,
      "Ġsword": 2767,
      "Ġsystems": 2768,
      "Ġrisk": 2769,
      "ĠAp": 2770,
      "Ġlay": 2771,
      "rif": 2772,
      "Ġprivate": 2773,
      "Ġmajor": 2774,
      "ask": 2775,
      "Ġrate": 2776,
      "Ġloved": 2777,
      "Ġhosp": 2778,
      "face": 2779,
      "Ġfill": 2780,
      "Ġdisapp": 2781,
      "Ġdevelopment": 2782,
      "Ġwhom": 2783,
      "Ġfeed": 2784,
      "Ġideas": 2785,
      "Pro": 2786,
      "Ġfile": 2787,
      "Ġdiv": 2788,
      "ples": 2789,
      "Ġenter": 2790,
      "Ġsum": 2791,
      "Ġball": 2792,
      "Com": 2793,
      "Ġfiles": 2794,
      "ese": 2795,
      "Ġlearning": 2796,
      "Un": 2797,
      "ele": 2798,
      "atures": 2799,
      "ume": 2800,
      "Ġop": 2801,
      "Ġinterested": 2802,
      "ler": 2803,
      "Ġitself": 2804,
      "Ġplaying": 2805,
      "Ġsounds": 2806,
      "ĠTrain": 2807,
      "Ġimage": 2808,
      "Ġvalue": 2809,
      "Ġmachine": 2810,
      "hel": 2811,
      "Ġmid": 2812,
      "und": 2813,
      "âĢľ": 2814,
      "orts": 2815,
      "irm": 2816,
      "ubs": 2817,
      "Ġrequest": 2818,
      "Ġthreat": 2819,
      "Ġinstead": 2820,
      "Ġclot": 2821,
      "ĠWhy": 2822,
      "Ġmot": 2823,
      "ĠDe": 2824,
      "cell": 2825,
      "ored": 2826,
      "NE": 2827,
      "tain": 2828,
      "zz": 2829,
      "Ġroad": 2830,
      "ĠAfrica": 2831,
      "enty": 2832,
      "Ġstar": 2833,
      "Ġwhite": 2834,
      "ĠCont": 2835,
      "ression": 2836,
      "Ġwild": 2837,
      "Ġcat": 2838,
      "Ġsmart": 2839,
      "Ġconsider": 2840,
      "Ġgiving": 2841,
      "ĠUs": 2842,
      "eared": 2843,
      "Ġclos": 2844,
      "Ġrock": 2845,
      "Ġforward": 2846,
      "ĠJe": 2847,
      "ĠPar": 2848,
      "Ġposition": 2849,
      "En": 2850,
      "ĠChina": 2851,
      "ĠTw": 2852,
      "Ġbillion": 2853,
      "Ġsociety": 2854,
      "Ġmass": 2855,
      "Ġbirth": 2856,
      "ĠAnt": 2857,
      "Ġprison": 2858,
      "oud": 2859,
      "Ġconvers": 2860,
      "Ġanybody": 2861,
      "Ġfunny": 2862,
      "Ġstupid": 2863,
      "ĠMoses": 2864,
      "Ġsuggest": 2865,
      "ux": 2866,
      "Ġtab": 2867,
      "Ġalt": 2868,
      "Ġrequire": 2869,
      "Ġhang": 2870,
      "Ġhy": 2871,
      "Ġdw": 2872,
      "Ġcompanies": 2873,
      "ply": 2874,
      "omes": 2875,
      "Ġweap": 2876,
      "ĠâĢĶ": 2877,
      "Ġlearned": 2878,
      "cious": 2879,
      "ource": 2880,
      "ĠEm": 2881,
      "EC": 2882,
      "adem": 2883,
      "Ġwat": 2884,
      "Ab": 2885,
      "ĠGet": 2886,
      "Ġmedia": 2887,
      "mas": 2888,
      "Ġele": 2889,
      "ĠFr": 2890,
      "Ġcells": 2891,
      "Ġmeant": 2892,
      "ube": 2893,
      "int": 2894,
      "Ġmiddle": 2895,
      "Ġcook": 2896,
      "rad": 2897,
      "Ġcustomer": 2898,
      "Ġobs": 2899,
      "Ġtar": 2900,
      "ises": 2901,
      "bor": 2902,
      "Ġnature": 2903,
      "Ġfair": 2904,
      "Ġviol": 2905,
      "Ġappear": 2906,
      "ĠQu": 2907,
      "Ġcomb": 2908,
      "Ġworse": 2909,
      "ĠOr": 2910,
      "Ġversion": 2911,
      "roll": 2912,
      "olute": 2913,
      "Ġforever": 2914,
      "imin": 2915,
      "Ġdelive": 2916,
      "itten": 2917,
      "par": 2918,
      "Ġsac": 2919,
      "Ġsens": 2920,
      "Ġexchange": 2921,
      "ĠLe": 2922,
      "ĠCome": 2923,
      "unk": 2924,
      "Ġgrad": 2925,
      "Ġpurp": 2926,
      "Ġbeginning": 2927,
      "Ġcast": 2928,
      "Ġbud": 2929,
      "eter": 2930,
      "cape": 2931,
      "Ġnon": 2932,
      "Ġheaven": 2933,
      "ĠJust": 2934,
      "Ġunderstanding": 2935,
      "ses": 2936,
      "Ġthousands": 2937,
      "Ġchannels": 2938,
      "het": 2939,
      "Ġfur": 2940,
      "OW": 2941,
      "People": 2942,
      "Ġincred": 2943,
      "Ġfool": 2944,
      "airs": 2945,
      "Ġtext": 2946,
      "Ġdress": 2947,
      "Ġcancer": 2948,
      "friend": 2949,
      "Ġourselves": 2950,
      "ĠDec": 2951,
      "entle": 2952,
      "struct": 2953,
      "Ġneigh": 2954,
      "Ġcold": 2955,
      "itc": 2956,
      "ĠDad": 2957,
      "ĠEn": 2958,
      "ĠUp": 2959,
      "ĠFollow": 2960,
      "Ġ2016": 2961,
      "Ġahead": 2962,
      "Ġsqu": 2963,
      "Ġcarry": 2964,
      "Ġpsych": 2965,
      "key": 2966,
      "umb": 2967,
      "Ġnone": 2968,
      "Ġdelivered": 2969,
      "Ġstri": 2970,
      "ased": 2971,
      "ipment": 2972,
      "ethod": 2973,
      "Ġten": 2974,
      "eous": 2975,
      "Ġport": 2976,
      "ĠWorld": 2977,
      "Ġspeed": 2978,
      "Ġdraw": 2979,
      "Ġer": 2980,
      "Ġboys": 2981,
      "Ġhast": 2982,
      "ĠDoll": 2983,
      "Ġkept": 2984,
      "ĠChar": 2985,
      "ĠFacebook": 2986,
      "ober": 2987,
      "Ġpen": 2988,
      "iod": 2989,
      "Ġskills": 2990,
      "ibly": 2991,
      "Ġpaper": 2992,
      "arc": 2993,
      "Ġdelivery": 2994,
      "Ġcurrently": 2995,
      "ege": 2996,
      "ĠNor": 2997,
      "Ġchat": 2998,
      "ags": 2999,
      "Ġwonderful": 3000,
      "Ġopportunity": 3001,
      "Ġgives": 3002,
      "Ġfat": 3003,
      "ĠSha": 3004,
      "ceed": 3005,
      "ĠGen": 3006,
      "to": 3007,
      "Ġstories": 3008,
      "ĠMus": 3009,
      "Ġorders": 3010,
      "lim": 3011,
      "Even": 3012,
      "Ġann": 3013,
      "Ġindustry": 3014,
      "ray": 3015,
      "Ġattention": 3016,
      "ences": 3017,
      "ĠDan": 3018,
      "Tw": 3019,
      "go": 3020,
      "Ġbegan": 3021,
      "Ġlived": 3022,
      "ĠThis": 3023,
      "oms": 3024,
      "isten": 3025,
      "play": 3026,
      "Ġestab": 3027,
      "AT": 3028,
      "ĠKing": 3029,
      "Ġleaving": 3030,
      "Ġgifts": 3031,
      "Ġterms": 3032,
      "Right": 3033,
      "Ġdevice": 3034,
      "Ġbenef": 3035,
      "Ġpowerful": 3036,
      "letter": 3037,
      "Ġtools": 3038,
      "Put": 3039,
      "iny": 3040,
      "reme": 3041,
      "Ġparts": 3042,
      "orist": 3043,
      "ica": 3044,
      "Ġanyway": 3045,
      "Ġmeeting": 3046,
      "ounds": 3047,
      "Ġcomplex": 3048,
      "Ġtraining": 3049,
      "Ġdom": 3050,
      "Ġperiod": 3051,
      "Ġsubject": 3052,
      "Ġbehold": 3053,
      "aur": 3054,
      "Ġtable": 3055,
      "ouqu": 3056,
      "Ġhuge": 3057,
      "ĠEuropean": 3058,
      "www": 3059,
      "ĠGoogle": 3060,
      "Ġmanag": 3061,
      "Ġquickly": 3062,
      "cl": 3063,
      "Ġclick": 3064,
      "Ġblock": 3065,
      "Use": 3066,
      "ĠHome": 3067,
      "Ġpopular": 3068,
      "ted": 3069,
      "Ġuh": 3070,
      "ection": 3071,
      "Ġdamn": 3072,
      "pecially": 3073,
      "Those": 3074,
      "Ġslow": 3075,
      "Ġpromise": 3076,
      "Ġbehav": 3077,
      "Ġareas": 3078,
      "Ġthanks": 3079,
      "ĠMon": 3080,
      "aim": 3081,
      "arantee": 3082,
      "hood": 3083,
      "Ġsever": 3084,
      "Ġsuff": 3085,
      "Ġcatch": 3086,
      "ĠPhil": 3087,
      "Mr": 3088,
      "Ġrepl": 3089,
      "Ġblue": 3090,
      "Ġsimply": 3091,
      "Ġpromot": 3092,
      "Ġhospital": 3093,
      "Ġsus": 3094,
      "Ġpath": 3095,
      "ented": 3096,
      "ended": 3097,
      "Ġsituation": 3098,
      "Ġeconomic": 3099,
      "Only": 3100,
      "Ġdesigned": 3101,
      "Ġbless": 3102,
      "Ġdisease": 3103,
      "ocr": 3104,
      "Ġabsolute": 3105,
      "Ġconv": 3106,
      "Ġinstit": 3107,
      "Ġrepres": 3108,
      "Ġevent": 3109,
      "Ġexperim": 3110,
      "Ġlaun": 3111,
      "Ġtechnologies": 3112,
      "uthor": 3113,
      "onus": 3114,
      "Ġfavorite": 3115,
      "oph": 3116,
      "Ġdefin": 3117,
      "Ġtree": 3118,
      "osh": 3119,
      "Ġstrength": 3120,
      "Gu": 3121,
      "yond": 3122,
      "itness": 3123,
      "astic": 3124,
      "Ġremain": 3125,
      "Ġwatching": 3126,
      "From": 3127,
      "Ġmethod": 3128,
      "rency": 3129,
      "NA": 3130,
      "anuary": 3131,
      "Ġreserv": 3132,
      "ĠON": 3133,
      "Ġcred": 3134,
      "Ġemot": 3135,
      "ox": 3136,
      "ĠCent": 3137,
      "Ġsomewhere": 3138,
      "ĠAndroid": 3139,
      "Re": 3140,
      "ms": 3141,
      "iday": 3142,
      "ĠGood": 3143,
      "ement": 3144,
      "Uh": 3145,
      "Flowers": 3146,
      "Ġcompet": 3147,
      "Ġbread": 3148,
      "Ġnormal": 3149,
      "Ġwicked": 3150,
      "Ġstruct": 3151,
      "ĠUk": 3152,
      "Ġexcept": 3153,
      "Ġshop": 3154,
      "Ġprograms": 3155,
      "Ġfurther": 3156,
      "Ġnations": 3157,
      "Ġtreatment": 3158,
      "Ġfathers": 3159,
      "Ġprofessional": 3160,
      "Ġrid": 3161,
      "ĠJack": 3162,
      "Ġintell": 3163,
      "ĠOK": 3164,
      "Ġspecies": 3165,
      "Ġconcern": 3166,
      "Ġstarting": 3167,
      "ĠOnline": 3168,
      "uri": 3169,
      "Ġcoun": 3170,
      "Ġste": 3171,
      "Ġstru": 3172,
      "ivity": 3173,
      "Ġtransl": 3174,
      "ttp": 3175,
      "Ġhop": 3176,
      "Ġstick": 3177,
      "ĠAg": 3178,
      "Ġplat": 3179,
      "Ġissues": 3180,
      "Per": 3181,
      "aff": 3182,
      "ances": 3183,
      "Ġran": 3184,
      "ishing": 3185,
      "Home": 3186,
      "RE": 3187,
      "Ġmill": 3188,
      "amed": 3189,
      "Ġsecure": 3190,
      "Ġemploy": 3191,
      "Make": 3192,
      "arr": 3193,
      "rite": 3194,
      "ĠProm": 3195,
      "ĠDr": 3196,
      "Am": 3197,
      "ĠDisc": 3198,
      "viously": 3199,
      "Ġess": 3200,
      "ĠWind": 3201,
      "Ġmis": 3202,
      "Ġcomfort": 3203,
      "roud": 3204,
      "itted": 3205,
      "Ġspirit": 3206,
      "ideos": 3207,
      "Ġcross": 3208,
      "Ġspread": 3209,
      "Was": 3210,
      "Ġcentury": 3211,
      "Ġdinner": 3212,
      "ball": 3213,
      "Therefore": 3214,
      "omb": 3215,
      "ĠGames": 3216,
      "Ġmedic": 3217,
      "Ġsn": 3218,
      "ilar": 3219,
      "Ġseveral": 3220,
      "Ġgreen": 3221,
      "Ġship": 3222,
      "Ġmodel": 3223,
      "Ġdevices": 3224,
      "Ġautom": 3225,
      "usiness": 3226,
      "Ġuses": 3227,
      "istic": 3228,
      "gu": 3229,
      "Ġsong": 3230,
      "Ġbelong": 3231,
      "Ġmemory": 3232,
      "First": 3233,
      "Ġcontinue": 3234,
      "Ġrighteous": 3235,
      "Ġwhose": 3236,
      "Ġanywhere": 3237,
      "ĠWhere": 3238,
      "Ġstraight": 3239,
      "Ġdro": 3240,
      "Ġ21": 3241,
      "Ġuniverse": 3242,
      "Ġshows": 3243,
      "Ġbroken": 3244,
      "Ġdangerous": 3245,
      "Ġnecessary": 3246,
      "for": 3247,
      "Ġbitch": 3248,
      "Ġorigin": 3249,
      "Ġbelow": 3250,
      "Ġsitting": 3251,
      "Ġbird": 3252,
      "irt": 3253,
      "Ġimm": 3254,
      "iant": 3255,
      "Ġbri": 3256,
      "ĠChristmas": 3257,
      "Ġsight": 3258,
      "Ġinf": 3259,
      "rab": 3260,
      "Ġlock": 3261,
      "Ġdiscuss": 3262,
      "Ġevidence": 3263,
      "Ġtarget": 3264,
      "Ġet": 3265,
      "Ġspent": 3266,
      "Ġrain": 3267,
      "esus": 3268,
      "Ġterrible": 3269,
      "VER": 3270,
      "yle": 3271,
      "omen": 3272,
      "ĠDollar": 3273,
      "ek": 3274,
      "reg": 3275,
      "itter": 3276,
      "ĠCal": 3277,
      "acking": 3278,
      "chie": 3279,
      "oes": 3280,
      "oday": 3281,
      "Ġscared": 3282,
      "Keep": 3283,
      "Ġur": 3284,
      "izing": 3285,
      "50": 3286,
      "ĠIf": 3287,
      "Ġsaved": 3288,
      "Ġturns": 3289,
      "ĠWho": 3290,
      "Ġfish": 3291,
      "ĠCha": 3292,
      "Ġdecision": 3293,
      "Ġble": 3294,
      "Ġservant": 3295,
      "pond": 3296,
      "Ġfa": 3297,
      "Ġimprove": 3298,
      "iar": 3299,
      "Ġbeyond": 3300,
      "Ġforce": 3301,
      "ĠRed": 3302,
      "itude": 3303,
      "ipping": 3304,
      "Ġlucky": 3305,
      "Sorry": 3306,
      "ĠSec": 3307,
      "Everything": 3308,
      "Ġrights": 3309,
      "llo": 3310,
      "Ġcoffe": 3311,
      "Ġteach": 3312,
      "Ġproud": 3313,
      "Ġsmell": 3314,
      "Ġculture": 3315,
      "acc": 3316,
      "ĠComm": 3317,
      "ashion": 3318,
      "Act": 3319,
      "Ġbeat": 3320,
      "Ġsaith": 3321,
      "ON": 3322,
      "Ġpred": 3323,
      "Ġrev": 3324,
      "wor": 3325,
      "amb": 3326,
      "Ġaffect": 3327,
      "Ġcolor": 3328,
      "Ġinnov": 3329,
      "Su": 3330,
      "elcome": 3331,
      "ively": 3332,
      "Ġnumbers": 3333,
      "mbers": 3334,
      "ene": 3335,
      "Ġgentle": 3336,
      "ĠSupp": 3337,
      "ĠMed": 3338,
      "ival": 3339,
      "Ġdepend": 3340,
      "Ġreceive": 3341,
      "Ġcy": 3342,
      "Ġbase": 3343,
      "Ġfeatures": 3344,
      "Wait": 3345,
      "rum": 3346,
      "ĠEd": 3347,
      "ĠRep": 3348,
      "Ġcoffee": 3349,
      "Could": 3350,
      "ĠDE": 3351,
      "Ġwritten": 3352,
      "Ġteeth": 3353,
      "Ġsetting": 3354,
      "Ġpoin": 3355,
      "Ġperhaps": 3356,
      "ĠDid": 3357,
      "Ġplatform": 3358,
      "Ġmultip": 3359,
      "Ġmention": 3360,
      "gue": 3361,
      "Ġmad": 3362,
      "Ġpaid": 3363,
      "Ġability": 3364,
      "ama": 3365,
      "Ġchem": 3366,
      "ĠChe": 3367,
      "Ġfloor": 3368,
      "Ġthrow": 3369,
      "Ġholy": 3370,
      "Ġrules": 3371,
      "Ġtalked": 3372,
      "inion": 3373,
      "inist": 3374,
      "dden": 3375,
      "ĠNewsletter": 3376,
      "erc": 3377,
      "ĠInternational": 3378,
      "Ġhoney": 3379,
      "Ġnobody": 3380,
      "Ġaction": 3381,
      "Ġforgot": 3382,
      "Ġreb": 3383,
      "Ġconsum": 3384,
      "asons": 3385,
      "Ġwel": 3386,
      "ference": 3387,
      "Ġlady": 3388,
      "Ġrealize": 3389,
      "board": 3390,
      "Ġoptions": 3391,
      "asc": 3392,
      "ĠAt": 3393,
      "Ġvol": 3394,
      "Ġvict": 3395,
      "Ġstudent": 3396,
      "Ġconditions": 3397,
      "Ġmistake": 3398,
      "Se": 3399,
      "Ġpolitical": 3400,
      "bt": 3401,
      "TC": 3402,
      "Ġbooks": 3403,
      "Ġkiss": 3404,
      "cean": 3405,
      "Ġimages": 3406,
      "apan": 3407,
      "Ġ60": 3408,
      "ĠSchool": 3409,
      "verage": 3410,
      "action": 3411,
      "Ġreviews": 3412,
      "Ġwaste": 3413,
      "Ġresults": 3414,
      "bon": 3415,
      "rep": 3416,
      "alk": 3417,
      "Ġkinds": 3418,
      "Ġserve": 3419,
      "Ġhonest": 3420,
      "iction": 3421,
      "medi": 3422,
      "put": 3423,
      "Ġcart": 3424,
      "Ġitems": 3425,
      "Nothing": 3426,
      "Ar": 3427,
      "word": 3428,
      "ley": 3429,
      "cies": 3430,
      "Ġoffe": 3431,
      "Ġthereof": 3432,
      "ivil": 3433,
      "Ġpal": 3434,
      "Ġstation": 3435,
      "press": 3436,
      "Ġwrote": 3437,
      "gen": 3438,
      "Ġmaster": 3439,
      "Ġweird": 3440,
      "Ġrecomm": 3441,
      "AN": 3442,
      "Ġban": 3443,
      "Ġbank": 3444,
      "rench": 3445,
      "ological": 3446,
      "ĠWeb": 3447,
      "Ġanimal": 3448,
      "ĠTrans": 3449,
      "Ġwood": 3450,
      "Ġmm": 3451,
      "atter": 3452,
      "Ġvill": 3453,
      "Ġsubs": 3454,
      "ĠCity": 3455,
      "Exc": 3456,
      "Ġdon": 3457,
      "mber": 3458,
      "Ġlift": 3459,
      "elp": 3460,
      "Ġdwell": 3461,
      "te": 3462,
      "Ġ2020": 3463,
      "Ġsolution": 3464,
      "Ġcertainly": 3465,
      "rap": 3466,
      "ouses": 3467,
      "Ġcalling": 3468,
      "Ġbasically": 3469,
      "uf": 3470,
      "Ġbattle": 3471,
      "ĠPal": 3472,
      "Ġequipment": 3473,
      "Ġrequired": 3474,
      "New": 3475,
      "resh": 3476,
      "Ġpartner": 3477,
      "Ġincrease": 3478,
      "ĠWindows": 3479,
      "Tr": 3480,
      "rect": 3481,
      "Ġ27": 3482,
      "ĠEast": 3483,
      "Ġtaught": 3484,
      "Ġrich": 3485,
      "Ġpolicy": 3486,
      "ĠBeach": 3487,
      "ubscribe": 3488,
      "ened": 3489,
      "Ġdocum": 3490,
      "Ġda": 3491,
      "anced": 3492,
      "Ġreach": 3493,
      "ĠFrank": 3494,
      "Ġachie": 3495,
      "Ġhero": 3496,
      "inese": 3497,
      "Ġcharge": 3498,
      "Ġsudden": 3499,
      "30": 3500,
      "Ġliter": 3501,
      "Ġagre": 3502,
      "ĠBooking": 3503,
      "ondon": 3504,
      "Ġleaders": 3505,
      "ĠCoupon": 3506,
      "Ġmovie": 3507,
      "VERY": 3508,
      "Ġindividual": 3509,
      "11": 3510,
      "Ġmobile": 3511,
      "ĠDel": 3512,
      "ĠPlay": 3513,
      "Ġespecially": 3514,
      "ĠRussian": 3515,
      "wide": 3516,
      "IN": 3517,
      "ij": 3518,
      "nel": 3519,
      "reci": 3520,
      "ĠGe": 3521,
      "Ġunique": 3522,
      "Ġwine": 3523,
      "ĠJanuary": 3524,
      "Ġservants": 3525,
      "Two": 3526,
      "ravel": 3527,
      "Ġmissing": 3528,
      "asp": 3529,
      "Ġdrop": 3530,
      "ĠThan": 3531,
      "Ġuser": 3532,
      "However": 3533,
      "Ġmoved": 3534,
      "Most": 3535,
      "Sha": 3536,
      "Ġhide": 3537,
      "Ġstreet": 3538,
      "ĠCol": 3539,
      "Ġlegal": 3540,
      "Listen": 3541,
      "obody": 3542,
      "soci": 3543,
      "tle": 3544,
      "Ġice": 3545,
      "ams": 3546,
      "raine": 3547,
      "Ġplant": 3548,
      "Ġlots": 3549,
      "Rem": 3550,
      "Ġbouqu": 3551,
      "Ġagree": 3552,
      "Ġexperien": 3553,
      "pha": 3554,
      "rate": 3555,
      "Ġsad": 3556,
      "Ġtor": 3557,
      "Ġnational": 3558,
      "Ġtrick": 3559,
      "Ġconnection": 3560,
      "Ġmanagement": 3561,
      "Ġrange": 3562,
      "Ġglass": 3563,
      "lear": 3564,
      "overed": 3565,
      "Ġhigher": 3566,
      "acob": 3567,
      "Ġallows": 3568,
      "Ġacadem": 3569,
      "cription": 3570,
      "Ġtick": 3571,
      "Ġpan": 3572,
      "acle": 3573,
      "Ġ=": 3574,
      "ria": 3575,
      "ĠAir": 3576,
      "order": 3577,
      "Ġgrowing": 3578,
      "Ġphoto": 3579,
      "Ġbehavior": 3580,
      "umber": 3581,
      "Ġvarious": 3582,
      "ĠAdd": 3583,
      "Ġsepar": 3584,
      "epend": 3585,
      "Ġdegree": 3586,
      "Ġauthor": 3587,
      "Ġthine": 3588,
      "ĠOpen": 3589,
      "Ġquiet": 3590,
      "Ġextreme": 3591,
      "Ġarch": 3592,
      "Ġstrange": 3593,
      "imum": 3594,
      "Ġemer": 3595,
      "nam": 3596,
      "Ġneg": 3597,
      "Ġride": 3598,
      "ĠWill": 3599,
      "fast": 3600,
      "etic": 3601,
      "Ġpattern": 3602,
      "ðŁ": 3603,
      "Ġphysical": 3604,
      "ril": 3605,
      "AP": 3606,
      "Ġfamilies": 3607,
      "Send": 3608,
      "ift": 3609,
      "ĠNet": 3610,
      "Ġwindow": 3611,
      "About": 3612,
      "set": 3613,
      "amn": 3614,
      "Ġmiles": 3615,
      "Ġpurpose": 3616,
      "Ġimmedi": 3617,
      "Ġprotection": 3618,
      "Ġwide": 3619,
      "Ġmicro": 3620,
      "rage": 3621,
      "Ġlog": 3622,
      "Ġbouquets": 3623,
      "IST": 3624,
      "ĠBaby": 3625,
      "Ġmedical": 3626,
      "asino": 3627,
      "ĠGl": 3628,
      "Ġflight": 3629,
      "Ġwriting": 3630,
      "Ġbath": 3631,
      "Ġfault": 3632,
      "ĠOF": 3633,
      "ĠOne": 3634,
      "Ġcareer": 3635,
      "lus": 3636,
      "ĠLondon": 3637,
      "Ġissue": 3638,
      "Ġinvolved": 3639,
      "ĠMic": 3640,
      "Ġpassed": 3641,
      "Ġpurcha": 3642,
      "Ġarmy": 3643,
      "mon": 3644,
      "Ġut": 3645,
      "Ġweight": 3646,
      "Ġabsolutely": 3647,
      "Ġdirectly": 3648,
      "lon": 3649,
      "Con": 3650,
      "Ġsource": 3651,
      "ĠSouth": 3652,
      "Ġfru": 3653,
      "Sp": 3654,
      "Ġplane": 3655,
      "ees": 3656,
      "ales": 3657,
      "Ġcalls": 3658,
      "duced": 3659,
      "Ġforeign": 3660,
      "ĠSol": 3661,
      "Ġ35": 3662,
      "Ġ#": 3663,
      "idge": 3664,
      "irty": 3665,
      "Ġuniversity": 3666,
      "Ġmeaning": 3667,
      "ession": 3668,
      "arden": 3669,
      "Ġfinish": 3670,
      "Ġmission": 3671,
      "Ġenemies": 3672,
      "elebr": 3673,
      "OS": 3674,
      "Ġwear": 3675,
      "imens": 3676,
      "ĠPres": 3677,
      "Ġcourt": 3678,
      "Ġwis": 3679,
      "Ġgate": 3680,
      "Ġpieces": 3681,
      "Ġfaith": 3682,
      "roups": 3683,
      "Ġtill": 3684,
      "ĠDes": 3685,
      "ĠMaster": 3686,
      "Ġworried": 3687,
      "ĠBu": 3688,
      "Ġappreci": 3689,
      "Ġbow": 3690,
      "Ġusually": 3691,
      "Ġstanding": 3692,
      "LINE": 3693,
      "Ġcamera": 3694,
      "Ġnamed": 3695,
      "Ġunivers": 3696,
      "ĠChinese": 3697,
      "ana": 3698,
      "Ġlic": 3699,
      "Ġreality": 3700,
      "Ġintro": 3701,
      "Ġscale": 3702,
      "Ġstopped": 3703,
      "ĠÂ£": 3704,
      "ĠArt": 3705,
      "ĠJohnson": 3706,
      "Ġlord": 3707,
      "Ġhandle": 3708,
      "Ġbal": 3709,
      "ĠJapan": 3710,
      "Ġimpact": 3711,
      "ocol": 3712,
      "ification": 3713,
      "Categories": 3714,
      "hered": 3715,
      "Ġloss": 3716,
      "atest": 3717,
      "Ġhttp": 3718,
      "odies": 3719,
      "Ġtrees": 3720,
      "Ġbottom": 3721,
      "ued": 3722,
      "oring": 3723,
      "abor": 3724,
      "ĠNorth": 3725,
      "Ph": 3726,
      "iot": 3727,
      "pir": 3728,
      "Ġfem": 3729,
      "ĠSaul": 3730,
      "Ġroll": 3731,
      "Ġboard": 3732,
      "AR": 3733,
      "Ġbra": 3734,
      "amin": 3735,
      "ĠBusiness": 3736,
      "Ġgrowth": 3737,
      "ĠMe": 3738,
      "Ġopinion": 3739,
      "cel": 3740,
      "iation": 3741,
      "sc": 3742,
      "ĠAust": 3743,
      "erson": 3744,
      "Ġgeneral": 3745,
      "agram": 3746,
      "Ġwalking": 3747,
      "ua": 3748,
      "Ġtheory": 3749,
      "Ġfing": 3750,
      "Ġnames": 3751,
      "Ġdefe": 3752,
      "Ġdigital": 3753,
      "Ġled": 3754,
      "ruary": 3755,
      "Ġapply": 3756,
      "ebruary": 3757,
      "OWER": 3758,
      "Ġblind": 3759,
      "ground": 3760,
      "mm": 3761,
      "edding": 3762,
      "aron": 3763,
      "though": 3764,
      "Ġround": 3765,
      "Ġens": 3766,
      "Ser": 3767,
      "uate": 3768,
      "Ġsimilar": 3769,
      "Ġscientific": 3770,
      "Ġtotally": 3771,
      "Ġlying": 3772,
      "Ġmembers": 3773,
      "ressed": 3774,
      "Ġseconds": 3775,
      "Ġdeveloped": 3776,
      "ĠDELI": 3777,
      "Ġboss": 3778,
      "wered": 3779,
      "Ġmagic": 3780,
      "Something": 3781,
      "ĠIP": 3782,
      "agn": 3783,
      "Ġbroke": 3784,
      "Ġ80": 3785,
      "Ġlargest": 3786,
      "Ġallowed": 3787,
      "ĠDELIVERY": 3788,
      "iced": 3789,
      "andy": 3790,
      "eave": 3791,
      "Should": 3792,
      "ius": 3793,
      "Ġwon": 3794,
      "Ġdear": 3795,
      "ĠONLINE": 3796,
      "Her": 3797,
      "ris": 3798,
      "Ġpatient": 3799,
      "Ġlikely": 3800,
      "Ġpictures": 3801,
      "Ġconversation": 3802,
      "ĠFLOWER": 3803,
      "ĠPer": 3804,
      "Che": 3805,
      "ownload": 3806,
      "ĠFLOR": 3807,
      "ban": 3808,
      "Ġlif": 3809,
      "ĠFLORIST": 3810,
      "ES": 3811,
      "Ġpun": 3812,
      "atur": 3813,
      "Ġ22": 3814,
      "ublic": 3815,
      "li": 3816,
      "mes": 3817,
      "Ġreasons": 3818,
      "used": 3819,
      "Ġtrip": 3820,
      "Ġcommanded": 3821,
      "Ġgift": 3822,
      "Ġclothes": 3823,
      "pty": 3824,
      "Ġtruly": 3825,
      "Ġpopulation": 3826,
      "lier": 3827,
      "Ġsites": 3828,
      "Ġrout": 3829,
      "Ġcenter": 3830,
      "oices": 3831,
      "uel": 3832,
      "Ġtypes": 3833,
      "Ġdemand": 3834,
      "Ġenemy": 3835,
      "Ġjourney": 3836,
      "ĠDiscount": 3837,
      "Ġsuppose": 3838,
      "Ġwelcome": 3839,
      "sing": 3840,
      "Ġcaught": 3841,
      "Ġcivil": 3842,
      "Ġbear": 3843,
      "Ġspoke": 3844,
      "Ġchanging": 3845,
      "Ġlocation": 3846,
      "Ġpoints": 3847,
      "BI": 3848,
      "Ġhol": 3849,
      "ooper": 3850,
      "ĠJacob": 3851,
      "Ġpatients": 3852,
      "Ġterror": 3853,
      "Today": 3854,
      "osing": 3855,
      "aph": 3856,
      "Ġkilling": 3857,
      "Ġcustomers": 3858,
      "ids": 3859,
      "ĠServ": 3860,
      "ĠTop": 3861,
      "ĠProduct": 3862,
      "ðŁĴ": 3863,
      "uals": 3864,
      "ĠWith": 3865,
      "ffic": 3866,
      "Ġflower": 3867,
      "12": 3868,
      "EL": 3869,
      "Ġunc": 3870,
      "Ġcopy": 3871,
      "Ġhack": 3872,
      "aced": 3873,
      "cul": 3874,
      "Ġtend": 3875,
      "atically": 3876,
      "Ġexcell": 3877,
      "Ġhumans": 3878,
      "ðŁĴĲ": 3879,
      "Cont": 3880,
      "Ġnotice": 3881,
      "Ġbask": 3882,
      "Ġreading": 3883,
      "Ġthr": 3884,
      "Ġevening": 3885,
      "Ġanswered": 3886,
      "onder": 3887,
      "itary": 3888,
      "rian": 3889,
      "ĠSer": 3890,
      "Ġjump": 3891,
      "Ġcredit": 3892,
      "Ġoption": 3893,
      "ĠFin": 3894,
      "ĠFrench": 3895,
      "Ġshowed": 3896,
      "Ġinclude": 3897,
      "Ġnation": 3898,
      "Ġstood": 3899,
      "Ġrooms": 3900,
      "Ġparticip": 3901,
      "Tube": 3902,
      "ada": 3903,
      "Ġ199": 3904,
      "iel": 3905,
      "Ġseat": 3906,
      "Ġcars": 3907,
      "Ġdrug": 3908,
      "itation": 3909,
      "Ġgeneration": 3910,
      "ustain": 3911,
      "Once": 3912,
      "Ġcharacter": 3913,
      "ĠUkraine": 3914,
      "lin": 3915,
      "Ġbrand": 3916,
      "Ġrealized": 3917,
      "erms": 3918,
      "Ġsacrif": 3919,
      "ĠDep": 3920,
      "berry": 3921,
      "ĠIndia": 3922,
      "Ġconnected": 3923,
      "Ġvirus": 3924,
      "Ġbag": 3925,
      "Ġkingdom": 3926,
      "Ġsolve": 3927,
      "ĠDecember": 3928,
      "lement": 3929,
      "ached": 3930,
      "Ġaccident": 3931,
      "icles": 3932,
      "ĠDV": 3933,
      "Ġassist": 3934,
      "levision": 3935,
      "gar": 3936,
      "Ġtour": 3937,
      "Ġisland": 3938,
      "ĠMin": 3939,
      "Ġresources": 3940,
      "Ġjudg": 3941,
      "Ġdrugs": 3942,
      "Ġgods": 3943,
      "ĠMiss": 3944,
      "idden": 3945,
      "Ġpractice": 3946,
      "agement": 3947,
      "Ġinstruct": 3948,
      "Never": 3949,
      "Ġproperty": 3950,
      "ĠAng": 3951,
      "Ġseek": 3952,
      "2016": 3953,
      "ĠOut": 3954,
      "ointed": 3955,
      "Ġforest": 3956,
      "Ġfighting": 3957,
      "Ġmidst": 3958,
      "Ġneighbor": 3959,
      "Ġmir": 3960,
      "Ġremind": 3961,
      "ancial": 3962,
      "Ġscreen": 3963,
      "mail": 3964,
      "osit": 3965,
      "Ġbrows": 3966,
      "Ġprevent": 3967,
      "back": 3968,
      "Ġdue": 3969,
      "Ġgar": 3970,
      "Ġdistrib": 3971,
      "Ġlevels": 3972,
      "Ġinfl": 3973,
      "Add": 3974,
      "Ġfaster": 3975,
      "Ġunf": 3976,
      "Ġblow": 3977,
      "Ġbrothers": 3978,
      "Ġcrit": 3979,
      "ategory": 3980,
      "ufact": 3981,
      "ID": 3982,
      "fety": 3983,
      "enn": 3984,
      "ĠTy": 3985,
      "Ġdeterm": 3986,
      "bie": 3987,
      "gn": 3988,
      "Ġocean": 3989,
      "Ġbigger": 3990,
      "Ġsilver": 3991,
      "Ġchallenge": 3992,
      "Ġwise": 3993,
      "Ġwilling": 3994,
      "ĠOkay": 3995,
      "Ġfinished": 3996,
      "Ġnorth": 3997,
      "Ġinfect": 3998,
      "ĠPriv": 3999,
      "Ġguarantee": 4000,
      "ossible": 4001,
      "Ġavoid": 4002,
      "Me": 4003,
      "che": 4004,
      "wers": 4005,
      "Ġfreed": 4006,
      "Ġbab": 4007,
      "Stop": 4008,
      "Nobody": 4009,
      "Ġdance": 4010,
      "Ġtrade": 4011,
      "rial": 4012,
      "Ġuncle": 4013,
      "ĠÂ»": 4014,
      "ĠâĻª": 4015,
      "ĠThere": 4016,
      "uty": 4017,
      "Ġteaching": 4018,
      "Ġlad": 4019,
      "Ġring": 4020,
      "Ġhundreds": 4021,
      "Ġpackage": 4022,
      "Ġoffered": 4023,
      "Ġanger": 4024,
      "ctober": 4025,
      "ĠWord": 4026,
      "Ġlaugh": 4027,
      "Ġbodies": 4028,
      "asing": 4029,
      "ĠBra": 4030,
      "Ġarri": 4031,
      "Ġproduction": 4032,
      "ĠPresident": 4033,
      "Ġ28": 4034,
      "Ġpotential": 4035,
      "Ġpu": 4036,
      "ĠLev": 4037,
      "Ġstage": 4038,
      "Ġsuit": 4039,
      "Ġletter": 4040,
      "Ġthroughout": 4041,
      "AS": 4042,
      "Ġwitness": 4043,
      "Ġstars": 4044,
      "avy": 4045,
      "Ġprovides": 4046,
      "Ġdemocr": 4047,
      "uct": 4048,
      "Ġaverage": 4049,
      "uts": 4050,
      "Ġcareful": 4051,
      "Ġtechnical": 4052,
      "Ġfrequ": 4053,
      "Got": 4054,
      "Ġden": 4055,
      "quire": 4056,
      "Ġrelig": 4057,
      "Find": 4058,
      "ĠBest": 4059,
      "ĠPart": 4060,
      "eak": 4061,
      "Ġlanguages": 4062,
      "Ġriver": 4063,
      "Ġcelebr": 4064,
      "oming": 4065,
      "Ġplans": 4066,
      "Ġthinks": 4067,
      "ĠHotels": 4068,
      "Ġintellig": 4069,
      "rupt": 4070,
      "Ġdetect": 4071,
      "ĠParis": 4072,
      "Ġaltar": 4073,
      "Ġwake": 4074,
      "Ġheld": 4075,
      "Ġfort": 4076,
      "ĠAcc": 4077,
      "Think": 4078,
      "Ġwalked": 4079,
      "Ġhung": 4080,
      "ĠRussia": 4081,
      "Ġcorrect": 4082,
      "Ġmurder": 4083,
      "ĠTED": 4084,
      "Ġspok": 4085,
      "Ġtruck": 4086,
      "Ġcollege": 4087,
      "Ġburnt": 4088,
      "ĠLook": 4089,
      "Ġcove": 4090,
      "Ġbooking": 4091,
      "Ġseed": 4092,
      "Ġcondition": 4093,
      "Free": 4094,
      "cient": 4095,
      "Ġbasic": 4096,
      "Ġvision": 4097,
      "Ġapproach": 4098,
      "Ġlower": 4099,
      "Ġfinal": 4100,
      "Ġstatus": 4101,
      "Ġdetails": 4102,
      "Ġswear": 4103,
      "how": 4104,
      "anish": 4105,
      "Ġrent": 4106,
      "wise": 4107,
      "ĠSl": 4108,
      "ously": 4109,
      "Also": 4110,
      "roider": 4111,
      "ĠMom": 4112,
      "Ġfeels": 4113,
      "Ġstandard": 4114,
      "Ġ70": 4115,
      "itect": 4116,
      "ims": 4117,
      "osis": 4118,
      "Ġmissed": 4119,
      "iber": 4120,
      "ancy": 4121,
      "Ġweak": 4122,
      "Ġdesp": 4123,
      "ĠInstant": 4124,
      "Ġrecently": 4125,
      "Ġregion": 4126,
      "IT": 4127,
      "Ġmatch": 4128,
      "Ġapart": 4129,
      "Perhaps": 4130,
      "Ca": 4131,
      "Ġnine": 4132,
      "Ġgain": 4133,
      "Ġinher": 4134,
      "icking": 4135,
      "Ġworst": 4136,
      "ĠâĢĺ": 4137,
      "Ġinteract": 4138,
      "Ġafford": 4139,
      "Ġrule": 4140,
      "vest": 4141,
      "Ġassoci": 4142,
      "Ġbutton": 4143,
      "Ġdecide": 4144,
      "Ġjudge": 4145,
      "EN": 4146,
      "oe": 4147,
      "Ġinha": 4148,
      "ops": 4149,
      "ĠMal": 4150,
      "oved": 4151,
      "itiz": 4152,
      "orge": 4153,
      "stit": 4154,
      "Ġ23": 4155,
      "Ġtelevision": 4156,
      "Play": 4157,
      "chan": 4158,
      "gram": 4159,
      "Ġast": 4160,
      "ĠRead": 4161,
      "roidery": 4162,
      "Log": 4163,
      "isf": 4164,
      "road": 4165,
      "Ġputting": 4166,
      "Ġrelated": 4167,
      "Ġregard": 4168,
      "Ġdestroyed": 4169,
      "Ġperformance": 4170,
      "Ġwaters": 4171,
      "ĠMusic": 4172,
      "Man": 4173,
      "Ġregular": 4174,
      "Ġsan": 4175,
      "Ġsurface": 4176,
      "Ġmeasure": 4177,
      "ĠDay": 4178,
      "aged": 4179,
      "Ġpleasure": 4180,
      "ĠGerman": 4181,
      "Try": 4182,
      "rit": 4183,
      "Ġpoll": 4184,
      "iles": 4185,
      "Ġrates": 4186,
      "Ġfinding": 4187,
      "ĠReviews": 4188,
      "CA": 4189,
      "Ġver": 4190,
      "ara": 4191,
      "Ġconvert": 4192,
      "Ġhonor": 4193,
      "Welcome": 4194,
      "ĠAaron": 4195,
      "Ġcapital": 4196,
      "Ġrecognize": 4197,
      "Ġbought": 4198,
      "illy": 4199,
      "terday": 4200,
      "ĠPark": 4201,
      "Ġlawy": 4202,
      "Ġfilm": 4203,
      "Ġphotos": 4204,
      "Ġhorse": 4205,
      "Actually": 4206,
      "rated": 4207,
      "hara": 4208,
      "Ġrole": 4209,
      "Ġlands": 4210,
      "Ġox": 4211,
      "aked": 4212,
      "While": 4213,
      "Ġattract": 4214,
      "isions": 4215,
      "Ġdying": 4216,
      "rag": 4217,
      "Ġguest": 4218,
      "Ġbiggest": 4219,
      "Ġbusy": 4220,
      "Ġsky": 4221,
      "Ġmillions": 4222,
      "zer": 4223,
      "ptember": 4224,
      "Ġcontrib": 4225,
      "Ġeconomy": 4226,
      "arily": 4227,
      "vey": 4228,
      "Ġult": 4229,
      "ables": 4230,
      "Ġtwice": 4231,
      "ĠBrit": 4232,
      "Ġactivities": 4233,
      "Ġtotal": 4234,
      "Ġstudies": 4235,
      "Ġsurprise": 4236,
      "Ġsummer": 4237,
      "Ġincredible": 4238,
      "Ġgroups": 4239,
      "Ġinform": 4240,
      "Ġthus": 4241,
      "antic": 4242,
      "wards": 4243,
      "Ġspeaking": 4244,
      "Ġtowards": 4245,
      "Ġangry": 4246,
      "Ġrepresent": 4247,
      "Ġeating": 4248,
      "ĠGr": 4249,
      "ĠRo": 4250,
      "Ġarrest": 4251,
      "Ġprogramme": 4252,
      "Ġpartners": 4253,
      "Ġimpossible": 4254,
      "ĠTwitter": 4255,
      "Bl": 4256,
      "Less": 4257,
      "inc": 4258,
      "hael": 4259,
      "Ġband": 4260,
      "Ġonto": 4261,
      "Ġstaff": 4262,
      "ĠTur": 4263,
      "ĠJune": 4264,
      "Ġbecomes": 4265,
      "Ġhelped": 4266,
      "Ġglory": 4267,
      "Ġresponsible": 4268,
      "Help": 4269,
      "ĠMor": 4270,
      "Ġconcept": 4271,
      "Ġhighly": 4272,
      "Ġpresident": 4273,
      "Ġprinci": 4274,
      "box": 4275,
      "Ġsuccessful": 4276,
      "look": 4277,
      "wood": 4278,
      "Ġgas": 4279,
      "ĠMac": 4280,
      "rences": 4281,
      "Ġprogress": 4282,
      "EG": 4283,
      "atory": 4284,
      "aries": 4285,
      "ĠColl": 4286,
      "Ġexec": 4287,
      "Thus": 4288,
      "Ġtells": 4289,
      "OM": 4290,
      "Whatever": 4291,
      "Ġinteg": 4292,
      "Ġhelping": 4293,
      "Ġfunction": 4294,
      "ipped": 4295,
      "Ġcong": 4296,
      "Ġinvestig": 4297,
      "Ġmurd": 4298,
      "Ġacademic": 4299,
      "Ġspoken": 4300,
      "lie": 4301,
      "Ġsouth": 4302,
      "Ġbirthday": 4303,
      "LL": 4304,
      "Ġaware": 4305,
      "Ġmail": 4306,
      "Ġfold": 4307,
      "iling": 4308,
      "Ġcurrency": 4309,
      "Someone": 4310,
      "Ġhealthy": 4311,
      "overy": 4312,
      "Ġcases": 4313,
      "Ġadult": 4314,
      "Ġadvant": 4315,
      "Ġdrag": 4316,
      "IP": 4317,
      "Ġtap": 4318,
      "Ġsustain": 4319,
      "ades": 4320,
      "Looks": 4321,
      "Ġmultiple": 4322,
      "Ġdriving": 4323,
      "ĠMo": 4324,
      "empt": 4325,
      "Ġvia": 4326,
      "ĠFebruary": 4327,
      "Ġshar": 4328,
      "Ġkings": 4329,
      "App": 4330,
      "ugin": 4331,
      "inks": 4332,
      "Ġcontain": 4333,
      "Ġempty": 4334,
      "Ġprepared": 4335,
      "omon": 4336,
      "Ġlies": 4337,
      "itely": 4338,
      "Ġtele": 4339,
      "Ġbeauty": 4340,
      "Ġeffects": 4341,
      "ĠOFF": 4342,
      "Ġep": 4343,
      "den": 4344,
      "Ġwedding": 4345,
      "Ġfle": 4346,
      "Ġwearing": 4347,
      "Ġjoy": 4348,
      "Ġeasily": 4349,
      "ĠLaw": 4350,
      "Ġboat": 4351,
      "ĠWhite": 4352,
      "Ġsurvive": 4353,
      "Yahweh": 4354,
      "iate": 4355,
      "Ġeverywhere": 4356,
      "ĠVal": 4357,
      "igned": 4358,
      "Ġstream": 4359,
      "Ġprim": 4360,
      "light": 4361,
      "ero": 4362,
      "Ġbes": 4363,
      "Ġfamous": 4364,
      "Ġfunct": 4365,
      "Ġarticle": 4366,
      "OK": 4367,
      "Pre": 4368,
      "Ġ31": 4369,
      "Ġreceived": 4370,
      "ĠGermany": 4371,
      "rict": 4372,
      "Ġbeg": 4373,
      "ĠArab": 4374,
      "ĠJew": 4375,
      "cience": 4376,
      "Ġfashion": 4377,
      "rie": 4378,
      "Ġpurs": 4379,
      "Ġactivity": 4380,
      "45": 4381,
      "OD": 4382,
      "Ġsaving": 4383,
      "Ġbreakfast": 4384,
      "ĠBlack": 4385,
      "Ġapplication": 4386,
      "Ġrecommend": 4387,
      "bes": 4388,
      "ĠDNA": 4389,
      "Ġcommunication": 4390,
      "Ġtea": 4391,
      "Ġbill": 4392,
      "ĠSign": 4393,
      "aint": 4394,
      "Ġ500": 4395,
      "22": 4396,
      "IS": 4397,
      "mit": 4398,
      "mission": 4399,
      "Ġgat": 4400,
      "ĠYouTube": 4401,
      "Ġschools": 4402,
      "Ġvari": 4403,
      "ining": 4404,
      "rees": 4405,
      "Ġmale": 4406,
      "Ġinit": 4407,
      "ĠHigh": 4408,
      "Ġleading": 4409,
      "Ġimmediately": 4410,
      "oman": 4411,
      "Ġrespond": 4412,
      "Ġeffic": 4413,
      "Ġmessages": 4414,
      "Ġexerc": 4415,
      "Ġuseful": 4416,
      "ortunately": 4417,
      "Ġaudience": 4418,
      "Ġflesh": 4419,
      "Ġheads": 4420,
      "Ġaddition": 4421,
      "Ġopened": 4422,
      "ĠApril": 4423,
      "ĠBabylon": 4424,
      "Ġmeat": 4425,
      "ĠSearch": 4426,
      "Ġload": 4427,
      "Ġclaim": 4428,
      "Ġcrime": 4429,
      "ugust": 4430,
      "Ġfamiliar": 4431,
      "Since": 4432,
      "Ġgreatest": 4433,
      "Ġlistening": 4434,
      "Ġreturned": 4435,
      "flowers": 4436,
      "ĠJeh": 4437,
      "cher": 4438,
      "Ġfit": 4439,
      "Ġhunt": 4440,
      "Ġvalid": 4441,
      "aptain": 4442,
      "Ġfirm": 4443,
      "Ġeast": 4444,
      "istan": 4445,
      "Ġpriests": 4446,
      "ls": 4447,
      "Ġproduce": 4448,
      "Ġcreating": 4449,
      "Ġmagn": 4450,
      "Ġmaterials": 4451,
      "Ġcirc": 4452,
      "de": 4453,
      "Ĥ¬": 4454,
      "ĠBel": 4455,
      "Ġsatisf": 4456,
      "Ġstructure": 4457,
      "ĠSupport": 4458,
      "Booking": 4459,
      "host": 4460,
      "Ġtax": 4461,
      "Ġbare": 4462,
      "Ġsteal": 4463,
      "Ġkeeping": 4464,
      "riage": 4465,
      "ulf": 4466,
      "Ġveh": 4467,
      "Ġachieve": 4468,
      "Press": 4469,
      "nie": 4470,
      "Ġlatest": 4471,
      "Ġadded": 4472,
      "Everyone": 4473,
      "Ġfruit": 4474,
      "OU": 4475,
      "urg": 4476,
      "ulations": 4477,
      "ĠJesus": 4478,
      "Ġdreams": 4479,
      "Ġexperiment": 4480,
      "Dad": 4481,
      "hest": 4482,
      "Ġrise": 4483,
      "sels": 4484,
      "Ġescape": 4485,
      "Best": 4486,
      "TV": 4487,
      "inct": 4488,
      "Ġgather": 4489,
      "Ġhouses": 4490,
      "cks": 4491,
      "ĠWin": 4492,
      "Ġdiscovered": 4493,
      "Ġfinancial": 4494,
      "Ġdoubt": 4495,
      "Bet": 4496,
      "Ġcitiz": 4497,
      "Ġlaid": 4498,
      "Ġ90": 4499,
      "Show": 4500,
      "Ġlabor": 4501,
      "Ġ*": 4502,
      "iled": 4503,
      "ĠEvery": 4504,
      "ĠWas": 4505,
      "Ġunless": 4506,
      "Ġkiller": 4507,
      "Ġappreciate": 4508,
      "500": 4509,
      "Ġliked": 4510,
      "ĠMarch": 4511,
      "ĠTe": 4512,
      "ĠFlorist": 4513,
      "Ġinherit": 4514,
      "Ad": 4515,
      "Sure": 4516,
      "asy": 4517,
      "urch": 4518,
      "Ġspot": 4519,
      "Ġfully": 4520,
      "Ġmember": 4521,
      "Ġfundam": 4522,
      "PS": 4523,
      "Ġpayment": 4524,
      "Ġmodels": 4525,
      "Ġeasier": 4526,
      "Ġbreath": 4527,
      "limited": 4528,
      "Ġsand": 4529,
      "Ġvideos": 4530,
      "Ġearlier": 4531,
      "Ġharm": 4532,
      "ores": 4533,
      "Ġprove": 4534,
      "ĠFre": 4535,
      "Ġappl": 4536,
      "Ġevents": 4537,
      "Ġdeveloping": 4538,
      "ĠBehold": 4539,
      "Ġestablished": 4540,
      "Ġhall": 4541,
      "Ġshowing": 4542,
      "Ġspe": 4543,
      "ĠWar": 4544,
      "Ġsurely": 4545,
      "works": 4546,
      "Ġcovered": 4547,
      "IA": 4548,
      "Ġolder": 4549,
      "Ġtransfer": 4550,
      "ĠFrance": 4551,
      "Ġcomment": 4552,
      "Ġexciting": 4553,
      "Ġyesterday": 4554,
      "Ġinnoc": 4555,
      "Ġmercy": 4556,
      "Ġfreedom": 4557,
      "Ġiron": 4558,
      "Ġcup": 4559,
      "ĠVideo": 4560,
      "Ġphotograph": 4561,
      "aves": 4562,
      "Ġpra": 4563,
      "oto": 4564,
      "Ġpressure": 4565,
      "Ġbuddy": 4566,
      "99": 4567,
      "lict": 4568,
      "Ġign": 4569,
      "Ġfif": 4570,
      "Ġfresh": 4571,
      "sequ": 4572,
      "ĠCodes": 4573,
      "Ġsafety": 4574,
      "ĠWest": 4575,
      "erved": 4576,
      "Ġ300": 4577,
      "Ġevolution": 4578,
      "Ġsignal": 4579,
      "Ġweapon": 4580,
      "lock": 4581,
      "Ġtiny": 4582,
      "Ġheat": 4583,
      "Ġpresence": 4584,
      "ponse": 4585,
      "Ġcru": 4586,
      "ĠPre": 4587,
      "ĠTravel": 4588,
      "Open": 4589,
      "Save": 4590,
      "the": 4591,
      "Ġ26": 4592,
      "Ġrelax": 4593,
      "Ġhearing": 4594,
      "Ġswim": 4595,
      "cript": 4596,
      "Everybody": 4597,
      "Ġeffective": 4598,
      "Call": 4599,
      "rene": 4600,
      "Ġ2015": 4601,
      "phone": 4602,
      "Ġcloser": 4603,
      "15": 4604,
      "Ġsect": 4605,
      "Ġmighty": 4606,
      "Ġmarry": 4607,
      "Ġviolence": 4608,
      "Ġarchitect": 4609,
      "ĠOctober": 4610,
      "Ġmountain": 4611,
      "Ġgentlemen": 4612,
      "cil": 4613,
      "Ġextensive": 4614,
      "Ġsteps": 4615,
      "Users": 4616,
      "enry": 4617,
      "Ġiniqu": 4618,
      "osen": 4619,
      "Ġsignific": 4620,
      "Ġcaused": 4621,
      "Ġwisdom": 4622,
      "Many": 4623,
      "ein": 4624,
      "Ġnerv": 4625,
      "amm": 4626,
      "ĠHi": 4627,
      "Ġweapons": 4628,
      "Ġcookies": 4629,
      "haraoh": 4630,
      "uted": 4631,
      "Ġexpert": 4632,
      "ĠComp": 4633,
      "ĠPhilist": 4634,
      "ĠDVB": 4635,
      "Ġcash": 4636,
      "opy": 4637,
      "Ġprices": 4638,
      "Ġends": 4639,
      "Ġconscious": 4640,
      "Ġexcellent": 4641,
      "Ġfant": 4642,
      "athan": 4643,
      "Ġcompass": 4644,
      "Ġgirlfriend": 4645,
      "Ġmatters": 4646,
      "Ġencou": 4647,
      "Ġscientists": 4648,
      "mpt": 4649,
      "nal": 4650,
      "Ġtired": 4651,
      "ĠPay": 4652,
      "Ġguard": 4653,
      "Ġprojects": 4654,
      "Ġchick": 4655,
      "Ġcheap": 4656,
      "ovember": 4657,
      "Ġfilled": 4658,
      "Ġsacrifice": 4659,
      "Ġtent": 4660,
      "Ġloves": 4661,
      "Ġfeature": 4662,
      "Ġpregn": 4663,
      "Ġappeared": 4664,
      "Sometimes": 4665,
      "ĠContact": 4666,
      "esome": 4667,
      "ĠState": 4668,
      "Ġcomplicated": 4669,
      "Ġteacher": 4670,
      "Remember": 4671,
      "Ġlines": 4672,
      "Ġund": 4673,
      "Ġmechan": 4674,
      "Ġstone": 4675,
      "Ġstuck": 4676,
      "Ġanal": 4677,
      "Ġshown": 4678,
      "Ġscan": 4679,
      "Ġdiscover": 4680,
      "Ġneck": 4681,
      "erness": 4682,
      "Ġcooper": 4683,
      "ĠCor": 4684,
      "ĠChan": 4685,
      "Ġholding": 4686,
      "Ġprivacy": 4687,
      "Ġprofession": 4688,
      "Ġoriginal": 4689,
      "Sir": 4690,
      "acing": 4691,
      "ĠMart": 4692,
      "aging": 4693,
      "aps": 4694,
      "aughters": 4695,
      "Ġstarts": 4696,
      "Ġrobot": 4697,
      "ĠDet": 4698,
      "Ġresponse": 4699,
      "ĠFranc": 4700,
      "Pr": 4701,
      "ĠHack": 4702,
      "Ġpositive": 4703,
      "arter": 4704,
      "Ġaltern": 4705,
      "Ġjustice": 4706,
      "ears": 4707,
      "ĠHouse": 4708,
      "Ġgreater": 4709,
      "Ġwalls": 4710,
      "Ġchief": 4711,
      "ĠInstagram": 4712,
      "Ġge": 4713,
      "ĠCr": 4714,
      "ulate": 4715,
      "Ġrace": 4716,
      "Ġfields": 4717,
      "Ġchemical": 4718,
      "iam": 4719,
      "Ġcub": 4720,
      "Their": 4721,
      "ĠJoin": 4722,
      "Ġdepart": 4723,
      "Ġmountains": 4724,
      "ĠBy": 4725,
      "Ġnoise": 4726,
      "Ġbrings": 4727,
      "Ġsurround": 4728,
      "Ġanswers": 4729,
      "Ġelectric": 4730,
      "Ġmilitary": 4731,
      "Ġvirt": 4732,
      "Back": 4733,
      "Hold": 4734,
      "mark": 4735,
      "ĠSm": 4736,
      "Ġvan": 4737,
      "Ġactive": 4738,
      "Ġseries": 4739,
      "Ġfollowed": 4740,
      "Ġdownloaded": 4741,
      "val": 4742,
      "Ġowe": 4743,
      "range": 4744,
      "Ġgathered": 4745,
      "Ġborder": 4746,
      "ĠAct": 4747,
      "ĠTool": 4748,
      "Ġmovement": 4749,
      "ropri": 4750,
      "Ġcultural": 4751,
      "ĠMark": 4752,
      "ĠBecause": 4753,
      "cipl": 4754,
      "Ġprepare": 4755,
      "Ã©": 4756,
      "Ġdaughters": 4757,
      "ĠMa": 4758,
      "istics": 4759,
      "ĠJim": 4760,
      "Ġshape": 4761,
      "Ġtwenty": 4762,
      "Ġindepend": 4763,
      "Ġextremely": 4764,
      "aches": 4765,
      "ĠMP": 4766,
      "ĠUTC": 4767,
      "Ġprefer": 4768,
      "rank": 4769,
      "Ġindividuals": 4770,
      "US": 4771,
      "Ġpill": 4772,
      "Ġ36": 4773,
      "Ġ2013": 4774,
      "Ġplanning": 4775,
      "Ġlicense": 4776,
      "ening": 4777,
      "Ġsolutions": 4778,
      "Next": 4779,
      "Ġstre": 4780,
      "ĠBet": 4781,
      "oseph": 4782,
      "Ġdesire": 4783,
      "Ġdouble": 4784,
      "Ġradio": 4785,
      "Check": 4786,
      "Qu": 4787,
      "house": 4788,
      "ponder": 4789,
      "atives": 4790,
      "ĠNovember": 4791,
      "Ġraise": 4792,
      "ĠâĤ¬": 4793,
      "aspberry": 4794,
      "eters": 4795,
      "Ġcontract": 4796,
      "Ġpassword": 4797,
      "ĠSeptember": 4798,
      "Ġcute": 4799,
      "Ġves": 4800,
      "aker": 4801,
      "ĠStud": 4802,
      "Ġtransport": 4803,
      "Ġliterally": 4804,
      "ĠSolomon": 4805,
      "bing": 4806,
      "Ġbound": 4807,
      "Ġlunch": 4808,
      "Ġreve": 4809,
      "ĠSan": 4810,
      "Ġqual": 4811,
      "Ġdeserve": 4812,
      "Ġcarried": 4813,
      "ML": 4814,
      "Ġtough": 4815,
      "Ġfarm": 4816,
      "hens": 4817,
      "Click": 4818,
      "pro": 4819,
      "Ġpages": 4820,
      "Ġdisplay": 4821,
      "Ġcourses": 4822,
      "Ġtransform": 4823,
      "Ġvisual": 4824,
      "Ġincreasing": 4825,
      "Ġsuddenly": 4826,
      "ĠBa": 4827,
      "Ġrecent": 4828,
      "Ġindeed": 4829,
      "Ġcorner": 4830,
      "Ġsurprised": 4831,
      "stairs": 4832,
      "raft": 4833,
      "Ġamb": 4834,
      "Ġcoven": 4835,
      "Ġlovely": 4836,
      "Behold": 4837,
      "Ġopportunities": 4838,
      "Ġrequirements": 4839,
      "Other": 4840,
      "Ġmal": 4841,
      "Ġgod": 4842,
      "Ġlimited": 4843,
      "Ġlaunch": 4844,
      "Ġpark": 4845,
      "Ġgrew": 4846,
      "Ġpros": 4847,
      "ulous": 4848,
      "Ġconstruct": 4849,
      "Ġhelps": 4850,
      "Ġlaws": 4851,
      "Ġadvice": 4852,
      "urance": 4853,
      "Ġlegs": 4854,
      "ĠMrs": 4855,
      "Ġorganization": 4856,
      "zil": 4857,
      "alley": 4858,
      "ĠAss": 4859,
      "Another": 4860,
      "Last": 4861,
      "Ġyell": 4862,
      "izes": 4863,
      "Ġears": 4864,
      "pher": 4865,
      "Ġtaste": 4866,
      "Ġdry": 4867,
      "eting": 4868,
      "eted": 4869,
      "usion": 4870,
      "Ġmanufact": 4871,
      "Ġoccur": 4872,
      "Ġupdate": 4873,
      "Ġspeech": 4874,
      "ĠCy": 4875,
      "Ġjoke": 4876,
      "izations": 4877,
      "Ġmole": 4878,
      "Ġmonitor": 4879,
      "ĠSpanish": 4880,
      "Ġfigured": 4881,
      "Ġparticularly": 4882,
      "Ġcomfortable": 4883,
      "rant": 4884,
      "Ġmethods": 4885,
      "Ġhungry": 4886,
      "arm": 4887,
      "entially": 4888,
      "Ġcommer": 4889,
      "Ġmaintain": 4890,
      "Ġapartment": 4891,
      "Ġcosts": 4892,
      "Ġpush": 4893,
      "Ġrelease": 4894,
      "ĠPharaoh": 4895,
      "Ġadditional": 4896,
      "Ġjudgment": 4897,
      "Over": 4898,
      "Read": 4899,
      "Ġtit": 4900,
      "Ġded": 4901,
      "ĠPort": 4902,
      "Ġblog": 4903,
      "Instant": 4904,
      "Ġinterview": 4905,
      "ĠThank": 4906,
      "Ġaccom": 4907,
      "Ġsuspect": 4908,
      "Ġinhabit": 4909,
      "Sc": 4910,
      "rs": 4911,
      "Ġmix": 4912,
      "org": 4913,
      "rill": 4914,
      "Three": 4915,
      "Ġprec": 4916,
      "Ġdemon": 4917,
      "04": 4918,
      "ba": 4919,
      "page": 4920,
      "rey": 4921,
      "Ġfed": 4922,
      "Ġnuc": 4923,
      "sec": 4924,
      "ĠSim": 4925,
      "Ġplugin": 4926,
      "ĠOf": 4927,
      "Ġended": 4928,
      "Ġbacter": 4929,
      "Ġreven": 4930,
      "ĠHost": 4931,
      "Ġshame": 4932,
      "Stay": 4933,
      "Time": 4934,
      "gt": 4935,
      "iers": 4936,
      "oking": 4937,
      "Ġx": 4938,
      "ĠSa": 4939,
      "iff": 4940,
      "Inst": 4941,
      "Ġregist": 4942,
      "Ġpainting": 4943,
      "Ġfemale": 4944,
      "pping": 4945,
      "Ġsports": 4946,
      "Ġprior": 4947,
      "hern": 4948,
      "Ġcrimin": 4949,
      "ounce": 4950,
      "rat": 4951,
      "za": 4952,
      "Ġhole": 4953,
      "ĠTerms": 4954,
      "ervation": 4955,
      "Ġinstrum": 4956,
      "Ġbringing": 4957,
      "Ġadvanced": 4958,
      "Ġtask": 4959,
      "ĠAc": 4960,
      "ĠTom": 4961,
      "Ġgotten": 4962,
      "Ġcauses": 4963,
      "Want": 4964,
      "Ġroof": 4965,
      "Ġflu": 4966,
      "Ġsympt": 4967,
      "Ġincludes": 4968,
      "Ġoperating": 4969,
      "Ġwilderness": 4970,
      "Server": 4971,
      "Ġsanct": 4972,
      "Ġfol": 4973,
      "Ġpet": 4974,
      "Ġpool": 4975,
      "ĠLu": 4976,
      "ĠVen": 4977,
      "Ġoperation": 4978,
      "Sec": 4979,
      "ength": 4980,
      "Ġhidden": 4981,
      "Ġgoal": 4982,
      "Ġchosen": 4983,
      "Ġofferings": 4984,
      "Ġ198": 4985,
      "Ġrevolution": 4986,
      "Ġdaily": 4987,
      "ship": 4988,
      "Ġmut": 4989,
      "estern": 4990,
      "Ġnote": 4991,
      "ĠAh": 4992,
      "Ġshoes": 4993,
      "Ġkeys": 4994,
      "Ġ2014": 4995,
      "Ġdamage": 4996,
      "Ġembroidery": 4997,
      "inations": 4998,
      "acity": 4999,
      "raw": 5000,
      "ĠHol": 5001,
      "Ġrestaur": 5002,
      "Ġaim": 5003,
      "inal": 5004,
      "Ġdy": 5005,
      "Ġarms": 5006,
      "Ġnearly": 5007,
      "Ġteachers": 5008,
      "Ġresponsibility": 5009,
      "Ġadvantage": 5010,
      "hab": 5011,
      "Ġlikes": 5012,
      "ĠAugust": 5013,
      "Ġclosed": 5014,
      "Ġclimate": 5015,
      "Ġensure": 5016,
      "Im": 5017,
      "Ġsake": 5018,
      "ari": 5019,
      "aria": 5020,
      "ico": 5021,
      "Ġwarm": 5022,
      "reprene": 5023,
      "Ġinnocent": 5024,
      "hib": 5025,
      "duc": 5026,
      "Ġsupply": 5027,
      "itchen": 5028,
      "Ġbrowser": 5029,
      "Ġcovenant": 5030,
      "Ġcrow": 5031,
      "aled": 5032,
      "ils": 5033,
      "Ġsurger": 5034,
      "Ġtrial": 5035,
      "Ġobviously": 5036,
      "yal": 5037,
      "icious": 5038,
      "Ġanaly": 5039,
      "Ġindic": 5040,
      "Leave": 5041,
      "Ġbomb": 5042,
      "Ġservers": 5043,
      "Ġmedicine": 5044,
      "Very": 5045,
      "leep": 5046,
      "Ġshad": 5047,
      "Ġsharing": 5048,
      "Ġcomputers": 5049,
      "Ġcaptain": 5050,
      "Ġtraditional": 5051,
      "log": 5052,
      "ĠCasino": 5053,
      "ordan": 5054,
      "Ġscri": 5055,
      "Ġdecl": 5056,
      "Ġapolog": 5057,
      "Ġbast": 5058,
      "arling": 5059,
      "Ġheavy": 5060,
      "Ġrul": 5061,
      "Ġdisp": 5062,
      "Ġreflect": 5063,
      "Turn": 5064,
      "Ġmode": 5065,
      "Ġcow": 5066,
      "Ġconside": 5067,
      "ronic": 5068,
      "ĠPhilistines": 5069,
      "Ġcure": 5070,
      "ona": 5071,
      "ann": 5072,
      "Ġknowing": 5073,
      "ĠFirst": 5074,
      "Ġcakes": 5075,
      "Ġresc": 5076,
      "ĠSte": 5077,
      "Ġcommit": 5078,
      "Ġpossibly": 5079,
      "Ġdefinitely": 5080,
      "Ġbathroom": 5081,
      "Ġstreets": 5082,
      "Ġir": 5083,
      "ĠThey": 5084,
      "ĠPat": 5085,
      "Ġremove": 5086,
      "Ġexcuse": 5087,
      "Ġedge": 5088,
      "Ġofficial": 5089,
      "Ġinstitutions": 5090,
      "Ġtun": 5091,
      "Ġlosing": 5092,
      "ĠBob": 5093,
      "Ġconstant": 5094,
      "Ġworldwide": 5095,
      "Ġkeeps": 5096,
      "Ġprinces": 5097,
      "Ġma": 5098,
      "vere": 5099,
      "Ġgodd": 5100,
      "Ġcalm": 5101,
      "Ġpredict": 5102,
      "Up": 5103,
      "uit": 5104,
      "Ġbonus": 5105,
      "Ġinstant": 5106,
      "Ġplayed": 5107,
      "lands": 5108,
      "ĠProgram": 5109,
      "Ġeld": 5110,
      "Ġcrack": 5111,
      "ĠProt": 5112,
      "Ġessential": 5113,
      "Login": 5114,
      "ĠPlease": 5115,
      "ĠTechn": 5116,
      "ĠJob": 5117,
      "ĠJuly": 5118,
      "Ġthoughts": 5119,
      "Ġclearly": 5120,
      "Ġawesome": 5121,
      "Ġstrugg": 5122,
      "Ġuniversities": 5123,
      "Res": 5124,
      "Ġinj": 5125,
      "earn": 5126,
      "ĠKey": 5127,
      "ĠItaly": 5128,
      "Ġtraffic": 5129,
      "Ġdrunk": 5130,
      "ĠPolicy": 5131,
      "Ġstruck": 5132,
      "gers": 5133,
      "Ġattempt": 5134,
      "Ġpossess": 5135,
      "Ġrare": 5136,
      "Ġtyp": 5137,
      "Ġconsidered": 5138,
      "AM": 5139,
      "Fin": 5140,
      "Ġcontext": 5141,
      "Ġscene": 5142,
      "Ġfeelings": 5143,
      "Ġforgive": 5144,
      "Ġtemper": 5145,
      "BA": 5146,
      "Ġtong": 5147,
      "Ġwast": 5148,
      "Ġfaces": 5149,
      "Ġpure": 5150,
      "ander": 5151,
      "Ġmathem": 5152,
      "Ġjobs": 5153,
      "Ġoperator": 5154,
      "Ġ~": 5155,
      "rel": 5156,
      "Ġdeb": 5157,
      "ĠJon": 5158,
      "Ġgrown": 5159,
      "ĠManagement": 5160,
      "Ġoptim": 5161,
      "Ġautomatically": 5162,
      "alax": 5163,
      "Ġactions": 5164,
      "ĠResort": 5165,
      "Ġinflu": 5166,
      "ena": 5167,
      "ĠCred": 5168,
      "ĠPC": 5169,
      "ysis": 5170,
      "Ġexcited": 5171,
      "Ġpurchase": 5172,
      "Ġiniquity": 5173,
      "hole": 5174,
      "Ġwealth": 5175,
      "allow": 5176,
      "oles": 5177,
      "Ġclient": 5178,
      "Ġguns": 5179,
      "Ġdelivering": 5180,
      "reak": 5181,
      "ĠSC": 5182,
      "Ġlibr": 5183,
      "ĠBud": 5184,
      "ĠRec": 5185,
      "ĠRaspberry": 5186,
      "Ġforms": 5187,
      "ĠExc": 5188,
      "Ag": 5189,
      "zen": 5190,
      "ĠSky": 5191,
      "pper": 5192,
      "Ġconcer": 5193,
      "Ġsmoke": 5194,
      "Ġdelivers": 5195,
      "Ġdiagn": 5196,
      "oshua": 5197,
      "ĠBrazil": 5198,
      "Ġsignificant": 5199,
      "ĠMc": 5200,
      "Ġbasis": 5201,
      "Ġseemed": 5202,
      "ropriate": 5203,
      "Â°": 5204,
      "ĠInt": 5205,
      "Ġscrew": 5206,
      "Ġcommitted": 5207,
      "olly": 5208,
      "ocks": 5209,
      "TS": 5210,
      "gor": 5211,
      "vention": 5212,
      "owered": 5213,
      "imately": 5214,
      "ĠKore": 5215,
      "Ġlocated": 5216,
      "Ġinternet": 5217,
      "Before": 5218,
      "Ġsettings": 5219,
      "imensions": 5220,
      "born": 5221,
      "ya": 5222,
      "ĠBonus": 5223,
      "Ġserver": 5224,
      "Ġexpand": 5225,
      "Bu": 5226,
      "pan": 5227,
      "Ġdust": 5228,
      "Ġgarden": 5229,
      "ĠâĢ¢": 5230,
      "Ġblame": 5231,
      "Ġhistor": 5232,
      "Ġsna": 5233,
      "Ġcuri": 5234,
      "Ġbunch": 5235,
      "Ġhors": 5236,
      "semb": 5237,
      "Ġdoct": 5238,
      "irus": 5239,
      "raham": 5240,
      "bered": 5241,
      "Ġswitch": 5242,
      "ĠFlower": 5243,
      "Ġleader": 5244,
      "Ġmachines": 5245,
      "Ġeventually": 5246,
      "Ġhoping": 5247,
      "Ġetc": 5248,
      "iest": 5249,
      "Ġfal": 5250,
      "Ġdeals": 5251,
      "Ġdesk": 5252,
      "Ġcollabor": 5253,
      "Ġgrab": 5254,
      "Ġexpected": 5255,
      "Ġbirds": 5256,
      "Ġvillage": 5257,
      "ĠAccount": 5258,
      "19": 5259,
      "Book": 5260,
      "Ġentry": 5261,
      "Ġraised": 5262,
      "ĠVPNs": 5263,
      "Ġflying": 5264,
      "Te": 5265,
      "aching": 5266,
      "ĠMil": 5267,
      "ĠMicro": 5268,
      "Ġjail": 5269,
      "Ġleaves": 5270,
      "Ġtribe": 5271,
      "25": 5272,
      "Ġlack": 5273,
      "Ġcontroll": 5274,
      "Ġphil": 5275,
      "Ġsymb": 5276,
      "ommy": 5277,
      "Ġwondering": 5278,
      "24": 5279,
      "time": 5280,
      "Ġcand": 5281,
      "stood": 5282,
      "east": 5283,
      "Ġrub": 5284,
      "ĠJames": 5285,
      "heart": 5286,
      "reate": 5287,
      "Ġbright": 5288,
      "Ġrepe": 5289,
      "ĠHave": 5290,
      "Ġperspect": 5291,
      "Ġexpensive": 5292,
      "Ġnervous": 5293,
      "lam": 5294,
      "rets": 5295,
      "Ġec": 5296,
      "urt": 5297,
      "Ġsale": 5298,
      "Ġstaying": 5299,
      "Ġdestruct": 5300,
      "18": 5301,
      "like": 5302,
      "mar": 5303,
      "Ġchair": 5304,
      "Ġchallenges": 5305,
      "Ġodd": 5306,
      "ancing": 5307,
      "Ġhabit": 5308,
      "rog": 5309,
      "osc": 5310,
      "ildren": 5311,
      "Ġremote": 5312,
      "Ġpassion": 5313,
      "Ġdriver": 5314,
      "Ġextraord": 5315,
      "03": 5316,
      "16": 5317,
      "Ġcards": 5318,
      "ĠCause": 5319,
      "ective": 5320,
      "Ġmolec": 5321,
      "nes": 5322,
      "Ġtag": 5323,
      "Ġkitchen": 5324,
      "ĠGreat": 5325,
      "ĠFather": 5326,
      "Ġcloud": 5327,
      "Ġemp": 5328,
      "Ġturning": 5329,
      "Stud": 5330,
      "Ġmarriage": 5331,
      "Excuse": 5332,
      "ĠAustral": 5333,
      "ĠLevites": 5334,
      "Ġwid": 5335,
      "enny": 5336,
      "Ġvac": 5337,
      "Ġflor": 5338,
      "Ġevol": 5339,
      "Ġrepro": 5340,
      "Ġbrains": 5341,
      "Ġsam": 5342,
      "Ġpicked": 5343,
      "ĠJordan": 5344,
      "Ġclin": 5345,
      "soft": 5346,
      "Ġminds": 5347,
      "Ġdrinking": 5348,
      "ĠAsia": 5349,
      "Ġincredibly": 5350,
      "Ġbenefit": 5351,
      "ĠWordPress": 5352,
      "Ġlawyer": 5353,
      "pass": 5354,
      "ĠUse": 5355,
      "Ġbelieved": 5356,
      "Ġcops": 5357,
      "ET": 5358,
      "Ġtim": 5359,
      "asion": 5360,
      "Ġbackground": 5361,
      "Ġprovided": 5362,
      "Ġlights": 5363,
      "Ġseriously": 5364,
      "Ġsymptoms": 5365,
      "Out": 5366,
      "Sam": 5367,
      "gency": 5368,
      "Ġbother": 5369,
      "Ġyourselves": 5370,
      "ĠJoseph": 5371,
      "ĠWrite": 5372,
      "Ġsleeping": 5373,
      "Ġcalcul": 5374,
      "ĠMichael": 5375,
      "uge": 5376,
      "Ġreward": 5377,
      "Ġreleas": 5378,
      "iring": 5379,
      "ĠMax": 5380,
      "Ġchoices": 5381,
      "apers": 5382,
      "Ġadvent": 5383,
      "Ġbroadcasting": 5384,
      "SC": 5385,
      "Ġreact": 5386,
      "ĠBal": 5387,
      "Ġ29": 5388,
      "ago": 5389,
      "Ġresist": 5390,
      "Ġsolar": 5391,
      "prise": 5392,
      "isa": 5393,
      "ĠMary": 5394,
      "Ġcreative": 5395,
      "Ġdefend": 5396,
      "Ġcitizens": 5397,
      "Each": 5398,
      "aign": 5399,
      "ĠWhen": 5400,
      "Ġcommunities": 5401,
      "egal": 5402,
      "Ġlimit": 5403,
      "aire": 5404,
      "ule": 5405,
      "Ġdoors": 5406,
      "ĠCour": 5407,
      "Ġspl": 5408,
      "Ġmoon": 5409,
      "ĠAbout": 5410,
      "Ġapplications": 5411,
      "ĠUpd": 5412,
      "Ġhiding": 5413,
      "Ġstret": 5414,
      "ums": 5415,
      "Ġcontains": 5416,
      "Ġvalues": 5417,
      "Watch": 5418,
      "ĠBer": 5419,
      "Ġupset": 5420,
      "anda": 5421,
      "Ġherself": 5422,
      "ĠUK": 5423,
      "ĠMPEG": 5424,
      "Ġsurgery": 5425,
      "ĠMex": 5426,
      "ĠHenry": 5427,
      "ĠHello": 5428,
      "Ġearn": 5429,
      "Ġobvious": 5430,
      "REE": 5431,
      "Ġdocument": 5432,
      "icide": 5433,
      "Ġhey": 5434,
      "Ġnoticed": 5435,
      "ĠDon": 5436,
      "Ġspecialize": 5437,
      "ĠPromot": 5438,
      "Ġcab": 5439,
      "ĠID": 5440,
      "ĠTime": 5441,
      "levant": 5442,
      "Ġfundamental": 5443,
      "Nice": 5444,
      "ĠSite": 5445,
      "ĠLive": 5446,
      "ĠNe": 5447,
      "Ġtests": 5448,
      "Ġrighteousness": 5449,
      "Ġinheritance": 5450,
      "01": 5451,
      "ym": 5452,
      "Ġpig": 5453,
      "Ġflow": 5454,
      "AL": 5455,
      "ka": 5456,
      "Ġpiss": 5457,
      "ĠSee": 5458,
      "Ġneur": 5459,
      "angers": 5460,
      "Ġpromised": 5461,
      "Ġdarkness": 5462,
      "Ġupdated": 5463,
      "Ġconcerning": 5464,
      "ker": 5465,
      "Ġnetworks": 5466,
      "ĠGuest": 5467,
      "Ġcritical": 5468,
      "ĠCo": 5469,
      "Ġrough": 5470,
      "ĠNational": 5471,
      "Ġsheep": 5472,
      "Ġcapable": 5473,
      "Ġengineering": 5474,
      "Rec": 5475,
      "Were": 5476,
      "ĠHere": 5477,
      "Ġrap": 5478,
      "Ġcapacity": 5479,
      "Write": 5480,
      "pa": 5481,
      "Ġbeast": 5482,
      "Ġrej": 5483,
      "ĠMars": 5484,
      "ĠDa": 5485,
      "ĠShow": 5486,
      "appy": 5487,
      "Ġdeliveries": 5488,
      "Ġbenefits": 5489,
      "InstantBooking": 5490,
      "ĠSun": 5491,
      "ilty": 5492,
      "estions": 5493,
      "Ġhowever": 5494,
      "yl": 5495,
      "eles": 5496,
      "Hello": 5497,
      "Ġclim": 5498,
      "elsat": 5499,
      "Ġcollea": 5500,
      "Ġfailed": 5501,
      "UR": 5502,
      "Ġpus": 5503,
      "Ġstones": 5504,
      "ĠPaul": 5505,
      "ĠHam": 5506,
      "Ġplenty": 5507,
      "erem": 5508,
      "ocket": 5509,
      "Ġsending": 5510,
      "60": 5511,
      "Fe": 5512,
      "ares": 5513,
      "Ġren": 5514,
      "ĠMad": 5515,
      "ĠPeter": 5516,
      "ails": 5517,
      "Ġrequires": 5518,
      "Ġhurry": 5519,
      "Ġmovies": 5520,
      "Ġfalse": 5521,
      "Ġwound": 5522,
      "Ġvamp": 5523,
      "ĠRob": 5524,
      "Ġlarger": 5525,
      "Ġwebsites": 5526,
      "Ġinnovation": 5527,
      "ĠPrivacy": 5528,
      "Ġsymbol": 5529,
      "ias": 5530,
      "hal": 5531,
      "ĠMobile": 5532,
      "Ġpromo": 5533,
      "osphere": 5534,
      "ĠService": 5535,
      "Contact": 5536,
      "Ġing": 5537,
      "Ġsomehow": 5538,
      "Start": 5539,
      "hard": 5540,
      "Ġgoddamn": 5541,
      "iforn": 5542,
      "ĠTake": 5543,
      "Ġgenerations": 5544,
      "Ġperfectly": 5545,
      "Ġcongreg": 5546,
      "Ġtro": 5547,
      "omas": 5548,
      "Ġdise": 5549,
      "Ġdescri": 5550,
      "ĠIndian": 5551,
      "ĠOutlook": 5552,
      "Ġpregnant": 5553,
      "ca": 5554,
      "iable": 5555,
      "Ġbell": 5556,
      "ĠSur": 5557,
      "Ġfees": 5558,
      "Ġcompon": 5559,
      "Ġfourth": 5560,
      "Ġexpress": 5561,
      "Ġcorpor": 5562,
      "Ġadminist": 5563,
      "Ġsusp": 5564,
      "Number": 5565,
      "Ġpit": 5566,
      "ĠAny": 5567,
      "ĠAlex": 5568,
      "Ġproof": 5569,
      "ĠLess": 5570,
      "Ġadvert": 5571,
      "Ġbran": 5572,
      "Ġflorist": 5573,
      "Ġcarbon": 5574,
      "ĠReg": 5575,
      "Ġboyfriend": 5576,
      "Ġintelligence": 5577,
      "Ah": 5578,
      "Acc": 5579,
      "Dis": 5580,
      "Jo": 5581,
      "kin": 5582,
      "Ġsection": 5583,
      "Ġbond": 5584,
      "ĠCaptain": 5585,
      "ĠBig": 5586,
      "Ġplants": 5587,
      "Ġidiot": 5588,
      "Ġinterface": 5589,
      "Ġpaying": 5590,
      "Ġexplore": 5591,
      "arrass": 5592,
      "Ġnuclear": 5593,
      "Ind": 5594,
      "Ġmax": 5595,
      "oma": 5596,
      "sect": 5597,
      "ida": 5598,
      "Ġburied": 5599,
      "ension": 5600,
      "Ġconcerned": 5601,
      "07": 5602,
      "under": 5603,
      "Ġcategory": 5604,
      "Ġfasc": 5605,
      "Ġdogs": 5606,
      "Ġelements": 5607,
      "ĠCharlie": 5608,
      "ĠPalace": 5609,
      "ifornia": 5610,
      "Ġbones": 5611,
      "arian": 5612,
      "achel": 5613,
      "Ġancient": 5614,
      "ĠBack": 5615,
      "ĠGrand": 5616,
      "ĠRome": 5617,
      "ĠRoses": 5618,
      "ucha": 5619,
      "Ġ197": 5620,
      "Anyway": 5621,
      "Ġhighest": 5622,
      "Ġhorses": 5623,
      "ties": 5624,
      "Ġped": 5625,
      "ĠRating": 5626,
      "Ġdece": 5627,
      "Ġkidding": 5628,
      "ĠAmericans": 5629,
      "Ġparam": 5630,
      "Ġdirection": 5631,
      "porary": 5632,
      "Ġmental": 5633,
      "ĠIm": 5634,
      "Ġhook": 5635,
      "uman": 5636,
      "Ġ45": 5637,
      "Ġinvited": 5638,
      "ĠGeneral": 5639,
      "Ġdemocracy": 5640,
      "Ġforces": 5641,
      "ager": 5642,
      "Ġloving": 5643,
      "Ġfuel": 5644,
      "Ġdecisions": 5645,
      "ĠUns": 5646,
      "Ġcentral": 5647,
      "Ġairport": 5648,
      "ĠDelivery": 5649,
      "Ġtongue": 5650,
      "Ġflorists": 5651,
      "rome": 5652,
      "Ġsnow": 5653,
      "Ġmort": 5654,
      "Ġbeer": 5655,
      "Ġstorm": 5656,
      "ĠMer": 5657,
      "Ġagent": 5658,
      "Ġchose": 5659,
      "Ġquit": 5660,
      "Ġclub": 5661,
      "ĠKen": 5662,
      "ĠStar": 5663,
      "Ġ2010": 5664,
      "Ġstrateg": 5665,
      "Ġpretend": 5666,
      "ĠUSD": 5667,
      "Ġcampaign": 5668,
      "Ġdoctors": 5669,
      "RA": 5670,
      "hy": 5671,
      "Ġrom": 5672,
      "Ġought": 5673,
      "ĠIran": 5674,
      "ications": 5675,
      "Ġstress": 5676,
      "Ġactual": 5677,
      "Ġconfig": 5678,
      "Ġburned": 5679,
      "Ġembarrass": 5680,
      "Ġidentity": 5681,
      "Ġbaskets": 5682,
      "gr": 5683,
      "Ġseason": 5684,
      "Ġconsequ": 5685,
      "Ġcommercial": 5686,
      "fess": 5687,
      "va": 5688,
      "ĠSar": 5689,
      "ĠBill": 5690,
      "iger": 5691,
      "Ġnose": 5692,
      "Ġimpl": 5693,
      "Ġexclus": 5694,
      "Ġoppos": 5695,
      "Ġinhabitants": 5696,
      "nds": 5697,
      "Ġheight": 5698,
      "ĠRay": 5699,
      "Ġgradu": 5700,
      "Say": 5701,
      "Yet": 5702,
      "co": 5703,
      "iat": 5704,
      "Ġbatter": 5705,
      "Ġhun": 5706,
      "Ġsevent": 5707,
      "ĠJul": 5708,
      "Ġqueen": 5709,
      "Ġpossibility": 5710,
      "Ġbuildings": 5711,
      "Ġeffort": 5712,
      "Ġgraph": 5713,
      "Ġtrading": 5714,
      "ĠJapanese": 5715,
      "Ġfinger": 5716,
      "eem": 5717,
      "Ġegg": 5718,
      "ĠRoy": 5719,
      "Ġbecoming": 5720,
      "Ġprofit": 5721,
      "Ġlinks": 5722,
      "ĠPromo": 5723,
      "ĠPass": 5724,
      "Ġspo": 5725,
      "Ġsmile": 5726,
      "Ġmulti": 5727,
      "noon": 5728,
      "Ġcm": 5729,
      "alian": 5730,
      "Ġfucked": 5731,
      "Ġcontinu": 5732,
      "Ġprophe": 5733,
      "Ġcircum": 5734,
      "ĠRepublic": 5735,
      "Phone": 5736,
      "Ġladies": 5737,
      "Ġcongregation": 5738,
      "Ġformer": 5739,
      "ament": 5740,
      "olf": 5741,
      "ulated": 5742,
      "ĠRem": 5743,
      "ĠOur": 5744,
      "ipe": 5745,
      "ĠKeep": 5746,
      "Ġunderstood": 5747,
      "Ġcris": 5748,
      "Ġconfidence": 5749,
      "Ġeducational": 5750,
      "Ġbrief": 5751,
      "ĠPost": 5752,
      "Ġconcent": 5753,
      "Ġspy": 5754,
      "Ġslight": 5755,
      "gging": 5756,
      "Ġmarketing": 5757,
      "Ġcounsel": 5758,
      "Ġforgotten": 5759,
      "Ġbabies": 5760,
      "13": 5761,
      "just": 5762,
      "Ġstyle": 5763,
      "Ġtreas": 5764,
      "Enter": 5765,
      "ĠÐ": 5766,
      "Ġstates": 5767,
      "ĠSal": 5768,
      "ĠBro": 5769,
      "ĠGive": 5770,
      "Ġark": 5771,
      "Ġsche": 5772,
      "Ġopening": 5773,
      "Ġconvin": 5774,
      "Bring": 5775,
      "Ġdarling": 5776,
      "ĠCategories": 5777,
      "Ġatm": 5778,
      "Ġshipping": 5779,
      "...": 5780,
      "Ġinvent": 5781,
      "ĠCenter": 5782,
      "08": 5783,
      "Ġtight": 5784,
      "Ġsequ": 5785,
      "ĠTH": 5786,
      "ĠFREE": 5787,
      "ĠWal": 5788,
      "Ġbreast": 5789,
      "Ġinsp": 5790,
      "Ġorganizations": 5791,
      "Ġsexual": 5792,
      "Ġdegrees": 5793,
      "Ġlocked": 5794,
      "Has": 5795,
      "sed": 5796,
      "Ġlength": 5797,
      "Ġreduce": 5798,
      "ache": 5799,
      "Ġconflict": 5800,
      "Ġawful": 5801,
      "onym": 5802,
      "ĠSystem": 5803,
      "Ġtherap": 5804,
      "Ġnaked": 5805,
      "ĠLinks": 5806,
      "ĠFBI": 5807,
      "Ġplastic": 5808,
      "ressive": 5809,
      "Ġ2011": 5810,
      "Ġdistance": 5811,
      "Ġpromotion": 5812,
      "Ġcompassion": 5813,
      "Ġfolks": 5814,
      "Ġextraordinary": 5815,
      "itan": 5816,
      "orage": 5817,
      "elie": 5818,
      "Ġchurch": 5819,
      "Ġguilty": 5820,
      "Ġhappiness": 5821,
      "Ġadop": 5822,
      "Ġfriendly": 5823,
      "Ġangel": 5824,
      "Ġshopping": 5825,
      "14": 5826,
      "Ġmate": 5827,
      "Ġdating": 5828,
      "Ġbeach": 5829,
      "Ġconduct": 5830,
      "Car": 5831,
      "IV": 5832,
      "bles": 5833,
      "Ġfought": 5834,
      "aming": 5835,
      "ula": 5836,
      "Ġafternoon": 5837,
      "Ġasshole": 5838,
      "Ġstandards": 5839,
      "Ġleads": 5840,
      "Ġ150": 5841,
      "ĠMaybe": 5842,
      "ita": 5843,
      "ĠWomen": 5844,
      "Ġguide": 5845,
      "Ġadapt": 5846,
      "ĠYear": 5847,
      "Ġprevious": 5848,
      "Ġgrant": 5849,
      "Ġsins": 5850,
      "Ġframe": 5851,
      "Ġhosts": 5852,
      "Enjoy": 5853,
      "ĠQuestions": 5854,
      "Ġdistribution": 5855,
      "Ġbacteria": 5856,
      "Pal": 5857,
      "vis": 5858,
      "Ġwheel": 5859,
      "place": 5860,
      "Ġplayers": 5861,
      "Ġobtain": 5862,
      "Ġburning": 5863,
      "Ġerror": 5864,
      "Group": 5865,
      "anta": 5866,
      "ĠJoshua": 5867,
      "hington": 5868,
      "Ġremem": 5869,
      "Ġskill": 5870,
      "Somebody": 5871,
      "ĠSuggest": 5872,
      "ĠBenj": 5873,
      "ĠCalifornia": 5874,
      "min": 5875,
      "Ġsch": 5876,
      "Ġdude": 5877,
      "Ġmeal": 5878,
      "ĠLib": 5879,
      "Ġmonster": 5880,
      "Ġresearc": 5881,
      "Ġobjects": 5882,
      "AC": 5883,
      "Ġdram": 5884,
      "Ġdirty": 5885,
      "ĠSat": 5886,
      "Ġvote": 5887,
      "Ġshared": 5888,
      "Ġletters": 5889,
      "Ġimplement": 5890,
      "Ġwrath": 5891,
      "Ġserved": 5892,
      "Ġhumanity": 5893,
      "ĠCoupons": 5894,
      "Ġenvironmental": 5895,
      "ĠSecurity": 5896,
      "Ġpunish": 5897,
      "Ġneighborhood": 5898,
      "ĠBritish": 5899,
      "Ġscript": 5900,
      "Ġperspective": 5901,
      "ener": 5902,
      "amily": 5903,
      "Ġassemb": 5904,
      "ĠMike": 5905,
      "Ġalthough": 5906,
      "Still": 5907,
      "Ġprophet": 5908,
      "ĠAfrican": 5909,
      "Ġinstitution": 5910,
      "Ġdiseases": 5911,
      "OT": 5912,
      "hai": 5913,
      "ĠMag": 5914,
      "ĠHer": 5915,
      "Ġgoods": 5916,
      "Ġotherwise": 5917,
      "account": 5918,
      "Dr": 5919,
      "Ġrot": 5920,
      "Ġassum": 5921,
      "Ġartist": 5922,
      "Ġaudio": 5923,
      "Ġfrequency": 5924,
      "ille": 5925,
      "Ġsees": 5926,
      "rypt": 5927,
      "Ġclients": 5928,
      "Ġassume": 5929,
      "Ġpractical": 5930,
      "Ġexercise": 5931,
      "OP": 5932,
      "Ġmath": 5933,
      "onard": 5934,
      "sters": 5935,
      "verty": 5936,
      "Ġknock": 5937,
      "aud": 5938,
      "Thou": 5939,
      "ocking": 5940,
      "Ġpoverty": 5941,
      "Ġjournal": 5942,
      "Ġdisappear": 5943,
      "ĠTest": 5944,
      "orders": 5945,
      "Ġrand": 5946,
      "ĠArm": 5947,
      "ealous": 5948,
      "ĠInstit": 5949,
      "Ġsquare": 5950,
      "ĠVenice": 5951,
      "Ġwha": 5952,
      "Ġnut": 5953,
      "ĠSubscribe": 5954,
      "ĠLight": 5955,
      "osm": 5956,
      "Ġrat": 5957,
      "ulty": 5958,
      "ĠHealth": 5959,
      "Ġentirely": 5960,
      "Ġneighb": 5961,
      "Ġaccompl": 5962,
      "IC": 5963,
      "inating": 5964,
      "Ġoh": 5965,
      "ĠJane": 5966,
      "ĠArch": 5967,
      "Ġsmaller": 5968,
      "Ġshooting": 5969,
      "Ġrelationships": 5970,
      "Ġbastard": 5971,
      "Ġtips": 5972,
      "illa": 5973,
      "Ġproced": 5974,
      "Ġrelative": 5975,
      "Ġpoison": 5976,
      "Ġcrying": 5977,
      "Ġutter": 5978,
      "Ġbalance": 5979,
      "Ġcubits": 5980,
      "Ġrestaurant": 5981,
      "17": 5982,
      "De": 5983,
      "roat": 5984,
      "ĠUnder": 5985,
      "weet": 5986,
      "Ġremoved": 5987,
      "Ġstayed": 5988,
      "ĠPhone": 5989,
      "Ġmentioned": 5990,
      "olor": 5991,
      "ĠDownload": 5992,
      "Ġcoast": 5993,
      "Ġcreation": 5994,
      "ustomer": 5995,
      "Ġrecords": 5996,
      "Ġsubscri": 5997,
      "care": 5998,
      "Ġwond": 5999,
      "Ġdat": 6000,
      "quently": 6001,
      "ĠWestern": 6002,
      "agine": 6003,
      "Ġappropriate": 6004,
      "Ġplayer": 6005,
      "Ġentertain": 6006,
      "Ġentreprene": 6007,
      "Ġconsult": 6008,
      "Ġfailure": 6009,
      "Ġzero": 6010,
      "Ġpolitics": 6011,
      "Ġestablish": 6012,
      "Ġexperiences": 6013,
      "ldon": 6014,
      "Ġflat": 6015,
      "Ġinterp": 6016,
      "Ġpublished": 6017,
      "Ġpraise": 6018,
      "Ġlibrary": 6019,
      "Ġloud": 6020,
      "Ġgalax": 6021,
      "iment": 6022,
      "ĠCam": 6023,
      "Ġbridge": 6024,
      "Ġaccur": 6025,
      "Ġteen": 6026,
      "Ġincome": 6027,
      "hetic": 6028,
      "ĠHomepage": 6029,
      "Supp": 6030,
      "Ġvolunt": 6031,
      "Ġprofessionals": 6032,
      "Fuck": 6033,
      "oned": 6034,
      "Ġstole": 6035,
      "obo": 6036,
      "Ġprem": 6037,
      "Ġexperts": 6038,
      "Ġtrained": 6039,
      "Ġrefer": 6040,
      "ĠExpress": 6041,
      "Ġbottle": 6042,
      "ĠCredits": 6043,
      "Ġaspect": 6044,
      "abled": 6045,
      "Ġsuc": 6046,
      "ĠWi": 6047,
      "Ġphones": 6048,
      "Ġsigns": 6049,
      "Ġmanager": 6050,
      "ĠProducts": 6051,
      "Ġvessels": 6052,
      "ooth": 6053,
      "ora": 6054,
      "Ġdesert": 6055,
      "Ġexamples": 6056,
      "Ġemotional": 6057,
      "uries": 6058,
      "Ġboo": 6059,
      "Ġghost": 6060,
      "verse": 6061,
      "Ġkick": 6062,
      "ĠPan": 6063,
      "Ġvot": 6064,
      "Ġchoo": 6065,
      "Ġremark": 6066,
      "Ġvariety": 6067,
      "Ġcrisis": 6068,
      "Ġrandom": 6069,
      "MS": 6070,
      "Post": 6071,
      "Ġlips": 6072,
      "ategy": 6073,
      "ĠWall": 6074,
      "Ġstrategy": 6075,
      "Ġgenetic": 6076,
      "ception": 6077,
      "Ġprocessing": 6078,
      "ĠSelect": 6079,
      "Ġsales": 6080,
      "Ġcommunicate": 6081,
      "Ġtabern": 6082,
      "ĠWashington": 6083,
      "Ġfantastic": 6084,
      "ĠMicrosoft": 6085,
      "Learn": 6086,
      "MA": 6087,
      "Sign": 6088,
      "Ġpil": 6089,
      "Ġweather": 6090,
      "ĠCond": 6091,
      "Ġspect": 6092,
      "Ġroot": 6093,
      "Ġtrusted": 6094,
      "Anything": 6095,
      "Ġdollar": 6096,
      "Ġticket": 6097,
      "Ġsucceed": 6098,
      "Bar": 6099,
      "EO": 6100,
      "IG": 6101,
      "net": 6102,
      "omed": 6103,
      "Ġrelevant": 6104,
      "ĠSome": 6105,
      "Ġlaunched": 6106,
      "ĠUnsubscribe": 6107,
      "af": 6108,
      "Ġneuro": 6109,
      "Ġstudying": 6110,
      "Ġmilk": 6111,
      "Ġmanaged": 6112,
      "Ġbrill": 6113,
      "Ġagreed": 6114,
      "Ġarrived": 6115,
      "Ġvehicle": 6116,
      "Ġdynam": 6117,
      "Ġphilos": 6118,
      "Des": 6119,
      "Ġtum": 6120,
      "oured": 6121,
      "Ġcore": 6122,
      "Ġcorn": 6123,
      "Ġfan": 6124,
      "utelsat": 6125,
      "ĠDub": 6126,
      "Ġconven": 6127,
      "ĠSwed": 6128,
      "DF": 6129,
      "pot": 6130,
      "etime": 6131,
      "ĠSR": 6132,
      "ĠMen": 6133,
      "Ġarrange": 6134,
      "Ġremains": 6135,
      "Ġchamp": 6136,
      "Shut": 6137,
      "Ġreports": 6138,
      "Ġdemonst": 6139,
      "acters": 6140,
      "Ġenable": 6141,
      "Ġpayments": 6142,
      "Ġprofile": 6143,
      "Ġincluded": 6144,
      "Ġpulled": 6145,
      "Ġofficer": 6146,
      "Ben": 6147,
      "Ġwire": 6148,
      "hamed": 6149,
      "Ġpha": 6150,
      "ĠMod": 6151,
      "ĠFEC": 6152,
      "ĠEph": 6153,
      "ĠOther": 6154,
      "ivirus": 6155,
      "Ġscore": 6156,
      "vation": 6157,
      "eding": 6158,
      "ĠPe": 6159,
      "ĠDam": 6160,
      "ĠNext": 6161,
      "Ġdesol": 6162,
      "duction": 6163,
      "Ġminimum": 6164,
      "ĠApple": 6165,
      "ĠAmaz": 6166,
      "Ġstronger": 6167,
      "bye": 6168,
      "Ġwindows": 6169,
      "Ġselling": 6170,
      "Shall": 6171,
      "bled": 6172,
      "uable": 6173,
      "atics": 6174,
      "Ġknife": 6175,
      "olic": 6176,
      "ĠTem": 6177,
      "ĠFore": 6178,
      "Ġbuying": 6179,
      "Ġbreaking": 6180,
      "Ġmotiv": 6181,
      "Ġurban": 6182,
      "Ġlandscape": 6183,
      "Ġparameters": 6184,
      "oop": 6185,
      "uration": 6186,
      "ola": 6187,
      "ĠHis": 6188,
      "ĠRic": 6189,
      "Ġscen": 6190,
      "ĠIslam": 6191,
      "ĠRequire": 6192,
      "Ġadvance": 6193,
      "ĠAsked": 6194,
      "arently": 6195,
      "Ġincreased": 6196,
      "Ġridic": 6197,
      "Ġindependent": 6198,
      "grad": 6199,
      "Ġheal": 6200,
      "Ġforced": 6201,
      "Ġliber": 6202,
      "ĠDar": 6203,
      "Ġquant": 6204,
      "Ġacting": 6205,
      "ologist": 6206,
      "isms": 6207,
      "Ġsorts": 6208,
      "Ġblessed": 6209,
      "ifying": 6210,
      "ĠCong": 6211,
      "Ġworkers": 6212,
      "Ġarg": 6213,
      "Ġharder": 6214,
      "Exchange": 6215,
      "Ġdedicated": 6216,
      "aren": 6217,
      "Ġduty": 6218,
      "icon": 6219,
      "ĠCount": 6220,
      "Ġprodu": 6221,
      "ĠVer": 6222,
      "Ġbeings": 6223,
      "iveness": 6224,
      "Ġaccounts": 6225,
      "Ġtrem": 6226,
      "ELEC": 6227,
      "Mom": 6228,
      "van": 6229,
      "ĠCap": 6230,
      "ĠLin": 6231,
      "abb": 6232,
      "ĠEs": 6233,
      "Ġdiscipl": 6234,
      "Ġunb": 6235,
      "Ġstranger": 6236,
      "Ġproviding": 6237,
      "Ġcrew": 6238,
      "Ġadmit": 6239,
      "Ġseparate": 6240,
      "Ġshadow": 6241,
      "ĠPromotional": 6242,
      "Ġrapid": 6243,
      "raim": 6244,
      "Ġjack": 6245,
      "Ġjealous": 6246,
      "Ġvalley": 6247,
      "Ġkindness": 6248,
      "Ġconfirm": 6249,
      "Ġspending": 6250,
      "ĠHarry": 6251,
      "Ġdropped": 6252,
      "Ġdestruction": 6253,
      "ĠSon": 6254,
      "ĠSil": 6255,
      "ĠLove": 6256,
      "ĠGroup": 6257,
      "Ġtheme": 6258,
      "Ġrose": 6259,
      "Ġsupports": 6260,
      "ĠSuper": 6261,
      "Ġthrone": 6262,
      "Ġassociated": 6263,
      "Gl": 6264,
      "Ġfab": 6265,
      "asse": 6266,
      "ĠBeth": 6267,
      "ĠRight": 6268,
      "Ġparties": 6269,
      "Ġsurve": 6270,
      "ibilities": 6271,
      "Ġsolid": 6272,
      "Ġprince": 6273,
      "Ġopposite": 6274,
      "Tags": 6275,
      "Ġfro": 6276,
      "Ġgates": 6277,
      "ĠGreen": 6278,
      "Ġours": 6279,
      "Ġmostly": 6280,
      "Ġmassive": 6281,
      "ĠFriday": 6282,
      "Ġpatterns": 6283,
      "rical": 6284,
      "Ġscream": 6285,
      "Ġacqu": 6286,
      "Ġmoments": 6287,
      "Ġcharacters": 6288,
      "Ġinspir": 6289,
      "Ġbrave": 6290,
      "Ġmurdered": 6291,
      "Mar": 6292,
      "Wor": 6293,
      "Ġtur": 6294,
      "Ġstock": 6295,
      "ĠLast": 6296,
      "ands": 6297,
      "ĠEduc": 6298,
      "Ġcock": 6299,
      "ĠInformation": 6300,
      "Ġ75": 6301,
      "Ġformat": 6302,
      "ĠPhoto": 6303,
      "Ġefficient": 6304,
      "According": 6305,
      "Download": 6306,
      "ki": 6307,
      "Ġtiss": 6308,
      "encies": 6309,
      "Ġwash": 6310,
      "ĠAP": 6311,
      "ĠAut": 6312,
      "Ġmoves": 6313,
      "Ġtested": 6314,
      "Ġstrike": 6315,
      "Ġemployees": 6316,
      "Ġemergency": 6317,
      "gent": 6318,
      "mother": 6319,
      "Ġgang": 6320,
      "Ġkil": 6321,
      "ĠLog": 6322,
      "ĠLady": 6323,
      "ĠRights": 6324,
      "ublished": 6325,
      "Ġideal": 6326,
      "Ġsuffering": 6327,
      "Ġexperienced": 6328,
      "Ġsources": 6329,
      "Ġpin": 6330,
      "Ġgiant": 6331,
      "stances": 6332,
      "Ġju": 6333,
      "olen": 6334,
      "ĠPI": 6335,
      "Ġspake": 6336,
      "Ġrefuge": 6337,
      "ĠQue": 6338,
      "Ġballs": 6339,
      "ĠGeorge": 6340,
      "Ġtabernacle": 6341,
      "asks": 6342,
      "Ġlied": 6343,
      "Ġsuck": 6344,
      "Ġapps": 6345,
      "Ġreceiver": 6346,
      "ĠAbraham": 6347,
      "Ġindustrial": 6348,
      "Ġcounter": 6349,
      "ĠArticle": 6350,
      "Ġguests": 6351,
      "Mon": 6352,
      "yn": 6353,
      "Ġphen": 6354,
      "Ġletting": 6355,
      "Ġscar": 6356,
      "ĠItalian": 6357,
      "Ġprotected": 6358,
      "Ġdefinition": 6359,
      "Ġanalysis": 6360,
      "Ġatmosphere": 6361,
      "ĠBenjamin": 6362,
      "Live": 6363,
      "Ġreject": 6364,
      "Ġreached": 6365,
      "rific": 6366,
      "ĠAv": 6367,
      "Ġashamed": 6368,
      "Ġhorrible": 6369,
      "Ġselected": 6370,
      "Ġappears": 6371,
      "Ġdomain": 6372,
      "Ġalternative": 6373,
      "Ġcriminal": 6374,
      "do": 6375,
      "rid": 6376,
      "ront": 6377,
      "inated": 6378,
      "ication": 6379,
      "ĠGold": 6380,
      "ĠEutelsat": 6381,
      "Ġspell": 6382,
      "Ġchari": 6383,
      "Ġinstance": 6384,
      "Ġdeposit": 6385,
      "Ġdefault": 6386,
      "Ġbegins": 6387,
      "ĠPrice": 6388,
      "Select": 6389,
      "ijah": 6390,
      "Ġbrilliant": 6391,
      "ford": 6392,
      "night": 6393,
      "Ġgri": 6394,
      "icing": 6395,
      "ĠGirl": 6396,
      "Ġshock": 6397,
      "ument": 6398,
      "Ġunlimited": 6399,
      "standing": 6400,
      "ĠSpain": 6401,
      "Ġprint": 6402,
      "Ġsweetheart": 6403,
      "Ġaccepted": 6404,
      "Ġsteel": 6405,
      "Ġoxy": 6406,
      "Ġsector": 6407,
      "Ġyellow": 6408,
      "David": 6409,
      "ads": 6410,
      "ĠSing": 6411,
      "ĠCons": 6412,
      "ĠDis": 6413,
      "ella": 6414,
      "obal": 6415,
      "Ġsecrets": 6416,
      "ĠIsa": 6417,
      "Ġgrass": 6418,
      "Ġidentify": 6419,
      "otic": 6420,
      "Ġdecades": 6421,
      "Ġbelief": 6422,
      "Ġdelight": 6423,
      "attoo": 6424,
      "Ġmeasures": 6425,
      "Ġfocused": 6426,
      "Ġdocuments": 6427,
      "Great": 6428,
      "cles": 6429,
      "gues": 6430,
      "Ġfulf": 6431,
      "lean": 6432,
      "kend": 6433,
      "Ġshirt": 6434,
      "Ġvine": 6435,
      "Ġspring": 6436,
      "rencies": 6437,
      "Ġmuse": 6438,
      "Ġ2012": 6439,
      "Ġcurse": 6440,
      "Ġhearts": 6441,
      "Ġposted": 6442,
      "Ġsuffer": 6443,
      "ĠMoab": 6444,
      "uke": 6445,
      "Ġcert": 6446,
      "ette": 6447,
      "icate": 6448,
      "Ġreign": 6449,
      "Ġstorage": 6450,
      "Ġasleep": 6451,
      "Ġenhan": 6452,
      "Ġequal": 6453,
      "Ġbreathe": 6454,
      "Ġdivor": 6455,
      "40": 6456,
      "Jesus": 6457,
      "None": 6458,
      "Ġgay": 6459,
      "que": 6460,
      "ĠExt": 6461,
      "Ġsettle": 6462,
      "Ġfacts": 6463,
      "Ġpaint": 6464,
      "Ġfixed": 6465,
      "Ġsoldiers": 6466,
      "Love": 6467,
      "rance": 6468,
      "Ġwest": 6469,
      "ĠMother": 6470,
      "ĠBay": 6471,
      "ĠHot": 6472,
      "Ġarrow": 6473,
      "ĠFlor": 6474,
      "Ġphysic": 6475,
      "23": 6476,
      "Ne": 6477,
      "ĠIN": 6478,
      "ĠScience": 6479,
      "ĠOver": 6480,
      "Ġacts": 6481,
      "Ġflo": 6482,
      "Ġmenu": 6483,
      "Ġheaded": 6484,
      "Ġexpecting": 6485,
      "Ġcompetition": 6486,
      "ING": 6487,
      "Ġcake": 6488,
      "Ġbone": 6489,
      "stan": 6490,
      "umn": 6491,
      "Ġprecious": 6492,
      "Ġruns": 6493,
      "Ġpassport": 6494,
      "ĠiP": 6495,
      "pires": 6496,
      "Ġtail": 6497,
      "Ġdies": 6498,
      "Ġhom": 6499,
      "Ġmyst": 6500,
      "cend": 6501,
      "Ġtherein": 6502,
      "ĠHaz": 6503,
      "aptop": 6504,
      "Ġphenomen": 6505,
      "Ġbat": 6506,
      "idents": 6507,
      "asters": 6508,
      "Ġwatched": 6509,
      "Ġreservations": 6510,
      "gly": 6511,
      "ĠAst": 6512,
      "ĠBird": 6513,
      "Ġfled": 6514,
      "Ġregister": 6515,
      "Ġsigned": 6516,
      "Ġbedroom": 6517,
      "Ġbullet": 6518,
      "ĠCentral": 6519,
      "Ġleadership": 6520,
      "Ġnegot": 6521,
      "ocolate": 6522,
      "Ġadventure": 6523,
      "Ġtall": 6524,
      "Ġwave": 6525,
      "Ġsides": 6526,
      "Ġfurn": 6527,
      "Ġdare": 6528,
      "edia": 6529,
      "Ġlion": 6530,
      "ĠSum": 6531,
      "Ġabom": 6532,
      "ppy": 6533,
      "avig": 6534,
      "Although": 6535,
      "Ġcream": 6536,
      "iders": 6537,
      "Ġaside": 6538,
      "Ġnowhere": 6539,
      "Ġchain": 6540,
      "Ġmodify": 6541,
      "Ġwinter": 6542,
      "Ġemotions": 6543,
      "father": 6544,
      "ghan": 6545,
      "off": 6546,
      "Ġcig": 6547,
      "alm": 6548,
      "ĠTor": 6549,
      "ĠTreat": 6550,
      "ĠDou": 6551,
      "abilities": 6552,
      "Ġowner": 6553,
      "Ġinterests": 6554,
      "ĠÂ©": 6555,
      "Ġengage": 6556,
      "ttps": 6557,
      "Ġmagaz": 6558,
      "ĠAgent": 6559,
      "ĠAtl": 6560,
      "Ġassistance": 6561,
      "Ġtemperature": 6562,
      "ĠSD": 6563,
      "ĠLife": 6564,
      "Ġextract": 6565,
      "itcoin": 6566,
      "Instead": 6567,
      "Ġdatab": 6568,
      "Ġcro": 6569,
      "Ġdumb": 6570,
      "Ġthick": 6571,
      "Ġhill": 6572,
      "ĠMatt": 6573,
      "ĠLou": 6574,
      "ĠGOD": 6575,
      "ĠFe": 6576,
      "Ġ34": 6577,
      "ĠSpec": 6578,
      "Ġslept": 6579,
      "Ġvaluable": 6580,
      "Ġcutting": 6581,
      "ĠiPhone": 6582,
      "Ġstatement": 6583,
      "Ġproperly": 6584,
      "Ap": 6585,
      "isit": 6586,
      "ender": 6587,
      "Ġfounded": 6588,
      "Ġbloody": 6589,
      "Ġtesting": 6590,
      "Ġmistakes": 6591,
      "Hi": 6592,
      "ĠSea": 6593,
      "ĠSave": 6594,
      "ĠMiddle": 6595,
      "Ġaband": 6596,
      "ĠVideos": 6597,
      "Ġbetray": 6598,
      "Ġlesson": 6599,
      "ĠCarol": 6600,
      "ounced": 6601,
      "Ġmotor": 6602,
      "Ġlifted": 6603,
      "Ġfunctions": 6604,
      "water": 6605,
      "Ġya": 6606,
      "Ġpour": 6607,
      "Ġate": 6608,
      "uses": 6609,
      "ĠRoman": 6610,
      "Ġdescribe": 6611,
      "Ġgrade": 6612,
      "ĠResearch": 6613,
      "Ġphysics": 6614,
      "Ġsurvival": 6615,
      "Ġexisting": 6616,
      "ĠFrequently": 6617,
      "Ġsplit": 6618,
      "ĠMexico": 6619,
      "Hz": 6620,
      "ION": 6621,
      "Ġwives": 6622,
      "utor": 6623,
      "Ġstolen": 6624,
      "elve": 6625,
      "ĠALL": 6626,
      "thren": 6627,
      "Ġconce": 6628,
      "Ġmanner": 6629,
      "ĠWay": 6630,
      "Ġfactors": 6631,
      "Ġhated": 6632,
      "Ġsitu": 6633,
      "Ġcollected": 6634,
      "Ġfellow": 6635,
      "Ġhanging": 6636,
      "ĠDaniel": 6637,
      "ĠCollege": 6638,
      "Ġresearchers": 6639,
      "Ġmouse": 6640,
      "Ġyouth": 6641,
      "ĠIra": 6642,
      "aco": 6643,
      "ĠLat": 6644,
      "Ġexceed": 6645,
      "ĠRose": 6646,
      "ĠNa": 6647,
      "Ġ33": 6648,
      "Ġarmed": 6649,
      "Ġmarkets": 6650,
      "Ġgraduate": 6651,
      "Ġreleased": 6652,
      "Ġcried": 6653,
      "Ġupload": 6654,
      "osition": 6655,
      "ocation": 6656,
      "Ġprotecting": 6657,
      "Ġdiet": 6658,
      "Ġenterprise": 6659,
      "Ġheavens": 6660,
      "Ġapplied": 6661,
      "can": 6662,
      "uch": 6663,
      "erry": 6664,
      "Ġgall": 6665,
      "urse": 6666,
      "Ġcave": 6667,
      "ĠNeb": 6668,
      "oget": 6669,
      "ĠUnion": 6670,
      "Ġpolic": 6671,
      "ricult": 6672,
      "Ġdepression": 6673,
      "Ġgrave": 6674,
      "Ġfalling": 6675,
      "ĠCanada": 6676,
      "Ġescap": 6677,
      "Ġexistence": 6678,
      "obert": 6679,
      "Ġcrowd": 6680,
      "TA": 6681,
      "iance": 6682,
      "pet": 6683,
      "Ġfired": 6684,
      "ira": 6685,
      "ĠSale": 6686,
      "eler": 6687,
      "Ġvul": 6688,
      "âĢĵ": 6689,
      "Ġrecon": 6690,
      "Ġdealing": 6691,
      "Ġinsurance": 6692,
      "Ġfacilities": 6693,
      "Ġbullsh": 6694,
      "Ġbudget": 6695,
      "Ġdepends": 6696,
      "Ġnegative": 6697,
      "Ġconsciousness": 6698,
      "Ġapologize": 6699,
      "ĠInstitute": 6700,
      "esse": 6701,
      "ĠIS": 6702,
      "ald": 6703,
      "ĠSure": 6704,
      "Ġsevere": 6705,
      "ntil": 6706,
      "ĠFrom": 6707,
      "Ġminister": 6708,
      "Ġvictim": 6709,
      "Ġagreement": 6710,
      "26": 6711,
      "enger": 6712,
      "Ġpm": 6713,
      "Ġlin": 6714,
      "ĠMake": 6715,
      "esty": 6716,
      "Ġspr": 6717,
      "Ġsugar": 6718,
      "Ġhousehold": 6719,
      "ĠThus": 6720,
      "Ġcrap": 6721,
      "Ġanti": 6722,
      "User": 6723,
      "ĠEmail": 6724,
      "Ġarchitecture": 6725,
      "la": 6726,
      "zech": 6727,
      "ĠII": 6728,
      "Ġfors": 6729,
      "Ġshield": 6730,
      "Ġdriven": 6731,
      "ĠZion": 6732,
      "Ġconnections": 6733,
      "ĠCoun": 6734,
      "ography": 6735,
      "Ġchicken": 6736,
      "Ġcooperation": 6737,
      "Ġrescue": 6738,
      "02": 6739,
      "eras": 6740,
      "Ġhomes": 6741,
      "oples": 6742,
      "Ġabroad": 6743,
      "Things": 6744,
      "bert": 6745,
      "ĠStreet": 6746,
      "Ġdifferences": 6747,
      "Ġbrethren": 6748,
      "Ġexplan": 6749,
      "iques": 6750,
      "ĠEngland": 6751,
      "ĠAfghan": 6752,
      "Ġfootball": 6753,
      "Ġillegal": 6754,
      "puter": 6755,
      "Ġinstructions": 6756,
      "Ġpants": 6757,
      "ĠBo": 6758,
      "Ġric": 6759,
      "ĠEconom": 6760,
      "ferences": 6761,
      "Ġenorm": 6762,
      "Ġcourage": 6763,
      "Ġhyd": 6764,
      "Ġportion": 6765,
      "Previous": 6766,
      "opyright": 6767,
      "ĠUpdated": 6768,
      "Ġromantic": 6769,
      "Ġchoosing": 6770,
      "Sm": 6771,
      "ĠMont": 6772,
      "estic": 6773,
      "Ġproceed": 6774,
      "athy": 6775,
      "Ġbusinesses": 6776,
      "anked": 6777,
      "Ġcollection": 6778,
      "Ġprophets": 6779,
      "ĠRequirements": 6780,
      "bal": 6781,
      "Ġmood": 6782,
      "Ġfeast": 6783,
      "Ġproduced": 6784,
      "ĠPower": 6785,
      "Ġupstairs": 6786,
      "Ġbutt": 6787,
      "Ġ....": 6788,
      "Ġuns": 6789,
      "Ġregret": 6790,
      "Ġcreates": 6791,
      "Ġinvestment": 6792,
      "Ġadults": 6793,
      "Ġbarely": 6794,
      "Ġcurious": 6795,
      "Sim": 6796,
      "Ġunit": 6797,
      "issions": 6798,
      "Ġinvented": 6799,
      "Ġconsist": 6800,
      "Ġmemories": 6801,
      "ĠChristian": 6802,
      "Ġpleased": 6803,
      "Ġreligion": 6804,
      "ĠWinter": 6805,
      "28": 6806,
      "itz": 6807,
      "oty": 6808,
      "elly": 6809,
      "Ġpeoples": 6810,
      "ĠStand": 6811,
      "ĠCana": 6812,
      "Ġdeeply": 6813,
      "Ġmajority": 6814,
      "Ġdressed": 6815,
      "Ġpuzz": 6816,
      "Students": 6817,
      "21": 6818,
      "Set": 6819,
      "Sounds": 6820,
      "burg": 6821,
      "inn": 6822,
      "Ġdump": 6823,
      "ĠSir": 6824,
      "Ġclock": 6825,
      "Ġdesper": 6826,
      "Ġcarefully": 6827,
      "Ġinvis": 6828,
      "Ġcomplain": 6829,
      "tenance": 6830,
      "Ġeaten": 6831,
      "Ġfallen": 6832,
      "Ġcolors": 6833,
      "ĠiOS": 6834,
      "alya": 6835,
      "Ġprayer": 6836,
      "Ġintroduce": 6837,
      "Ġbasket": 6838,
      "Ġridiculous": 6839,
      "Ru": 6840,
      "ĠPDF": 6841,
      "istry": 6842,
      "Ġdevil": 6843,
      "ĠDoctor": 6844,
      "Ġfingers": 6845,
      "Ġsustainable": 6846,
      "Ġelectricity": 6847,
      "ĠHostel": 6848,
      "ĠAustralia": 6849,
      "Ġvampire": 6850,
      "Ġcodes": 6851,
      "arrow": 6852,
      "ĠSet": 6853,
      "eless": 6854,
      "Ġexists": 6855,
      "Ġconference": 6856,
      "Ġplus": 6857,
      "uality": 6858,
      "Ġconfident": 6859,
      "Ġimagination": 6860,
      "Ġfreak": 6861,
      "iency": 6862,
      "Ġsociet": 6863,
      "Ġcarrying": 6864,
      "Better": 6865,
      "Ġfright": 6866,
      "Ġinsect": 6867,
      "Ġsport": 6868,
      "Ġpersons": 6869,
      "Ġdifferently": 6870,
      "Ġgenius": 6871,
      "ĠThomas": 6872,
      "Ġinstallation": 6873,
      "Guess": 6874,
      "Ġreservation": 6875,
      "Imagine": 6876,
      "oscow": 6877,
      "Um": 6878,
      "Wow": 6879,
      "Ġbike": 6880,
      "Ġusual": 6881,
      "ĠFi": 6882,
      "Ġtracking": 6883,
      "akers": 6884,
      "Ġputs": 6885,
      "Ġdepth": 6886,
      "ĠDoes": 6887,
      "ĠSamuel": 6888,
      "Ġpleasant": 6889,
      "ĠMuslim": 6890,
      "force": 6891,
      "Trans": 6892,
      "Ġunclean": 6893,
      "Ġremarkable": 6894,
      "ĠEphraim": 6895,
      "win": 6896,
      "âĻ": 6897,
      "Ġconver": 6898,
      "Ġsuicide": 6899,
      "Ġchances": 6900,
      "Ġperman": 6901,
      "Ġ400": 6902,
      "ucker": 6903,
      "ĠLeonard": 6904,
      "Ġingred": 6905,
      "aving": 6906,
      "uten": 6907,
      "riff": 6908,
      "Ġshout": 6909,
      "arett": 6910,
      "ologists": 6911,
      "Ġattend": 6912,
      "Ġyounger": 6913,
      "Ġgrandmother": 6914,
      "Ġintellect": 6915,
      "Le": 6916,
      "wh": 6917,
      "haz": 6918,
      "Ġcattle": 6919,
      "oration": 6920,
      "stein": 6921,
      "Ġchap": 6922,
      "Ġparking": 6923,
      "Ġmultitude": 6924,
      "Ġsalvation": 6925,
      "ĠDesign": 6926,
      "John": 6927,
      "Ġfulfill": 6928,
      "09": 6929,
      "GO": 6930,
      "lies": 6931,
      "Ġmour": 6932,
      "Ġborrow": 6933,
      "eds": 6934,
      "geon": 6935,
      "osal": 6936,
      "Ġrecover": 6937,
      "Ġstands": 6938,
      "Ġcreatures": 6939,
      "Ġconstruction": 6940,
      "Ġneurons": 6941,
      "ĠIraq": 6942,
      "craft": 6943,
      "inate": 6944,
      "Ġreci": 6945,
      "ĠMach": 6946,
      "ĠPublished": 6947,
      "Ġvou": 6948,
      "ĠJerem": 6949,
      "Ġappoint": 6950,
      "Ġplanned": 6951,
      "Ġfactory": 6952,
      "Ġmetal": 6953,
      "Ġprocesses": 6954,
      "Ġtradition": 6955,
      "Ġreplace": 6956,
      "Ġbullshit": 6957,
      "erg": 6958,
      "Ġtoil": 6959,
      "Ġpocket": 6960,
      "ĠMount": 6961,
      "asty": 6962,
      "Ġpermission": 6963,
      "ĠVIP": 6964,
      "Ġairpl": 6965,
      "Ġchecked": 6966,
      "Choose": 6967,
      "Ġinnovative": 6968,
      "Ġfunctional": 6969,
      "Ġswimming": 6970,
      "Ġcolleagues": 6971,
      "Baby": 6972,
      "Ġmos": 6973,
      "Ġinner": 6974,
      "illance": 6975,
      "ili": 6976,
      "ĠTell": 6977,
      "Ġrating": 6978,
      "Ġplate": 6979,
      "Ġcompare": 6980,
      "ĠChris": 6981,
      "Ġplanets": 6982,
      "Ġsimpl": 6983,
      "Ġdepartment": 6984,
      "Ġreported": 6985,
      "ĠDaddy": 6986,
      "Ġlifetime": 6987,
      "Ġencourage": 6988,
      "Ġmanufacture": 6989,
      "gorith": 6990,
      "Ġconvinced": 6991,
      "oboam": 6992,
      "Ġwings": 6993,
      "Ġpapers": 6994,
      "arry": 6995,
      "Ġhits": 6996,
      "add": 6997,
      "ĠSk": 6998,
      "ĠData": 6999,
      "Ġvast": 7000,
      "âĢ¢": 7001,
      "ilding": 7002,
      "Ġunp": 7003,
      "dule": 7004,
      "ĠIsland": 7005,
      "Ġfoundation": 7006,
      "Ġheading": 7007,
      "Ġslain": 7008,
      "ĠGuarantee": 7009,
      "Ġessentially": 7010,
      "Ġ27500": 7011,
      "View": 7012,
      "fit": 7013,
      "fortunately": 7014,
      "kiah": 7015,
      "incess": 7016,
      "Ġbite": 7017,
      "Ġnuts": 7018,
      "ĠTO": 7019,
      "Ġcompared": 7020,
      "Ġ32": 7021,
      "ternal": 7022,
      "Ġprogrammes": 7023,
      "Ġdefense": 7024,
      "Ġtreated": 7025,
      "ĠDepartment": 7026,
      "ĠEducation": 7027,
      "rors": 7028,
      "iliate": 7029,
      "Ġalgorith": 7030,
      "Ġagg": 7031,
      "Ġunlike": 7032,
      "ĠStop": 7033,
      "ĠJoe": 7034,
      "ĠProfess": 7035,
      "Ġsoldier": 7036,
      "Ġelders": 7037,
      "ga": 7038,
      "zing": 7039,
      "Ġfake": 7040,
      "Ġdancing": 7041,
      "esides": 7042,
      "ĠCall": 7043,
      "Head": 7044,
      "Ġven": 7045,
      "ĠEst": 7046,
      "ĠNord": 7047,
      "Ġhelpful": 7048,
      "Ġowners": 7049,
      "ictor": 7050,
      "Ġgenes": 7051,
      "Ġcurrencies": 7052,
      "hips": 7053,
      "Ġclassroom": 7054,
      "Ġsuccessfully": 7055,
      "Ġbiology": 7056,
      "Ġdisappeared": 7057,
      "Comments": 7058,
      "uxury": 7059,
      "Ġtranslation": 7060,
      "Ġdespite": 7061,
      "35": 7062,
      "nown": 7063,
      "ye": 7064,
      "onel": 7065,
      "Ġtooth": 7066,
      "Ġdick": 7067,
      "etry": 7068,
      "Ġstom": 7069,
      "Ġliqu": 7070,
      "usted": 7071,
      "Ġjew": 7072,
      "Ġvacc": 7073,
      "Ġtrig": 7074,
      "Ġobl": 7075,
      "ommod": 7076,
      "Ġmuscle": 7077,
      "Ġoccup": 7078,
      "Ġbelongs": 7079,
      "ersonal": 7080,
      "Ġreligious": 7081,
      "ĠPortug": 7082,
      "Int": 7083,
      "Ġfate": 7084,
      "engers": 7085,
      "Ġshower": 7086,
      "ĠView": 7087,
      "Ġwarning": 7088,
      "Ġdepos": 7089,
      "Ġtribes": 7090,
      "Ġinternal": 7091,
      "Ġgovernments": 7092,
      "ĠTwo": 7093,
      "Ġtape": 7094,
      "coh": 7095,
      "rick": 7096,
      "Ġnavig": 7097,
      "Ġfinds": 7098,
      "Ġreput": 7099,
      "Ġhello": 7100,
      "Ġnewsp": 7101,
      "atellites": 7102,
      "Ġbiological": 7103,
      "Ġinstalled": 7104,
      "ĠChannel": 7105,
      "Ġvirtual": 7106,
      "El": 7107,
      "vity": 7108,
      "Ġeth": 7109,
      "rehens": 7110,
      "Ġobe": 7111,
      "isha": 7112,
      "ĠSnow": 7113,
      "ĠCO": 7114,
      "ĠBang": 7115,
      "ĠTed": 7116,
      "ĠHoly": 7117,
      "Ġquarter": 7118,
      "Ġscary": 7119,
      "ĠInc": 7120,
      "Ġchest": 7121,
      "retty": 7122,
      "Ġsentence": 7123,
      "Ġtraveling": 7124,
      "ĠUSA": 7125,
      "Ġcameras": 7126,
      "Ġexperiments": 7127,
      "Ġprosper": 7128,
      "Ġconstantly": 7129,
      "onymous": 7130,
      "SA": 7131,
      "Ġinfra": 7132,
      "icago": 7133,
      "ĠAN": 7134,
      "Ġworship": 7135,
      "Ġplaced": 7136,
      "ĠOl": 7137,
      "Ġshew": 7138,
      "ĠHeb": 7139,
      "Ġhardly": 7140,
      "Ġcreep": 7141,
      "ĠEngine": 7142,
      "ĠGuRu": 7143,
      "Ġcleaning": 7144,
      "ĠMedia": 7145,
      "Ġvulner": 7146,
      "80": 7147,
      "Ġ..": 7148,
      "Ġboot": 7149,
      "Ġtower": 7150,
      "Ġhire": 7151,
      "alog": 7152,
      "Ġum": 7153,
      "ĠMs": 7154,
      "ava": 7155,
      "Ġcharges": 7156,
      "Ġ2008": 7157,
      "Ġhostel": 7158,
      "Ġsurprising": 7159,
      "Ġrobots": 7160,
      "Ġblocks": 7161,
      "Ġbattery": 7162,
      "ĠAmazon": 7163,
      "cams": 7164,
      "itate": 7165,
      "itzer": 7166,
      "ingly": 7167,
      "lymp": 7168,
      "ours": 7169,
      "Ġeval": 7170,
      "Ġcompleted": 7171,
      "Ġmoral": 7172,
      "Ġwinning": 7173,
      "Ġscientist": 7174,
      "Ġslowly": 7175,
      "ratulations": 7176,
      "Ġinfluence": 7177,
      "ĠArmies": 7178,
      "ĠConditions": 7179,
      "Ġoxygen": 7180,
      "Dec": 7181,
      "Top": 7182,
      "ingu": 7183,
      "rose": 7184,
      "ĠDirect": 7185,
      "Ġadjust": 7186,
      "Ġflights": 7187,
      "ĠStep": 7188,
      "rete": 7189,
      "ĠSpirit": 7190,
      "Ġnormally": 7191,
      "Ġsurveillance": 7192,
      "BS": 7193,
      "SS": 7194,
      "iac": 7195,
      "nce": 7196,
      "oom": 7197,
      "rus": 7198,
      "imp": 7199,
      "ĠLike": 7200,
      "Ġshift": 7201,
      "Ġspaces": 7202,
      "ĠOb": 7203,
      "reek": 7204,
      "Ġweekend": 7205,
      "Ġvisitors": 7206,
      "Ġtemple": 7207,
      "Probably": 7208,
      "Ġclothing": 7209,
      "Ġprinciples": 7210,
      "Ġbeside": 7211,
      "Ġinterpret": 7212,
      "ĠJeremiah": 7213,
      "Cons": 7214,
      "Must": 7215,
      "cam": 7216,
      "Ġbom": 7217,
      "lend": 7218,
      "Ġugly": 7219,
      "ĠMet": 7220,
      "ĠDimensions": 7221,
      "ĠHon": 7222,
      "ĠWork": 7223,
      "Ġbackup": 7224,
      "Ġshoulder": 7225,
      "Ġpersonally": 7226,
      "Ġvisited": 7227,
      "Ġmotherf": 7228,
      "Ġdiam": 7229,
      "ĠSoft": 7230,
      "Ġkeyboard": 7231,
      "Ġelement": 7232,
      "Ġinstruments": 7233,
      "Ġsanctuary": 7234,
      "Ġcircumstances": 7235,
      "ĠRichard": 7236,
      "Ġcigarett": 7237,
      "Ġsen": 7238,
      "inger": 7239,
      "edy": 7240,
      "ĠIT": 7241,
      "ĠHor": 7242,
      "ĠStark": 7243,
      "Ġentered": 7244,
      "Ġcommandments": 7245,
      "Moreover": 7246,
      "ĠUser": 7247,
      "Ġtitle": 7248,
      "29": 7249,
      "acles": 7250,
      "ols": 7251,
      "ĠGal": 7252,
      "Ġships": 7253,
      "ĠEqu": 7254,
      "Ġplain": 7255,
      "Ġunus": 7256,
      "Ġchildhood": 7257,
      "Ġoccasion": 7258,
      "Ġjoined": 7259,
      "Ġpurposes": 7260,
      "EM": 7261,
      "Ġske": 7262,
      "Ġce": 7263,
      "ito": 7264,
      "Ġloose": 7265,
      "Ġgrain": 7266,
      "Ġthrew": 7267,
      "ĠMoney": 7268,
      "ĠTim": 7269,
      "Ġalien": 7270,
      "Ġ2000": 7271,
      "Ġfee": 7272,
      "Ġbug": 7273,
      "ĠAnton": 7274,
      "Ġdrawing": 7275,
      "Ġvictims": 7276,
      "Ġdescribed": 7277,
      "ĠFlorida": 7278,
      "27": 7279,
      "card": 7280,
      "ios": 7281,
      "rating": 7282,
      "ini": 7283,
      "Ġchocolate": 7284,
      "ĠKnow": 7285,
      "Ġnights": 7286,
      "Ġstrangers": 7287,
      "Ġtechniques": 7288,
      "Ġtickets": 7289,
      "ĠJimmy": 7290,
      "Ġsubscribers": 7291,
      "Ġinvisible": 7292,
      "06": 7293,
      "Eng": 7294,
      "mond": 7295,
      "what": 7296,
      "hew": 7297,
      "Ġsatellites": 7298,
      "Ġhired": 7299,
      "ĠFil": 7300,
      "Ġunits": 7301,
      "Ġcontem": 7302,
      "Ġinvite": 7303,
      "Ġparad": 7304,
      "ĠPlan": 7305,
      "Ġzone": 7306,
      "Ġemotion": 7307,
      "Ġmirror": 7308,
      "Ġdetermine": 7309,
      "Ġfifth": 7310,
      "Ġstruggle": 7311,
      "Ġpedest": 7312,
      "Five": 7313,
      "Train": 7314,
      "Ġnest": 7315,
      "etch": 7316,
      "oded": 7317,
      "Ġwhenever": 7318,
      "Ġresolution": 7319,
      "Ġappointed": 7320,
      "Ġdecade": 7321,
      "Ġtransg": 7322,
      "Ġrepair": 7323,
      "Ġcrown": 7324,
      "Ġcombination": 7325,
      "Ġtort": 7326,
      "Follow": 7327,
      "itors": 7328,
      "ashed": 7329,
      "adies": 7330,
      "Ġspare": 7331,
      "plate": 7332,
      "Ġassess": 7333,
      "Ġgrate": 7334,
      "Ġoperate": 7335,
      "Ġtouched": 7336,
      "Unfortunately": 7337,
      "ĠServices": 7338,
      "Ġencoura": 7339,
      "ĠExchange": 7340,
      "Ġslightly": 7341,
      "Ġremembered": 7342,
      "Happy": 7343,
      "Ġcous": 7344,
      "Ġthin": 7345,
      "ĠCzech": 7346,
      "tering": 7347,
      "acks": 7348,
      "Ġsav": 7349,
      "ague": 7350,
      "ĠInter": 7351,
      "Ġ2009": 7352,
      "Ġcircle": 7353,
      "ĠAntalya": 7354,
      "Ġrejoice": 7355,
      "IM": 7356,
      "Move": 7357,
      "uk": 7358,
      "itable": 7359,
      "Ġpor": 7360,
      "Ġlect": 7361,
      "ĠMoscow": 7362,
      "Ġabund": 7363,
      "ĠGame": 7364,
      "rainian": 7365,
      "Ġembr": 7366,
      "Ġprotocol": 7367,
      "Ġinsane": 7368,
      "Ġsupported": 7369,
      "ĠSund": 7370,
      "Ġbreathing": 7371,
      "Ġfifty": 7372,
      "Ġexclusive": 7373,
      "Ġdatabase": 7374,
      "ĠCanaan": 7375,
      "Ġtattoo": 7376,
      "Ġdial": 7377,
      "Ġpair": 7378,
      "Ġlone": 7379,
      "lying": 7380,
      "Ġanx": 7381,
      "estyle": 7382,
      "Ġcomments": 7383,
      "Ġloyal": 7384,
      "Ġcompar": 7385,
      "Ġkidna": 7386,
      "Ġclever": 7387,
      "Ġcrash": 7388,
      "Ġwarrant": 7389,
      "Ġmeters": 7390,
      "Ġ99": 7391,
      "Ġclasses": 7392,
      "Ġordinary": 7393,
      "arcoid": 7394,
      "Ġgraduates": 7395,
      "ystem": 7396,
      "Ġcooking": 7397,
      "ĠSAP": 7398,
      "elling": 7399,
      "Ġnovel": 7400,
      "ĠIns": 7401,
      "Ġsets": 7402,
      "phones": 7403,
      "Ġrestrict": 7404,
      "Ġrefuse": 7405,
      "2019": 7406,
      "ĠDeals": 7407,
      "ĠAssy": 7408,
      "Ġprecise": 7409,
      "Ġtypical": 7410,
      "Ġtissue": 7411,
      "Ġenormous": 7412,
      "arcoidosis": 7413,
      "Ð°": 7414,
      "Ġtip": 7415,
      "Ġax": 7416,
      "Ġhorn": 7417,
      "Ġreigned": 7418,
      "ĠSorry": 7419,
      "raph": 7420,
      "ĠCur": 7421,
      "opular": 7422,
      "oster": 7423,
      "itty": 7424,
      "Ġuncom": 7425,
      "apa": 7426,
      "Ġredeem": 7427,
      "Ġversions": 7428,
      "Ġselection": 7429,
      "Ġroute": 7430,
      "ĠJews": 7431,
      "Ġhunting": 7432,
      "Ġsatisfied": 7433,
      "05": 7434,
      "draw": 7435,
      "Ġtech": 7436,
      "lyn": 7437,
      "ĠCa": 7438,
      "ĠDist": 7439,
      "osure": 7440,
      "Ġrow": 7441,
      "ĠRobert": 7442,
      "berg": 7443,
      "Ġoverall": 7444,
      "Comp": 7445,
      "field": 7446,
      "Ġgro": 7447,
      "Ġthroat": 7448,
      "ĠMail": 7449,
      "Ġwhoever": 7450,
      "Ġmanip": 7451,
      "Ġcoat": 7452,
      "Whether": 7453,
      "Ġbrass": 7454,
      "ĠStart": 7455,
      "Ġawake": 7456,
      "ĠQueen": 7457,
      "ĠBon": 7458,
      "uls": 7459,
      "Ġ...?": 7460,
      "ĠVol": 7461,
      "ĠClub": 7462,
      "Ġsought": 7463,
      "Ġrisks": 7464,
      "Ġdaddy": 7465,
      "Ġstatutes": 7466,
      "Art": 7467,
      "Ġauthority": 7468,
      "ĠJeho": 7469,
      "ĠSarah": 7470,
      "Ġschol": 7471,
      "Ġgrateful": 7472,
      "ota": 7473,
      "Ġbeam": 7474,
      "ĠHT": 7475,
      "Ġoperations": 7476,
      "Ġveget": 7477,
      "Ġattacked": 7478,
      "Ġmonitoring": 7479,
      "Ġrevenue": 7480,
      "TeK": 7481,
      "itzerland": 7482,
      "Code": 7483,
      "Dude": 7484,
      "Rep": 7485,
      "Reg": 7486,
      "equ": 7487,
      "kind": 7488,
      "mitted": 7489,
      "Ġtear": 7490,
      "Ġcher": 7491,
      "Ġfrag": 7492,
      "Ġitem": 7493,
      "ĠBitcoin": 7494,
      "ĠLos": 7495,
      "ĠHan": 7496,
      "ĠChicago": 7497,
      "Ġglor": 7498,
      "ĠSpa": 7499,
      "Ġgenerate": 7500,
      "Ġfrust": 7501,
      "ĠBarbie": 7502,
      "ĠAddress": 7503,
      "ĠDeposit": 7504,
      "ĠPayPal": 7505,
      "Again": 7506,
      "Ġconsequences": 7507,
      "Ġthirty": 7508,
      "acher": 7509,
      "Ġstab": 7510,
      "ĠOlymp": 7511,
      "Ġwherever": 7512,
      "ilead": 7513,
      "Ġdistur": 7514,
      "ĠClaire": 7515,
      "Except": 7516,
      "Ġengineers": 7517,
      "Ġfacing": 7518,
      "Ġsensitive": 7519,
      "Ġvacation": 7520,
      "ĠLinux": 7521,
      "eer": 7522,
      "Ġmamm": 7523,
      "icip": 7524,
      "Ġelev": 7525,
      "artments": 7526,
      "Ġalcoh": 7527,
      "ĠWould": 7528,
      "Ġagricult": 7529,
      "Ġtalks": 7530,
      "Ġelimin": 7531,
      "Ġprofound": 7532,
      "Ġexplos": 7533,
      "Ġsweetie": 7534,
      "Ġmotion": 7535,
      "Ġinspired": 7536,
      "ĠAfghanistan": 7537,
      "Ġsocieties": 7538,
      "Ġunusual": 7539,
      "Besides": 7540,
      "gal": 7541,
      "Ġdiversity": 7542,
      "Ġstations": 7543,
      "ĠSlo": 7544,
      "ĠAfter": 7545,
      "ĠPur": 7546,
      "ĠHel": 7547,
      "apest": 7548,
      "Ġharvest": 7549,
      "ĠWeTeK": 7550,
      "isco": 7551,
      "Ġsilence": 7552,
      "Ġspecifically": 7553,
      "Ġconsumed": 7554,
      "Ġcelebrate": 7555,
      "icians": 7556,
      "ĠAccess": 7557,
      "Health": 7558,
      "Ġdebt": 7559,
      "ĠNick": 7560,
      "Stand": 7561,
      "Ġpossession": 7562,
      "Ask": 7563,
      "ĠÂ°": 7564,
      "Ġrecognized": 7565,
      "Ġillness": 7566,
      "Ġthreats": 7567,
      "Ġannounce": 7568,
      "Ġstructures": 7569,
      "aturday": 7570,
      "Ġincreasingly": 7571,
      "ĠDaily": 7572,
      "Ġcomponents": 7573,
      "Ġmaximum": 7574,
      "TH": 7575,
      "known": 7576,
      "rary": 7577,
      "Ġcord": 7578,
      "Ġbags": 7579,
      "rive": 7580,
      "Its": 7581,
      "ĠTri": 7582,
      "ĠKong": 7583,
      "Ġinterrupt": 7584,
      "Ġeditor": 7585,
      "ĠComments": 7586,
      "ĠGovern": 7587,
      "ĠDevelop": 7588,
      "Ġarrested": 7589,
      "Ġseventh": 7590,
      "Ġspoil": 7591,
      "asseh": 7592,
      "High": 7593,
      "Son": 7594,
      "top": 7595,
      "tical": 7596,
      "Ġmob": 7597,
      "Ġlaptop": 7598,
      "aration": 7599,
      "ican": 7600,
      "Ġreaction": 7601,
      "Ġnotes": 7602,
      "Ġwhore": 7603,
      "ĠAud": 7604,
      "ĠPeople": 7605,
      "Ġaccommod": 7606,
      "Ġsett": 7607,
      "ĠJoab": 7608,
      "harm": 7609,
      "Ġexpression": 7610,
      "Ġhurts": 7611,
      "Ġdipl": 7612,
      "ĠControl": 7613,
      "Ġconvince": 7614,
      "Ġdeposits": 7615,
      "Until": 7616,
      "ih": 7617,
      "Ġmaid": 7618,
      "ester": 7619,
      "rier": 7620,
      "ĠCA": 7621,
      "ĠAbs": 7622,
      "ĠLau": 7623,
      "Ġchim": 7624,
      "Ġcoinc": 7625,
      "Ġtwelve": 7626,
      "Without": 7627,
      "Anyone": 7628,
      "Ġdeeper": 7629,
      "Ġpromotional": 7630,
      "ĠCommun": 7631,
      "ĠGrace": 7632,
      "Ġinvestigation": 7633,
      "ĠAcadem": 7634,
      "ĠTechnology": 7635,
      "Ġmystery": 7636,
      "Both": 7637,
      "Honey": 7638,
      "Life": 7639,
      "PI": 7640,
      "RT": 7641,
      "Too": 7642,
      "Ġdimens": 7643,
      "ĠPut": 7644,
      "igma": 7645,
      "ĠHall": 7646,
      "ĠHIV": 7647,
      "ĠRam": 7648,
      "ĠEt": 7649,
      "asting": 7650,
      "ĠNight": 7651,
      "ĠName": 7652,
      "Ġdism": 7653,
      "Ġstudied": 7654,
      "Ġcheaper": 7655,
      "Ġsignals": 7656,
      "Ġterrit": 7657,
      "Ġphotogra": 7658,
      "Ġeffectively": 7659,
      "Ġhosting": 7660,
      "Ġappearance": 7661,
      "ĠPrivate": 7662,
      "Ġregarding": 7663,
      "Ġtie": 7664,
      "Ġaid": 7665,
      "Ġarose": 7666,
      "ĠLeave": 7667,
      "Ġorg": 7668,
      "ĠRom": 7669,
      "ĠElect": 7670,
      "orthern": 7671,
      "Ġdrives": 7672,
      "Ġfavour": 7673,
      "Ġordered": 7674,
      "ĠAdm": 7675,
      "Ġ250": 7676,
      "Ġdinos": 7677,
      "Ġdivided": 7678,
      "Ġreserved": 7679,
      "Ġcycle": 7680,
      "Ġprimary": 7681,
      "Ġschedule": 7682,
      "Ġargument": 7683,
      "Ġstomach": 7684,
      "During": 7685,
      "gl": 7686,
      "vail": 7687,
      "hent": 7688,
      "Ġwet": 7689,
      "Ġlun": 7690,
      "icient": 7691,
      "roke": 7692,
      "ece": 7693,
      "ĠSatellite": 7694,
      "ĠMost": 7695,
      "Ġsole": 7696,
      "Ġshr": 7697,
      "ĠWait": 7698,
      "Ġagents": 7699,
      "Ġargue": 7700,
      "Ġscr": 7701,
      "ĠChief": 7702,
      "Ġgenerally": 7703,
      "Ġsurviv": 7704,
      "Ġburden": 7705,
      "ĠGlobal": 7706,
      "Ġfolder": 7707,
      "ĠMartin": 7708,
      "ĠKorea": 7709,
      "Under": 7710,
      "Ġcas": 7711,
      "Ġhorm": 7712,
      "ĠDeb": 7713,
      "Ġflash": 7714,
      "Ġresource": 7715,
      "Ġregions": 7716,
      "Ġwaited": 7717,
      "Ġdrill": 7718,
      "ĠProject": 7719,
      "Ġengaged": 7720,
      "Ġorganized": 7721,
      "Ġactivated": 7722,
      "Ġapprox": 7723,
      "Ġgrandfather": 7724,
      "Unless": 7725,
      "ĠAirport": 7726,
      "ĠRoom": 7727,
      "Ġadvertising": 7728,
      "Ġdesolate": 7729,
      "Ġexplanation": 7730,
      "33": 7731,
      "Tom": 7732,
      "Ġpounds": 7733,
      "Ġinch": 7734,
      "ĠSch": 7735,
      "ĠWelcome": 7736,
      "ĠVan": 7737,
      "version": 7738,
      "enses": 7739,
      "Ġslide": 7740,
      "Ġvisa": 7741,
      "Ġarticles": 7742,
      "ĠShop": 7743,
      "ĠBlue": 7744,
      "Ġdisappointed": 7745,
      "Ġrebell": 7746,
      "Ġrecommended": 7747,
      "Ġeggs": 7748,
      "Del": 7749,
      "Ġsilly": 7750,
      "ela": 7751,
      "Ġjoint": 7752,
      "ĠTal": 7753,
      "Ġexhib": 7754,
      "ĠOpt": 7755,
      "Ġfinance": 7756,
      "ifications": 7757,
      "ĠAmy": 7758,
      "Ġcolon": 7759,
      "Ġcapture": 7760,
      "ĠThanks": 7761,
      "Ġdetermined": 7762,
      "Ġfederal": 7763,
      "Buy": 7764,
      "Char": 7765,
      "Ġwww": 7766,
      "Ġwitch": 7767,
      "Ġfishing": 7768,
      "Ġnin": 7769,
      "arters": 7770,
      "ĠTex": 7771,
      "ĠHy": 7772,
      "ĠWatch": 7773,
      "Ġgoodbye": 7774,
      "onday": 7775,
      "ĠManasseh": 7776,
      "Ġlowest": 7777,
      "Ġcommunications": 7778,
      "Ġfeedback": 7779,
      "Ġlaughing": 7780,
      "Ġregistered": 7781,
      "Ġlonely": 7782,
      "Four": 7783,
      "oves": 7784,
      "ugg": 7785,
      "Ġcategories": 7786,
      "itage": 7787,
      "ĠMill": 7788,
      "istory": 7789,
      "ĠFar": 7790,
      "ĠRest": 7791,
      "Ġshake": 7792,
      "ĠViet": 7793,
      "Ġblank": 7794,
      "Ġfirstborn": 7795,
      "ĠSpace": 7796,
      "ĠAdam": 7797,
      "Ġsearching": 7798,
      "Ġofficers": 7799,
      "structure": 7800,
      "ĠSlots": 7801,
      "Ġphilosoph": 7802,
      "BC": 7803,
      "Ġbars": 7804,
      "Ġhid": 7805,
      "usting": 7806,
      "ĠEve": 7807,
      "ĠOld": 7808,
      "ittee": 7809,
      "Ġflock": 7810,
      "Ġacceler": 7811,
      "ĠChildren": 7812,
      "Ġtestim": 7813,
      "Ġterrif": 7814,
      "Ġcommandment": 7815,
      "ĠMarra": 7816,
      "Ġcaptivity": 7817,
      "Ġvirgin": 7818,
      "Ġaspects": 7819,
      "Ġpilot": 7820,
      "utenant": 7821,
      "Ġpedestrian": 7822,
      "Ġsed": 7823,
      "Ġmig": 7824,
      "Ġcosm": 7825,
      "Ġboring": 7826,
      "Ġisol": 7827,
      "Ġdozen": 7828,
      "ĠMat": 7829,
      "Ġintend": 7830,
      "Ġdisaster": 7831,
      "Ġaccord": 7832,
      "Ġsmoking": 7833,
      "Ġlocations": 7834,
      "Ġposts": 7835,
      "ĠSpecial": 7836,
      "Damn": 7837,
      "Pay": 7838,
      "Priv": 7839,
      "wear": 7840,
      "Ð¸": 7841,
      "iture": 7842,
      "utch": 7843,
      "keys": 7844,
      "Ġconst": 7845,
      "ryption": 7846,
      "Ġpossibilities": 7847,
      "Ġartists": 7848,
      "Ġtreatments": 7849,
      "2017": 7850,
      "Ġattacks": 7851,
      "ĠOffice": 7852,
      "ĠSwitzerland": 7853,
      "ĠEnter": 7854,
      "Share": 7855,
      "ĠJonathan": 7856,
      "Ġentertainment": 7857,
      "Ġconvenient": 7858,
      "cest": 7859,
      "Ġow": 7860,
      "orter": 7861,
      "Ġhi": 7862,
      "alls": 7863,
      "ĠPac": 7864,
      "ĠPri": 7865,
      "ĠGre": 7866,
      "ĠDom": 7867,
      "ĠRiver": 7868,
      "Ġcares": 7869,
      "Ġpride": 7870,
      "Ġcoord": 7871,
      "ocal": 7872,
      "ucking": 7873,
      "Ġconfused": 7874,
      "Ġpractices": 7875,
      "Ġsubjects": 7876,
      "Ġaffected": 7877,
      "Ġflee": 7878,
      "Ġcruel": 7879,
      "ĠCompany": 7880,
      "Ġfascinating": 7881,
      "Ġmagazine": 7882,
      "32": 7883,
      "Chan": 7884,
      "Disc": 7885,
      "Sit": 7886,
      "onom": 7887,
      "utive": 7888,
      "ĠSomet": 7889,
      "urry": 7890,
      "unny": 7891,
      "Ġvent": 7892,
      "Ġresol": 7893,
      "Ġimportance": 7894,
      "Ġprincess": 7895,
      "Ġprophes": 7896,
      "Ġhostels": 7897,
      "ĠCharles": 7898,
      "Display": 7899,
      "Barbie": 7900,
      "ĠIsaac": 7901,
      "Ġsituations": 7902,
      "ogether": 7903,
      "Ġreputation": 7904,
      "Ġobey": 7905,
      "Â©": 7906,
      "ndrome": 7907,
      "Ġbees": 7908,
      "Ġforty": 7909,
      "ros": 7910,
      "outs": 7911,
      "ading": 7912,
      "Ġwhis": 7913,
      "ĠMel": 7914,
      "ĠMess": 7915,
      "using": 7916,
      "unning": 7917,
      "Ġvoices": 7918,
      "ĠOS": 7919,
      "anguage": 7920,
      "ĠAsh": 7921,
      "oked": 7922,
      "Ġwoods": 7923,
      "ĠAngeles": 7924,
      "Ġcorporate": 7925,
      "Ġmuseum": 7926,
      "Ġpolicies": 7927,
      "ĠSunday": 7928,
      "Talk": 7929,
      "Ġflex": 7930,
      "Ġforb": 7931,
      "Ġancest": 7932,
      "ĠMem": 7933,
      "ĠEmb": 7934,
      "Ġclou": 7935,
      "ĠAmmon": 7936,
      "ajesty": 7937,
      "Ġelectronic": 7938,
      "Ġsalt": 7939,
      "Guys": 7940,
      "Ġdepending": 7941,
      "ĠSteve": 7942,
      "Ġevolved": 7943,
      "ĠTHE": 7944,
      "ĠCouncil": 7945,
      "Techn": 7946,
      "Tek": 7947,
      "ras": 7948,
      "itamin": 7949,
      "Ġpills": 7950,
      "Ġmere": 7951,
      "ĠSS": 7952,
      "iform": 7953,
      "ĠAz": 7954,
      "ĠLeb": 7955,
      "Ġdish": 7956,
      "Ġwriter": 7957,
      "Ġfamine": 7958,
      "ĠReserved": 7959,
      "Ġruin": 7960,
      "Ġcovering": 7961,
      "ĠKingdom": 7962,
      "Ġescaped": 7963,
      "Ġmosqu": 7964,
      "Sl": 7965,
      "bul": 7966,
      "down": 7967,
      "ns": 7968,
      "Ġtres": 7969,
      "Ġairl": 7970,
      "Ġwaves": 7971,
      "edd": 7972,
      "keep": 7973,
      "ushed": 7974,
      "emon": 7975,
      "ĠNice": 7976,
      "Ġreliable": 7977,
      "Ġimportantly": 7978,
      "Ġformed": 7979,
      "ĠCarl": 7980,
      "Ġholes": 7981,
      "Ġmiracle": 7982,
      "Ġhistorical": 7983,
      "Ġrepeat": 7984,
      "ĠCourse": 7985,
      "Ġdynamic": 7986,
      "Ġvoucher": 7987,
      "Jack": 7988,
      "Off": 7989,
      "Same": 7990,
      "itals": 7991,
      "Ġbore": 7992,
      "Ġlam": 7993,
      "Ġrecording": 7994,
      "Ġending": 7995,
      "Ġdiscovery": 7996,
      "erman": 7997,
      "Ġteams": 7998,
      "Ġconclus": 7999,
      "Ġtechnological": 8000,
      "Ġcastle": 8001,
      "stitution": 8002,
      "Ġbesides": 8003,
      "Ġstretch": 8004,
      "Boy": 8005,
      "Hope": 8006,
      "dam": 8007,
      "ani": 8008,
      "Ġlest": 8009,
      "Ġham": 8010,
      "ĠSen": 8011,
      "tery": 8012,
      "ĠPR": 8013,
      "emic": 8014,
      "Ġunknown": 8015,
      "ĠKat": 8016,
      "Ġgreatly": 8017,
      "Ġsmooth": 8018,
      "Ġassign": 8019,
      "Ġcreativity": 8020,
      "Ġpresented": 8021,
      "Ġcampus": 8022,
      "Ġnecessarily": 8023,
      "ĠNothing": 8024,
      "Ġcatalog": 8025,
      "Ġfairly": 8026,
      "Posted": 8027,
      "Kill": 8028,
      "OL": 8029,
      "WH": 8030,
      "fish": 8031,
      "occ": 8032,
      "ĠIr": 8033,
      "ĠCS": 8034,
      "ĠAri": 8035,
      "ĠPink": 8036,
      "ĠGot": 8037,
      "ĠGHz": 8038,
      "Ġenables": 8039,
      "erves": 8040,
      "Ġ39": 8041,
      "Ġkills": 8042,
      "Ġfuneral": 8043,
      "Ġdestination": 8044,
      "Ġlistened": 8045,
      "ĠAsian": 8046,
      "venture": 8047,
      "Ġinfin": 8048,
      "phant": 8049,
      "Ġglasses": 8050,
      "Ġintelligent": 8051,
      "Ġweakness": 8052,
      "ĠTurk": 8053,
      "Ġtagged": 8054,
      "Ġassembly": 8055,
      "ĠSummer": 8056,
      "Max": 8057,
      "oj": 8058,
      "yard": 8059,
      "Ġment": 8060,
      "Ġpowers": 8061,
      "state": 8062,
      "outhern": 8063,
      "Ġmyth": 8064,
      "Ġjet": 8065,
      "ĠFac": 8066,
      "ĠHim": 8067,
      "Ġbye": 8068,
      "ounded": 8069,
      "ĠVictor": 8070,
      "Ġminor": 8071,
      "aze": 8072,
      "Ġrestore": 8073,
      "ĠEgyptians": 8074,
      "Ġrepresents": 8075,
      "Ġbleeding": 8076,
      "Ġdeny": 8077,
      "Ġpursue": 8078,
      "Ġiniti": 8079,
      "gthen": 8080,
      "Ġtrespass": 8081,
      "bu": 8082,
      "xy": 8083,
      "lements": 8084,
      "Ġexit": 8085,
      "izza": 8086,
      "Ġcompete": 8087,
      "iously": 8088,
      "Ġsinned": 8089,
      "Ġrefund": 8090,
      "lette": 8091,
      "Ġviewing": 8092,
      "Ġprivile": 8093,
      "ĠGener": 8094,
      "ĠWebcams": 8095,
      "Ġinfection": 8096,
      "Ġcontribute": 8097,
      "Ġcommitment": 8098,
      "Finally": 8099,
      "Ġcontrolled": 8100,
      "Ġutterly": 8101,
      "ĠAntonio": 8102,
      "Ġcasino": 8103,
      "enced": 8104,
      "ali": 8105,
      "Ġstem": 8106,
      "Ġupright": 8107,
      "ĠTimes": 8108,
      "Through": 8109,
      "ĠUr": 8110,
      "Ġdiss": 8111,
      "Ġrecovery": 8112,
      "Ġgene": 8113,
      "Ġextend": 8114,
      "ĠÂ«": 8115,
      "chant": 8116,
      "Ġtables": 8117,
      "Ġobsess": 8118,
      "Ġfoolish": 8119,
      "Ġtranslate": 8120,
      "ĠParty": 8121,
      "Ġbranches": 8122,
      "Ġaccurate": 8123,
      "Ġintellectual": 8124,
      "ĠAssyria": 8125,
      "iors": 8126,
      "Ġtasks": 8127,
      "Ġok": 8128,
      "ato": 8129,
      "ĠId": 8130,
      "Ġgoals": 8131,
      "osity": 8132,
      "ĠHong": 8133,
      "ĠRel": 8134,
      "ĠYOU": 8135,
      "ĠSheldon": 8136,
      "Ġboxes": 8137,
      "zzar": 8138,
      "Ġintroduced": 8139,
      "Ġcandid": 8140,
      "Ġadministr": 8141,
      "Ġtremend": 8142,
      "Ext": 8143,
      "Hol": 8144,
      "ml": 8145,
      "phan": 8146,
      "Ġcandy": 8147,
      "Ġupper": 8148,
      "ĠTha": 8149,
      "ĠGPS": 8150,
      "Ġvib": 8151,
      "Ġrush": 8152,
      "Ġflood": 8153,
      "Ġswallow": 8154,
      "ĠBefore": 8155,
      "Ġdistract": 8156,
      "Ġsooner": 8157,
      "Ġmemor": 8158,
      "ĠSocial": 8159,
      "Ġvolume": 8160,
      "Ġvehicles": 8161,
      "DA": 8162,
      "Es": 8163,
      "ja": 8164,
      "rates": 8165,
      "vable": 8166,
      "Ġtons": 8167,
      "Ġaward": 8168,
      "hah": 8169,
      "ishes": 8170,
      "ĠCare": 8171,
      "Ġorbit": 8172,
      "umps": 8173,
      "Ġeveryday": 8174,
      "icks": 8175,
      "Ġguid": 8176,
      "Ġflour": 8177,
      "Ġbuck": 8178,
      "Ġrecru": 8179,
      "Ġcoupons": 8180,
      "Ġgrace": 8181,
      "Ġprotein": 8182,
      "Ġrab": 8183,
      "iece": 8184,
      "Ġrivers": 8185,
      "2018": 8186,
      "Ġdetailed": 8187,
      "Product": 8188,
      "Ġdrove": 8189,
      "atura": 8190,
      "Ġexpertise": 8191,
      "ĠCrush": 8192,
      "Ġtherapy": 8193,
      "Neither": 8194,
      "Air": 8195,
      "bar": 8196,
      "zed": 8197,
      "Ġicon": 8198,
      "Ġdrew": 8199,
      "Ġpump": 8200,
      "Ġrein": 8201,
      "Ġdol": 8202,
      "Ġster": 8203,
      "Ġliar": 8204,
      "Ġmyster": 8205,
      "ĠCast": 8206,
      "ĠBea": 8207,
      "ĠGilead": 8208,
      "ĠFull": 8209,
      "Ġwanting": 8210,
      "Ġrum": 8211,
      "Ġspir": 8212,
      "Ġhanded": 8213,
      "Ġsyn": 8214,
      "ĠShipping": 8215,
      "Ġcontacts": 8216,
      "ĠEli": 8217,
      "Ġsisters": 8218,
      "zekiah": 8219,
      "Ġfunds": 8220,
      "Ġviruses": 8221,
      "Ġsurrounded": 8222,
      "Ġinfrastructure": 8223,
      "gage": 8224,
      "lor": 8225,
      "isher": 8226,
      "Ġnurse": 8227,
      "Ġstim": 8228,
      "Ġwhit": 8229,
      "Ġknees": 8230,
      "ĠLuc": 8231,
      "ĠPS": 8232,
      "ĠGall": 8233,
      "Ġ120": 8234,
      "ĠEv": 8235,
      "Ġbutter": 8236,
      "Ġflag": 8237,
      "Ġsurvey": 8238,
      "pected": 8239,
      "Ġconsent": 8240,
      "Ġsinging": 8241,
      "ĠPlus": 8242,
      "Ġproperties": 8243,
      "Ġsouls": 8244,
      "Ġupdates": 8245,
      "ĠOrder": 8246,
      "Ġbanks": 8247,
      "IL": 8248,
      "Search": 8249,
      "pal": 8250,
      "Ġreck": 8251,
      "thur": 8252,
      "ĠDen": 8253,
      "ĠEU": 8254,
      "Ġshel": 8255,
      "Ġstudio": 8256,
      "Step": 8257,
      "Ġ196": 8258,
      "Expires": 8259,
      "Ġmaps": 8260,
      "Ġviolent": 8261,
      "aturally": 8262,
      "Ġbrands": 8263,
      "Ġunfortunately": 8264,
      "pherd": 8265,
      "Ġsample": 8266,
      "Ġenhance": 8267,
      "Ġairplane": 8268,
      "ĠPacific": 8269,
      "Easy": 8270,
      "bi": 8271,
      "fs": 8272,
      "mal": 8273,
      "Ġder": 8274,
      "Ġinput": 8275,
      "Ġthres": 8276,
      "ĠBook": 8277,
      "ĠDress": 8278,
      "Ġadvers": 8279,
      "Ġ38": 8280,
      "Ġdecor": 8281,
      "aws": 8282,
      "flix": 8283,
      "Ġlinked": 8284,
      "Ġamounts": 8285,
      "ĠSyria": 8286,
      "Ġblessing": 8287,
      "ambling": 8288,
      "Such": 8289,
      "Ġinformed": 8290,
      "Ġtelephone": 8291,
      "Ġbillions": 8292,
      "Second": 8293,
      "Ġtreasure": 8294,
      "Ġchariots": 8295,
      "Ġtrigger": 8296,
      "Cong": 8297,
      "hi": 8298,
      "oons": 8299,
      "nding": 8300,
      "stance": 8301,
      "otal": 8302,
      "Ġstake": 8303,
      "ĠMid": 8304,
      "ĠPet": 8305,
      "ĠDi": 8306,
      "aza": 8307,
      "Ġregional": 8308,
      "ĠSpy": 8309,
      "Ġequival": 8310,
      "Ġallowing": 8311,
      "Ġtempt": 8312,
      "Plus": 8313,
      "Ġholiday": 8314,
      "Ġtransportation": 8315,
      "Ġtoilet": 8316,
      "'ve": 8317,
      "Based": 8318,
      "Coll": 8319,
      "Comm": 8320,
      "bits": 8321,
      "iety": 8322,
      "Ġsession": 8323,
      "Ġoath": 8324,
      "icer": 8325,
      "Ġkm": 8326,
      "Ġath": 8327,
      "thy": 8328,
      "ĠLow": 8329,
      "aine": 8330,
      "ĠFed": 8331,
      "ĠFound": 8332,
      "Ġoverw": 8333,
      "Ġprey": 8334,
      "ruption": 8335,
      "Ġscare": 8336,
      "Ġtransition": 8337,
      "Ġ195": 8338,
      "Ġholds": 8339,
      "Ġcontinues": 8340,
      "Ġclosely": 8341,
      "Ġmainly": 8342,
      "Ġglobe": 8343,
      "Ġencryption": 8344,
      "Ġobserve": 8345,
      "Ġwickedness": 8346,
      "Ġblew": 8347,
      "ĠSecret": 8348,
      "Ġparticipate": 8349,
      "Ġattractive": 8350,
      "ĠDetective": 8351,
      "Ġreveal": 8352,
      "ĠBerlin": 8353,
      "Ġrapidly": 8354,
      "Know": 8355,
      "PL": 8356,
      "Ġdiverse": 8357,
      "Ġinev": 8358,
      "Ġsoil": 8359,
      "ĠBas": 8360,
      "ulator": 8361,
      "ĠGarden": 8362,
      "Ġgoodness": 8363,
      "Ġunex": 8364,
      "apore": 8365,
      "ificate": 8366,
      "Ġprovider": 8367,
      "ierce": 8368,
      "Ġcreature": 8369,
      "Ġmarks": 8370,
      "Ġprofessor": 8371,
      "ĠForce": 8372,
      "Ġcompetitive": 8373,
      "Ġstreaming": 8374,
      "Ġmixed": 8375,
      "ĠSweden": 8376,
      "Ġdolph": 8377,
      "got": 8378,
      "iri": 8379,
      "Ġtast": 8380,
      "Ġwra": 8381,
      "Ġmile": 8382,
      "isy": 8383,
      "Ġtox": 8384,
      "Ġgre": 8385,
      "imeter": 8386,
      "Ġliver": 8387,
      "ĠPaper": 8388,
      "usive": 8389,
      "ulating": 8390,
      "ema": 8391,
      "Ġadding": 8392,
      "Ġpromote": 8393,
      "Ġpainful": 8394,
      "Ġactivate": 8395,
      "Ġsexy": 8396,
      "Ġcausing": 8397,
      "Ġultimately": 8398,
      "ĠFrancisco": 8399,
      "Ġchemicals": 8400,
      "ĠTexas": 8401,
      "DP": 8402,
      "OO": 8403,
      "lation": 8404,
      "Ġera": 8405,
      "Ġcogn": 8406,
      "Ġnarr": 8407,
      "rov": 8408,
      "ĠLED": 8409,
      "ĠHaw": 8410,
      "Ġintent": 8411,
      "ĠWil": 8412,
      "iza": 8413,
      "Ġimpressive": 8414,
      "Ġstring": 8415,
      "Ġgrid": 8416,
      "print": 8417,
      "Ġdrinks": 8418,
      "Ġcultures": 8419,
      "Christ": 8420,
      "Really": 8421,
      "Ġlifestyle": 8422,
      "Ġcivilization": 8423,
      "Ġprinciple": 8424,
      "Ġinitial": 8425,
      "ucharest": 8426,
      "Ġsequence": 8427,
      "ĠAcademy": 8428,
      "Spec": 8429,
      "ano": 8430,
      "Ġlately": 8431,
      "ima": 8432,
      "ĠST": 8433,
      "ĠCIA": 8434,
      "ĠBoy": 8435,
      "ĠDig": 8436,
      "ĠFashion": 8437,
      "agers": 8438,
      "seless": 8439,
      "Ġroyal": 8440,
      "apse": 8441,
      "Ġchecking": 8442,
      "Ġconfess": 8443,
      "Ġeconomics": 8444,
      "Ġaddresses": 8445,
      "Ġcaptains": 8446,
      "Ġsongs": 8447,
      "Ġvictory": 8448,
      "Ġgranted": 8449,
      "boy": 8450,
      "ixt": 8451,
      "with": 8452,
      "Ġtank": 8453,
      "ĠSci": 8454,
      "ĠMuse": 8455,
      "ĠBed": 8456,
      "ĠLab": 8457,
      "Ġvow": 8458,
      "Though": 8459,
      "ivate": 8460,
      "ogue": 8461,
      "Ġcomprehens": 8462,
      "Ġbeloved": 8463,
      "Ġowned": 8464,
      "Ġrecall": 8465,
      "Ġoldest": 8466,
      "ĠRev": 8467,
      "Ġgolden": 8468,
      "Ġelephant": 8469,
      "ĠShaw": 8470,
      "Ġplatforms": 8471,
      "Ġphenomenon": 8472,
      "ĠLatin": 8473,
      "Ġliquid": 8474,
      "pack": 8475,
      "uan": 8476,
      "yc": 8477,
      "oulette": 8478,
      "Ġnurs": 8479,
      "Ġgender": 8480,
      "Ġthirst": 8481,
      "Ġwithdraw": 8482,
      "ifer": 8483,
      "ĠMind": 8484,
      "ĠTurn": 8485,
      "ĠFamily": 8486,
      "ĠHig": 8487,
      "Ġarts": 8488,
      "Ġbub": 8489,
      "ucky": 8490,
      "Ġ2007": 8491,
      "Ġclassic": 8492,
      "ĠComputer": 8493,
      "Ġfacility": 8494,
      "Ġemails": 8495,
      "Ġantib": 8496,
      "Ġopens": 8497,
      "Ġcombined": 8498,
      "Ġdiscussion": 8499,
      "Ġvillages": 8500,
      "Ġdeparted": 8501,
      "Count": 8502,
      "Join": 8503,
      "Ladies": 8504,
      "Ġwand": 8505,
      "isation": 8506,
      "Ġnarrow": 8507,
      "rogen": 8508,
      "ĠSanta": 8509,
      "oding": 8510,
      "ĠBru": 8511,
      "ĠGi": 8512,
      "Ġquote": 8513,
      "ĠStan": 8514,
      "Ġ48": 8515,
      "Ġdelicious": 8516,
      "Ġpassing": 8517,
      "Ġstays": 8518,
      "Ġdistinct": 8519,
      "Ġprisoner": 8520,
      "Ġtricks": 8521,
      "ĠDescription": 8522,
      "Ġclinical": 8523,
      "grade": 8524,
      "ĠRoyal": 8525,
      "Ġingredients": 8526,
      "bl": 8527,
      "gie": 8528,
      "Ġsau": 8529,
      "Ġpink": 8530,
      "atical": 8531,
      "alf": 8532,
      "ĠCard": 8533,
      "ĠBank": 8534,
      "ĠTric": 8535,
      "Ġexternal": 8536,
      "ĠFire": 8537,
      "ĠRad": 8538,
      "cknow": 8539,
      "Ġintended": 8540,
      "ardon": 8541,
      "Ġperce": 8542,
      "Ġtalent": 8543,
      "ĠInn": 8544,
      "Ġtrap": 8545,
      "Ġtraum": 8546,
      "Ġtrapped": 8547,
      "Ġwarri": 8548,
      "Ġhandsome": 8549,
      "sterdam": 8550,
      "Ġengineer": 8551,
      "ĠConvention": 8552,
      "Ġrecorded": 8553,
      "Ġpulling": 8554,
      "ĠMonaco": 8555,
      "Ġrelatively": 8556,
      "Ġkilomet": 8557,
      "47": 8558,
      "RL": 8559,
      "Ty": 8560,
      "Ġtears": 8561,
      "owder": 8562,
      "Ġstaring": 8563,
      "irts": 8564,
      "ĠTar": 8565,
      "osystem": 8566,
      "inder": 8567,
      "ĠNeed": 8568,
      "Ġshell": 8569,
      "Ġdownstairs": 8570,
      "neath": 8571,
      "Ġ55": 8572,
      "ĠReal": 8573,
      "Ġconfir": 8574,
      "Ġefforts": 8575,
      "Ġ123": 8576,
      "Ġmaintenance": 8577,
      "Ġelectrical": 8578,
      "ĠPrincess": 8579,
      "Using": 8580,
      "ĠSwiss": 8581,
      "Ġinfected": 8582,
      "stitute": 8583,
      "ĠBaal": 8584,
      "Ġneighbors": 8585,
      "omeday": 8586,
      "200": 8587,
      "Em": 8588,
      "Part": 8589,
      "sa": 8590,
      "Ġtheore": 8591,
      "Ġborders": 8592,
      "Ġfancy": 8593,
      "eturn": 8594,
      "icop": 8595,
      "ĠMBA": 8596,
      "gend": 8597,
      "eaf": 8598,
      "Ġagency": 8599,
      "Ġtrump": 8600,
      "Ġrod": 8601,
      "Ġmonkey": 8602,
      "Ġvisiting": 8603,
      "Ġspeaks": 8604,
      "attered": 8605,
      "Ġaffiliate": 8606,
      "Ġesc": 8607,
      "Ġperformed": 8608,
      "Ġannounced": 8609,
      "ĠType": 8610,
      "Ġignore": 8611,
      "Ġdebate": 8612,
      "Ġadopt": 8613,
      "Ġscholars": 8614,
      "Gen": 8615,
      "Ġtub": 8616,
      "Ġtied": 8617,
      "Ġgap": 8618,
      "enth": 8619,
      "Ġmel": 8620,
      "agon": 8621,
      "cia": 8622,
      "Ġwoke": 8623,
      "Ġviewers": 8624,
      "ĠSamaria": 8625,
      "Ġcaptured": 8626,
      "Ġsilent": 8627,
      "ĠScott": 8628,
      "Ġetern": 8629,
      "AND": 8630,
      "News": 8631,
      "Ġefficiency": 8632,
      "Ġpunishment": 8633,
      "Ġgalaxy": 8634,
      "Ġcousin": 8635,
      "ĠLeban": 8636,
      "Ġequivalent": 8637,
      "38": 8638,
      "atible": 8639,
      "ett": 8640,
      "outique": 8641,
      "ador": 8642,
      "herlands": 8643,
      "Ġexha": 8644,
      "ĠEdom": 8645,
      "respond": 8646,
      "Ġplays": 8647,
      "ĠThen": 8648,
      "Ġtransponder": 8649,
      "Ġ65": 8650,
      "Ġinsist": 8651,
      "annah": 8652,
      "Ġaccessories": 8653,
      "Ġestim": 8654,
      "Ġexplained": 8655,
      "Ġstrengthen": 8656,
      "ĠUkrainian": 8657,
      "Ġpushing": 8658,
      "Ġrenew": 8659,
      "Ġdivorce": 8660,
      "Ear": 8661,
      "HD": 8662,
      "well": 8663,
      "Ġtow": 8664,
      "arus": 8665,
      "Ġhills": 8666,
      "Ġabuse": 8667,
      "ĠBur": 8668,
      "ĠHelp": 8669,
      "Ġspin": 8670,
      "Ġcomprom": 8671,
      "Ġdecent": 8672,
      "Whoever": 8673,
      "Ġhardware": 8674,
      "Ġdealt": 8675,
      "Ġdirector": 8676,
      "Ġviews": 8677,
      "bitration": 8678,
      "fortable": 8679,
      "Ġclosing": 8680,
      "Ġrebu": 8681,
      "ĠBritain": 8682,
      "Ġtremendous": 8683,
      "49": 8684,
      "Frank": 8685,
      "Pretty": 8686,
      "awn": 8687,
      "ups": 8688,
      "zo": 8689,
      "Ġtv": 8690,
      "Ġbury": 8691,
      "ĠBell": 8692,
      "ĠBucharest": 8693,
      "ĠJesse": 8694,
      "Ġperish": 8695,
      "Ġpatent": 8696,
      "Ġaircraft": 8697,
      "Ġcontinually": 8698,
      "Ġsurvived": 8699,
      "ographic": 8700,
      "Ġpermanent": 8701,
      "Ass": 8702,
      "PA": 8703,
      "bec": 8704,
      "http": 8705,
      "vin": 8706,
      "alom": 8707,
      "ura": 8708,
      "ĠCreate": 8709,
      "ĠTony": 8710,
      "Ġvital": 8711,
      "Ġintu": 8712,
      "Ġovercome": 8713,
      "forest": 8714,
      "Ġunderneath": 8715,
      "ĠWeTek": 8716,
      "Ġwarn": 8717,
      "Ġwalks": 8718,
      "Ġcontinued": 8719,
      "Always": 8720,
      "ealand": 8721,
      "ĠNetflix": 8722,
      "Ġdragon": 8723,
      "Ġepid": 8724,
      "Ġpillars": 8725,
      "ĠCongress": 8726,
      "ville": 8727,
      "Ġacknow": 8728,
      "itches": 8729,
      "Ġfra": 8730,
      "otes": 8731,
      "acement": 8732,
      "ĠCost": 8733,
      "ĠLis": 8734,
      "ĠNiger": 8735,
      "oston": 8736,
      "izz": 8737,
      "Ġclue": 8738,
      "ĠVill": 8739,
      "Ġdescription": 8740,
      "Ġsetup": 8741,
      "Ġmothers": 8742,
      "Ġcenturies": 8743,
      "Ġreasonable": 8744,
      "apping": 8745,
      "Ġrecognition": 8746,
      "ffered": 8747,
      "Ġinvolve": 8748,
      "Ġcoincidence": 8749,
      "oul": 8750,
      "Ġsoph": 8751,
      "Ġcable": 8752,
      "acious": 8753,
      "Ġstable": 8754,
      "rix": 8755,
      "Ġsear": 8756,
      "Ġjer": 8757,
      "ĠBible": 8758,
      "ĠPenny": 8759,
      "ulse": 8760,
      "ĠTele": 8761,
      "Ġriding": 8762,
      "ighty": 8763,
      "Ġseeking": 8764,
      "ĠVery": 8765,
      "ĠKe": 8766,
      "ĠUnivers": 8767,
      "Ġgray": 8768,
      "Ġgenerated": 8769,
      "Ġdestiny": 8770,
      "Ġfastest": 8771,
      "Ġantivirus": 8772,
      "Ġrocket": 8773,
      "Ġarrive": 8774,
      "Ġprocedure": 8775,
      "Ġalcohol": 8776,
      "Ġscratch": 8777,
      "bour": 8778,
      "nant": 8779,
      "ois": 8780,
      "omatic": 8781,
      "ĠIM": 8782,
      "Ġhttps": 8783,
      "kel": 8784,
      "eline": 8785,
      "ulpt": 8786,
      "ĠGreek": 8787,
      "ĠUN": 8788,
      "ickers": 8789,
      "ĠHezekiah": 8790,
      "Ġpersonality": 8791,
      "Ġslave": 8792,
      "ificial": 8793,
      "ĠZealand": 8794,
      "Ġobst": 8795,
      "Ġdefine": 8796,
      "Ġrising": 8797,
      "Ġthreatened": 8798,
      "Ġconversations": 8799,
      "Ġdomestic": 8800,
      "Ġultimate": 8801,
      "ĠTurkey": 8802,
      "ĠBelg": 8803,
      "theless": 8804,
      "areness": 8805,
      "ĠSoftware": 8806,
      "Holiday": 8807,
      "fu": 8808,
      "list": 8809,
      "parent": 8810,
      "uing": 8811,
      "inos": 8812,
      "Ġbits": 8813,
      "Ġgear": 8814,
      "ĠSqu": 8815,
      "Ġ!!": 8816,
      "Ġshots": 8817,
      "ĠFred": 8818,
      "nap": 8819,
      "Ġoverl": 8820,
      "Ġcovers": 8821,
      "ĠKev": 8822,
      "Ġincense": 8823,
      "Ġlessons": 8824,
      "Ġcorrupt": 8825,
      "Ġcorrespond": 8826,
      "Ġbreaks": 8827,
      "ĠClass": 8828,
      "ĠIndust": 8829,
      "Ġcrypt": 8830,
      "Ġdemands": 8831,
      "orgeous": 8832,
      "Ġastron": 8833,
      "Ġecosystem": 8834,
      "Ġstrategies": 8835,
      "abbath": 8836,
      "ĠNordVPN": 8837,
      "Ġterritory": 8838,
      "Work": 8839,
      "rong": 8840,
      "etes": 8841,
      "ĠPers": 8842,
      "ĠPete": 8843,
      "ĠTre": 8844,
      "Ġshif": 8845,
      "ĠEle": 8846,
      "Ġintense": 8847,
      "soever": 8848,
      "anged": 8849,
      "Ġbelieves": 8850,
      "ĠRef": 8851,
      "Ġstopping": 8852,
      "Ġslaughter": 8853,
      "Ġrail": 8854,
      "Ġ600": 8855,
      "Ġordin": 8856,
      "ĠUSB": 8857,
      "Ġstatistics": 8858,
      "Ġmeasured": 8859,
      "ĠNetherlands": 8860,
      "Ġtenth": 8861,
      "Ġwasting": 8862,
      "AD": 8863,
      "Cut": 8864,
      "Miss": 8865,
      "Moses": 8866,
      "Prom": 8867,
      "och": 8868,
      "hatt": 8869,
      "aser": 8870,
      "Ġants": 8871,
      "Ġanonymous": 8872,
      "ĠShan": 8873,
      "Ġprob": 8874,
      "inda": 8875,
      "Ġentering": 8876,
      "Ġmetaph": 8877,
      "Ġcraft": 8878,
      "Ġelection": 8879,
      "Ġtemporary": 8880,
      "Ġgentleman": 8881,
      "Ġclimb": 8882,
      "âĻ«": 8883,
      "Displayed": 8884,
      "Rel": 8885,
      "Ver": 8886,
      "eath": 8887,
      "sp": 8888,
      "Ġmarch": 8889,
      "Ġyea": 8890,
      "Ġple": 8891,
      "Ġpoured": 8892,
      "iland": 8893,
      "ĠDef": 8894,
      "ortex": 8895,
      "ogen": 8896,
      "Ġdisg": 8897,
      "arest": 8898,
      "Ġsculpt": 8899,
      "Ġsolved": 8900,
      "Ġcheckout": 8901,
      "Ġauthent": 8902,
      "Ġcomplexity": 8903,
      "ouquet": 8904,
      "Ġcrossed": 8905,
      "ĠOpenELEC": 8906,
      "Ġaston": 8907,
      "Ġoccurred": 8908,
      "Ġmolecules": 8909,
      "Ġvulnerable": 8910,
      "Ġuncomfortable": 8911,
      "mn": 8912,
      "rans": 8913,
      "Ġ<": 8914,
      "hell": 8915,
      "heim": 8916,
      "Ġpitch": 8917,
      "uting": 8918,
      "ĠBrand": 8919,
      "ĠLand": 8920,
      "ĠFriend": 8921,
      "Ġdeploy": 8922,
      "ĠRick": 8923,
      "Ġcalend": 8924,
      "Ġprime": 8925,
      "Ġlets": 8926,
      "Ġsmote": 8927,
      "ĠPhot": 8928,
      "ĠJohnny": 8929,
      "Ġenjoyed": 8930,
      "Ġbeneath": 8931,
      "Ġselfish": 8932,
      "Ġradiation": 8933,
      "Ġtranslated": 8934,
      "Ġconsumption": 8935,
      "Ġsandw": 8936,
      "ĠBudapest": 8937,
      "Ġmotherfucker": 8938,
      "Big": 8939,
      "Six": 8940,
      "da": 8941,
      "eness": 8942,
      "atar": 8943,
      "Ġthief": 8944,
      "lech": 8945,
      "sey": 8946,
      "Ġreference": 8947,
      "Ġmelt": 8948,
      "Ġstairs": 8949,
      "ĠSay": 8950,
      "ĠCop": 8951,
      "ĠCandy": 8952,
      "ĠCEO": 8953,
      "ĠAD": 8954,
      "eaking": 8955,
      "Ġalarm": 8956,
      "Ġram": 8957,
      "Thought": 8958,
      "Ġbrown": 8959,
      "Ġearned": 8960,
      "Ġhumor": 8961,
      "Ġapproved": 8962,
      "Ġconcerns": 8963,
      "Ġseparated": 8964,
      "Ġtumor": 8965,
      "ĠSingapore": 8966,
      "Ġorgans": 8967,
      "Ġaccordance": 8968,
      "Ġoverwhel": 8969,
      "31": 8970,
      "Sur": 8971,
      "chers": 8972,
      "customer": 8973,
      "fo": 8974,
      "Ġpicking": 8975,
      "Ġgut": 8976,
      "stone": 8977,
      "Ġweep": 8978,
      "ĠSaturday": 8979,
      "ĠAM": 8980,
      "ila": 8981,
      "ĠLanguage": 8982,
      "ĠHung": 8983,
      "ĠRate": 8984,
      "ĠNumber": 8985,
      "Ġuniform": 8986,
      "Ġflies": 8987,
      "Ġ37": 8988,
      "ensity": 8989,
      "nergy": 8990,
      "uesday": 8991,
      "Ġparticles": 8992,
      "ronics": 8993,
      "Ġwallet": 8994,
      "Ġtracks": 8995,
      "Ġlayer": 8996,
      "ĠMinister": 8997,
      "Ġinstrument": 8998,
      "ĠKorean": 8999,
      "Ev": 9000,
      "Long": 9001,
      "Money": 9002,
      "lets": 9003,
      "non": 9004,
      "race": 9005,
      "lla": 9006,
      "Ġbeating": 9007,
      "irgin": 9008,
      "ests": 9009,
      "ĠLong": 9010,
      "ieutenant": 9011,
      "ĠJones": 9012,
      "agger": 9013,
      "akistan": 9014,
      "Ġhelicop": 9015,
      "Ġsynt": 9016,
      "Ġinstinct": 9017,
      "coming": 9018,
      "Ġcharged": 9019,
      "Ġsubur": 9020,
      "Ġinsult": 9021,
      "ĠHoward": 9022,
      "okes": 9023,
      "ĠOnly": 9024,
      "Ġstored": 9025,
      "Ġpengu": 9026,
      "Ġcyber": 9027,
      "ĠServer": 9028,
      "Ġjudgments": 9029,
      "Ġfirmware": 9030,
      "Ġmathematics": 9031,
      "ĠHTML": 9032,
      "Prep": 9033,
      "Travel": 9034,
      "mo": 9035,
      "mate": 9036,
      "uous": 9037,
      "reth": 9038,
      "Ġnail": 9039,
      "Ġpizza": 9040,
      "hath": 9041,
      "Ġinqu": 9042,
      "ĠLee": 9043,
      "Hell": 9044,
      "ĠOd": 9045,
      "Ġincident": 9046,
      "neys": 9047,
      "Ġsurf": 9048,
      "ĠTheme": 9049,
      "Ġtrail": 9050,
      "Ġinteraction": 9051,
      "Ġgenerous": 9052,
      "Ġobjective": 9053,
      "Ġdwelt": 9054,
      "alker": 9055,
      "Ġheroes": 9056,
      "Ġthrown": 9057,
      "Ġcollaboration": 9058,
      "Ġpissed": 9059,
      "Ġjewel": 9060,
      "Ġclouds": 9061,
      "Av": 9062,
      "Ġtens": 9063,
      "Ġyield": 9064,
      "Ġease": 9065,
      "imal": 9066,
      "ĠPra": 9067,
      "umin": 9068,
      "ĠRu": 9069,
      "Ġplague": 9070,
      "Ġchip": 9071,
      "izer": 9072,
      "ĠReese": 9073,
      "Ġrelie": 9074,
      "Ġskull": 9075,
      "Ġformats": 9076,
      "Ġdefined": 9077,
      "Being": 9078,
      "Ġequipped": 9079,
      "Ġfeeding": 9080,
      "Ġcombat": 9081,
      "Ġmedication": 9082,
      "Ġhonestly": 9083,
      "Trust": 9084,
      "Ġimmediate": 9085,
      "Ġrevenge": 9086,
      "ĠSitewide": 9087,
      "ĠArchives": 9088,
      "Ġphase": 9089,
      "Host": 9090,
      "Sw": 9091,
      "Ġfans": 9092,
      "Ġlit": 9093,
      "oted": 9094,
      "Ġheark": 9095,
      "urrent": 9096,
      "ĠBouquet": 9097,
      "ĠGar": 9098,
      "arts": 9099,
      "ĠWik": 9100,
      "Ġtrains": 9101,
      "Ġfigures": 9102,
      "ĠJeroboam": 9103,
      "ĠCarter": 9104,
      "Ġcollective": 9105,
      "Ġinstalling": 9106,
      "ĠBarb": 9107,
      "ĠDean": 9108,
      "Ġremained": 9109,
      "ĠEastern": 9110,
      "Ġinstruction": 9111,
      "Ġsuitable": 9112,
      "Ġfortun": 9113,
      "Ġdesperate": 9114,
      "**": 9115,
      "HA": 9116,
      "Little": 9117,
      "Need": 9118,
      "Red": 9119,
      "ders": 9120,
      "mare": 9121,
      "Ġmask": 9122,
      "itis": 9123,
      "Ġpir": 9124,
      "Ġpity": 9125,
      "omer": 9126,
      "ĠBoston": 9127,
      "ĠPerm": 9128,
      "ĠPersonal": 9129,
      "ĠToday": 9130,
      "ĠGad": 9131,
      "Ġguards": 9132,
      "Inc": 9133,
      "Ġapparently": 9134,
      "Ġsupplies": 9135,
      "Ġnumer": 9136,
      "Ġtraged": 9137,
      "Ġvisible": 9138,
      "Ġrefused": 9139,
      "Ġaccessible": 9140,
      "ĠShould": 9141,
      "Ġimmune": 9142,
      "ĠTransponder": 9143,
      "Ġpanic": 9144,
      "Ġroutine": 9145,
      "ĠArabic": 9146,
      "alloween": 9147,
      "Ġaccomplish": 9148,
      "ĠLouis": 9149,
      "ĠDevelopment": 9150,
      "ĠSciences": 9151,
      "ĠLebanon": 9152,
      "Don": 9153,
      "Either": 9154,
      "Powered": 9155,
      "cers": 9156,
      "chem": 9157,
      "Ġwing": 9158,
      "Ġmac": 9159,
      "Ġdict": 9160,
      "Ġeh": 9161,
      "ado": 9162,
      "ĠLittle": 9163,
      "ĠListen": 9164,
      "ĠNAS": 9165,
      "Ġpreviously": 9166,
      "Ġsched": 9167,
      "Ġsymm": 9168,
      "Ġcounting": 9169,
      "Ġdelete": 9170,
      "Ġinvention": 9171,
      "Ġexcess": 9172,
      "ĠAmsterdam": 9173,
      "Ġfalls": 9174,
      "Ġimagined": 9175,
      "Ġexpectations": 9176,
      "ienna": 9177,
      "Ġfaculty": 9178,
      "going": 9179,
      "Ġutil": 9180,
      "Ġdefeat": 9181,
      "Ġmailbox": 9182,
      "Ġodds": 9183,
      "Ġstrategic": 9184,
      "Ġunbelie": 9185,
      "Ġpuzzle": 9186,
      "Ġinsects": 9187,
      "ĠTricolor": 9188,
      "Clear": 9189,
      "Pass": 9190,
      "Pull": 9191,
      "Ġfrank": 9192,
      "ĠCat": 9193,
      "ĠMonday": 9194,
      "Ġcancel": 9195,
      "ĠBilly": 9196,
      "ulgar": 9197,
      "ĠDave": 9198,
      "ĠNic": 9199,
      "Ġtwist": 9200,
      "icted": 9201,
      "ĠWebs": 9202,
      "Ġstops": 9203,
      "Ġprototy": 9204,
      "Ġdrown": 9205,
      "Ġdesigners": 9206,
      "Ġtopic": 9207,
      "Ġdistrict": 9208,
      "Ġcraw": 9209,
      "Ġpositions": 9210,
      "Ġlabel": 9211,
      "Ġrocks": 9212,
      "uchad": 9213,
      "Ġentrepreneurs": 9214,
      "ĠiPad": 9215,
      "ĠMuseum": 9216,
      "Ðº": 9217,
      "Ġtoy": 9218,
      "Ġreduced": 9219,
      "ĠLL": 9220,
      "ĠHas": 9221,
      "Ġsail": 9222,
      "ĠNTV": 9223,
      "Ġdisabled": 9224,
      "Ġarise": 9225,
      "Ġacid": 9226,
      "Ġattitude": 9227,
      "Ġmovements": 9228,
      "Ġexposed": 9229,
      "Ġdoub": 9230,
      "ĠJeff": 9231,
      "Ġpalm": 9232,
      "ĠParties": 9233,
      "Ġlawyers": 9234,
      "Ġdeclare": 9235,
      "ĠMilan": 9236,
      "Ġinspiration": 9237,
      "Ġappointment": 9238,
      "Ġbombs": 9239,
      "Ġdiamond": 9240,
      "Ġcontemporary": 9241,
      "39": 9242,
      "Ai": 9243,
      "Men": 9244,
      "Mic": 9245,
      "Pat": 9246,
      "Run": 9247,
      "iens": 9248,
      "vo": 9249,
      "Ġï": 9250,
      "Ġsack": 9251,
      "hap": 9252,
      "Ġdimensions": 9253,
      "Ġnaturally": 9254,
      "anks": 9255,
      "ashing": 9256,
      "opath": 9257,
      "ĠBern": 9258,
      "Ġoutta": 9259,
      "ĠTommy": 9260,
      "ĠDoc": 9261,
      "Ġrings": 9262,
      "ĠEnt": 9263,
      "ĠNathan": 9264,
      "actica": 9265,
      "Ġappeal": 9266,
      "Ġdecre": 9267,
      "Ġhomework": 9268,
      "Ġmonsters": 9269,
      "Ġstrict": 9270,
      "Ġcurric": 9271,
      "Ġslew": 9272,
      "Ġdiscounts": 9273,
      "Ġorganic": 9274,
      "Ġdrawn": 9275,
      "Ġpaste": 9276,
      "Ġdiab": 9277,
      "Ġnearby": 9278,
      "ĠAnna": 9279,
      "Ġenjoying": 9280,
      "Ġruined": 9281,
      "Ġbreadth": 9282,
      "Ġcabin": 9283,
      "Ġframework": 9284,
      "ĠHonor": 9285,
      "ĠAbsalom": 9286,
      "ĠGreece": 9287,
      "100": 9288,
      "uction": 9289,
      "Ġvert": 9290,
      "oust": 9291,
      "erable": 9292,
      "Ġgorgeous": 9293,
      "icit": 9294,
      "ushing": 9295,
      "Ġalb": 9296,
      "ĠFro": 9297,
      "ĠRachel": 9298,
      "Ġbucks": 9299,
      "Ġdeserves": 9300,
      "erer": 9301,
      "Ġ85": 9302,
      "hark": 9303,
      "ĠAlice": 9304,
      "Ġpublish": 9305,
      "Ġreceiving": 9306,
      "ĠBrown": 9307,
      "Ġdamaged": 9308,
      "Ġlegit": 9309,
      "Ġfears": 9310,
      "Ġlimits": 9311,
      "Ġbehalf": 9312,
      "Ġrequests": 9313,
      "Ġremaining": 9314,
      "Ġkissed": 9315,
      "phas": 9316,
[...]
