#version: 0.2
e n
e r
c h
Ġ d
i n
Ġ .
i e
Ġ ,
i ch
s t
Ġ w
u n
Ġ s
e in
a n
a s
e i
e s
Ġ m
Ġ S
a u
Ã ¼
Ġ i
Ġ un
t e
Ġ h
Ġ n
Ġ g
l l
i r
Ġ ein
o n
Ġd ie
Ġ v
a r
Ġ b
Ã ¤
Ġ z
Ġun d
ich t
h r
g en
a l
Ġd as
a t
Ġ ?
Ġ k
Ġz u
o r
i t
a b
e m
t en
Ġ M
e l
s ch
Ġi st
Ã ¶
Ġ au
Ġ A
Ġd er
d er
a ch
Ġ -
e t
Ġ f
Ġ B
Ġn icht
Ġ G
d en
e h
Ġ W
I ch
Ġ ich
Ġ K
Ġ in
g e
Ġ H
i er
d e
ĠS ie
Ġ F
Ġw ir
m m
u r
t er
Ġ D
Ã¼ r
un g
Ġ er
Ġ E
Ġ P
Ġ T
Ã Ł
Ġ es
Ġ L
i g
b er
l ich
Ġd en
Ġv er
Ġ an
s en
Ġ l
Ġ I
u m
r e
Ġs ie
c k
Ġd u
Ġh ab
an n
Ġs o
Ġau f
a m
i s
r o
b en
ei t
h n
Ġm it
Ġ R
Ġ V
Ġv on
U n
u t
a ll
u s
Ġs ch
en n
s e
Ġg e
a g
l e
in d
ein e
Ġ N
Ġf Ã¼r
Ġ t
Ġw ar
Ġein e
s er
Ġ J
e u
Ġdas s
Ġw ie
o ch
Ġ o
an d
Ġb e
i on
Ġ !
Ġ Z
Ã¶ n
Ġh at
o l
Ġ j
Un d
st e
r a
Ġ :
eh en
Ġs ich
ĠS ch
f en
i sch
Ġs ind
k t
Ġd a
al s
D as
o mm
Ġ all
e hr
ĠS t
Ã¼ ber
i l
f t
Ġw er
Ġau s
Ġ C
Ġw as
S ie
Ġhab en
et z
n en
Ġi hr
a hr
en t
Ġm ir
Ġs ein
Ġ ab
h l
Ġ "
Ġ als
Ġm ich
Ġ um
Ġd em
o ll
ch en
o m
D ie
Ã¤ n
r au
Ġ Ã¼ber
o t
i ll
ie l
Ġ p
st en
Ġ O
Ġun s
W ir
r ei
er n
E s
Ġm ein
b e
Ġk Ã¶n
Ġw ei
ĠV er
o s
Ġ st
es ch
e g
in g
Ġd es
ĠA n
Ġein en
r Ã¼
a st
Ġv or
Ġk ann
. .
Ã¶ r
Ġhab e
Ġi m
Ġo der
un gen
ch t
Ġh ier
Ġ 1
ach t
i k
Ġwer den
Ġwir d
b t
Ġi hn
Ġso ll
i st
ĠI hr
i en
Ġd ich
Ġn och
Ġs p
ier en
D u
Ã¤ t
Ġ 2
Ġ â
Ġw enn
Ġ. ..
Ġ r
E r
Ġn ach
Ġn ur
Ġ )
ll e
Ġb ei
Ġau ch
or t
w ei
f f
Ġab er
Ġd ir
ier t
ĠI n
etz t
ĠP ro
Ġ Ich
z en
Ġm an
te t
i v
omm en
e ben
ĠE r
Ġg eh
ach en
ĠA r
un d
Ġâ Ģ
ĠkÃ¶n nen
z u
Ġb in
Ġun ser
mm er
a gen
i gen
l au
ĠS p
s p
ĠB e
ei l
W as
i ge
ĠG e
at ion
h m
el t
Ġan der
a d
r u
ste ll
an k
o p
us s
au s
an g
Ġw ill
z e
w as
u l
Ġdie s
Ġm ehr
Ġg es
i ck
Ġ et
A ber
Ġdie se
Ġ re
n e
Ġ ;
Ã¼ s
sch en
Ġd ar
u ch
h e
as s
r ie
en d
Ġein em
0 0
ur ch
Ġein er
m en
i mm
f fen
ĠJ ahr
h al
er t
te l
is sen
Ġ Un
Ġ U
Ġ ent
er s
as sen
Ġall e
Ġh ast
Ġd ein
Ġw o
Ġ (
Ġh er
E R
s o
ĠM en
Ġm eine
W ie
ĠR e
Ġw oll
i bt
b l
eu te
Ġzu m
isch en
Ġet was
ĠE n
Ġwei ÃŁ
hn en
a mm
r in
Ã¤ r
Ġg en
Ġk l
Ã¤ ch
e d
u f
E in
Ġw ur
p p
g t
h eit
ĠZ eit
Ġun ter
rÃ¼ ck
h er
l ei
ÃŁ en
ar t
Ġh in
der n
Ġl ie
Ġg ibt
Ġd urch
Ġn ie
Ġsch on
f Ã¼
u g
Ġs ehr
Ġj etzt
k en
Ġ Ã
ĠE in
sch a
ter n
Ġd ann
Ġk eine
b st
W enn
o g
Ã¼ n
Ġs ag
Ġt un
ei ten
Ġk ein
Ġs ehen
Ġi mmer
e st
Ġ e
Ġm Ã¼s
r i
Ġall es
Ġg ut
Ġw Ã¼r
o b
or m
ĠB l
Ġb ist
Ġb es
ung s
ĠI hnen
un den
es s
Ġv iel
an z
Ġwie der
ER R
ĠW as
n er
ch e
ĠL eben
Ã¼ ck
f ach
D er
p t
an t
Ġ am
ĠH ERR
Ġm achen
Ġi hm
l ie
k ommen
isch e
A l
e b
k eit
k e
lich e
at en
g er
Ġb is
ĠmÃ¼s sen
Ġ2 0
a hl
ar b
Ġv ie
a ge
ch te
Ġm uss
ei gen
n te
ot t
Ġm al
w er
ĠMen schen
i m
Ġw Ã¤
Ġhat te
Ġs agen
o hn
f e
r Ã¤
Ġein fach
Ġm Ã¶
in den
r ach
ei d
Ġge w
el n
v er
lich en
eh men
Ġnicht s
Ġj e
Ġwur de
Ġg ro
a y
Ġdie ser
Ġda ÃŁ
scha ft
ÃŁ e
gen d
Ġgeh t
p f
i z
Ġge f
ĠIhr e
Ġn eu
Ġ 3
Ġk omm
ĠH er
b ar
ge b
o k
Ġw issen
ĠW elt
Ġg lau
l o
al t
it te
Ġals o
e ll
at t
Ġ '
k lich
ĠK in
Ġd och
el d
ĠG es
ut z
e ch
ar um
h t
h en
Ã¼ t
ĠG esch
Ġzu rÃ¼ck
Ġg er
kt ion
a p
i d
Ġz wei
a k
ĠF re
au f
on t
ĠwÃ¼r de
ag t
Ġihr e
ĠC h
ĠH o
Ġ eu
u chen
Ġzu r
ĠD as
I n
ĠM ann
i c
ĠO r
a te
in e
lle icht
g es
ĠG ott
g el
m al
ĠâĢ ĵ
Ġden n
ig er
ĠD u
le ich
Ġb rau
ĠG r
ĠA l
Ġwir klich
r icht
an gen
Ġg esch
st er
Ġwar en
e gen
D a
am en
el bst
ĠW ir
Ġg ehen
Ġwer de
w ar
Ġs eine
Ġg em
ĠF l
Ġeu ch
Ġunser e
ĠH au
Ã¤ hl
Ġb er
at er
o d
a ck
p er
ĠP l
Ġf Ã¼
ei te
al ten
Ġver s
g lich
ĠT ag
Ġg et
hn e
am it
eh t
ĠE s
ra gen
ĠA u
n is
f er
Ġj a
l er
ĠK Ã¶n
Ã¤ hr
Ġwei ter
Ġver l
a de
a h
e kt
Ġd eine
icht ig
ĠF rau
Ġ _
d u
Ġh Ã¤t
hal ten
Ã¤ l
ĠA us
Ġk on
ÃŁ t
um en
J a
ĠKin der
Ġihn en
o de
Ġm ach
Al so
ĠA b
Ã¤ d
k l
ĠW ei
S ch
a kt
en den
Ġ20 1
enn en
in n
Ġdies em
rin gen
Ã¶r t
Ġander en
Ġj em
f l
stell en
amm en
Ġg el
v or
e ich
ÃŁ er
sch ie
it t
Ġd amit
f orm
f ahr
Ã¤ u
Ġsich er
bl em
or d
i a
ľ ber
il d
ĠL eute
Ã¶r en
ĠH and
Ġwei l
' s
Ġwoll en
om p
Ġsoll te
a ar
Ġdies es
Ġver st
Ġander e
at z
S o
ĠV or
sch l
Ġver w
et t
Ġ 5
Ġdie sen
es en
ĠAr t
r ank
or gen
Ġk ommen
ĠKÃ¶n ig
ab en
Ġbe g
Ġ- -
Ġsag te
ĠL ie
re chen
Ġvie le
ĠD ie
an den
Ġh eute
ĠwÃ¤ re
ĠkÃ¶n nte
r an
ĠJ a
Ġwoll te
r gend
v on
Ġ Und
Ġein es
ĠEn t
u d
al e
Ġzu s
I hr
Ġp ass
d ig
un de
Ġw en
ĠSch l
or en
ĠPro blem
ĠS e
Ġver b
an ge
u te
Ġg an
un der
Ġges agt
in ge
ation en
ĠSch w
sch ein
ff e
Ġs elbst
m er
s el
Ġm us
Ġ eigen
Ġh ei
u ten
ĠM a
re ich
ĠD e
ĠB er
Ġsch l
Ġbe st
Ġg anz
Ġo b
Ġ 4
Ġmein en
o w
ck en
z i
d em
it Ã¤t
ĠK l
z ie
Ġl assen
Ġf inden
ĠAr b
W arum
Ġge b
u st
ĠW ie
r ag
Ġ Â
ge ben
ig keit
hr en
ich te
W o
ĠI s
ĠM on
Ġbes ser
ĠA uf
ion en
ĠL and
ĠM ar
N ein
ll en
a f
z eit
z t
y p
ĠhÃ¤t te
I st
Ġg leich
m e
s am
Ġge gen
a hm
e y
r Ã¶
ĠUn ter
ĠG er
z eu
Ġw eg
r en
k te
ĠS o
Ġkomm t
Ġgem acht
ĠG eld
ĠN ach
ĠHo tel
l Ã¼ck
Ġl os
Ġi rgend
ach te
ut ter
V er
ĠH aus
y st
q u
ĠJahr e
at s
Ġv om
ĠHERR N
Ġ c
h in
Ġzus ammen
c e
Ġw ahr
f Ã¼r
ĠÃ ľber
Ġz w
Ġsp rach
ĠJahr en
ach e
Ġb lei
ĠmÃ¶ chte
Ġh el
a den
Ġda von
ank e
ĠArb eit
ĠGe b
Ġo hne
iv e
Ã¤n der
g st
f all
f or
Ġmein er
eh e
ad t
yst em
Ġp ro
i b
Ġglau be
z Ã¤hl
ĠÃ Ħ
i de
ĠS ohn
ĠW eb
ĠBl umen
n ten
Ġm acht
Ġs on
un ktion
a v
u cht
l os
Ġger ade
Ġl etz
Ġkl ein
ch ten
au fen
Ġmein em
Ġge ben
ĠW er
ĠV ater
Ġ rau
ĠB o
Ġb esch
n ung
ra ge
Die se
au en
Ġ arb
Ġvie lleicht
ing t
Ġges ehen
ĠM it
f ol
ĠR eg
Ġh o
Ġd rei
is s
iel en
imm t
Ġhel fen
g esch
ĠD inge
Ġgen au
ar k
k ay
ĠAn t
Ġein z
D ann
Ġver d
ĠK ont
o sten
hl en
Ġz ie
ĠâĢ ľ
ra el
ei den
ĠZ u
Ġb itte
Ġbe k
Ġp aar
t lich
Ġjem and
s s
au m
M an
ier ung
ĠM al
in de
ĠA ut
ĠW eg
Ġpass iert
Ġn un
ar d
i te
at Ã¼r
al en
Ġ /
H ier
u e
Ã¶ t
un ter
Ġd ort
au t
ĠIs rael
ĠN e
w ick
hal b
Ġl e
as se
Ġl ang
ĠFre und
ol og
Ġsein en
a ÃŁ
W er
Die s
ĠE l
ich er
ĠK on
ig t
ĠWas ser
Ġher aus
el e
Ã¤ m
Ġge st
ĠSt adt
Ġneu e
ĠG eh
Ġ1 0
Ġsoll ten
Ġb en
ĠU m
h a
Ġw el
Ġbe w
ne ll
z ahl
Ġihr en
E N
Ġsch Ã¶n
am il
V ie
Ġb et
ĠHau se
Ġs ei
ĠG ut
ge w
2 0
A n
ĠE x
Ġre den
g ehen
ier te
Ġkann st
N un
Ġber eit
ĠM utter
Ġin s
er v
p l
Ġwo hl
Ġnie m
Ġkein en
ier e
ĠN ein
Ġrau s
Ġwur den
wei se
Ġd achte
Ġt ut
ĠM ill
al d
w o
Ã¤n d
ĠT eil
Ġsoll en
ĠBe w
Ã¤l t
ck t
ĠR ei
ĠSp iel
er st
ĠG el
Ġhat ten
Ġl ange
c om
n et
ĠIn form
ĠV ol
ĠS eite
Ġ Q
Ã¤n dern
sp iel
Ġsch w
Ein e
stell t
Ġden ke
Ġer st
Ġl eben
ei st
ĠT e
rei ben
ĠM in
ĠN acht
an der
h o
n t
p r
N icht
Ġj ed
etz en
ut zen
M ein
ĠG en
ĠF amil
u ter
Ġv oll
l ine
ĠD aten
Ġin ter
b r
Ġget an
Ġer zÃ¤hl
at ur
00 0
op f
k eiten
Ġwar um
a ffen
o gen
Ġbe de
es sen
ers on
Ġdar Ã¼ber
fÃ¼ hr
p ro
Ġwill st
Ġgro ÃŁ
ch er
w ort
ĠPro du
sch w
ĠL e
Ġgeh Ã¶rt
ĠVol k
Ġsch nell
ĠGesch ichte
m it
schie den
ĠAu gen
Ġk am
Ġb r
Ã¤ ft
Ã¤ h
Ġr ein
Ã¤d chen
on der
ĠVer s
Ġsein er
J etzt
ĠM Ã¤n
ei sten
stell ung
it z
ĠGr und
ĠR o
Ġda zu
l and
D enn
ra mm
Ġg ab
ĠI de
Ġda fÃ¼r
Ġg ar
ur e
d r
Ã¶ glich
g ar
r acht
ĠK omm
Ã¶ s
ar te
ĠR ab
Ġkon nte
Ġunser er
atÃ¼r lich
w or
l ung
Ġso l
Ġ $
Ġdein en
w ie
s st
Ġsag t
p h
ei m
ĠB r
y s
ĠP ol
Al s
ann t
Ġ Y
Ã¤r en
Ġ 6
ĠS te
Ġsein em
ĠP h
ĠGe w
ĠM om
Ġg ern
fahr en
a c
o ten
as st
Ġzw ischen
ĠWeb s
Ġe x
eh l
Ġ1 9
z ent
ll es
Vie lleicht
Ġgan ze
in gen
ĠB ei
in k
ab e
a hn
h au
ro t
Ã¤ ll
Ġwir st
or den
Ġb eh
isch er
Ġbrau chen
Ġl eid
m a
ĠB ild
ĠU S
ĠM Ã¤dchen
Ġein mal
Ġihr er
Ġmus st
s icht
O h
o st
ĠVer b
ĠW o
ar ten
P N
Ġn ehmen
Ġkl ar
end et
ĠA ben
Ġver t
Ġje der
K omm
ab ei
w a
Ġein ige
Ġsie ht
Ġb ringen
ul d
in nen
Ġg rÃ¶
Ġt ot
ĠRab att
Ġall en
Ġ &
ĠN amen
ĠV ide
ĠEn de
s ehen
Ġdar an
Ġn Ã¤ch
Ġt Ã¶
lich er
S t
ell en
k er
Ġbe kommen
Ġden en
Ġden ken
ru pp
i o
al is
i der
g r
ie le
Ã¤ ter
rÃ¼ n
un ge
ĠK ind
ze ich
ĠB ru
H ast
Ġw ichtig
Ġs eit
h em
ĠW och
eil en
ĠB et
Ġf unktion
as ch
it en
f te
ur z
ĠOr t
am e
ech n
ĠF all
Ġbe f
ĠM us
M it
Ġer sten
w end
ul t
ie s
f ten
ĠB en
Ġsp rechen
ĠwÃ¤ hr
Ġw us
Ġg ing
sch e
ĠA pp
il fe
ĠF rage
enn t
ĠC o
Ġre cht
Ã¤n g
Ġan ge
ei gt
ĠM ed
ĠSt ra
ĠFrau en
s on
Ġm eisten
Ġ 8
Ġ 7
A uf
ĠweiÃŁ t
g ramm
et te
o se
Ġd abei
ĠQ u
e der
Ġdar auf
Ġson dern
Ġd e
ĠInform ationen
Ġgro ÃŁe
g l
et ten
uch e
a pp
Ġd rau
ĠwÃ¤hr end
Ġst er
oll e
ĠPl an
n ahm
ĠS h
ĠIhr en
ĠB ab
ĠMÃ¤n ner
Ġgen ug
ĠwÃ¼r den
ick en
Ġje den
ĠS ache
ĠB uch
ĠK an
rei s
st Ã¼t
Ġh Ã¶ren
ĠAn gst
el s
utz er
Ġg ute
g ie
ĠT age
tern ehmen
ĠNach richt
m lich
F Ã¼r
Ġer halten
u tet
ĠP erson
h st
for der
ach ten
ĠW enn
u b
Ġb ie
Ã¤n de
Ġver schieden
Ġbe vor
es se
ĠIn st
icht en
i mmer
u p
Ġblei ben
or g
Ġinter ess
ĠK Ã¶r
Ġer ste
Ã¤ch ter
ĠLeben s
d et
Ġ akt
Ġd r
Ġglau ben
r em
ĠIhr er
Ġh alten
ĠT echn
ol en
eu er
i sten
I m
ĠFamil ie
Ġ Ã¶
es ser
ei tet
ĠM an
Ġgan zen
j a
it ion
Ã¤ch lich
er e
war e
i f
Ġf ol
ĠAben d
M eine
Ġk ennen
Ã¼n f
â Ģ
Ġsch le
Ġm ag
hal t
Ġver k
ĠmÃ¶ glich
ĠZ ug
f ern
o v
ĠA m
ĠS icher
it ten
ĠM r
Ġver m
Ġh och
ra d
k un
un kt
Ġsch wer
rie g
ĠS on
Ġv ier
Ġbe sten
Ġletz ten
et er
ĠkÃ¶n nten
W ei
ĠHer z
ĠL u
r at
ĠW issen
Ġhin ter
s k
ĠL achen
Ġgef unden
Ġdein em
Ġso gar
Ġst eht
Ġr ichtig
r itt
ie f
n ehmen
ĠE ur
f ort
ĠNe w
u er
Ġwen ig
ĠP art
Ġer w
ĠâĢ ŀ
ei g
ĠM ein
r y
ĠK opf
g angen
den t
r on
Ġarb eiten
ir n
Ġer k
Ġ Ã¼
ĠH Ã¶
ĠK am
ur t
Ġbei m
den n
ĠW ahr
zeu g
em ein
lau b
ĠIhr em
Ġverst ehen
oll ar
ar en
ĠG ro
ru ck
ĠG lÃ¼ck
ĠHer r
g eh
ĠT Ã¼r
Ġz eigen
Ġt re
Ġunser en
kun ft
ĠS ystem
o ol
st and
i al
ĠF ot
o ff
Ġbede utet
ĠR es
ĠM e
rau m
ĠGel Ã¤chter
Ġ1 5
ur s
ĠK rank
ĠFl ug
Ġs uchen
ges sen
al te
rie ben
f on
ien st
Ġf rÃ¼
ĠUn ternehmen
ĠF ol
ĠA ber
Ġs ah
ĠD ollar
ĠH ilfe
Ġster ben
ĠIde e
H o
Ġall er
ic e
h le
Ġdein er
ĠBl ut
ur en
ĠD at
in ner
ĠF or
ĠSch u
o ck
i p
mit tel
ol d
Ġ te
Ġneu en
Ġ *
all en
ĠH in
g or
ats Ã¤chlich
u ÃŁ
Ġf est
ĠS u
Ã¶ l
ĠW ort
ĠBru der
ge f
au er
Ġr u
Ġer h
Ġw eit
olog ie
Ġwus ste
N ur
A lle
ĠD er
A lles
g et
Ġ 9
ĠOr d
Ġet wa
Ġhei ÃŁt
er nen
Ġst ehen
Ġâ Ļ
ĠF il
Ġau ÃŁer
ĠD av
Ġf al
ik an
ĠK re
b ei
b ringen
ik a
oll en
Ġsp richt
fÃ¼ hl
wer k
Ġf rei
ĠB es
rau en
ech s
ĠVer t
ig n
ahr en
Ġall ein
lie ÃŁ
ĠSicher heit
ei le
ind et
ĠSt unden
ĠAut o
d ro
Ġk omp
an de
Ġw egen
ĠBei spiel
ĠL i
ĠW or
ĠK n
ĠEnt sch
a ffe
enn e
w w
ra ft
Ġ em
am p
Ġf Ã¼nf
Ġo ffen
Ġlie gt
ig es
ĠMom ent
ar m
ĠIn tern
ĠC omp
Ġzie mlich
ien en
le ben
ĠfÃ¼ hr
Ġh Ã¶
nis se
i um
i an
ĠMa il
W ill
Ġf re
ĠO n
at h
ein ander
ein t
al er
ach sen
ĠÃ ĸ
w ir
an is
D en
au sen
N ach
eg t
Ġniem and
iel t
Ã¤ll t
ĠS ir
ĠT od
Ġhab t
Ġvers uchen
ĠS y
ĠM Ã¶glich
under t
z lich
Ġge k
Un ser
Ġihr em
Ġgro ÃŁen
Ġlie be
Ġbei de
ĠGut schein
K ann
ĠF ragen
Ġ %
un k
el den
al itÃ¤t
in a
ĠEr de
en de
f el
i ent
us st
Ġ 0
Ġb el
zu g
ĠRe cht
Ġf ast
schein lich
W eil
o te
Ġ on
B itte
Ã¤ uf
ĠW e
ig keiten
Ġsp Ã¤ter
d ing
iv ers
ĠMen sch
it zen
ri ff
ĠFre unde
Ġwen iger
ĠSch ei
Ġent wick
Ġb l
Ġp l
ier ten
S p
ck e
ĠT yp
fol g
ĠGe d
ĠZ ahl
Ġ1 2
Ã¤ re
f r
ĠtÃ¶ ten
ate ll
ĠD r
ĠR aum
ĠI st
B e
H ey
ĠF Ã¼
s atz
N a
ĠB eh
ĠD ank
ĠJ er
ĠN etz
H aben
Ġkl eine
Ġver schw
m in
ĠR Ã¼ck
ĠWebs ite
m us
Ġw ider
D anke
Ã¤n ger
ĠB Ã¼r
c o
ĠMin uten
schie d
Ġaus ge
ĠMill ionen
Ġn atÃ¼rlich
Ġh Ã¶r
ag er
Ġander s
ĠGesch Ã¤ft
ĠDav id
Ġ3 0
le gen
a z
Ġo ben
ĠR icht
ert ig
Ġwel che
Ġso fort
ft ware
j ekt
au l
Ġp er
ĠPro gramm
g ang
on e
ar e
ĠJ ob
Ġeigen en
Ã¤u ft
Ġn ein
ĠL icht
wo hl
Ġs age
ate gor
te st
Ġk urz
ank en
ol ut
f angen
ĠâĢ Ŀ
Ã¤ cht
ĠT ele
ĠOrd nung
U m
Z u
ĠP at
ĠC l
Ġbrau che
Ã¤nder t
w eg
Ġs ehe
ĠSt r
ĠW arum
Ġfunktion iert
Ġs el
est er
ĠK unden
H at
Ġk osten
l assen
ĠK rieg
Ġl Ã¤
f ang
O der
a fen
V or
ĠIn ter
Ġge d
ĠKÃ¶r per
eh m
Ġverw enden
ĠBew ert
ĠM orgen
i le
Ġd rin
Ġf ragen
Ġt atsÃ¤chlich
Ġbereit s
t schaft
ffen t
ĠE m
Ġw under
Ġo ft
ĠN eu
w e
Ġent sch
Ġklein en
ĠMen ge
Ġ alt
Ġsp ielen
ĠA t
ĠN icht
i ff
rie b
Ġverd amm
fÃ¼ g
ĠHau pt
ein en
hau pt
r iv
och ter
b o
Ġdar um
Ġmach e
L I
ĠUn ivers
en s
Ġmach st
Ġes sen
ĠJ ohn
k ehr
en sch
Wie so
Ġon line
ĠSt a
ĠS er
p fen
Ġ2 00
Ġsoll st
Ġer kl
ĠGott es
c t
ĠF orm
Ġall em
le x
ĠComp uter
er k
an ce
at iv
ĠV PN
ĠP ar
ĠSt imm
st Ã¤nd
or e
ol z
K Ã¶n
er r
ĠS atell
ĠGeh irn
h ung
ch mal
zie hen
pf er
ĠGes icht
Ġdrau ÃŁen
sch n
Ġverl oren
fÃ¼hr t
ĠVide o
Ġ eben
ĠProblem e
20 1
z ogen
Ġs eid
Ġan t
ĠH e
or n
ĠR u
Ġgew esen
L ass
ĠG l
er gie
Ġeigen tlich
Ġ Ã¤ndern
ĠLie be
kt iv
Ġun g
ar r
ĠWahr heit
B ei
ĠU r
eh n
Ġander es
rÃ¼ck t
ĠZu kunft
ĠT ochter
Ġfol gen
Ġo kay
Ġbes onder
ĠLie fer
D ar
ĠM et
ĠW ill
i pp
ĠhÃ¤t ten
ik el
ĠMus ik
f inden
Ġun ten
O kay
ĠSo ftware
ers Ã¶n
Ġm orgen
ig ung
ĠD es
ĠBab y
on s
o ok
Ã¤t ze
Ġje de
k st
Die ser
Ġe cht
Ġ stellen
et ter
sch t
ei en
a x
ĠN ame
an s
Ã¶ sen
Ġbrau cht
Ġ ste
Ã¤ hn
ĠA ll
Ġver gessen
ĠG rupp
ĠEur op
Ġn ahm
eh ler
Ġletz te
ĠP f
it er
is k
ĠM iss
ĠJ unge
Ġgern e
Ġsch affen
ĠJ o
M ehr
Ġer n
reich en
Ho tel
ĠT ran
ie ÃŁen
Ġge geben
Ġer m
ra f
ze pt
ĠO h
z ess
ĠâĻ «
re ck
ĠWei se
ĠK er
op p
Ġer war
Ġ1 1
ind ung
Ġ ro
Ġmus ste
Ġf lie
Ġver h
scha ften
z ung
ĠD i
Ġver g
Ġgeh e
g em
Ã¤ ten
ĠÃ¼ber haupt
Ġeinz ige
ĠIntern et
ĠTele fon
Ġ ]
Ġr icht
k ten
ĠPol iz
ĠP rÃ¤
Ġn utzen
ie t
Ġwar ten
ĠS Ã¼
Ã¤n dig
l in
Ġviel en
ĠKin dern
p rÃ¼
ĠF ir
Ġdar f
ch es
ĠG emein
geb racht
as e
Ġson st
Ġverw endet
Ġmach te
Ġm ensch
Ġ1 00
ĠW ahl
ĠF euer
Ġvers ucht
h eiten
ĠSt and
Ġunser em
ul dig
Ġbis schen
ĠSt ud
ĠGes chen
Ġg lÃ¼ck
ĠH imm
Ġdar in
ĠNachricht en
ĠM acht
a i
sten s
m an
Ġer sch
Ġsp r
ĠM o
ĠgrÃ¶ ÃŁ
Ġn orm
Ġl ernen
eg al
Ġein s
rach e
te te
ĠAn geb
Ã¼t zen
il der
ĠA d
ĠIn d
er en
G en
Ã¼s sel
Ġf inde
and eln
ĠEnt wick
l agen
u fen
Ġmein es
K eine
Ġbei den
ĠEntsch eid
s ie
Ġf ertig
Ġk rie
Ġverl assen
f in
it ter
Ġge kommen
u mmer
ch n
Ġwar st
os sen
ĠT hem
Ġtre ffen
ĠRe st
ĠTe am
Ġh il
Ġho ffe
ĠL eu
Ġbe ste
Ã¶ hn
1 0
Ã ľber
Ġk Ã¼
ra in
D es
ĠC ode
os s
Ġ1 8
Ġkomm e
ĠSatell iten
ĠPro zent
o u
ch ter
gen ommen
ĠF ahr
ĠZ immer
lich es
rei fen
al ter
ĠWoch e
Ġvor bei
Ġbest imm
isch es
wei s
lau s
at or
utz t
Ġer le
ĠS am
au ft
ĠT r
Ġ en
ĠLu ft
Ġjem anden
eich en
ĠS k
ĠF r
b s
Ã¤r t
lich keit
l icht
Ã¶ tet
Ġf r
and elt
ĠerzÃ¤hl en
ĠOn line
ĠnÃ¤ch sten
it y
Ġun be
st ehen
re ten
und heit
h aus
ĠF Ã¼r
lieÃŁ lich
rie den
h Ã¶ren
ĠT o
b ung
Ġh al
ĠZ iel
Ã¼n st
ab er
ĠA mer
den ken
Ġbe zahl
ĠGe f
Ġre de
ĠD ienst
w ert
ĠT he
ĠSt Ã¤d
ĠD a
ĠfÃ¼ hren
ick t
um e
ĠÂ »
em ent
Ġem pf
s y
ĠFol ge
Ã¤ us
ĠD ad
L U
Ġsollte st
ĠProdu kte
ĠEn ergie
a in
ei ter
on nen
ĠH Ã¤nde
ĠGe gen
ĠF ehler
S ind
Ġjed es
a un
ĠSchu le
Ġ5 0
ĠS erv
Ġsp e
on d
ĠT est
Ġget Ã¶tet
ĠWissen schaft
ĠGro ÃŁ
Ġle icht
ĠAl so
ĠTag es
v oll
Ã¤ch e
w eit
ĠP ap
fall en
Wei ÃŁt
b el
wor ten
en z
e cht
Ġz er
Ġin dem
Ġ eh
ĠBe stellung
Ã¤ ÃŁ
Ġer inn
ist er
ell schaft
d es
Ġc ode
ĠRei se
Will st
Ġg l
ĠWoch en
ĠWer k
ue lle
Ġgem ein
ĠArt ikel
ĠK lei
ĠN atur
ing s
Ġt oll
g abe
Ġ ch
ĠT eu
ĠSp aÃŁ
D och
it u
Ġwoll ten
ĠSt Ã¼ck
ha ft
au ern
te m
on n
d ie
ĠB eg
Ġk enne
s i
eh me
ĠK osten
ro chen
us ammen
it ze
ĠEl tern
ĠSp iele
Ġe ure
ĠW ind
S te
l t
ĠF rank
ĠJ ud
Ġfal sch
ie m
Ġhin zu
ĠMe er
Ġblei bt
ĠFil m
e lle
ing er
Ġb ald
ĠF ein
V on
ot h
ĠB esch
Ġwahr scheinlich
Ġf ahren
eu g
rei sen
an zen
Ġk ont
um p
ĠB ro
ĠerzÃ¤hl t
ĠEs sen
ĠH eil
Ihr e
Ġb rach
ĠI m
lo se
ĠSt u
los sen
rei se
Ġ201 8
au ber
ĠlÃ¤ sst
Ġbr ingt
.. .
ĠSch ul
ĠS al
x t
is st
Ġ +
Ã¼ gen
e ten
ĠGes etz
r aten
Ġt rin
Ġdir ekt
g yp
ĠKont o
am t
Ġkon nten
b es
ink s
E nt
u ck
w egen
re cht
un st
Ġz erst
omm t
ffen tlich
M EN
C H
ĠL Ã¶s
ĠAnt wort
z us
Ġgew orden
all s
ĠM ag
all o
ĠfÃ¼ hl
ĠF ar
ĠE uch
Ġge be
stell ungen
zent r
ge stellt
ro m
ĠÃĦ gyp
Ġin ner
ĠD en
Ġ201 9
ĠP reis
Ã¤t z
ant wort
ĠOr g
ĠgrÃ¶ ÃŁer
at ten
nahm e
b te
r Ã¤n
ĠP er
ĠEr fahr
Ã¤hl en
Ġk amen
ĠW ohn
Ġst immt
am a
K l
or ge
Ġp ersÃ¶n
em ber
ĠK ne
S ag
ch st
and lung
eit ung
g lie
ĠVer l
eil t
ĠmÃ¶ chten
ĠF rei
ĠT h
enn st
5 0
ech sel
Ġs echs
Ġn a
ĠF unktion
al ien
Ġsie ben
Ã Ħ
Ġb lo
Ġsch reiben
Ġr unter
Ġre g
pr ess
ĠK at
V PN
f ft
ĠApp laus
ĠÃ¼ br
ĠTeu fel
ĠD anke
om e
st r
Ġh e
Ġbie tet
ĠH och
rot z
ĠG o
ĠGe fÃ¼hl
ĠHimm el
Ġer f
wend ung
ĠF Ã¤h
ann te
Dies es
ĠCh ar
af ft
N D
ĠK omp
sch ung
k el
ĠB ar
Ġl Ã¤uft
Ġher um
Ġunter stÃ¼t
o hlen
Ġ [
fÃ¼ hren
lie ÃŁen
ĠD o
Ġbeg ann
ĠCh ance
b ild
j e
Ġkomp l
ĠA hn
ich tet
ern t
ĠO pt
Ġ2 4
Ġw icht
ĠB LU
ĠL in
t h
ĠSp e
in en
ĠSe k
ĠU hr
ĠGen er
ĠBLU MEN
ĠT V
ck er
Ġniem als
T V
z w
ĠAhn ung
a il
Ġarb eite
g leich
ĠGes undheit
bar e
alis iert
ge gen
ĠC ar
ĠC hr
Ġjed em
Ġw Ã¼n
ĠKont akt
K ein
ĠPl atz
ĠKer l
h undert
ĠK Ã¼
Ġ1 3
ĠAr m
sp rechen
ĠL ehr
ĠÂ ·
ei ster
asch ine
Ġschle cht
S oll
ĠJud a
A m
st ag
an ten
p unkt
ĠTechn ologie
b eh
Ġk aufen
ĠD ro
or k
ĠA dr
ĠL age
A us
Ġwar d
du z
ĠEurop a
ĠLeu ten
r as
s etz
ĠT or
Ġver rÃ¼ckt
Ġt at
ĠD ar
ĠMon at
ĠN ot
s ystem
ab t
B ist
ĠLiefer ung
t p
Ġd Ã¼r
ar a
Ã¤n gt
ĠP rie
Ġlie ÃŁ
Ġbie ten
Ġw Ã¤ren
ĠUS A
ĠP u
y n
re ch
fall s
Ġ X
ĠF ern
b ie
Ġer fahren
s l
al em
ik er
N G
an e
Ã¶r der
ĠS elbst
ĠMÃ¶glich keit
ĠPoliz ei
Ġg uten
Ġ egal
ĠHotel s
gr und
G ut
M ir
ĠO ber
Ġr etten
g lichen
ro ffen
Ġso zi
ĠBe st
Unser e
v ers
ĠBe f
ĠHer zen
ĠKrank en
ĠEin e
r ig
ĠH a
ien ten
Ġsch eint
Ġung laub
Ġweiter e
ĠDe ut
ĠSchw ester
ategor ien
ĠglÃ¼ck lich
W ar
Ġg uter
ur g
Ġk Ã¤m
Ġso wie
Ġ1 6
ĠMein ung
Ġlie ben
Ġher unter
iem and
Ġper fe
d i
ĠV ie
el che
Ġab s
Z um
B en
r t
Ġ ehr
Ġh Ã¤lt
ĠS inn
ĠEr geb
Ġf and
ĠÃ¼ber all
hau se
an te
ĠSp rache
Ġ el
ĠG eist
lau ben
ĠUnter stÃ¼t
Ġverschieden e
Ã¶ ll
Ġl esen
ĠStimm e
kt ur
Ġlie ber
Ġzie hen
E L
ĠM ode
ĠK unst
ĠS ter
Ġn ennen
hr e
Ġst ark
s eite
ĠPro jekt
ĠB Ã¼
ĠH ar
ĠBe zie
Ġverschieden en
ĠD ing
ĠV ort
iz in
Ġf l
Ġf rag
ĠK r
B l
ater ial
ĠB u
A uch
a ktion
h Ã¤lt
z eigt
ĠH aar
inde st
ĠSch n
Ġ end
Ġwer t
ĠG rÃ¼n
ĠL ande
bl ick
/ /
st ra
Ġw Ã¤r
Ġsol che
Ġakt iv
: //
ĠB rÃ¼
ĠVerb indung
ausen d
ĠK ap
ĠH ey
Ġver sch
Ġsag ten
E D
Ġz eigt
op fer
i ar
ĠAl ter
ĠE d
Ġb em
Ġsein es
e k
Ġd ran
Ġl aufen
u h
rei ten
d igen
ĠP ass
ĠJ ungs
Ã¶ se
ff iz
ĠgroÃŁ art
ding ungen
ĠGrupp e
i ft
Ġsie hst
Ġben utzen
d ruck
ĠS c
Ã¤ te
ĠF in
ĠEin z
ĠSe ele
ĠF rÃ¼
ĠO b
stell te
ĠM il
Ġf ort
ĠKÃ¶nig s
a ir
Ġer reichen
Ġd anke
Ġe ur
ĠB ett
ĠF uÃŁ
in s
ĠZ usammen
Ġst att
Ġkein er
M ach
ĠD urch
olut ion
Ġan zu
J e
and el
us alem
och en
Ġbe ein
d lich
ĠBen utzer
ĠWor te
st all
ĠfÃ¼ hlen
Ġschw ier
g n
ĠS achen
ĠB el
ik en
lei st
ĠBo den
Ġn e
Ġbest immt
if iz
Ġ2 5
e x
ĠG old
w enden
Ġges am
fÃ¼ gen
ĠGeh eim
sy ch
i x
w elt
ĠSch uld
Ġsp Ã¤t
ob il
ĠJer usalem
in o
ĠFot o
ĠLi ste
d ung
Ġman chmal
ĠÃĦ n
ĠB as
Ã¤hl t
ĠGes ellschaft
s etzen
Ġw ann
Ġn ehme
on en
ĠVer ein
wei sen
Ġverst ehe
ĠÃĦgyp ten
B is
ĠR ob
d y
u ar
w alt
Ġ Ã¤hn
ĠF ac
ro lle
den ten
nahm en
Ġged acht
Ġh t
Ã¼ ge
S T
Ã¶ ffent
ĠAr ten
ĠY ork
ĠGr Ã¶
Ġv Ã¶ll
ĠB ilder
ĠK arte
ik o
Ġgef Ã¤hr
Ġst and
ĠnÃ¤ch ste
Ġbesonder s
p art
mm ern
ik ation
ĠGeb Ã¤u
s h
Ġb auen
ĠT re
ĠPro f
ĠPart ner
om at
Ġs etzen
Ġgen ommen
ĠB i
Ġe w
Ġbeg innen
ĠP riv
ĠUnterstÃ¼t zung
H Ã¶r
ĠK raft
Ã¤n den
Ġirgend wie
ĠP unkt
de ut
T ut
pro chen
D arum
Ġauf ge
ru ch
og le
Ġht tp
ol it
ĠW agen
ĠP rin
Ġver ste
l age
em and
Ġpass ieren
ĠNetz werk
Ġm o
ĠBer eich
ĠE le
ĠJ u
ĠPh il
ĠReg ierung
ĠN a
Ã¶l ker
Ġauf zu
au r
Ġerk ennen
at te
schn itt
in der
Ġvor stellen
ĠSp r
a ff
h ol
ĠProdu kt
v olution
Ġs Ã¼
Ġakt u
ĠM und
y m
Ġw elt
re u
ĠAn fang
ĠBe d
p en
s m
ig ten
ĠSch utz
Ġhin aus
Ġ1 4
Ġ1 7
ĠBew eg
it Ã¤ten
ĠH ast
Ġo k
ow n
c en
ĠMill iar
L assen
ĠW affe
ro ll
ĠEx per
an ach
or ben
eb ook
ĠFreund in
Ġda hin
Ġw orden
ĠE igen
uch te
el be
ĠPrÃ¤ si
J eder
z ig
Ġ ak
as che
is mus
ĠN un
N E
Ã¼ b
Ġent fern
ĠFl or
ĠMon ate
ĠvÃ¶ll ig
l aden
Ã¤ ss
ĠG ar
ĠD ann
ĠT agen
Ġerinn ern
ent r
Ġ201 7
KÃ¶n nen
r agt
Ġl ass
Ġt ue
G eh
ĠSchl Ã¼ssel
D ein
ĠfrÃ¼ her
H eute
ĠLie bl
Ġbek annt
sch te
ges ehen
aus o
Ġbes uchen
ei ge
es e
Ġgeb oren
ĠIsrael s
ĠH D
Ġber Ã¼
ĠÃĦ r
ĠPlan eten
k auf
ĠPro t
ĠGr en
Ġben Ã¶t
Ġ ar
zeu gen
t eil
Ġder en
ĠS Ã¼n
ĠZ wei
ĠGed anken
Ġinner halb
Ã¶ st
Ġverl ieren
Ġt ragen
ult ur
Ġver sp
h Ã¤ng
at ive
ĠwÃ¤ hlen
ak ter
fol gen
ĠL a
Ġl Ã¤nger
ĠM ik
Ġern st
v ert
ie ÃŁ
ĠTran sp
un t
ĠServ ice
O k
ĠH ier
is e
ĠJ ack
g aben
gef Ã¤hr
ĠS il
ĠW affen
Ġ4 0
s inn
W issen
r am
Ġst ar
G e
Ġ >
er ei
ro h
Ã¶ ff
ĠSt art
Ġent de
Ġz ehn
ĠC as
ehl en
ann ten
ĠN Ã¤
ĠOrg anis
Ġgef Ã¤llt
Ã¤m lich
Ġverdamm t
ĠEntwick lung
ĠPrie ster
Ġhin ein
ic a
ow s
ĠAdr esse
j en
ĠD ir
bar en
ĠHau t
st o
ĠR is
ĠStÃ¤d te
ĠVide os
ĠfÃ¼hr t
ĠR uss
k on
ĠS orgen
ĠA ktiv
ĠMit glie
ĠP os
ri ft
dig t
ack en
ie sen
Ã¤ng nis
ĠKam pf
Ġtrin ken
Ġh olen
z te
Ġau t
am als
Ġer inner
ĠSchw ert
Ġerkl Ã¤ren
inn t
ĠA s
ĠK or
ĠSch Ã¶n
W ann
Ġentsch eiden
ĠW ein
rei bt
Ġgleich en
ww w
Ġz ahl
sch er
Ġl ei
ĠRu he
lo w
ĠÃ¶ ff
Ġerm Ã¶
Ġw or
Ġgeb racht
m ent
an uar
um s
ĠB ahn
w Ã¼r
ĠP ark
Ġjem als
ra kt
ĠW ert
ĠD em
Ġvor her
zu stellen
ĠFot os
ĠBewert ung
D eine
N atÃ¼rlich
ĠSy m
Ã¼s s
ĠBl ick
Ġlang sam
Ġex t
Ġru h
Ġschl afen
A ll
ĠEntscheid ung
m achen
ĠC he
Ã¤n gen
k sam
ĠW ar
Ġ alten
ĠAngeb ot
ĠSe x
Ġeh er
ĠFac ebook
G ib
Ġg r
Ġjed och
ĠHo ff
um ent
zi mmer
dro id
it zt
ĠFamil ien
schl ag
ll t
ĠB au
Ġnach dem
Ġn eben
Ġver z
A N
ĠN ummer
Ġklein er
ĠPat ienten
a is
en iger
Ã¤uf ig
N och
T u
v est
ĠP fl
in ter
Ã¤ch st
ĠGeb urt
ĠG Ã¶t
s ein
Ġz war
ach st
ĠH ack
ot ion
forder ungen
ĠÃĸ l
g eht
Ã¼ lt
ĠJ ungen
ĠMit tel
Ġn ett
Ġentwick elt
ĠGo ogle
ie g
ie w
sch utz
ĠL ab
ĠSch atz
ĠSch mer
m Ã¤ÃŁ
ĠG leich
ĠT ier
ĠâĢ ¦
imm en
Ġgesch rieben
Ġf allen
Ġbe ob
Ġre ich
m o
gel aden
ĠStra ÃŁe
ĠErfahr ung
ier ungen
Ġl ok
ĠLÃ¶s ung
N iemand
Ġges p
Ġeigen e
Ġver fÃ¼g
lau bt
ĠÂ «
ĠH und
Ġl au
Ġt rotz
ĠO kay
ĠKam er
ĠBeh andlung
m Ã¶glich
Ġzu vor
ĠAr zt
lei sch
ĠVers ion
ĠGef Ã¤ngnis
ĠS eiten
ĠK ann
ĠHin ter
Ġ acht
ĠS itu
ĠAl t
o ber
ĠF est
ĠSt at
ed et
ĠDes ign
ĠÃĦn der
Ġin stall
Ġgew innen
ĠP al
ĠfrÃ¼ h
f re
p ar
ĠM ose
ĠT raum
amen s
a ke
ĠMar kt
1 2
ĠB on
ĠHand y
Ġverb esser
Ġinteress iert
Ġver Ã¤ndert
ĠSon ne
arb eitet
A u
z er
ĠKomm ent
Ġgemein sam
Ã¼ ste
Ġk aum
et tet
ĠGeschen ke
ĠGebÃ¤u de
et s
Ġkomm st
ĠWir tschaft
ĠSchl af
et h
ĠZ eug
Ġaus zu
ĠO pfer
Ġbew egen
d it
Ġzu f
Ġdein es
arb eit
ĠWie der
Ġh eil
al y
ĠJ etzt
ĠAr ch
Ġgegen Ã¼ber
ĠM ot
ĠB itte
3 0
Ġentfern t
U NG
k ungen
rÃ¼ck en
Ġsag st
itt ag
ĠM Ã¤r
Ġt ust
tern ation
ĠV is
zeu ge
Ġt eilen
ĠBewert ungen
ĠR at
ĠC on
Ġhil ft
ĠS en
ab el
ĠV ir
Ġer g
Ġgro ÃŁer
Ġle bt
Ġblo ÃŁ
ĠL Ã¤nder
Ġsie he
ill e
ĠCh ina
ĠS Ã¶
arb eiten
Ġan z
ser v
p ort
Ġf indet
Ġj en
ĠGesch ichten
Ġschl imm
Des halb
Ġ =
sicht lich
Ġn Ã¤mlich
iv en
Ġklein es
sen t
ĠSch ritt
Ġlie gen
Ġbet rach
Ġn amens
E C
ĠF ort
is se
lo sen
schl uss
Ġbel ie
Gen au
ĠT op
Ã¤n ge
Ġver Ã¤ndern
ĠP ost
am s
G ott
ĠK al
uf e
Ġs amm
ĠEr w
rau t
ĠMÃ¶glich keiten
ĠM at
ĠD ien
Ġneu es
richt en
il t
Ã¤hr end
ĠB rie
Ġgen auso
k ur
ĠL Ã¤ndern
Ġdrau f
ut lich
ĠSt unde
etz te
ĠPro zess
ĠHÃ¶ lle
ĠF rieden
ehr t
ĠIde en
i tel
Ġer folg
ĠÃ¼ber ras
M Ã¶
ĠRe chte
Ġden kst
ĠKan al
Ġk rank
ĠÃ¼ber t
ĠK o
Ġsch reck
ru fen
Ġwo hn
ĠMilliar den
Ġ qu
Ġzu erst
ĠA gen
ĠM u
Ġhier her
ĠBlumen st
ĠFÃ¼ hr
Ġder zeit
om b
z in
od es
Ã¤l ter
ĠhÃ¤tte st
ĠSchei ÃŁ
Ġend lich
l en
ĠM Ã¼
el ig
ĠBÃ¼r o
Ġbest eht
ĠSta aten
l ang
s al
Ġst arb
Ġerh Ã¶
Ġein igen
ĠdÃ¼r fen
ĠAn droid
ĠSu per
Ġgest ern
Ġgef allen
ĠwÃ¼rde st
ĠEn gl
ĠZug ang
Ġher vor
w ill
ge st
ĠThem a
al tet
ĠSp ort
ĠB us
ĠT em
ru ar
eb ruar
sel ben
Z wei
u k
ĠT iere
rin ge
Ġeinz el
ru f
ĠF en
ĠT rÃ¤
ĠKont rolle
ol t
bl ik
ri fft
h an
ĠA fr
Ġgesch ehen
1 9
Ġt rÃ¤
b au
Ġun gefÃ¤hr
Ġj eg
iv er
ĠStand ard
l es
m ann
ĠT at
ĠR au
ĠAn g
ist r
ĠBes uch
Ġ201 6
A R
er ikan
Ġges prochen
Ġf or
ĠVer halten
Ġew ig
S ehen
z ember
Ġ rei
Ġh Ã¶rt
Ġsch au
Ġger edet
k ung
eh st
eil ung
Ã¶ffent licht
ur cht
lau f
ĠE is
ĠWei hn
n ern
ĠA lles
ĠB und
ĠP ort
tel s
A b
O S
h olen
ast er
v ent
ĠR ad
im e
Ġget roffen
kl Ã¤r
A T
U S
Ã¤nd ler
ĠA lle
ur m
g liche
s ichtig
Ġander er
rÃ¤ u
Ġge gangen
el ten
Ġmein st
ĠVer fÃ¼g
ĠLe v
ĠR olle
ation s
ĠMed ik
em en
ĠSch iff
Ġex ist
ei ra
Ġin ternation
ĠAr sch
ĠB ank
ff ekt
Ġsel ben
h ungen
ach tet
fl Ã¤che
b all
Ġsoll t
ĠGew alt
ĠDat ei
Ġan sehen
Ġmit einander
ĠUnter schied
Ġgl ob
A ch
ĠM aterial
ĠJ e
ĠfÃ¼ hle
at ers
ĠBe ste
ĠRei he
ver l
ell er
ĠkÃ¤m pfen
te ll
ĠhÃ¶r te
w ind
ĠDat eien
Ġbem er
ĠÃ ľ
Ġbrach te
D amit
Ġs a
re che
ĠH Ã¼
ĠSchei ÃŁe
Ġl ust
Ġsch auen
Ã¤us er
ĠM ich
Ġsch n
k am
ĠSt re
un ikation
ĠS uche
Ġgef ragt
ĠNÃ¤ he
v iew
Ġt Ã¤
ges etzt
Ġben utzt
Ġte chn
Ġeu er
Ġricht ige
ĠgrÃ¶ÃŁ ten
ĠWohn ung
Ġ Ð
uld igen
Ġkosten los
ĠSte lle
P ro
h aben
st ru
ĠL Ã¶
Ġverb unden
o ter
Ġh art
ĠEr n
sp ro
Ġn immt
Ġspr achen
Ġein sch
Ã¤ le
ĠWe ge
Ġs itzen
ĠK affe
Ein ige
O b
lo ad
ĠMon aten
Ġvers uche
rupp en
b uch
ĠW under
ĠN ord
ern e
p assen
Ã¼ cht
Ġer re
ĠHo st
Ġer forder
ĠI t
S eit
Ġt rau
ho f
Ġkrie gen
Ġmo der
Ġak zept
w and
Ġd amals
Ġf roh
Ġsch Ã¼tzen
Ġgel ernt
Ġehr lich
l ing
ĠSon nen
ĠGeschÃ¤ft s
M r
y r
ĠA kt
ung er
il f
as h
Ã¤ lle
Ġsch war
Ġdes sen
1 1
ne te
ĠBÃ¼r ger
s uchen
ĠGer Ã¤t
b y
p he
geb ung
Ġzwei te
ĠKl ein
D e
k a
Ġt ief
Ġmehr ere
ig h
ber t
ĠÃ¼ber w
Ġander n
ĠAu ge
Ġfunktion ieren
kt or
Ġr ies
Bl umen
Ġruh ig
Ġver urs
Ġan st
Ġbe d
amm t
I rgend
ĠA ch
Ġan fangen
ut t
Ġan sch
am in
Ġunglaub lich
I S
k o
pp e
A r
omm er
ĠmÃ¶ gen
ĠKre bs
Ġihr es
Ã¤t zen
Ġflie gen
un ken
der e
ĠZ Ã¤
ĠM od
ig it
ver stÃ¤nd
m elden
ĠF e
Ġauf hÃ¶ren
scha ffen
ĠHer aus
ĠMed ien
Ġg ingen
ĠEr k
E F
r ess
st off
ĠG ast
ĠN utz
ĠSer ver
in ne
sch reiben
Ġf ehl
Ġl eg
Ġ2 1
ĠEr d
ĠAr me
Ġant wor
ĠA uss
Ġkl ingt
ok rat
Ġgleich e
Ġirgend wo
Ã¶t zlich
ĠHoff nung
al es
ehr en
Ġwer det
ĠEr folg
Ġunser es
ĠRicht ung
Ġt eil
Wo her
n ach
Ġerwar tet
ĠD et
Ã¤hr ung
ĠgrÃ¶ÃŁ te
ĠLehr er
ĠGrÃ¶ ÃŁe
l ungen
ar i
Ġl Ã¶sen
N A
hl t
V ielen
m ar
Ġd anach
ĠK ir
ĠE p
Ġk n
Un ter
ĠEm pf
Ġ20 20
im ent
ĠGer icht
ĠTyp en
Ġn Ã¶t
eit s
Ġentwick eln
ĠVerfÃ¼g ung
Ġo f
b et
Ġirgend w
ĠPol it
ĠFlug zeug
f rage
ieren d
Ġgeh st
Ġunter schied
v en
Ġ alte
au ert
ĠF eld
ĠD or
ges icht
h af
am ent
ĠÃ¼ber prÃ¼
as en
ĠS a
Ġab zu
Ġbezahl en
b rechen
ie gel
ĠSt amm
Ġam erikan
Ġgest orben
st ern
ĠD eine
ĠV aters
ra te
ĠU k
ap an
schl agen
s ion
ĠGes pr
sch Ã¶n
Ġverst anden
Ġs u
el te
ĠH aben
pp en
Ġarb eitet
1 5
Ġb as
re g
elt sam
ĠFre u
asch inen
a ce
o o
ĠverfÃ¼g bar
Ġn atÃ¼r
Ġgesch afft
ĠAuf gabe
Ent sch
B r
ĠG em
ur n
ru g
ĠAn zahl
lie gen
u en
ĠJ anuar
ĠZ eiten
zeich en
ge kommen
Ġl asse
ĠZ eichen
eh mer
Ġwie so
ĠKaffe e
i ste
ĠBeweg ung
Ben utzer
Au ÃŁer
k Ã¼n
Ġein ge
Ġ2 7
zeich net
Kann st
Ġspe zi
B lei
b urg
Ġdu mm
Ġst Ã¤r
Ġst olz
ĠFen ster
k or
ĠL eist
ĠE ben
Ã¤l fte
ĠWei b
ĠWind ows
Ġna he
Ġt au
Ġerst aun
Ġschnell er
org anis
s a
ð Ł
ĠT isch
ang er
Ã¤hr t
ĠKranken haus
ĠBezie hung
ĠPrÃ¤si dent
iz iert
Ġerfolg reich
in es
ĠD an
ĠT ool
om en
un kte
Ġz og
ĠR om
Ġsch m
op h
Ġnie dr
ktion en
Vie le
p ekt
Ġall eine
ĠAu ft
Ġverb r
Ġbek ommt
g ren
Ġge g
ĠJahr es
V ers
f Ã¤h
or gt
ĠN ation
ĠVer d
ĠBr and
ĠSitu ation
ĠS an
Ã¼ g
Ġp olit
be w
zeit ig
t rag
ie gen
Ġw achsen
arb eiter
ĠhÃ¶ her
ĠL ager
P I
P S
p ft
ĠVer m
gew Ã¶hn
y l
Ġw eh
Ã¼ ten
gesch lossen
Ġaus sehen
Sie h
rei ber
ĠGer Ã¤te
L ER
ĠKrank heit
Ġricht igen
w ahl
Ġbrau chst
Ġ6 0
Ġp h
Ġgen annt
Nicht s
ĠPerson en
ĠW Ã¼ste
ĠVer Ã¤nder
W ollen
Ġgeb aut
Ġverd ient
Ġ stellt
ĠR und
Ġlie b
leist ungen
UNG EN
W Ã¤hrend
Ġden kt
ĠN ahr
ri ffen
ĠA k
ĠW echsel
ĠL os
Ġdes halb
ĠGesch le
ĠB aum
Ġhei m
ĠMar k
B I
Ã¤ her
zi al
ĠS ign
wei l
ĠReg el
ra ine
Ġwelt weit
ĠT Ã¶
ĠL ive
Ġauf t
ĠÃ¶ ffent
ĠÃ¼br ig
ĠL ad
ĠJ ul
ĠÃĦnder ungen
h Ã¶
or ie
ĠP o
Ġvoll er
Ġwar te
ĠSt ick
ĠB Ã¤
ĠK eine
ĠH eim
ĠMa ÃŁ
Ġwel ches
ĠB ot
Ġer stellen
ĠP ri
ĠT err
Ġaut omat
un i
mer ksam
ĠF leisch
Ġinteress ant
tell igen
L os
un sch
ĠT er
am es
Das s
c a
Ã¤ fte
ste lle
ĠFor schung
Ġm uÃŁ
il den
Ġnoch mal
Ġbesch Ã¤ft
ĠgroÃŁ es
ĠEr inner
ĠGeschen k
ĠO N
ĠF inger
os it
ger ufen
ĠPos ition
ĠW ol
rÃ¤u ÃŁe
w Ã¤rt
Ġi r
ur Ã¼ck
ĠL inks
ĠO per
A S
Ġf alls
ĠH Ã¤lfte
ig te
ĠUm welt
setz ung
c y
ĠA h
sie ht
E S
r es
ĠBlumenst rÃ¤uÃŁe
g emein
ĠB ill
ĠF rem
ĠT on
Ġver hin
Ġglau bst
ĠPap ier
I N
T C
p fe
ir m
Ġan s
Ġbeg innt
E t
G ehen
Sch Ã¶n
I D
i ot
ar f
Ġvert rauen
ĠS aul
ĠM ist
ĠIhr es
ack t
Ġmus sten
Ġpro f
LI NE
Ġerinner e
Ġan f
ĠSt rom
ze llen
hal te
ĠQu alitÃ¤t
ĠSÃ¼ d
Ġ #
rau ch
ĠAn gel
v e
ie ht
og raf
Ġverk aufen
ĠFir ma
Ġb lau
ĠM aschine
ĠK ultur
ĠP ak
Ġirgend was
Ã¤ll ig
ĠSek unden
Ġschwier ig
2 2
k omm
s uch
ĠH Ã¶r
ĠZ ust
ĠSch m
Ġst arten
hem at
Ġhinzu fÃ¼gen
Ġkon zentr
ĠReg eln
S eine
Ġm er
ĠT w
Ġspe zie
ĠâĢ Ļ
Ġabs olut
ĠK uchen
Ġver n
ĠV iel
âĢ ŀ
Dar f
Ġz eig
ĠD ruck
Ġda her
Ġst Ã¤ndig
Ġvor h
ĠJohn son
ĠFunktion en
Ã¼t zt
du st
ĠPriv at
d urch
ĠH Ã¼t
ĠF el
ĠfÃ¼r chte
ĠkÃ¼ mmern
ĠSÃ¶ hne
W Ã¼r
Ġer fÃ¼
sp ir
ump el
ĠRis iko
an a
Ġst ill
ĠPart y
ĠRes erv
ĠFÃ¤h igkeit
ĠON LINE
Ġh alte
ĠSohn es
ĠAnt worten
echt igkeit
Ġb lie
ĠG ra
de st
ĠÃ¼ber le
f ig
o x
Ġn ot
Ġher r
so ur
gel egt
Ġschl immer
Ã ĥ
Ġk ennt
it es
ĠP reise
ĠL ass
ĠDie s
ĠW Ã¼r
ĠEn g
Ġfrag te
Ã¼ te
ĠH allo
Ġj unge
rÃ¤ ge
Ġeinz ig
Ġkont roll
Ġtrotz dem
ĠAfr ika
O R
fl uss
ig ht
ĠZ ahn
isch t
ausen de
Ein en
her ap
schl and
ĠVers uch
halt ung
own load
ĠEngl isch
Ġ ~
ĠJ es
ĠVer wendung
lau fen
Ġre icht
Ġob wohl
zeu gt
ÃĦ ND
Ġh Ã¼b
Ġg ilt
ĠB rot
ag ieren
ĠN Ã¤ch
Ġo ber
ed izin
duz ieren
1 7
b Ã¼r
Ġh ing
Ġf Ã¤llt
ĠH el
ĠJ os
ĠKan Ã¤le
ĠW ald
Ã¶r ter
ðŁ Ĵ
S ein
ass ung
Ġlie fern
EF ER
K ategorien
Ã ľ
egen heit
fÃ¼hr ung
Ġverschw inden
un ehmen
ĠBe deut
bild ung
ĠS l
Ã¼ hr
Ġ2 2
ĠH eiden
Ġver lie
ðŁĴ Ĳ
Ġb au
im a
ĠAut os
ĠEx t
ĠhÃ¶ re
w eder
ĠB all
ĠU p
Ġent sp
ĠPl att
jen igen
p rÃ¤
Ġl egen
re cken
Ġperfe kt
ĠÃ¶ff nen
D urch
G anz
st anden
Ġl ag
fÃ¼ gt
ĠTod es
Ġpl Ã¶tzlich
Ġfolgen den
H ÃĦND
w en
Ġ al
rin k
LI EFER
Ġmensch liche
HÃĦND LER
ok ing
ĠÂ £
ĠBLUMEN HÃĦNDLER
Ġer z
be dingungen
ad a
Ġbew usst
ĠStra ÃŁen
Ġ8 0
ĠHoch zeit
ĠFÃ¤h igkeiten
l ungs
u hr
Ġm Ã¤cht
ĠG et
ĠT ro
gl icht
ĠkÃ¼ mmer
R e
Ġ Ã¤lter
an en
ten s
Ã¤n gst
Ġsp ielt
Ġgut es
S agen
ĠF ebruar
Ġbe ge
Ġgen ieÃŁen
ĠBLUMEN LIEFER
ĠBLUMENLIEFER UNGEN
st Ã¤ndig
Ġc ool
ĠS orge
ĠT ats
schl Ã¤
ĠWebs eite
rad ition
ĠVie lleicht
ĠM ord
ĠL ei
Ġjemand em
ĠKomm unikation
ikan er
wir kungen
c ode
Ġun ver
ab hÃ¤ng
ĠK ar
ĠF ran
all e
ĠZÃ¤ hne
O N
b ten
ĠP an
us e
Ġhatte st
eira tet
G eben
k ommt
u a
ĠM eine
ĠL eid
Ġsch rei
Ġsch Ã¤tze
Ġhei ÃŁen
Ġheraus zu
sp l
ĠZu hause
ĠDet ail
A P
N imm
ra k
uch st
Ġerwar ten
Ã¼nst ler
ĠLab or
Ġinstall ieren
Ġs eltsam
ĠS ommer
ĠK auf
ho tel
Ġwunder schÃ¶n
Tu be
d a
Ã¶ re
ĠnÃ¶t ig
9 9
u ell
Ġauf s
Ġlie f
201 6
ond on
klÃ¤r ung
u ll
Ġver antwort
ĠZ uf
Ġgeh Ã¶ren
ĠCo up
ĠDro gen
ĠB is
Ġum bringen
ĠVer gangen
ĠRob oter
E G
ĠT al
ess ion
ĠInform ation
ĠMin ute
ĠermÃ¶ glicht
w agen
ĠA ss
and te
ĠRe ich
Ġbek am
ĠKne cht
ĠunterstÃ¼t zen
Ġgesam te
i as
k urs
st alt
Ġf anden
ĠDe zember
ĠStu denten
ĠUk raine
Ġein zu
Ġf rage
Ġwill en
was ser
L ie
ĠSh ow
Ġschle chte
ategor ie
Ġf in
ĠK umpel
ĠL au
ter e
ativ en
Ġsa hen
ĠG n
ĠD V
ĠE he
ĠVer antwort
ĠVer kauf
ĠVert rauen
unk el
Ġhil f
Ã¼ hren
te ten
ĠP fer
kl us
Ġmensch lichen
ĠMik ro
ĠRuss land
ĠMedik amen
f eld
v Ã¶lker
ge d
je kte
dust rie
on g
Ġdass elbe
ĠGe fahr
Ġwo hnen
Ġe uren
Ġgesch ickt
Ġmach ten
ĠVergangen heit
ĠSp eich
Ġdar aus
ĠFre unden
ĠHerr n
ĠUnivers um
wind igkeit
r itte
st Ã¼ck
ĠM ittag
ĠK oll
ĠK rÃ¤
ĠSch au
Ġbeein fl
Ġh asse
Ġn ennt
ĠG al
Ġk ur
ĠM ut
Ã¶r ung
ĠBer g
ĠGemein schaft
ĠMitglie d
Ġn imm
Ġr um
Ġverbesser n
Ġlust ig
st es
ĠM Ã¶
sp iele
ĠLand es
Ġverd ienen
ĠBÃ¼ cher
Ġerre icht
Ġh undert
ab l
Ġge Ã¤ndert
ĠN ur
ĠD ein
ck te
ĠRe de
Ġger ettet
Ġbeh alten
ĠBedeut ung
C ode
ĠSt ein
ĠH olz
ier ungs
Ġsch icken
ĠBe stellungen
Ġge stellt
ĠAn forderungen
ĠGer echtigkeit
Ġsamm eln
ap h
serv ice
G eht
it Ã¤r
ĠW eil
ĠSch wei
Ġp rÃ¤
eb a
ĠCh at
Ġbesser e
w ach
ĠH igh
ĠP ay
ĠSch Ã¼
ĠHÃ¶ he
ĠAngeb ote
a pt
f ung
Ġwoll t
Sch on
ĠwÃ¼n schte
ĠBon us
m et
v iel
ĠM ehr
ĠRe gen
ĠZeit punkt
Ġ3 5
low ers
Ã¼ st
ĠA ir
ĠkÃ¶n nt
iv id
I P
ĠS and
Ġb ringe
ĠE t
ĠP sych
Ġlie bt
Ġnie der
zi p
Ġbede uten
ĠEle kt
G ibt
h ang
ĠS im
ĠE hre
ĠL aden
ĠDeut schland
ĠgefÃ¤hr lich
I T
Ĥ ¬
ar s
Ġb itten
ĠL ondon
Ġbe ant
ne ten
eu ert
Ġda gegen
Ã¤n e
Ġzus Ã¤tz
Ġschl agen
qu enz
usst sein
H ab
g ern
h Ã¤ndler
Ġg rÃ¼n
Ġer schein
ĠI di
z ei
ĠS Ã¤
Ã¤ llen
ĠW aren
ĠV on
ĠSp an
Ġunter sch
Ġbek omm
r unken
ĠD ok
ing st
ĠBo oking
Ġtot al
B er
g al
Ġk ap
le y
ĠKÃ¶nig reich
Ġwus sten
ĠAmer ika
Ġwollte st
Ġgr und
b auen
s eh
Ġ a
er weise
Ġd ank
ann en
is h
ĠGe fÃ¼
rÃ¼ck e
ĠCas ino
ĠMÃ¤r z
ĠFreu de
Ġ ur
ar on
ĠL og
eich e
ĠBro w
a el
Ġh ieÃŁ
at es
ĠP e
acht s
stell er
ĠInst ant
ĠStr eit
J emand
st ein
Ġw eder
Ġn Ã¤her
lei ten
ĠWie so
n ungen
Ġ2 8
ĠAgen t
omb in
Ġb ill
ĠH Ã¤nden
de te
Ġbestimm te
E n
Ġw es
Ġw em
Ġi P
ĠD ingen
ig sten
Ġsch ick
ĠJ on
Man chmal
olog ien
ĠY ou
ĠBrÃ¼ der
Ġ ei
Ġb ein
Ġsch lieÃŁlich
rÃ¼ ben
ĠS old
it ut
eh nt
Ġst ir
ding s
ĠRÃ¼ck en
ĠFein de
ĠW inter
ot s
Ġde fin
Ġel ekt
ĠM or
ha fen
Ġbestimm ten
aur ant
ĠLiebl ings
ĠB eit
ĠT ra
ĠI P
ĠDie se
ĠWo hl
ĠfÃ¼hr te
o ben
ĠK Ã¤
Ġl inks
os k
lau bst
Ġp riv
Ġgel esen
Ã ©
Ġd igit
Ġk om
ĠH at
us sen
Sie ht
Ġum gebracht
ohn er
ĠTe xt
g reifen
ir t
eh le
ĠT rain
am er
ak ob
Ġhe ut
Ġge zeigt
weg s
ĠErgeb nisse
ie ben
Ġk ennst
Ġr es
ĠTw itter
1 6
2 5
ag ement
h eim
Ġm Ã¼
ri d
ĠâĻ ª
ĠUnivers itÃ¤t
ĠInd ien
ĠO hren
inde stens
Ġbezahl t
Ġd ienen
ĠT ED
ĠI r
Ġent hÃ¤lt
Ġgef angen
Ġgel ie
fahr t
ĠMa c
ĠfÃ¼hl t
ĠunterstÃ¼t zt
1 8
W eniger
Ġverl etzt
akt ieren
p asst
Ġs auber
ĠO ut
Ġdurch ge
Ġglau bt
f lowers
g ien
as chen
M achen
S ei
d as
ĠD on
ĠD el
ĠZ ellen
ĠMode ll
ei ÃŁ
ĠB and
Ġge arbeitet
Ġj Ã¤hr
ĠSt ru
ĠO pen
iz ieren
ĠTats ache
ĠW and
ĠW esen
ĠSp ei
uch ten
fer en
ĠKamer a
Ġmoder nen
b ald
sch u
ĠE i
Ġzahl en
ĠS ind
ĠM ach
Ġer laubt
ĠPl ay
S ehr
ie te
der t
Ver wenden
ĠTran s
ĠBrie f
Ġun mÃ¶glich
ĠI mm
ed es
wer fen
ac t
H e
ĠW h
ag n
ĠZ we
Ã¼s se
ĠGl as
ĠChr ist
ĠT ri
Ã¤t te
ĠCh em
ĠS ag
Ġgesch ieht
ĠschÃ¶n e
ĠCo ok
Ġ7 0
ĠHÃ¼t te
Ġbe z
rei bung
akt iv
Ġru fen
ĠGemein de
Ġd rÃ¼ben
ĠT ut
ĠT eile
ĠHer ren
Ġverk auft
ĠEntscheid ungen
o ur
Ġdas elbst
ĠI dent
ĠRe p
ĠGew icht
Ġne un
ĠGespr Ã¤ch
H allo
ĠS oll
ĠB ist
ĠK rie
d s
z eiten
Ġs ex
ĠW ord
ĠGeb iet
ĠVerein igten
h am
ĠZ orn
ĠEx p
P l
Ġin d
Ġsch rieb
aler weise
W elche
p el
te sten
Ġan rufen
Ġj ungen
ĠNach bar
Ġspr ich
ĠS icht
ĠK arten
re cher
ĠSch war
Ġp rakt
ĠO l
Ġheraus finden
sl etter
V iel
n ov
Ġs enden
ĠBer ge
Ġwicht iger
st ant
ĠF isch
wei ter
ri pt
Ġwel cher
K ommen
st adt
ĠSie he
ĠT un
ant ast
u x
Ġun er
Ġan geb
il ien
ĠIt alien
et was
Ġver schl
Ġt ran
Ġ2 3
pl atz
Komm t
Ġnot wend
o le
r ein
Ġd auern
ĠG ol
ĠJ uni
ed ig
ver b
Ġbest ehen
ĠOpt ionen
S er
ĠO k
Ġsei en
fÃ¼hr er
Ġkompl ett
ĠK ategorien
ĠH en
ungs k
Ġeinfach e
Ã¶ gen
ĠZ entr
U R
ĠA c
ĠFÃ¼r sten
ĠÃ¼br igen
Ġf angen
ĠJ akob
Ã¤r m
Ġgesch ah
ĠkÃ¶nnte st
ĠRei sen
Ste llen
L e
ur f
Sch l
uldig ung
merksam keit
ĠM y
Ġin form
sp r
Ein er
in ken
ie ll
Ġso bald
Ġt aten
Ġneu er
ĠUm gebung
b lich
f le
s w
Ġl eb
and t
Ġgew Ã¶hn
ĠG u
ĠF al
ĠÃ¼ber leben
ĠPar is
ĠErgeb nis
Ã¶r per
ist an
ĠRe zen
ĠMit arbeiter
v is
ĠM ama
il is
ahr e
Ġsp Ã¼r
ĠBe zug
ĠEin satz
fol ge
forder ung
ĠZahl en
ĠPu blik
4 5
an ze
Ġh Ã¤ufig
ab r
ĠD om
iel ten
Ġr ie
Ġr ief
Ġgew onnen
ĠGr unde
Ġgeb rau
ĠBet rieb
ĠFar be
ĠZ auber
Ġaus gew
Ġent schieden
r asch
fer nen
ĠÂ °
ĠKre dit
ĠInter esse
ĠFrei heit
k n
Ã ĸ
ĠG ute
Ġer l
ĠSt Ã¤r
Ġwissen schaft
Ġhei raten
Ġbew egt
Ġbef inden
Ġw Ã¼s
Ġer t
ĠAn gesicht
ĠNe ur
ĠRes sour
ĠÃ¤hn lich
ĠSpr achen
5 00
ĠM itte
Ġf ern
Ġan gerufen
Ġwo hin
olle ge
ch em
etzt es
Ġkl icken
W or
Ġn erv
ĠW ett
Ġbest Ã¤t
hst Ã¼ck
ĠGrupp en
n a
Ġh ielt
re ut
bl ei
anz Ã¶s
fol gt
ĠInst all
ĠZug riff
ĠberÃ¼ hm
ĠSil ber
m eld
ĠG lauben
gend es
Ġgar ant
Ġs orgen
ir e
ar tet
ĠH y
Sie he
ĠSchl uss
Ġniem anden
ĠRest aurant
ĠD ownload
Ġo pt
ĠÃ¼ber n
ĠAuf merksamkeit
tem ber
ind ungen
L asst
m als
te uer
Ġaus sieht
ĠUn ser
Ġ9 0
ĠauÃŁer halb
ĠWerk zeug
ĠSter ne
ĠYou Tube
Ġ stellte
Ġd achten
Ġer schaffen
ĠV Ã¶
Ġzwei ten
ĠWei le
alis ieren
ĠWill st
ĠMiss ion
Ġeinsch lieÃŁlich
h and
ĠN erv
G ute
Ġb Ã¶se
ĠW ider
ĠL ust
Ġl eiden
Ġso wohl
ĠC ol
Ã¤ch er
AuÃŁer dem
Ġverhin dern
ch tet
Ġan d
eu ern
Ġwei ss
ĠBo ot
ss ystem
get an
ĠB om
ĠG ib
ĠV en
Ġum f
Ġr und
zen z
ĠMÃ¤n nern
ĠKlei der
6 0
ĠM ir
el en
ĠIn f
ĠIn sel
ost et
Ġverantwort lich
N ehmen
au p
au sch
ĠN ar
ĠN ov
app en
Ġsp aren
ĠRe aktion
wer den
ĠsÃ¼ ÃŁ
Ġsu per
o y
Ġg Ã¼lt
Ã¤ chen
Ġaus ger
ĠAus wahl
ĠgroÃŁart ig
ĠPolit ik
ĠM ad
be d
ĠBe dingungen
Ġhin auf
ĠBl og
ĠHe er
Ġherauszu finden
H er
t Ã¤u
Ġg rÃ¼
ĠH Ã¤user
ier ter
ĠIn s
stell ten
ohn t
uld ige
ĠFort sch
C h
F alls
M S
Ġh ol
ungs m
ĠBild ung
Ġkomp lex
1 3
ĠS au
ĠV oll
ul en
ĠSchÃ¼ ler
Ġn Ã¼t
ĠG arten
ion s
rÃ¼ st
ĠPro phe
ler nen
ĠNew sletter
s etzt
s weise
Ġl aut
eich ern
Ġext rem
D ad
g te
ĠT ipp
op er
ĠMed izin
ĠD is
ĠN utzer
ĠVer stand
ang el
Ã¼s sen
ĠBer icht
ĠTe e
Ġbef indet
E T
ĠS n
Ġz un
enn ung
ĠC odes
Ġhei ÃŁ
Ġbesch Ã¼tzen
ĠTerr or
vÃ¶lker ung
ĠGefÃ¼ hle
k arte
Ġd auert
ĠVer gleich
ĠAn wendung
ĠVers and
achst um
Ġk alt
ĠfÃ¼r s
Ġsol chen
ĠStick erei
ĠA bst
mm e
rei te
ĠWir klich
Ġbeh aup
ĠGeheim nis
ĠGren zen
B in
o c
Ġein f
ĠK ur
Ġge fÃ¼hrt
Ġeinzig art
Ġm indestens
it al
ĠH am
om o
ĠâĢ ¢
Ġverb ringen
ĠStud ie
ĠGren ze
b ol
as zin
ber n
ĠSch ne
sp ekt
Ġbis her
Ġweiter hin
Ġganz es
ĠInst ag
ĠSicherheit s
ĠVerantwort ung
p tember
r itten
st a
ĠM aschinen
ĠA part
Ġfre und
ĠFrank reich
ĠPak et
2 4
in t
ĠP r
Ġhin ten
M L
b ahn
m otion
app e
ĠFin anz
Ġi dent
arb ie
ĠMon ster
Ġsol ange
ĠÃ¼berras cht
ĠMu ster
Ġk r
mm en
ĠO ze
ho den
ĠDienst leistungen
ĠbenÃ¶t igen
ĠEr den
ĠProdu ktion
ĠVert rag
1 4
g o
ie lle
ĠT im
Ġmit ten
Ġwer fen
rei tet
Ġnach denken
ĠIn vest
imm ung
Ġzum indest
ob ile
ĠBew usstsein
pr il
ĠWebs ites
u el
ĠB oss
ĠÃľber leben
ĠÃ¼ bel
ĠSystem e
Ġwicht ige
Ġ alter
Ã¤ st
ier st
Ġgeh alten
est ern
Ġirgend ein
ĠBab el
mittel n
ĠStÃ¤d ten
Ã¶ff net
eba oth
ĠK op
be wer
Ġvor ber
app t
ĠEinz el
W el
a sten
it or
de ck
Ġj ung
Ġgesam ten
Et was
ĠInstag ram
J ahr
b ruch
f rei
ĠG ang
ĠD ach
ĠL ib
ĠJ apan
ĠRe alitÃ¤t
ĠTechn ologien
H abe
ĠS ol
ĠP unkte
ĠZ ebaoth
arr iere
ĠFein d
ĠKne chte
ĠwÃ¤r st
R A
Ġd est
ie der
it i
enn y
Ġge pl
ru cht
ĠRo sen
ĠMot or
Ġbetrach ten
r et
z a
ĠT om
ĠEn gel
ĠPl ug
Sch auen
Ġrecht s
ĠErw achsen
S ol
ch tern
ĠE ing
Ġbe enden
kt ober
Ġp assen
ĠStat us
ĠMedikamen te
b ieren
sch irm
ĠB a
ĠK il
ĠL ink
Ġmit t
Ġâ Ĥ¬
ri m
wer ke
Ġsol ches
W arte
m os
Ġw Ã¼ten
ĠS m
ro p
ĠC ity
om ent
Da fÃ¼r
war d
ĠMet h
Ġm edizin
ber g
pro du
ĠDV B
H alt
M ar
s eit
ĠW al
Ġvor sichtig
ang t
ĠKl asse
ĠBes itz
ĠSt ift
ĠSchw ier
ĠK urs
il de
Ġeigen es
ĠSte uer
Ġoffen sichtlich
Ġzerst Ã¶rt
C A
Ġs amt
ĠS itz
Ġf iel
ĠB at
ĠB ud
ĠZ w
ĠSch ick
ĠSp ielen
bar keit
ĠSpiel er
ĠSchmer z
O M
gel assen
pl an
Ġfin anz
d ienst
Ġs itzt
ĠA ug
gem acht
ĠBef ehl
st Ã¤nde
ten t
ĠM eter
ĠP aar
Ġab onn
ĠIn halt
Ã¤h le
ĠTechn ik
ĠtÃ¤ glich
Z ie
n ehm
ĠM Ã¼n
ĠH als
Ġl eisten
Ġst ud
Ġe chte
Ġ19 9
wir tschaft
Ġsel ten
ĠOrganis ation
ĠÃ¼berprÃ¼ fen
b esch
et ing
sp e
ant ie
umen te
af r
ĠBlumen hÃ¤ndler
ĠGut es
ĠStud ien
ĠKlei d
ĠGrÃ¼n de
N eu
er in
ĠL esen
Ġ5 00
ĠStra te
gef unden
ĠWissenschaft ler
Ġzerst Ã¶ren
te gr
ĠG uten
Ġsozi alen
Ġbeob achten
Ġautomat isch
Ġt he
Ġwunder bar
ĠTr ick
ĠSek unde
ĠPublik um
l inge
s amen
ie ten
ĠF ei
ĠL auf
Ġauf grund
ieren de
Ġges ucht
ingt on
ĠCl ub
Ġnorm al
S elbst
ĠS ach
Ġk m
Ġab ge
ĠAn ruf
sp ruch
og el
Ġantwor tete
Ġm m
ĠW itz
ĠK Ã¶
Ġer for
zu bringen
ĠU TC
ob ald
Ver d
Ġherunter geladen
I A
a fe
d ass
k Ã¼
Ġz ogen
ist or
ĠOr te
kehr en
ĠEinz ige
Ġlei der
Ġbege g
g eld
Ġsch ieÃŁen
Ġschl ug
ĠGel egenheit
ĠGener ation
ĠJu gend
ĠSym pt
ĠPlatt form
g lÃ¼ck
Ġk or
ĠM Ã¶rder
ĠW Ã¶rter
ĠArbeit s
ĠGeburt stag
ĠS ar
sch m
ge fÃ¼hl
ĠC op
ĠAn walt
end ung
ĠAlt ar
ĠLad y
I mmer
ĠE rei
Ġ201 5
ĠUnternehmen s
ĠMensch heit
fer enz
ĠGeschle cht
M elden
u z
z ut
ĠW Ã¤hr
ĠH unger
Ġda vor
uch s
ĠProgramm e
Ġunbe d
Ġph ys
v olle
ĠK Ã¼nstler
ĠF ett
Ġp asst
ĠAr schl
Ġgleich zeitig
ĠAugen blick
Ġerw Ã¤hn
ĠNahr ung
T ja
Ġ Ã¤u
Ġ organis
Ġsich ern
Ġeinz igen
wÃ¤rt s
ĠRessour cen
Ġein ander
Ġf antast
ĠAben teuer
zeich nen
Ġste ckt
Ġn ah
hr t
Ġdes wegen
Ġr ufe
wÃ¼r dig
ĠArch ite
ĠArme e
E igen
O hne
Ġent halten
og ra
ĠDe al
D ort
Ġb i
ĠE uer
ĠP rÃ¼
rei b
ĠBe weise
Ein es
Ġverw ir
ĠPh ara
Den ken
ĠSchmer zen
l ern
Ġf urcht
Ġauf halten
Ġt ie
Ġverb inden
under te
Ġgest ohlen
Ġfre uen
ĠOpt ion
ĠZust and
N e
k an
u ellen
Ã¤t zlich
Ġre gel
Ġbes itzen
Ġgeb rochen
ĠschÃ¶n en
ahn sinn
Ġkont aktieren
ĠS amm
Ġum gehen
Wir d
av e
ĠMus e
Ġfal sche
amp e
rÃ¼st ung
R E
b a
Ġ at
Ġdie jenigen
or te
ĠT itel
ol fen
Ġent weder
wo od
Will kommen
ĠDetail s
ĠG ehen
Ġl ern
ĠAn z
ĠFl uss
ĠHand el
ĠFir men
ĠpersÃ¶n lichen
ĠVie h
emen te
B ook
ĠS ei
it h
ĠV Ã¶lker
ĠSt ar
Ġerforder lich
Ġunbed ingt
ĠM art
ĠZ eu
ĠRe volution
richt ung
Ġverw ende
f ter
ĠA aron
ĠH ol
ĠV Ã¤ter
etz ten
Ġp osit
Ġeinfach er
lo ser
ĠBas is
G laubst
ĠB al
ĠRe d
lo ok
wend ungen
ĠSchÃ¶n heit
ĠKomment ar
ĠDor f
E l
G uten
O T
b ank
g Ã¤n
j Ã¤hr
Ġer r
ĠT au
Ġauf geh
ill en
ĠReg ion
ĠHeraus forderung
ĠnatÃ¼r liche
B es
M ich
ei sen
Ã¤ be
Ã¤ sst
Ġnach zu
ĠUn fall
ĠVor stellung
ĠmÃ¶glich erweise
Ġverste ckt
ĠÃ¶ffent lichen
l ad
ĠW ann
ĠK ol
ĠP il
le fon
Ġwar tet
Ġgew alt
Ġ3 1
ak te
Ġbl Ã¶
ĠFrÃ¼ hstÃ¼ck
ĠNutz ung
ĠBot schaft
ĠbeschÃ¤ft igt
4 0
f ragen
Ġver folgen
Ġt ausend
ĠLin ie
ĠEben e
apt ain
ĠK ategorie
ĠGe fangen
he k
Ġunter wegs
ĠAmer ikaner
ĠM eister
ĠD isk
Ã¼r f
ĠE ure
ĠVer st
Ġgeh abt
Ġange fangen
d aÃŁ
Ġz eige
ĠD ich
ĠStu hl
ĠSen der
Ġstir bt
8 0
ĠAl s
Sch au
ĠAng riff
Ġspezi alisiert
fig ur
g ier
ĠB ein
Ġj Ã¼n
Ġ3 00
ic ro
Ġvers uchte
ĠKÃ¶n ige
ĠThe orie
Ser ver
ĠP C
ĠL eiden
ag s
w issen
on a
ĠA st
re ffen
Ġt raf
Ġr uss
Ġsel ber
Ġerkl Ã¤rt
Ġen g
Ġschreck lich
en schen
Ġges und
Ġirgend etwas
Ġvert rau
ĠStart seite
ĠMat hemat
okrat ie
Ġdest o
le ge
Ġum fang
ĠAn w
ul ar
Ġent gegen
ĠmÃ¼s ste
ĠBer uf
ĠPh ys
Ġbeh andeln
Ġtrau rig
ĠG re
ĠK om
ĠJ ose
Ġkomm un
Da her
ĠMa x
M acht
d essen
h Ã¶r
Ġs uche
ar l
ĠB akter
ĠT oten
ĠT asche
Ġ201 3
stÃ¤nd nis
ĠUr s
ĠpersÃ¶n lich
Ġewig lich
F l
N S
Ã¤ s
ab il
Ġp sych
ĠAn sicht
ĠIn dustrie
amm elt
Ġgen Ã¼
Ġakzept ieren
g eln
p ack
or fen
Ġwir tschaft
ck s
Ġt olle
ĠzurÃ¼ck zu
Ġgesch lagen
Ġgek auft
Ã¤cht nis
ĠTo ur
ĠFern sehen
k ont
ei der
it ionen
Ġf ei
Ġvor aus
beh Ã¶r
ĠBezie hungen
ĠBrow ser
S on
l Ã¶s
ir d
ĠK ey
Ġgeh or
pf el
ak i
ib el
Kl icken
ĠProphe ten
D r
i men
ĠSchl acht
ĠÃľber wach
ĠÃľber rasch
alis ierung
gr ess
Ġwichtig sten
ĠInst itut
echs eln
ĠhÃ¶ ch
Ġverh eiratet
A L
ei ÃŁe
ĠR iesen
Ġ2 6
Ġent sprechen
ath an
Ġnahm en
ĠBahn reisen
mÃ¤ÃŁ ig
Ġfehl t
ĠCook ies
Ġun sch
ĠH i
Ġver Ã¶ffentlicht
Ġent fernen
ĠSe e
Ġdr itten
ĠFern seh
ĠhÃ¼b sch
ĠIdi ot
a ste
Ġw ach
Ã¤ ste
ĠK ug
ĠD am
Ġe ffekt
ĠAb schluss
ĠP rem
Ġauf re
Ġbe weisen
ru fe
Ġ201 4
Ġgel assen
Ġc m
Ġho hen
duz iert
H Ã¶ren
Ġf aszin
Ġt rifft
ahm en
ĠIntern ation
Ġgelie bt
S h
ĠD eb
ĠV i
ut age
Ġaus l
ill a
utz utage
ĠKrank heiten
meld ung
in ess
Ã¤ um
ĠB ier
ĠKÃ¶n nen
ĠWei s
gem eine
Ġext ra
Ġeinzel nen
ĠF BI
am i
rupp e
Ġste lle
S icher
Ġver f
Ġsch lieÃŁen
ahr scheinlich
Ġsp reche
Ġgeb oten
ĠMill ion
min ister
Ġh Ã¤ngt
and a
ĠEr st
ĠSchl ag
ĠUnter such
erson en
ĠDo ktor
Ġanz eigen
w ay
z ten
Ġk Ã¼r
ĠSch atten
om it
pro gramm
i os
m eister
v in
Ġs eg
ir gend
ĠH all
ĠSch rift
ĠGesch windigkeit
per atur
Ġweiter en
zus ehen
Ġverurs acht
au pt
at is
ĠD och
ĠBe weis
ĠKÃ¶nig in
ĠBru st
ĠTÃ¼r k
lin ie
ĠBund es
K ont
T e
ĠM c
ĠN atÃ¼rlich
sp rÃ¼n
bl ieben
arb eitung
In stant
ĠHau st
Ġsozi ale
ĠÃ¼bert ragen
Ġs ucht
ĠD NA
ĠL och
Ã¼t ter
ĠKl ima
ĠFlug hafen
Ġste cken
ĠKosten lose
Ġgebe ten
v el
ĠS C
Ġh andeln
or y
ĠE u
ul ation
Ġre det
Ġschl Ã¤
ĠGen au
H abt
l afen
sch rift
Ġt r
ĠJ ung
ĠAr men
Ġanst att
Ġblie b
v a
ĠT rau
ĠO ff
Ġre chten
Ġdurch s
son dern
ĠDavid s
ĠUr laub
ĠAktiv itÃ¤ten
c ol
ĠG rad
ĠH alt
us h
Ġsch lie
Ġo pf
ĠEin w
anz ig
chte st
ĠSchu he
ĠWor ten
Ġeben falls
ĠLiebl ing
au se
ĠB ad
ĠK ein
ĠV ier
ĠC ollege
Sie hst
Ġsp iel
ĠGe fallen
P EG
ĠW el
for men
Kein er
ĠGar antie
ĠAkt u
blei ben
i bst
n etz
ĠA pril
le g
Ġbe wer
ĠGÃ¶t ter
Ġumfang reich
it ann
ĠM obil
ĠW est
ĠV ogel
ol den
oll t
Ã¼n d
eid et
ĠBo x
ĠLeist ung
ĠRund schreiben
i den
Ñ ģ
Ġs andte
Ġh andelt
ĠB ob
ĠH unde
Ġer ster
Ġab sch
ĠâĢ Ķ
ĠmÃ¼s st
ĠDe te
ĠNicht s
Ġerinn ert
Ġauf w
ĠPhil ister
ĠSchwier igkeiten
Ã¼ gel
ĠH im
Ġsch aff
ĠWeb c
Ġwel chem
ĠNeu es
ĠLÃ¶s ungen
ĠstÃ¤r ker
ĠBrand opfer
ĠB it
ĠB ur
ĠW unsch
fl ug
Ġwel chen
zahl ung
ĠMr s
ĠKn ochen
ĠKomment are
ĠWeihn achten
ĠErei g
A M
ĠM er
ann e
Ġge gessen
ĠZ e
ĠFÃ¼ ÃŁe
ĠDen ken
ĠTÃ¶ chter
Server zeit
ĠM auer
Ġgeh olfen
sp h
ĠPap a
ĠVir us
ĠVÃ¶ gel
ĠwÃ¼ten d
Eigen tlich
K osten
f rau
Ġt u
ĠJ ord
ĠSch aden
ild et
ĠPfl anzen
W Ã¤hlen
Ġ or
in os
Ġ. .
ĠG Ã¼te
pf l
ak ten
ĠWei ÃŁt
Ġdort hin
Ġverm eiden
ĠSta ats
Ġerle digt
ĠKÃ¼ che
kor b
ĠGn ade
ĠKoll egen
o ÃŁen
Ġin spir
ĠH or
Ġent lang
ĠEin fluss
ĠOr ten
Ġverm utlich
ĠBes onder
Ġverh af
ĠPass wort
Ġabonn ieren
ĠArschl och
ar ch
ĠE llen
Ġo ffiz
ĠC O
ĠHau fen
Ġho le
beh alten
ĠHaar e
ĠLev iten
i us
ĠC om
Ġgesch affen
ĠVerb rechen
S ir
ar ia
ĠA lex
ĠF akt
ag o
ĠN ase
Ġaus sch
Ġr isk
Ġwill kommen
ekt or
ĠLie d
ĠPrin zip
B et
P ress
Ġsch afft
Ġt radition
Ã¤n n
ĠAus wirkungen
ĠHaus es
Ġdarf st
ĠErfahr ungen
gn or
Ġentde ckt
Ġzuf rieden
ĠVerÃ¤nder ung
en a
Ġr an
ĠBe ach
op Ã¤
id a
leich en
Ġerle digen
bie ten
ĠMeth ode
itann ien
G ro
ĠS atz
Ġun abhÃ¤ng
ĠL eiche
ĠV amp
ĠN o
Ġle er
Ġvoll kommen
Ġbeh andelt
Ġverschw unden
ĠTest s
Ġbrach ten
ĠSÃ¼n de
Ġst opp
Ġkann te
Ġdr itte
ĠFran c
ĠRezen sion
ĠwÃ¼s ste
n ehmer
ĠE hem
Ġda durch
ic s
ĠAu st
Ġaktu alisiert
ĠBed Ã¼rf
ĠzusÃ¤tz liche
M enschen
d aten
Ġn ation
ĠH elden
Ġl Ã¶
ĠR os
ĠN eben
ĠC al
ĠO hr
Er zÃ¤hl
ĠMon d
Ġho he
âĢ ľ
KÃ¶n nte
ĠerhÃ¶ hen
Ġjeg licher
ĠBÃ¤ ume
1 00
d ru
k r
Ġh alt
ĠR Ã¤
ĠN et
ol ogen
ĠChar akter
ĠExper iment
Ġkontroll ieren
f ar
l d
Ġd anken
ne y
licher weise
Ġfal schen
ĠThem en
bie ter
ĠOber flÃ¤che
Ob wohl
ĠS kl
ĠG i
zi f
ĠSchn itt
Ġverlie bt
S obald
Ġst eigen
ri ften
ĠEl emente
zess in
Ġlau tet
ĠKir che
ĠAuft rag
eh nten
ĠH al
Ġver raten
Ġmein te
Ġent tÃ¤u
Ġde ut
fre und
Ġprof ession
Book ing
0 2
al ist
Ġan gesehen
Ġsch lau
ĠSt au
ĠJahr z
Ġ3 6
rÃ¶ h
br itannien
ĠmÃ¼ de
c ial
w art
Ġ rÃ¼
an stalt
ĠF o
ĠP op
ĠBe vÃ¶lkerung
ren g
Ġzie ht
ĠKÃ¶r p
Ġfinde st
ĠVort eile
ĠTre ffen
ĠtrÃ¤ gt
ĠBeit rag
ĠÃ¤u ÃŁer
Ġm in
Ġk o
ĠJ ames
Ġr Ã¼ber
ĠBl ack
Ġrede st
Ġaktiv ieren
ĠÃĦr ger
Ġbemer ken
ĠWeis heit
J edes
Ġg olden
ĠM el
ĠD enn
ĠL ade
sp ort
ĠUn glÃ¼ck
pp ort
Ã¼n ft
ĠRes pekt
ĠLi zenz
Ġexist iert
ĠStru ktur
ĠSympt ome
Ġ 000
ĠF Ã¤llen
re w
ĠC y
ĠO K
ĠPro motion
ĠBab ys
ĠSta at
ĠProt ok
0 8
z ur
as k
ĠK arriere
ig in
ver m
Ġle be
ĠfÃ¼hl te
aly se
ĠSchick sal
0 3
0 4
I G
T A
on es
Ġb ilden
ĠH ir
ĠL ord
ĠÃ¼ber nehmen
ĠO ktober
ul ieren
ungs system
ĠAu ÃŁen
Ġhei ÃŁe
Ã¤uf er
r eit
s b
ĠW etter
ge geben
ĠF ehl
ĠL es
ĠL ast
ĠN eb
ĠEr ste
ĠJahr hundert
ess or
ĠMail s
Ġverdamm te
Je de
ĠEigen schaften
Ġlok aler
tels at
Ġ y
Ġf ing
Ġsch Ã¤tzen
ĠZ iele
ĠAm t
Ġeben so
Ġzeig te
Instant Booking
k rie
Ġw in
ĠS em
Ġber uh
olog ische
Ġwenig stens
ĠUp d
Jahr hundert
Ġz Ã¤hlen
ĠM ult
ĠK e
ĠP eter
ro w
ĠR elig
Ġsch ul
Ġab h
ĠWei ter
st eht
ĠK reis
Ġauf gew
ik e
ĠAut or
ĠerzÃ¤hl te
ĠUS D
ĠSal omo
ĠDien ste
p a
ĠM esser
wer te
ma z
ĠStr and
ĠMÃ¼ ll
ĠGal ax
ĠStÃ¤r ke
T atsÃ¤chlich
k arten
Ġin vest
ĠH yp
Ġsie h
Ġges etzt
tern acht
Ġwahr e
ĠTe x
ĠOn kel
I E
S e
d at
f Ã¤lle
y t
an cen
ĠM ont
be k
Da zu
ĠAuf gaben
Ġletz ter
Ġrede te
ĠBesch eid
ĠMil ch
ĠTransp onder
z unehmen
Ã¤ ger
ĠW eniger
Ġer leben
Ġl aÃŁ
ĠN orden
ra fen
Ġher ein
gesch Ã¤fte
ĠLebens mittel
ĠSy n
ĠSÃ¼ ÃŁ
Ġeinzel ne
Ġkonzentr ieren
ĠAug ust
ĠE cke
ĠSch ild
ĠSt ock
im p
ĠmÃ¶ glichen
Ġho ffen
Ġschw anger
ĠFil me
ĠKlei dung
c el
ĠA ktion
ĠF ach
Ġaus w
ĠEin stellungen
Ġpass ierte
Ġwen ige
ĠDaten schutz
Ġnorm alerweise
Ġentde cken
Ġident ifiz
en ken
Ġs auer
at oren
Ġl etztes
ĠC omm
ĠVer kehr
Ġst ehe
Ġerw ischt
on y
sch au
ĠH ot
um or
ĠR and
om eter
ĠDem okratie
W en
f il
i for
ĠE volution
ĠÃ¼brigen s
j ahr
Ġd isk
Ġg aben
ĠR uf
be wert
ĠVer stÃ¤ndnis
ĠIn nov
ĠAl tern
ĠEx press
ĠSy r
ĠHen ry
ĠInstall ation
ĠJose ph
Ġin f
ĠAn wendungen
ĠAus bildung
Ġbeg onnen
ph Ã¤re
ĠGroÃŁ britannien
Ġarbeite te
ffiz ien
Ġverste cken
ake te
g riffen
m utter
al og
Ġf e
ĠR ing
Ġman che
schl Ã¼ssel
Ġzer b
ifor n
l og
m ord
p or
ĠM osk
Er st
Ġverst ehst
ĠBer lin
ĠSh op
ĠhÃ¤lt st
T E
m aÃŁ
Ð ¸
on ie
os h
Ã¶r dern
ĠEr klÃ¤rung
ĠAu d
ĠQ uelle
ĠFlor isten
ĠNation al
Ġeinf achen
l ant
Ġn irgend
ĠA p
ĠB il
ge zogen
Ġver ab
ĠR ein
Ġab geschlossen
ill er
ĠSp ion
eld et
Ġbeg ren
ĠGer Ã¤u
ct ive
ĠTrÃ¤ ume
Ġvorh anden
ĠNov ember
k re
ge gangen
ĠT herap
ĠZ iv
Ġbrau chte
ĠSpe zie
ĠDeut sch
ĠMich ael
ĠT ur
ber eich
ĠR ot
ĠC r
Ġsp eichern
ĠBe dro
Ã¤ch eln
ĠOut look
e be
Ġs etzte
Ġi s
il y
be zogen
Ġzw Ã¶l
ĠKon zept
ĠMe x
lin ien
ĠZusammen hang
ĠbenÃ¶t igt
Ġzuf Ã¤llig
ĠSold aten
ĠWord Press
Ġnotwend ig
ĠEhem ann
2 3
n y
ĠS her
ĠH irn
gesch ichte
Ġniemand em
ĠChar lie
ĠBakter ien
ĠgenÃ¼ gend
f unk
gew icht
Ġte sten
ĠKrieg s
Ġentsch uldigen
ĠStimm en
ĠEntwick lungs
Ġherunter laden
haf te
ĠSign al
ĠIdent itÃ¤t
I V
S enden
Ġ Ã¤ndert
ei de
Ġv is
ĠN ieder
ĠNeu igkeiten
Ġirgendw ann
ogra ph
Ġumfangreich es
an ter
ĠB lei
ĠP aul
ĠIn telligen
Ġgeh Ã¶r
rÃ¼n det
Ġem otion
a ÃŁt
m ack
n itten
â Ļ
ein st
Ġf Ã¤hrt
Ġver der
Ġan gem
ĠMit ternacht
Man che
ĠErn st
Blei b
0 7
2 7
Ġs etzt
Ġs aÃŁ
Ġg rau
Ġk re
ĠK ern
ĠC or
ĠMann es
ĠGott losen
Ġgesch w
ĠSte llen
ĠMet hoden
ĠTo il
ĠChe f
ĠJes us
ĠNerv en
ĠS zen
ĠW achstum
Ġver ein
ĠfÃ¼r chten
ĠAus rÃ¼stung
Ġ201 1
ĠSe ptember
Ġc a
Ġpro duzieren
ĠKÃ¶r be
Des wegen
ĠSchul en
ĠSÃ¼n den
istr ieren
p reis
z z
as i
gen ie
ĠE ind
ĠL Ã¼gen
Ġ2 9
ĠIn halte
Ġwo her
Ġbes orgt
ord et
ĠBet h
ĠRicht er
MÃ¶ chten
D F
R eg
ĠS ehen
Ġver rÃ¼ck
am b
le b
hm en
Ġunter suchen
Ġglau b
ĠAb sicht
Ġvoll stÃ¤ndig
ĠTer min
ged acht
Ġbekomm e
Ġkom isch
2 1
Ġm ut
Ġauf genommen
tel n
ĠAb m
Ġleben dig
isten z
Ġjen e
ĠPlug in
ĠHim be
g rÃ¶
Ġm erk
Ġf ein
Ġsch ne
Ġt ro
etz e
ick e
pt op
ĠÃĦ l
eig net
Ġfre ue
Ġro te
ĠFlor ist
Ġg ib
ĠB in
ĠB eine
ĠE ier
ĠWerk zeuge
ĠMil itÃ¤r
ĠEi sen
d rÃ¼cken
o be
ĠG anz
ĠW ichtig
ĠR ay
Ġge zogen
att ung
Ã¤m pfen
Ġex p
Ġvert raut
ĠHe x
ĠWechsel kurs
Ġopt im
D ir
b liche
r ing
ĠM as
Ġlie feren
ĠBlumen geschÃ¤fte
Ġtre ten
Ġreich en
Z ur
Ġein st
ter t
ĠV it
ag d
ĠSp ur
ĠZu sch
ĠBild schirm
ko hol
Verd ammt
i kt
ĠS uch
ĠA ff
Ġf rem
le ute
ĠZ elle
ĠSt il
ĠO sten
ri min
ĠLie bes
Ġange zeigt
ĠFor sch
Ġamerikan ischen
bÃ¼r os
Ġdurchge fÃ¼hrt
ĠTipp s
m el
ĠM icro
ĠD amen
ĠD rink
ber gen
ĠC aptain
Ġp rÃ¼
Ġ4 5
ĠInst r
Ġinteress ante
ĠOb jekt
ĠLa ptop
E x
a im
l eitung
y a
Ġb rechen
ĠF er
ĠP oten
ĠL ernen
ĠR ich
ĠSch ritte
om as
bl iot
Ã¼t ze
Ġde utlich
Ġverdamm ten
ĠVerl ust
Ġperfe kte
ĠgroÃŁart ige
Ġansch auen
ĠSm art
ĠMathemat ik
T S
Ġ x
Ġw itz
ĠA tem
ĠZ urÃ¼ck
Ġum her
rei en
Ġakt uelle
ĠMeer es
rig ht
ĠHeim at
ĠZentr um
2 00
M al
P ass
g ing
j as
n issen
p e
u mm
it iv
ĠA bt
Ġsch einen
Ġab gel
âĢ ĵ
ĠFor men
fÃ¼hl t
Je den
Ġur sprÃ¼n
H olen
un e
Ġk ostet
ĠR ahmen
Ġst anden
ik al
eil igt
ĠweiÃŁ e
Ġkl ug
Ġkein em
Ġgesch lafen
Ã¤l te
Ġverst eht
Ġbeg r
ĠGener al
Ġheut igen
Ġg Ã¤be
Ġein gesch
ĠF ro
ĠSp iegel
Ġgesch lossen
ord nung
ĠGut haben
Ġerst es
fr ist
ĠBeg inn
mar kt
s c
s icher
Ã¤ den
al ent
ut h
opp elt
ĠZusammen arbeit
S am
j amin
l esen
ĠS amen
ĠP re
Ġl angen
Ġvor ne
Ġnach gedacht
op t
ic t
ĠKon fl
ĠnÃ¤ch stes
ĠJo urn
ĠgrÃ¶ÃŁer e
ĠVort eil
Ġbau te
schlÃ¤ ge
8 2
D rei
ĠS at
Ġsch uldig
ĠSt ich
Ġre par
ma ÃŁen
ĠRicht ige
ĠNeu e
Ã¤tz chen
ĠBus iness
Ġober en
Ġwes ent
n ess
Ġi de
ĠA maz
ĠSch ie
ĠAn der
ĠMar s
Ġblei be
ĠVolk s
ĠBr un
ĠJer em
Ġerm ordet
Ġerf unden
zw ischen
ĠermÃ¶ glichen
ĠPhara o
f alt
ĠM aul
ĠG as
Ġp ar
ĠAr ab
ĠGe gend
Ġdrin nen
ĠHinter grund
ĠnÃ¼t zlich
3 5
ĠB esser
ĠH ut
Ġt o
ĠÃ¼ber zeugen
Ġwen igen
ĠNew s
ĠFol gen
Ġkosten lose
Ġersch ien
ĠÃ¼berras chen
ĠZuf all
Ġ reisen
Ġm iss
ĠS el
ĠH eb
Ġso weit
ĠSp itze
ĠRe den
Ġgegen seit
av en
Zu hause
air e
Ġeur opÃ¤
m t
Ġf rÃ¶h
ĠP et
is ser
Ġ19 7
ĠVerb esser
Ġschle chter
Den kst
ĠZwe ck
abr ik
ĠH eld
ĠZ er
Ġvor Ã¼ber
ant as
Ġger ing
qu en
alis mus
ĠKap it
Ã¼ glich
Ġein geladen
ge ber
ĠT u
Ã¤t sel
ĠWas h
schie de
ĠMa i
ĠMar ken
ĠGer Ã¤ten
ĠRo ck
ĠerwÃ¤hn t
o sen
Ġm Ã¤nn
Ġh assen
on ard
ĠW ild
ĠN or
ĠVer gn
ĠAn dere
ĠEr m
ĠVerb indungen
ĠAbend essen
ĠFar ben
Ġeur er
Z urÃ¼ck
a w
l y
Ġ us
ĠF le
ĠD rei
Ġer lauben
ĠIn se
ĠRe view
org ung
Ġerle bt
ĠKomp l
ĠGol f
2 6
f Ã¤lt
s wert
Ġw isst
ĠS inne
ĠW id
ist ischen
ĠUn tern
ĠEin kommen
ĠBl ock
eld on
qu em
olog ischen
Wer den
Nach dem
ehm t
Ġsowie so
ĠVort rag
ĠGrÃ¼n den
walt ung
ĠSpeich er
Ġgepl ant
ie llen
ĠK ommen
Ġer stellt
ĠE cht
Ġo ff
Ġab gesch
ĠÃ¼ber zeugt
Ġhinter lassen
ĠMiss et
ĠOze an
y d
Ġd auer
es k
ĠE hren
um b
Ġge Ã¶ffnet
ĠVer fahren
Ġst reiten
ĠBau ch
ĠFÃ¼hr er
Ġinternation ale
verl Ã¤ss
S S
g ert
r ennt
Ġ che
Ġh eilen
ĠL ang
ut ze
oll y
Ġlie ÃŁen
Dar Ã¼ber
ffentlich keit
u cken
ĠM eilen
ĠA f
Ġt anzen
ĠPro mo
sp ielen
Ġander em
Ġgel ten
iss ion
Ġhal b
0 1
sch riften
Ġer zeugen
Ã¼n digt
rach te
Ġant worten
Ġempf ehlen
ĠArm ut
ĠPrÃ¤si denten
ĠÃĦr zte
Ġheil igen
Ġinternation alen
ĠCoup on
Ġbeant worten
lÃ¶s ung
E gal
Ġso dass
ĠO der
Ã¤t zt
ĠAb melden
Ġlang er
onder e
Ġmag st
ĠPar am
Ġunbe gren
Ġf orm
ge fÃ¼gt
ĠT ick
ĠN och
etz ung
her z
Ġbet rifft
ĠKat ze
ĠExper ten
Ġschwar z
ĠOper ation
Ġgarant ieren
Ġbegr aben
Ġi gnor
icht bar
ĠA mm
ĠB ord
ĠI ran
ĠhÃ¶r st
Ġstar ke
Ġerg ibt
Ġleg te
ĠErinner ung
e bt
p ass
te chn
ir k
it is
et a
ĠG Ã¤ste
ĠT ieren
Ġaus geb
ĠIn fe
Ġher auf
ĠRe ch
Ã¼ck en
ĠPl Ã¤ne
ennt nis
ĠauÃŁer gewÃ¶hn
Ġstopp en
k rieg
st at
ĠM eg
eh nen
ĠK u
Ġge stellte
Ġwo von
ĠKl appe
Ġbesser en
ĠZu cker
ĠauÃŁer dem
ĠÃĦgypten land
ĠWirklich keit
ĠSpezie s
O K
S c
g iss
h Ã¼
v id
Ġein geb
Ġb at
ab b
ieren den
ĠIn genie
ĠEr f
Ġre agieren
ĠAus druck
Ġfol gt
ĠDad dy
Ġglob alen
ĠSach verstÃ¤nd
L L
h one
v ier
ĠP ersÃ¶n
Ġan melden
ĠâĢ ĺ
richt ungen
ĠWei ÃŁ
ĠVor aus
ĠRo se
ĠWor ld
ĠEng land
Ġkommun izieren
u ft
Ġn enne
ĠA bl
Ġder selben
am ing
ri ffe
eich ert
Ġfolgen de
Ġch ines
M ann
v o
ĠM att
ĠG ur
ĠT el
ĠT ax
Ġsch me
ind ust
Ġaus s
ĠVer schw
Ein fach
ĠmÃ¶chte st
Ġsol ch
ĠGed Ã¤chtnis
201 9
ĠGegen teil
ĠWaren korb
bewert ungen
G ruppen
Ġin telligen
ĠF EC
Ġwir kt
Ġpro mo
Ġfr agt
Ġgesp ielt
Ġbelie bte
ĠJul i
Ġgrund legen
Ġd unkel
Ġi ll
Ġver gangen
ĠBl Ã¶
ĠGesetz e
ĠEigen t
Ġbeob achtet
kÃ¼n ft
ĠprÃ¤ sent
ĠRep u
ĠÃľberrasch ung
h el
Ġh Ã¤ngen
ĠL assen
ig ar
Ġauf ger
Ġdies elbe
spiel er
Ġte uer
ĠMaterial ien
D em
G er
v ol
v ater
as er
ab et
ĠO st
Ġgew Ã¤hlt
Ġdenn och
od y
ĠSe c
ĠVert eid
co in
Ġhe utzutage
ĠProf essor
ĠWash ington
M uss
h et
k le
ĠS ehr
ĠM aster
ide o
gew alt
Ġjeder zeit
ĠEur o
Ġerw achsen
ĠÃĸ ffentlichkeit
Ġbegann en
ĠPrin zessin
Ġmer ken
ĠLau fe
ĠPfer d
ĠVergn Ã¼gen
indust rie
b and
p ag
Ġein t
Ġb uchen
ĠZ ie
hl ung
ĠEr be
Ġent kommen
ess ungen
ger Ã¤t
ĠUnter haltung
ĠWo her
ĠFall e
jen ige
Ġbelie b
Ġbeeinfl ussen
ĠgÃ¼lt ig
r ick
s sen
ĠS R
ĠB ack
ik ationen
Ġr uf
ĠBen jamin
Ġbeein dru
Ġdank bar
ĠSachverstÃ¤nd ige
ĠS ing
ll ung
Ġzu l
ĠA g
ĠG eht
Ġwir k
ĠZ unge
zu kommen
Ġwohn t
ĠVerÃ¤nder ungen
ĠSachverstÃ¤ndige bÃ¼ros
h ilfe
k ind
en ter
Ġver fl
Ġan nehmen
Ġan getan
ĠZ it
Ġaus gehen
ĠAn d
Ġbr ing
ĠKunden service
weis ungen
ĠSal z
ĠDok ument
Ġnerv Ã¶s
ĠPr esse
K on
L eider
c l
Ġ rot
Ġg eist
ĠV ielen
Ġdurch schnitt
ĠGes amt
Ġc o
ĠBr as
ĠBi bliot
ĠHost el
sph Ã¤re
H alten
Ġs e
al ys
ĠD ate
ag iert
le un
Ġab geh
Ġunter s
Ġsagte st
ĠMar y
Ġerh Ã¤lt
ĠEntsch uldigung
zw ungen
ĠZwei fel
Ġversp rochen
stru ktur
ĠEp hr
Ġres pekt
in i
in kt
ĠM assen
ĠW es
ehr te
ist isch
Ġdar unter
so ft
ĠWer bung
ĠBÃ¼ hne
ĠHar ry
ĠzwÃ¶l f
ĠG raf
ot o
Ġvor behalten
art ig
ĠHo f
ĠQu ad
Ġerschein en
K unden
S C
i ffe
w s
ĠA US
ĠF a
ĠD ame
ol o
Ġall gemein
il i
sp art
ad em
ne ut
Ġ201 2
zie ht
ĠÃľber prÃ¼
Ġbet rÃ¼
Ġverm isst
off er
ĠMo ab
ĠMitglie der
kur se
Ġbemer kt
Ġkap utt
ĠSchne e
Ġfreund lich
ĠMuse um
ĠAud io
H ol
S A
a ja
f ert
i h
k raft
t u
en te
Ġm on
ĠS MS
sch auen
ĠB ienen
ĠW arte
ĠT anz
Wir klich
ul iert
Ġwo fÃ¼r
lo gen
ĠPl ast
ĠAu str
gang s
EL EC
ĠGleich e
Ġangeb oten
Ġw ette
ĠM ater
ĠR ett
ĠN ick
wei te
ĠSchw ein
ĠMar ke
Ġschw ach
ĠMed ia
ĠerfÃ¼ llen
Ġwitz ig
g han
v an
or a
it ieren
Ġgen et
Ġunter halten
Ġe chten
ĠÃ¼berle bt
ĠLei b
ĠWett bewer
ĠUnser e
Neu e
Ġopf ern
S eid
Ġw enden
ĠB arbie
ĠV an
ff er
Wei tere
ĠAt mos
Ġvorber eitet
Ġverwende ten
P al
d ige
j emand
r is
z y
Ġs eht
Ġz eich
ab le
sch eine
ĠH em
Ġsch aut
ĠSch wer
ĠVer w
end es
ĠEin sch
form ationen
St art
ĠMo le
ĠJos ua
M A
k ern
l ass
ĠS D
Ġg Ã¼nst
ar y
Ã¶ ser
ĠH ei
ĠH ab
ĠH Ã¤ufig
rei be
iv ir
qu e
Ġbesch lossen
ĠWill kommen
ĠHimm els
gleich en
Ã¶rder ung
Ġeur em
ĠDan iel
Ġnachzu denken
ĠEu telsat
O ffen
u gen
at isch
ĠM PEG
de cken
ĠO ffen
cht ung
ĠEn d
ungs st
ĠCh ancen
Ġ201 0
Ġfei ern
z um
st eigen
Ġs inn
Ġs ingen
ĠS tern
Ġzu kÃ¼nft
ĠK ombin
Ġver passt
ĠSch Ã¤d
Ġhin ab
ĠDe press
ker l
org an
yn am
ĠTem peratur
ĠerfÃ¼ llt
Ġhing ehen
Ġfurcht bar
n ummer
z wei
Ġm och
Ã¤ tern
ĠF rie
ĠEin trag
Ã¼t z
ĠTeil en
ĠBeh and
ĠInter essen
ĠpersÃ¶n liche
Ġirgendw elche
ĠVamp ir
F F
st ieg
an o
or al
ĠSch alt
ĠÃ¼ber sch
imm y
Ġgen er
Ġlie bst
eid igen
ĠWei ber
Ġheraus gefunden
ĠTÃ¼r en
bo x
ĠnatÃ¼r lichen
Vers uchen
ĠSpan ien
ĠJord an
m od
Ġ rÃ¼ck
Ġd i
Ġz Ã¤hlt
ĠM aus
Ġan geh
ĠArb eiten
Ġschw Ã¶re
ĠSer ie
ĠFahr er
eug te
ĠCar ol
3 2
F ol
g s
Ġf Ã¶rdern
ĠD reck
ig ungs
Ġbe dro
Ġaus gel
Ġmein t
ĠVer anstalt
Ġhin weg
reich e
ĠDe fin
ĠBet reiber
ry pt
Ġfrei en
opp el
Ġhal be
ĠTransp ort
sto ffe
Ġprakt isch
F Ã¼
F or
G lauben
t liche
en k
Ġm eist
Ġm ax
Ġan gesch
Ġl og
ĠZ igar
ĠAr g
Ġmehr eren
Wie der
ĠHer steller
ech an
ĠKon s
Ã¶s es
ĠMag ie
ĠMaÃŁ nahmen
Ġmitt ler
quen zen
G esch
L eute
k lei
m acht
ag te
Ġt yp
ĠSch ool
zu gehen
ĠAl kohol
Ġdr ehen
ĠMan agement
Ġersch ossen
ĠErinner ungen
Ġdisk ut
s Ã¤tze
Ġw echseln
au cht
ĠM itt
ĠL o
Ġst imm
ĠAn n
pf ung
ech ten
schein end
ĠÂ ©
ĠRo bert
Wei ter
ĠSu pport
ĠZahl ungen
ĠInd ivid
PS K
ĠVen edig
iforn ien
g elt
h eil
k opf
z ehn
ĠG ru
Ġer schie
ĠT ie
ĠT sch
Ġl asst
re ckt
ĠC amp
om in
ĠRe c
ges amt
dig ung
Ġaller dings
Be vor
stÃ¤nd ige
Br ing
G es
b lichen
m aschine
Ð °
ich en
Ġun w
al a
ĠT ed
Ġan ges
Ġsch ien
Ġt rain
ĠSch afe
ĠAn bieter
ell schaften
ĠWer te
Ġlang weil
ĠGen e
Ã¤us ern
ĠerhÃ¶ ht
Ġries ige
Ġgeg rÃ¼ndet
ĠiP hone
anzÃ¶s isch
ĠFortsch ritt
2 8
B est
H z
H Ã¶rt
l asse
Ð µ
Ġf Ã¤ngt
Ġf uhr
ĠT ast
ĠT ode
ÃŁ ig
Ġan genommen
omm y
ĠC enter
Ġp fl
os ition
Ġr ichten
und zw
ad el
Ġgew artet
ĠGesch mack
ĠFl ucht
ĠSe elen
âĢ ¦
ĠDurch schnitt
Ġumf assen
ĠZeu gen
p s
u ster
z Ã¼n
Ã¤ ck
Ġf ahre
ĠB os
ĠSch on
anz t
rÃ¤ fte
Ġweiter es
ĠKl ar
ĠMit gefÃ¼hl
ĠQu ellen
bes ondere
zentr um
Ġblo ck
ĠJu den
ĠGeschÃ¤fts bedingungen
ĠkÃ¼mmer t
R O
y le
Ð ¾
Ġ endet
au st
au chen
ĠT aschen
ĠV IP
Ġst Ã¼r
ĠPro jekte
ĠEr zÃ¤hl
ĠFre quenz
ĠGr as
Ġverw alten
Ġbeg eist
ĠÃ¶ ffentlich
ĠDen k
ĠProf il
ĠFranc is
W echsel
h eben
u mmern
Ġw est
Ġs eh
ei ste
Ġb Ã¶sen
ach er
Ġf air
ĠL eg
Ġver geben
ĠR ang
end s
Ġgen utzt
ĠLand schaft
ĠBei spiele
ĠBen utz
ĠMik e
ĠPrivat sphÃ¤re
Ġleb te
W Ã¤re
h aber
ĠH ilf
ig ungen
Ġver folgt
ĠSt ation
ĠSt ark
Ã¤hl te
ĠschÃ¶n er
up on
ĠMark eting
ĠKug el
Ġ enden
Ġz entr
it a
Ġan gew
Ġge kl
ĠEin heit
Ġwieder um
Ġgef ol
ĠGesch Ã¤fte
Ġkon vert
ac o
Ġ15 0
ĠKre uz
Ġnorm ale
ĠBef ehle
ĠFÃ¼hr ung
R T
n ungs
o ut
Ġw Ã¤chst
Ã¼ m
ĠG reu
ĠK en
Ġl Ã¤cher
Ġmit nehmen
ĠSch ok
ĠSch ande
lau be
ĠBe ob
ĠGe orge
Ġgem eint
ĠEnt fern
ĠDe cke
ĠMÃ¼ he
vent ion
Ġkur ze
Ġind ivid
ĠMisset at
F re
Ġd ur
Ġm ark
Ġm essen
Ġm elden
Ġn utz
ĠT abl
ĠJ ane
and o
be st
ĠAn ge
alt h
Ġzwei mal
ĠCh a
Ġsicher lich
An dere
rech nung
ĠPort ug
Ġtechn ische
Ġkur zen
ĠSchwar z
h Ã¤user
o ffe
p ol
ĠS ens
Ġer neut
ĠIn nen
ĠGr ab
ĠAb ra
ĠMon ats
ĠWe sten
ĠBeg riff
ĠRad io
ĠÃľ b
ĠCoup ons
ĠStrate gie
W egen
o e
s es
au ch
Ġh istor
it an
ĠB ade
ĠH abe
Ġsch mer
ĠSt Ã¤
Er halten
Ġ3 3
Ġwichtig ste
ĠLu x
ĠArchite ktur
T rotz
g ruppe
s se
an geb
Ġi OS
Ġk Ã¶rper
ĠA ktionen
ĠN utzen
sp ar
ru h
Ġgef ahren
Ã¤hr en
ĠGrund lage
ĠRo y
Ġro ten
Ġerz Ã¤hle
ĠRelig ion
h olz
is iert
ĠÃ¼ber legen
Ġr el
ĠMa j
ĠTe en
ink el
Ġerk annt
ĠThe ater
ĠmÃ¤cht ig
ĠBat ter
er ren
Ġf assen
Ġan bieten
ck ten
ĠN imm
Ġj unger
kt uren
ĠSt off
ĠAnt on
ĠGeheim nisse
ĠTast atur
2 9
L AN
d arum
f ord
Ġ ad
Ġ att
or s
ĠK urz
ĠK ohlen
and id
sp rache
ĠRe zept
Ġlie bte
erst off
ĠtÃ¶ tet
Ġen gl
ĠwÃ¼n schen
Ġerschein t
act ica
ĠBras ilien
D id
k eln
Ġ achten
er dings
Ã¤ men
ĠM ass
ur a
ĠP ause
ĠN orm
ĠC an
ĠSchl imm
Ġleicht er
ĠAktiv itÃ¤t
elig i
ĠWeihn achts
Ġglob ale
Ġunsch uldig
ĠR Ã¤tsel
ĠVer Ã¶ffentlicht
ĠAn satz
Ġgeh eim
Ġher ab
Ġverl angt
Ġbew ir
Ġaller lei
kehr t
sto ÃŁen
ĠStau b
ĠEphr aim
a j
geb Ã¼hren
Da vid
ĠEnt deck
Ġzw eit
ĠLi ppen
ĠDi agn
ĠParam eter
4 9
H err
d lichen
f Ã¤llt
s ionen
Ġn eg
ar zt
ĠH on
ĠF Ã¤lle
ĠF rucht
ĠT ar
am ar
ĠC ont
Ġr ichte
ĠKl assen
Ġblei bst
ĠKind heit
Ġerw Ã¼r
ĠWill en
Ġempf angen
ĠLÃ¶ wen
Ġpolit ische
Ġnirgend wo
Ã¶ ffentlich
Ġf Ã¤h
ahr t
ĠGr atis
Ġgel aufen
ĠAnt ivir
ĠPat ient
ĠStr ess
Ġkrie gt
zus etzen
Ġversp reche
Ġpolit ischen
ir l
ar re
ĠH ann
all t
Ġt rug
Ġaus einander
Ã¤n ner
ĠUn i
og ar
ĠReg ierungen
zahl en
Ġinter Did
Ġbestimm en
ĠMode lle
ĠBrÃ¼ dern
ĠStat ist
Ġbetrach tet
ĠTem pel
Ġunterschied liche
trag ung
ĠVerm Ã¶gen
Ġbeeinfl usst
Ġverhaf tet
ĠinterDid actica
L A
O O
te xt
or ten
ĠK enn
ĠK Ã¤m
Ġl Ã¼gen
acht ung
ĠSchw anz
ĠGeb ote
An zahl
Zu erst
Ġverurs achen
Ġamerikan ische
ĠReserv ierung
A h
W aren
Ġun gewÃ¶hn
ĠSie g
us ion
le gt
ehr e
rei f
Ġ... .
Ġviel es
Ġger ufen
ĠAl b
Ver zei
Ġneue sten
ĠSym bol
ĠBesuch er
ĠWol ken
a he
d auer
r ieren
v ollen
Ġd unk
Ġh ey
Ġg ibst
Ġzu lassen
ĠD unkel
ĠP ra
re den
is a
Ġwer d
ech net
Ġget rennt
ip s
Ġfr essen
ĠTh omas
ĠFuÃŁ ball
p hen
st u
ĠS ack
Ġn annte
ĠW urz
ĠK ron
de ten
ann er
ĠN iemand
Ġvor n
ele v
wor tet
Ġerkl Ã¤r
Ġbas iert
Ġelekt r
0 9
L ive
S eht
w unsch
ĠB rÃ¼cke
Ġmit kommen
Ġge p
Ġt reiben
Ġj agen
ent l
ĠBe er
Ġent stehen
Ġger aten
los s
arm herz
Ġbesonder e
Ġkompl iziert
Soll te
Ġerstaun lich
Ġgebrau cht
ĠKil ometer
ĠZw ischen
ĠAust ausch
ĠfrÃ¶h lich
V ert
e den
k aufen
z Ã¼g
Ã §
Ġ ehe
ĠM ahl
ĠV ern
ĠSt eine
Ġsp ringen
ĠGer uch
Na ja
ĠForm at
ĠStÃ¼ck e
rech ner
ĠMod us
prÃ¤ sent
ĠImm obil
Z eit
d am
m ittag
Ã¤ sche
Ġin tegr
ĠH u
ĠH eute
ig ner
Ġl Ã¼
Ġl egt
ĠSt ahl
il a
Ġaus ges
Ġp ersonen
ĠAb w
Ġgel angen
gesch lagen
ĠLe onard
ĠGew inn
ĠApp le
ĠFor scher
ĠKn ie
Ġro m
Ãĸ ff
ĠAtmos phÃ¤re
B rau
u ckt
Ġ up
ch ern
icht er
it s
ĠB ach
bar ung
ord in
ĠGeb ir
ĠPf lege
Ġhal ben
ĠChr is
ĠPfl icht
MÃ¶ chtest
Ġgegenseit ig
p te
y e
Ġein deut
Ã¤ hm
Ġk auf
or ien
ĠM erk
ĠF akten
ĠT ha
Ġan gen
iel d
ĠEin en
eb s
rach ten
Ġgew Ã¼n
Ġgew usst
Ġverb racht
âĢ Ļ
ĠWahr scheinlich
bo ard
ĠSÃ¼ ÃŁe
ĠHeil igt
rÃ¤n kt
ĠKrÃ¤ fte
ĠBibliot hek
ei ÃŁen
Ġz eugte
at a
sch iff
ĠB ran
ĠF ig
Ġer folgen
Ġmit gebracht
Ġwar m
ĠWer ke
Ġinteress ieren
Ġdr eht
ĠZahl ungs
Ã¤cht igen
ĠGesundheit s
schu le
imen te
Ġeffekt iv
ĠAmaz on
ĠTax i
d ien
Ġm ar
Ġein sam
der s
ĠF urcht
Ġer he
eit ag
ĠR ennen
ĠR ache
ĠEin stellung
Ã¤nder te
zeich nung
ĠMan ager
Wei ÃŁ
Ġru in
Ġen orm
ĠDisk uss
ĠCha os
D anach
b aum
d o
i am
Ð º
Ã¶ hnen
ĠL ou
Ġso was
ĠR i
Ġre duzieren
Ġkl ass
ak er
mer zen
Ġsol cher
ĠHerr lichkeit
Ã¤us e
ĠgrÃ¶ÃŁer en
ĠÃ¶ffent liche
ĠSau erstoff
Ġlern te
ĠDete ctive
ĠAf ghan
D abei
E M
m ond
el st
ĠG anze
eh nte
ĠV Ã¤tern
isch em
pf licht
Ġsicher zustellen
Ġhel fe
ĠProdu kten
Ġbr it
gr aben
ĠRecht s
ĠVis ion
ĠÃľberwach ung
ĠIntelligen z
ĠInse kten
Ġmax im
r ent
Ġwir ken
ĠP DF
ĠT ausende
Ġso gen
ĠSch er
lo ck
Ġbesch reiben
ĠAm y
urt eilen
ct ion
Ġnorm alen
Son st
ĠUntersuch ung
ĠProtok oll
Ġausw Ã¤hlen
O P
r um
ĠS agen
Ġn utzt
Ġg n
ĠM ay
ĠA ffen
Ã¼r en
ĠSch e
ĠC ra
ĠÃ¼ber setzen
ist ische
ien e
Ġr eligi
ver standen
ĠSchl ampe
ĠGutschein code
ĠGed anke
Ãľber prÃ¼
ĠKat zen
Ġwicht igen
ĠOber sten
ĠCon tent
ĠDien sten
haf ten
ĠFel de
ĠPhys ik
ĠEinw ohner
A rt
C l
H ERR
J ohn
c i
f unktion
ĠB Ã¶se
ĠK offer
ot ionen
Er inner
ĠBe sten
ers eits
ĠFl Ã¼gel
ord net
ĠGut scheine
ĠfrÃ¼ hen
gor it
ym p
Ġ27 500
fÃ¤h igkeit
ĠToil ette
ĠRich ard
Ġrom ant
c on
g y
g ut
k s
o ÃŁ
Ġer setzen
ĠSch le
Ġaus b
ĠSp rach
Ġdies mal
imm ungen
Ã¼n digen
ĠmÃ¼s sten
Ġ19 8
ĠOrd ner
co unt
ĠKomp onen
ĠKal ifornien
M oment
ie ÃŁt
st on
ĠS ha
ĠW ollen
ĠK abel
ĠL aufen
ĠL eichen
is ieren
Ġge eignet
ĠZ um
ĠSch uss
zu lernen
ĠVor schlag
Ġverb oten
Ġru ft
dro m
ĠBeh Ã¶r
Ġunglaub liche
hÃ¤lt nis
Ġgeg laubt
Ġspezie lle
ĠCy ber
B eim
E O
b on
g Ã¼lt
st Ã¤nden
ĠG ei
ĠW Ã¤hrung
ĠK a
ĠT ab
ro gen
Ġsch ief
Ġst eig
igen d
ĠRe chten
fÃ¼ llt
iz za
per rt
ive au
Ġkennen zulernen
ĠJob s
onn ie
ais on
0 5
l a
sch ten
ĠH an
ĠL im
re ie
Ġst eigt
ĠAuf nahme
ĠUnter richt
Ġbet runken
St immt
Ġhinzu gefÃ¼gt
ĠSpe zial
leist ung
ĠKann st
ĠGet rÃ¤n
ĠTrain ing
amer ika
ĠNachbar n
ĠKÃ¶rp ers
4 4
R I
w urf
Ġv irt
ig ma
ĠJ eder
Ã¤t igkeit
ĠEr satz
ĠWir kung
Sch reiben
Ġ4 00
ĠKon ferenz
wor fen
ĠApp s
ĠGehirn s
201 7
ĠJo e
ĠKo hle
ĠExt ra
Ġausgew Ã¤hlt
ĠApart ment
Ġus w
b i
Ġn achts
Ġb ra
ĠB an
ĠW elche
ĠP y
re chte
Ġsch reibt
ste ckt
ing u
geb iet
ĠIs a
Ġpro duziert
pro blem
Ġschle chten
ĠVPN s
ĠKomp lex
ĠbestÃ¤t igen
ĠTÃ¼rk ei
b art
m ehr
ĠE v
is on
ger ichtet
ĠUnter schiede
ĠschÃ¶n es
sk i
laub nis
ĠGl ob
ipp en
ĠFr eitag
Ġkompl iz
ĠHeraus forderungen
ĠFrem d
ĠUpd ate
ĠZusch auer
ĠMicro soft
ĠGur u
S eien
g ruppen
p rechen
Ã¤ mmer
ĠM obile
ĠA v
ĠB lau
ĠG ri
ĠF abrik
ĠZ ion
ĠSch ach
ĠAn alyse
op e
Ġges ammelt
amm lung
Ġschwer e
ĠOrganis ationen
Ġsprich st
ĠjÃ¼n ger
aupt s
E I
F rÃ¼
ĠS AP
Ã¼ mmer
Ã¼ cher
Ġg rat
ĠB ra
Ġver Ã¶ffent
Ġver fÃ¼gt
Ġl achen
ro ck
Un s
Ġst ehlen
Ġ2 000
ĠU lt
ed ia
Ġger echt
ĠCh ic
kl en
Ã¤m pft
ĠFÃ¼ ÃŁen
Kl ingt
Ġlok alen
Ġries igen
ĠPo wer
ĠPlast ik
ĠMole kÃ¼
Ġpersonen bezogen
k osten
t on
Â ¼
Ġ ra
or f
Ġau st
ĠB ast
Ġl eist
is ierung
ĠIn ner
ĠAb s
son st
ĠPerson al
ĠRund funk
ĠBrun nen
ĠDefin ition
W ahrscheinlich
Ġw e
un ternehmen
Ġs org
Ġzu st
ĠB em
ur ity
ĠI ll
ag el
Ġbe endet
ĠZ ul
ĠC ent
Ġum s
Ã¤t ter
ĠBer at
ĠÃľber setzung
ĠKomm t
ct or
ĠFahr t
ĠBesch reibung
Ġwor auf
Ġexist ieren
Ã¼cht ig
n ame
z lichen
Ġd Ã¼n
as ste
Ġh ung
Ġh ielten
ĠM i
ĠW ellen
ĠW ahnsinn
ĠE th
ĠT yr
Ġge blieben
ĠSt ory
sp rÃ¼
ĠCh ir
ic es
ĠfÃ¼ gen
Ġpl anen
ĠhÃ¶r ten
ĠGroÃŁ mutter
ĠKlein er
Ã¤s ser
ĠschlÃ¤ gt
ĠS ub
ĠM auern
ĠD utzen
Ġauf geb
ĠR oll
Ġt rat
ĠJ et
ĠO ne
ĠAn weisungen
ĠZeit ung
ri an
rÃ¤ gt
eid ung
ĠzurÃ¼ck kehren
Ġvers amm
Ġverb reitet
ĠDe als
ĠAnt i
spiel sweise
Ġbesonder en
ĠPf und
ĠTeam s
ĠSelbst mord
ĠOb jekte
ĠBom be
ĠIns eln
ĠGreu el
ĠSchok ol
S ollen
w echsel
z o
ĠP ul
be kommen
ĠBe stand
hal tet
rÃ¤ ger
Ġbet roffen
ĠFol gendes
ĠlÃ¤ ÃŁt
ĠInter view
ĠfÃ¼hl st
Ġnimm st
ĠPay Pal
Ġfantast isch
ĠAbm essungen
Ã¼ d
Ġb eit
ĠM Ã¤d
ber eit
ĠN av
ĠZ erst
ĠSch Ã¶
ĠAn rufe
ĠU N
Ġho ff
ĠMet all
Gen ieÃŁen
Ġkrie ge
Ġaktu ellen
Ar b
Ġuntersch eiden
ĠBedÃ¼rf nisse
t o
Ġ eil
Ġs ech
ll a
ĠA kte
ĠB armherz
Ġl eiten
and et
ĠSt Ã¤tte
rei bst
rÃ¤ ume
ĠProblem en
ĠKl eine
Ġerw Ã¤
bo den
Ġflie hen
Ġunbe k
hÃ¤ng ig
ĠSl ots
ĠSpan isch
ĠLeiden schaft
ĠUntern ehmer
h es
ĠS w
ĠS ite
Ġein iger
Ġver pf
re y
ĠZ oll
ĠZ eich
Ġp oten
ĠPro be
Ġent schl
ĠGr imm
ĠEs el
ĠAus gang
Ġgel Ã¶st
ma il
Komm ent
zeich nungen
Ġange forder
ĠBuch st
ĠKan a
Ġbl ind
ĠSam uel
Ġch em
ĠTool s
ĠBedro hung
ĠÃĦl testen
B eh
k rank
Ġ arm
ĠF uss
ĠD Ã¤m
Ġauf get
ĠJ im
os oph
ander s
Dar auf
Ġaktiv iert
aur ier
lad ung
ĠkÃ¼r zlich
ĠInnov ation
ĠHimbe er
ĠKombin ation
B C
N eben
w in
in dern
Ġein iges
Ġz eit
gen t
ĠG R
Ġver bl
Ġl eu
Ġl aden
rei ÃŁen
Ã¶r ungen
Ġnach halt
Ġunter nehmen
ĠCh in
Ġverl etzen
ĠDe ck
ĠBer eit
Ġbesch Ã¤d
gehen d
Ġ7 5
ĠHin weis
ĠAt om
zus agen
ĠDar f
ĠHar v
Ġhilf reich
ĠMex iko
4 7
Ġd rÃ¼cken
Ġw eht
ĠS endung
Ġf lo
ĠE ffekt
ĠP a
ĠL Ã¼ge
Ġauf stehen
ĠR h
ĠR Ã¶
Ġge zwungen
ĠSt urm
ot ten
Ġp ein
os is
Ġher stellen
Ġher gestellt
Ġbes ucht
Wo hin
ĠBo gen
ĠVolk es
Ġdr Ã¼ber
Ġausge d
201 8
ĠHeil igen
Ġheil ig
Ġspezi f
ĠprÃ¼ fen
3 9
K inder
f assung
t eile
Ã¤ me
ĠB auern
ĠJ immy
ĠSch lei
Ġum sonst
Wir st
rin ken
Ġ3 2
ĠFl asche
ĠAnt eil
ĠVers icher
ĠHÃ¶ hen
ĠKam pag
ativ itÃ¤t
ĠHaust iere
ĠWebc ams
ĠlÃ¶ schen
kle ber
T un
Z usammen
b ack
m ut
Ġw einen
Ġs att
ĠG rie
den kt
ĠI rak
Ġsch eiÃŁ
Ġbe quem
om ie
Ġgesch ossen
Ġschl Ã¤ft
Ġange griffen
test et
ĠEurop Ã¤
andel te
ĠPfer de
Ġelekt ron
ĠenttÃ¤u scht
ĠBil dern
ĠRepu blik
Ġein gesetzt
it tel
ab y
ĠG eben
ĠF lie
ĠL ern
ĠL aut
ĠL etzte
us ste
ĠAn zug
ĠSchw estern
ĠGeh ir
Ġex klus
Ġdrin gend
Ge w
ĠSchlaf zimmer
ĠSpei s
ĠWÃ¤hr ungen
ĠBesonder es
ĠEntfern ung
ĠBarmherz igkeit
5 9
L aut
k os
k ul
ar ry
Ġer wei
ĠE U
ĠP enny
Ġge z
Ġet c
Ġje weil
ĠAb onnen
Sch n
ĠArb eiter
Ġmorgen s
ĠKÃ¼ hl
Ġstar ben
Ġgesp eichert
ĠVir en
ĠAuss age
Ġbekomm st
ĠBom ben
ĠUrs ache
Ġche cken
Ġzul etzt
Ġbegeist ert
D ank
o id
ĠS onder
Ġk ombin
Ġer weiter
ent wick
ot ograf
ĠVer br
gel ernt
ĠBer eichen
ĠIs land
ĠGew ebe
Ġster be
ausen den
ĠEm otionen
Kl ar
ĠChar les
Ġdahin ter
Ġwohn ten
ĠViel falt
Ġtro cken
ĠfÃ¤h ig
G leich
g ten
k ar
p ul
Ġw ww
ll er
ĠF it
ĠL ot
ĠI rgend
Ġauf geben
Ġre chte
men sion
Ġverw andelt
Ġho ffentlich
ĠDr achen
ĠPar ad
Ġverg leichen
ĠKat ast
Ġernst haft
Ġverbr ennen
komm e
ĠImm un
Ġgebrau chen
Ġschne lle
F inden
M Ã¤r
er a
Ġi t
Ġzu greifen
ab end
em al
ĠH ur
ĠP ool
ĠZ ent
Ã¤n omen
imm ern
Ġgef iel
ap el
ak s
Sch eiÃŁe
Ġgel ebt
Ġverw andeln
ĠDie ser
ĠSchl agen
Ver giss
Ġins besondere
zeich neten
ĠKan ada
Ġfrei will
Den k
ĠWochen ende
ĠGrÃ¶ ÃŁen
ĠFlor ida
Ġstar ken
Ġqu al
ĠNÃ¤ch sten
Ġbehaup ten
afr ika
gÃ¤n glich
ĠAfghan istan
0 6
G B
M ag
g rÃ¼n
h ei
t halt
ab att
ĠG entl
ier er
och t
ĠSch reiben
Ġgew innt
for dern
for schung
Ġbr ingst
wor te
Ġwunder bare
ĠUr teil
WÃ¼r den
ĠPrÃ¼ fung
Ġtie fer
b iert
h Ã¤ngen
Ġd oppelt
ĠM em
ĠH Ã¤u
ĠF ische
ĠR as
Ġbe fÃ¼r
Ġst ets
ĠHer stellung
ĠSo zial
St att
ile ad
mÃ¤ÃŁ ige
Entsch uldigen
Ġbein ahe
afr ikan
ĠWÃ¤hr ungs
ĠJerem ia
A D
N Ã¤ch
a at
s ver
u ÃŁt
x is
ĠS et
Ġf ehlen
ĠG riff
ĠK os
ĠF an
Ġer zeugt
ĠT Ã¤
Ġauf nehmen
Ġt rauen
ze lle
Ġre al
ger ung
ĠPl us
Ġweiter er
Ġbesch issen
Ġvoll e
ĠPlan et
ĠErk rank
ĠReserv ierungen
ĠSpei se
M orgen
g ibt
l iste
m Ã¶
o der
Ġm obil
Ġm oral
Ġzu zu
ĠA cker
ĠW it
ĠK iller
Ã¼r zt
ĠL Ã¤cheln
Ġj ens
ĠC IA
Ġum ge
ĠRe be
ak u
ster reich
ĠFl Ã¼cht
Ġgel egt
sel be
ĠBei fall
ĠDat um
Ġpl atz
fr ont
ĠFr anzÃ¶sisch
ĠwÃ¼n sche
ĠNot wend
Ġniedr iger
ĠNar ren
Te K
S u
e p
ĠM asse
el ben
Ġau ÃŁen
et r
ĠH IV
Ġl inken
Ġsch uld
ĠC lo
Ġst ammt
Ġgeh ei
ĠzurÃ¼ck kommen
ĠHo se
ĠFl Ã¼ge
qu alitÃ¤t
ĠEx istenz
Ġkurz em
ĠMag az
ĠkÃ¼mmer e
Ġschrei en
ĠgrÃ¼ nen
ĠRec ei
Ġlangweil ig
l im
z one
ich ert
Ġm ot
ĠS S
Ġzu recht
ĠL Ã¼g
um t
ĠEin t
Ġbes itzt
Ġverl iert
Ġirgend jemand
alen der
Ġ200 8
Ġhal f
Ġempf ohlen
ĠGÃ¶t zen
ĠErw art
Ġunterschied lichen
Ġir re
ĠPan ik
ĠBesitz er
Ġidentifiz ieren
ĠErm itt
ĠlÃ¤cher lich
A part
G lÃ¼ck
H el
b inden
o wer
in ik
Ġm il
Ġm ass
Ã¼ hen
te lefon
Ġh and
on ym
at ische
Ġk op
ĠB ay
ĠW all
ĠH eu
ĠF unk
ĠP en
re ak
ĠR eh
ra ht
ĠO m
ĠUn recht
ungs mittel
ĠFre e
Ġfre ut
ĠAt lant
schn eiden
ĠSÃ¼ den
ĠHeil mittel
ĠArch iv
ĠStre et
Ġschwar ze
Blei ben
Ġwin z
ĠEind ruck
aupts Ã¤chlich
B eg
T ER
ĠS ur
sch merzen
ĠG Hz
ĠE hr
Ġge testet
Ġp re
Ġvor an
Ġman ip
Ġneu gier
egen heiten
ĠfÃ¼ llen
Ġirgend eine
ĠWer be
Ġvert il
Ġkennen gelernt
Ġerk ennt
ĠWe TeK
ĠÃ¤hn liche
ĠHost els
Ġvern Ã¼nft
ĠVerbesser ung
Ġmoch te
Ġgn Ã¤d
3 3
H D
l am
Â ®
en kt
er zie
ĠS ein
Ġb uchst
ĠM ess
ĠG ilead
ĠK ult
Ġl edig
ĠweiÃŁ en
pt ion
du kt
ĠKl ang
ĠArbeit spl
ĠCl aire
ĠStud io
Ġgemeinsam e
ĠSÃ¶ hnen
âĻ «
ĠDiagn ose
ĠChic ago
C hr
S ogar
ĠB raut
ĠK eller
ĠD oppel
Ġsch wei
ĠJ agd
ra de
ot te
ot yp
rÃ¤ cht
Ġgel ogen
ĠMin ister
Ġkonnte st
Ġbef reien
Ġ9 9
ĠFahr zeug
All erdings
Ġmedizin ische
ĠSyr ien
ĠForsch ungs
Komment are
M on
k reis
Ġ Ã¤r
Ġh arte
Ġz ert
et wegen
den ke
de ckt
ĠF antas
ann ung
ĠN ationen
ĠSp uren
ĠCh ines
ĠDu mm
Ver m
Ġc le
dr ehen
ĠAll gemein
ĠAll gemeine
ĠFahr rad
ĠPer spekt
rech ung
ĠGÃ¶t tern
ĠAgen ten
ĠErwachsen e
ĠPrem ium
A ut
s itzen
Ġ stell
Ġs uchte
Ġh asst
on ach
Ã¶ ch
ĠG ift
Ġden selben
Ġab hÃ¤ngig
ĠO ch
ĠAn frage
iert es
Ġent schied
ĠZeit raum
ĠLie b
Ġverb orgen
Ver st
Ġbr eit
ĠBuch ung
ore a
ĠBest es
Ġerforder t
ĠAbonnen ten
d rÃ¼ck
l Ã¤ss
n el
r eter
Ñ ĥ
ĠS enden
ĠG eg
ĠH az
ĠF Ã¼nf
Ġsch Ã¼t
rei ft
Ġvor hin
Er stens
ĠRe icht
ĠWei sen
ĠKon se
Mein st
Ġerh ielt
ĠUnivers ity
ĠIm pf
Ġwor um
Ġjen er
ungsm aschine
Ġruss ischen
Ġgeschw oren
Ġkonvert ieren
MÃ¤r z
c es
c ast
Ã¼ chtern
Ġein gehen
Ã¤ ÃŁe
ĠW itze
ĠH T
Ġan geht
Ġl ehren
ĠV ER
ĠVer sprechen
Ġst immen
Ġvor zu
Ġbes orgen
Ġgew orfen
ĠWelt raum
ech anis
atur en
ĠKontakt ieren
ĠRis iken
ĠDien er
Br ingt
ĠEreig nisse
ĠAmm on
ĠLÃ¼g ner
C K
S agt
n immt
ĠS eg
Ġh Ã¤ss
Ġzu verlÃ¤ss
ĠG rÃ¼
ĠD arum
ĠT att
ber ge
ĠJ Ã¼n
ik as
Ġdir e
Ġwieder her
ĠAu ÃŁer
ĠHand ys
Ġbesch rieben
ĠDaten bank
ĠStra fe
âĢ ¢
erk arte
aktion en
ĠErn Ã¤hrung
WÃ¼r dest
ĠBetrieb ssystem
3 1
S pr
Ġs erv
ar ter
Ġzu gÃ¤nglich
Ġer geben
sen der
ĠVer k
ĠâĢ ļ
Ġher zustellen
ĠEin kauf
ĠCh amp
ĠOr igin
Ã¤hl ten
Ġverl angen
ĠAus l
ÃŁt eil
Ã¤d t
ĠHand els
ĠUnter kunft
ĠGer echten
ĠGeb et
Ġzie he
ĠCo us
Ġfre ie
Ġ200 9
ifiz ierung
sto ÃŁ
ĠKamer as
De zember
ĠFrem den
ĠElekt ron
Ġzun Ã¤chst
Zie h
ĠGebir ge
T ran
f elt
k at
Â ©
ï ¿
Ġzu hÃ¶ren
Ġer b
ĠP ir
ĠR el
ol a
ĠSt att
Ġum geben
und ament
Ã¼n den
lo d
Ġber eitet
Ġget runken
umen ten
ĠNach mittag
ĠWahr nehm
Sp ielen
ĠUnivers ums
Ġung lÃ¼ck
ĠPoliz ist
Ġabs ol
Ġtr ennen
ĠAktu alisiert
Ġinvest ieren
Ġrel ativ
G O
R es
f st
j et
Ġ rad
Ġd ient
Ġk oll
Ã¶ scht
ĠB ig
ck st
ag ramm
Ġt ritt
rau cht
Ġuns re
Ġdies elben
Ġwo bei
Ġdurch fÃ¼hren
ger Ã¤te
ĠAl gorit
ĠHÃ¶ hle
ĠNot fall
ĠHack er
Ġverbesser t
ĠFe ed
ĠEben en
Ġbein haltet
Ġdigit alen
schu he
ĠApart hotel
Ġkor re
ĠAnz eige
Ġangem essen
olo ge
ĠMater ie
Ġgefol gt
stu hl
Ġw ein
Ġw omit
au ben
ĠE w
ĠT hr
ĠL ob
Ġan alys
Ġl as
Ġab l
ĠBe k
ĠGe stalt
ĠBl att
Ã¼ck e
geb oren
ĠAl arm
ĠAuf kleber
Ġgenau er
ĠfÃ¼hr ten
ĠAt t
ĠAd min
ĠBu llen
Ġverz wei
ĠErd be
Ġkn app
Ġerfor schen
Ġaufgeh Ã¶rt
ĠInternation al
kre bs
ĠKana an
ï¿ ½
Ġ stellten
ĠS egen
Ġk rei
or ry
ĠH ard
Ġver halten
um an
ut sch
Ġsch affe
Ġt rag
Ġbe stellen
Ġbe achten
Ġ1 000
ul gar
ohn ung
ok us
mal e
Ġgest artet
Ġseit dem
ennt nisse
Ã¤uf e
mÃ¶glich keiten
verstÃ¤nd lich
Ġerstaun liche
ĠSchm uck
ĠAustr alien
Ġeindeut ig
T echn
p n
Ñ Ģ
ĠP ist
ĠL Ã¤nge
Ġl ernt
Ġso mit
ĠBet rag
Ġde aktiv
Ġschwer er
Ġwusste st
KÃ¶n nten
spr ung
ĠbestÃ¤t igt
Ġaufre gend
col or
ĠKonfl ikt
Ġangeforder ten
ĠSpeis opfer
h andel
r ation
ĠS eit
at sch
Ġk Ã¼nst
ĠM angel
Ġwieder hol
omp uter
ĠRei hen
ĠNetz werke
ou v
ĠOpt im
ĠAs ien
ĠEmpf Ã¤nger
ĠViel zahl
ĠSchwei z
Ġbill iger
ĠSold at
ĠAbra ham
E ure
h i
h ers
ein bar
sch uss
Ġver an
Ġt rage
eg net
ap s
ic al
ĠKon gress
ĠSpiel zeug
ĠJo ab
Ġkrie gst
Ã¤chst es
ĠRau b
ĠGem Ã¤l
ilis ation
ĠErwachsen en
Kont akt
ĠunabhÃ¤ng ig
A U
d liche
em an
ĠC re
ot a
Ġges andt
Ġbrau ch
ĠSchl ange
Ġjeden falls
rem e
ĠRes ort
unk ten
ĠStand ort
ĠAngel es
Ġpriv aten
ĠFakt oren
ffizien z
Ġrepar ieren
ĠFit ness
A pp
H ilf
an lage
ei tern
Ġg ott
Ġb y
Ġb aut
Ġzu t
ĠW in
ĠW ach
ĠD ist
ĠT ruck
ber icht
ro l
ĠV eg
Ġab ges
Ġp ri
ĠAn h
ĠAn fÃ¼hrer
bar es
Ã¤hr st
eich er
Ġschl age
Ġschw immen
nt ag
ĠSchul ter
ĠHa ft
Ġhttp s
Ġaktu alisieren
ĠDon ner
ĠMosk au
E B
p ark
Ã ¡
Ġm y
Ã¼ ter
ĠW ich
ĠD ass
eu ten
Ġj ahr
Ġst re
Er inn
pp el
ĠEin s
Ġbes eit
ĠmÃ¶ gliche
Ġgew isse
ĠFl uch
kl ar
Ġzw anzig
Ġpro gramm
ĠLe ber
ĠPh ase
Ġverm isse
Ġeins etzen
ĠStu dent
Ġbeein druck
Ġwor Ã¼ber
Ġtechn ischen
Ġschrei be
Ġregel mÃ¤ÃŁig
ĠInfe ktion
ĠRech nung
ĠÃľberprÃ¼ fung
5 5
m ark
in ent
Ġh auptsÃ¤chlich
Ġk Ã¼ssen
ĠK as
ĠK ing
Ġver passen
ĠR ollen
ra struktur
be weg
Ġsp iele
wei le
Ġent f
amm ern
Ein s
Ġ3 7
utz ung
In ter
ĠWei be
Ã¤u b
ĠFest pl
ĠPri or
Ãľ R
Ġal tern
ĠFortsch ritte
ĠVier tel
ĠHon ig
ĠWahrscheinlich keit
b as
k Ã¶
p o
Ġ ed
Ġw uchs
ĠG eister
ĠK ost
Ġt rÃ¶
ĠEr laubnis
und et
ad y
ul ette
art ige
Ġgel egen
An t
ĠSatell it
Ġant un
ĠKne chten
Ġwissenschaft liche
ĠGefangen en
I M
M ax
f lich
s et
ĠM achen
Ġan gel
Ġl anden
Ã¤t ten
ay s
ĠGes ellschaften
ĠAus nahme
ode ll
Sch nell
schie ben
Ġbek amen
ĠGro ÃŁteil
ĠHin sicht
aler ie
ĠGener ator
ifiz iert
olit ik
Ġar me
ĠMedik ament
ĠspÃ¼r en
Ġbegeg net
inos aurier
Kunden service
ĠNotwend igkeit
H i
h te
m on
y right
Ġs h
au schen
ar ke
ĠW art
ĠF ischer
ĠL ock
ĠL iter
Ġan erk
ag ten
Ġaus pro
ĠEr weiter
Ġweiter machen
ĠAb schnitt
los es
Ġgest alten
erst attung
Ġbevor zu
ĠAm eisen
ĠRÃ¼ck kehr
weis ung
ĠGegen satz
Ġar men
ĠSitu ationen
Ġinstall iert
dat um
sicher heit
Ġerwei tern
E uer
L eg
ĠS T
ĠS eh
ĠB art
ur y
um pf
Ġbe zeichnet
ĠSch iffe
rau cher
ĠMen Ã¼
ĠSchw ach
ĠBer gen
Ġben utz
atur a
Ġverm ute
ief ert
Ġgek enn
ĠÃ¼berw achen
ĠPolit iker
ĠhÃ¤ufig sten
ĠBit coin
ĠCr ush
Ġledig lich
G o
I I
Z eig
b ro
h Ã¶rt
i at
p u
Ġm eiste
ar ren
Ġk Ã¶st
ĠB or
ĠG ibt
ĠW egen
ĠH Ã¤ndler
ĠÃ¼ber geben
Ġst ra
Ġbei gebracht
ĠEr z
Ġent steht
Ġent worfen
Ġgew isser
Da von
ĠAu fen
Ġverl or
Ġsicher en
Ġrau f
ĠZu behÃ¶r
Ġbek annte
Ġlang frist
ĠKon ten
ĠBet racht
ĠFil ter
ĠGed uld
ĠFir m
onn a
stra hlt
ĠBi ologie
Ġerinner st
ĠHÃ¼ hn
ĠÃ¼berprÃ¼ ft
ĠWider stand
ĠSkl aven
Ġaufgew achsen
ĠeuropÃ¤ ischen
A d
B ringen
L aden
a der
b u
b rauch
g Ã¤nge
u hren
Ġd un
ĠR en
ĠR em
Ġbe ten
ĠZ ut
Ġab w
Ġkl in
sam keit
Ġins gesamt
ĠSte ve
Ġvert eilt
Ġverk n
Ã¶l kern
ian a
ĠDes igner
ĠFein den
ĠFrÃ¼ chte
ĠBereich e
ake ten
ĠWieder sehen
Ġschau e
ĠÃľ bung
Ġblau en
Ġbau ten
En gl
ĠKop ie
ĠInstitut ionen
ĠWettbewer b
Ġerschie ÃŁen
ouv erne
H aus
M ark
N orm
T ek
c ard
st ab
Ã¤ blich
ĠM s
ĠW ut
ĠW ik
ĠK ab
ĠT rag
ĠR ub
ĠZ ell
og n
ic o
fl Ã¤chen
Ġblei b
ph et
ĠQu al
Ġerk annte
Ġte lefon
ĠJo j
uldig t
vers ion
Ġwert voll
ĠEd om
sm ann
WÃ¼r de
ĠDok umente
Ġkr it
ĠGerÃ¤u sch
ĠBehand lungen
M om
f an
l as
Â °
in formationen
un ruh
ĠS ich
ĠS ant
Ġun rein
Ġh ell
Ġb o
Ġk ochen
el and
ĠA P
ĠW il
Ġer ho
Ġl Ã¤ngst
ste ck
Ġwei se
op ul
fe ll
ĠHer de
Ġglau bte
ĠUS B
ĠGlÃ¼ck wunsch
ĠSystem s
ĠHin weise
Ġro sa
ĠGegen wart
Ġeh emal
Ste ll
Ġlau ter
fÃ¤h ig
Ġirgendein em
ĠVerst Ã¤r
ĠAnsicht en
Ð¸ Ð
Ġpein lich
e en
ich e
Ġs an
ĠM ak
ĠG PS
ĠW en
ĠW andel
ĠD NS
ĠT radition
Ġe chter
Ġkon kur
ĠAb onn
Ġ4 8
Ġwahr en
ĠKont akte
ĠtÃ¶ tete
Ġwunder voll
stÃ¤nd igen
ĠGroÃŁ vater
ĠKr ise
ĠberÃ¼ hren
ĠHÃ¼ gel
verm Ã¶gen
Erinner st
6 9
B arbie
H ilfe
Q u
R uf
Ġein ges
at hemat
ĠM agen
ĠH om
ĠD inosaurier
ĠE st
ĠL ungen
Ġauf bauen
ra ktiv
ĠSch anden
ĠAn f
ĠIn tegr
Ã¤r me
Ã¤l en
ĠDe p
ĠIs lam
ren gen
euer ung
ĠÃ¶ fter
ĠSon g
Ġfest stellen
ĠServ ern
ĠLin ien
ĠAdr essen
ĠBeweg ungen
Ġentsp richt
Ã¼st et
Ġbez Ã¼glich
Ġtran s
Ġinform ieren
Ġat men
ĠBenutz ern
ĠSha w
ĠAufen thalt
F r
G eb
I R
J ack
f isch
v ille
Ġd ick
Ġm el
Ġm oment
au fe
on str
ĠW LAN
ĠK uss
Ġver urt
ro phe
ĠJ ust
Ġo h
be f
Ġgeh o
Ġre prÃ¤sent
Ġent fÃ¼hrt
lo cken
eite te
Ġbeg rÃ¼
ĠTeil nehmer
ĠPh Ã¤nomen
Ġmeisten s
ĠFÃ¼r st
Ġfrag ten
ĠElekt ro
Ġstud ieren
imp an
leb nis
D aten
g ste
s Ã¤
an dern
Ġein verstanden
Ġf Ã¼n
ĠH ure
ĠP enn
ĠSch nell
ĠC S
ĠPro je
lei ter
ĠFl Ã¼ss
Ġvers uchten
Ġsicher e
pl Ã¤tze
br igen
br ingt
ĠKind es
Ġange kommen
ĠSh eldon
Ġverk auf
Ġoffen bar
Ġflie gt
ĠDi am
ĠAd am
ĠÃĦgyp ter
rÃ¤n kungen
Zum indest
Ġsex y
produ kte
ĠÃ¤uÃŁer st
grÃ¶ ÃŁe
Ġunters ucht
ĠPra xis
em ie
sch lieÃŁen
ĠH ome
ur st
Ġver ring
Ġso viel
ĠN ik
ĠC A
ĠC ap
be g
Ġbei spielsweise
ĠEin fach
ri a
Ġgew issen
Ġber ichtet
kl ass
Sch w
Ġsicher er
Ġverst Ã¤nd
ren z
ĠGeb Ã¼hren
igt ausend
Ġbet eiligt
ĠMus kel
Ġinteress anter
ĠGlÃ¼ck s
Ho ffentlich
get ragen
atell iten
ore an
ĠLev el
Ġmoder ne
Ġschwar zen
ĠÃ¼berw inden
Irgend w
Entsch uldige
Ġtau schen
Ġschm utz
Ġschick te
ungsk raft
ĠStift s
ict or
Ġschmer z
3 7
K ennst
c er
à ¦
Ġ ult
Ġ app
st re
an on
Ġun end
Ġzu ge
Ġzu geben
Ġf otograf
ĠL eiter
Ġver p
Ġauf passen
Ġst euern
ik alien
Ġwo zu
Ġwieder holen
ah s
ah le
ĠÃľber tragung
ĠReg istr
Ġbew eg
ĠPart ei
Sp iel
ĠBeh inder
ĠSk y
ĠVis um
Ġverbr annt
ĠEing ang
Ġverwir rt
ĠSchÃ¤d el
ĠAnton io
S etz
W oll
w ald
Ġs im
Ã¼ se
at ik
Ġf ett
ĠW Ã¤l
ĠK art
ĠT urm
ĠL ED
Ġver bergen
Ġan halten
ĠV in
eu cht
Ġr ette
ĠIn iti
hm us
Ġwurde st
bar er
Ġverb indet
Ġbesch leun
Ġbek Ã¤mpfen
dr eht
ĠDr eh
ĠMilliar de
ĠTrÃ¤ nen
ĠÃ¼berw Ã¤lt
ĠFel sen
ĠSÃ¤ ulen
Ġexp lod
Ġbeliebte sten
L aÃŁ
s eln
s zeit
Ġw ahnsinn
ĠS abb
ĠV Ã¶lkern
ĠN arr
Ġt Ã¤t
Ã¶n t
Ġaus fÃ¼hren
ot tet
ĠVer waltung
Ġwo anders
ĠKin o
Sch lieÃŁlich
esen heit
zie hung
ĠgroÃŁ zÃ¼g
orden tlich
lieÃŁ end
amp en
Ġstatt dessen
ĠberÃ¼ hrt
Ġwor an
ĠMot iv
ĠErk enntnis
Ġdigit ale
agn ost
ĠEreig nis
ĠGraf ik
ĠDunkel heit
Ġw andeln
ĠK ais
ĠT aste
ĠR ick
ĠN ote
Ġt a
iv es
Ġbes essen
fl ix
ĠSo cial
gesch windigkeit
ĠInform ations
mit glie
ĠVers ionen
ĠBuch ungsmaschine
ĠÃĸ ff
fin der
ĠThem e
vers orgung
ĠFe atur
Entsch uldigung
ĠAnz eigen
ĠMart in
ĠUrs achen
Ġdiskut ieren
Ġverpf lich
D E
F ast
H Ã¤tte
e ckt
Â ¤
ie ber
Ġm ult
ĠM es
ĠM unde
ĠM indest
ĠG ouverne
ĠK Ã¼r
ĠK ok
ĠE id
ĠT y
ĠL egen
ber eitung
ĠN r
Ġwar t
ĠC her
ĠVer hÃ¤ltnis
ien s
ĠAu ff
ĠSchl oss
ĠSchw eden
ho st
Ġausge strahlt
ĠMorgen s
Ġjeg lichen
verl ust
spro gramm
ograf ie
ĠDies es
Ġleb ten
ĠDom ain
Ġspiel te
ĠWid der
ĠEcht zeit
ĠTha il
ĠKampag ne
3 8
d och
Ġf rie
ĠK ell
ĠP ack
ĠT ante
ĠL at
ĠI N
ĠN ehmen
ĠJ as
eu tel
rau ÃŁ
Ġp f
ĠO S
ĠVer wand
ĠEr bt
ĠEin zahlung
Ġviel er
ic er
ĠLand wirtschaft
ĠEl i
ĠEl ement
Ġvert eidigen
Ġerh eben
Ġverschw indet
ĠGesicht er
setz ungen
Ã¶rder t
ĠFin stern
ĠLa w
Ġschreck liche
Ġwohn te
Ġakzept iert
Ġunterschied lich
ĠInf rastruktur
Ġprofession elle
ĠTex as
ĠverÃ¶ffent lichen
Ġbuchst Ã¤blich
E ur
k et
l ein
Ġun geh
ĠM Ã¼tter
ach richt
ĠK alender
Ġin nen
ig ste
ĠV iet
Ġt reibt
ra y
Ġab gesehen
Ã¤n zen
ĠVer zei
lau t
est Ã¤t
Ġgesch m
under ten
Ġbew ahren
Ġbr ill
ĠHin dern
Ġausge fÃ¼hrt
spro zess
Ġbas ierend
Ġspezie ll
ĠTri color
Ġumf asst
ĠSn ow
ĠTim es
Ġausl Ã¤nd
ĠSchnitt stelle
Ġschme ckt
B esser
J anuar
b eln
g Ã¤nger
Ġ ag
ie dr
Ġg reifen
Ġb richt
Ġk ultur
sch rank
ĠB ang
Ġin t
Ġer setzt
ĠT aten
ÃŁ te
Ġt ausende
ĠSch impan
Ġum zubringen
ĠO ffiz
Ġ2 50
ort h
wei st
ru str
wer ken
ĠGr and
Ġle eren
ĠMin i
ĠGen ie
Bei de
ĠFr ont
ĠGener ationen
ĠBÃ¼rger meister
ĠWÃ¼r de
Ġrie cht
ĠBud get
OT EL
Ġschaff st
ĠSher iff
7 5
A H
A bl
F Ã¼nf
f leisch
i dent
p al
ĠB io
ĠT ore
ĠSt an
etz ungen
zu fÃ¼gen
ru gen
op s
Ã¼s st
ed och
lei d
ĠEin heiten
Ġkomm erzie
ĠFl ag
Ġle ge
Ġschwer en
ĠKre ativitÃ¤t
Ġfr isch
ĠEle f
ĠMehr heit
Ġdefin itiv
ĠberÃ¼hm t
ĠHal b
eta ill
Start seite
ĠBerat ung
ĠGrie chen
B esch
W arten
Ġ afrikan
ei hen
ĠS ark
Ġun f
Ġh Ã¤uf
ir aki
sch alten
ĠW ien
ĠW Ã¼n
Ġver ar
ĠV ar
Ġt rafen
ĠJ emand
ĠSt ufe
Ġst Ã¶ren
Ġvor gestellt
ist rat
Ġdar nach
ĠEin richtung
Ã¤hr ungs
ĠKl ick
ĠUm stÃ¤nden
An ge
Ġ6 5
wa ffe
ĠSh irt
ĠZahl ung
ĠPoliz isten
ĠBro ad
ĠFar ren
Ġschau te
Ġinform iert
ĠSyn drom
Ġverder ben
Ġdunk le
ĠBuchst aben
O n
c us
g ro
n amen
s werte
t ag
v as
Ĵ Ð
ie d
al isten
or ter
ĠM isch
ĠH olen
Ġver lieÃŁ
Ġan ziehen
ĠZ y
ĠkÃ¶n ne
wei ten
ĠZeit alter
Ġdurch zu
eb all
auf nahme
ĠtÃ¶ te
Ġverm issen
Ġletzten dlich
ĠWe Tek
az itÃ¤t
ĠPat ent
ĠTor rent
Ġschwier iger
Ġpriv ate
sta aten
Fl ug
ĠVit amin
ĠSmart ph
Ġaufger egt
Ġneugier ig
4 8
6 8
R u
T he
Ġs Ã¤
ĠB ern
ĠW ay
Ġwir ksam
ĠP izza
Ġl ive
ĠR unde
ĠZ us
Ġaus gesch
ĠAn st
Er fahren
Ġwo hne
ĠEin ladung
Ġgesch Ã¼tzt
Ġber ichten
wend ig
ĠCo unt
ĠRes ult
co ver
Ġersch ienen
ĠInd ones
Ġaktu ell
kam pf
ĠSÃ¤ ug
ĠiP ad
ĠNeur onen
ĠGre en
ĠNeben wirkungen
ĠTherap ie
ĠTeen ager
ĠSchokol ade
ĠGemÃ¤l de
ĠAbonn ement
Ġgeho fft
I CH
P h
x y
st ation
an i
ĠG ad
ĠH uren
ĠF liegen
Ġer Ã¶ff
ĠL eit
ĠN ull
Ġdem okrat
Ġr elev
ĠBe am
Ver schw
Ġzw ingen
ĠLe ktion
Ġentwick elten
Ġreg istrieren
Ġarbeite st
ĠSter nen
ĠStre aming
ĠChem ikalien
ĠTerror isten
ĠerklÃ¤r te
Ġcle ver
ĠGeg ner
H in
l eit
Ã ±
ich ern
ar nt
Ġk rieg
sch rau
Ġin tens
ĠH itze
ĠSie h
ĠT onnen
ĠL asst
ĠN an
rei de
Ġwieder sehen
ĠGesch w
ak et
Ġber Ã¼ck
ĠSchw eine
ĠUm stÃ¤nde
ende te
ipp e
Ġfr anzÃ¶s
ĠÃĦnder ung
ĠAuss icht
hÃ¶ he
ĠExp los
Ġrisk ieren
ĠSzen e
ĠWes ent
Ġbedro ht
Ġweht un
ĠgnÃ¤d ig
D A
L esen
d rÃ¼cke
w ich
Ġd ro
ĠB Ã¶ses
ĠK iste
ĠH ub
ĠT rink
Ġan passen
Ġan zusehen
ĠI T
us se
Ġsch arf
ĠJ an
and y
Ġbe unruh
Ġst arte
Ġr aten
ul ator
ĠUn sinn
Ġhin unter
ak es
ges ellschaft
Ġverb reiten
ĠUm frage
ĠVert eilung
isk ia
ĠFir e
ĠFrÃ¼ hl
ĠVerhalten s
ĠGem Ã¼se
ĠAh as
Ġwissenschaft lichen
Sol ange
ĠAltern ative
Ġbelieb igen
Ġmil itÃ¤r
ĠKonse quenzen
Ġdun klen
L E
W ow
b it
f ers
i ze
p ter
Ð Ĳ
Ġun angen
ĠM un
Ġder jenige
ĠK och
ĠK andid
ĠE sp
Ġj apan
ĠSch af
ĠO FF
Ġst ehst
Ġsoll tet
ĠEin richtungen
ĠMenschen kind
ell a
form ation
Ġrein igen
Ġdr am
we ge
ĠkÃ¤m pf
Ġaufzu bauen
ĠBrie fe
iver se
Ġbed ienen
ĠSign ale
herap ie
ĠAss yr
ĠMittag essen
Ġschick e
ĠZwe cke
ĠKrie ger
ĠMobil telefon
fÃ¤lt ig
ĠFrancis co
ĠÃľb ungen
ĠKomponen ten
FrÃ¼ her
ĠClo ud
w ehr
ie den
ei ÃŁt
gen de
ĠM id
Ġder er
ge fÃ¼hrt
ĠH ass
ĠF Ã¶rderung
ĠT ot
ĠT ank
Ġwas chen
ist ent
Ġbei des
Ġgeh eiratet
Ġre agiert
ĠGeb rauch
ĠKon text
Ġbew aff
gew iesen
Ã¤h ern
ĠRo ulette
if ik
ock er
weg netz
Ġgemein samen
Soll ten
ĠSÃ¼n d
kon om
Ġlangsam er
ĠKron e
ĠFuss wegnetz
Abl Ã¤uft
W ollt
c ess
ĠS eb
Ġn ette
gen er
em a
ĠB urg
ĠH afen
ĠP sal
Ġbe stellt
ĠAn kl
Ġbei bringen
op fen
ĠEn kel
ĠBl itz
Ġgew ann
Ġgew Ã¤hr
Ġgem Ã¤ÃŁ
Ġbeg angen
sam e
Ġzusammen arbeiten
los igkeit
ĠReg ierungs
ĠDat ing
ĠGeist es
reu en
ĠTon y
ĠzusÃ¤tz lichen
ĠJon athan
Ġei tel
Ġbegeg nen
Ġorganis ieren
Ġtradition ellen
Ġmin im
ĠAbt eilung
ĠPersÃ¶n lichkeit
ĠBehÃ¶r den
ĠGri ppe
ĠReicht um
ĠErbt eil
L eben
d Ã¤
f est
g ott
k omp
o ffen
w enn
Ġ ðŁĴĲ
Ġs uchst
an walt
Ġi sst
ĠH ob
ĠD ol
ĠD Ã¶r
lich keiten
ann el
ĠN at
ĠRe par
rÃ¤ umen
ver kehr
Ġ3 8
geb iete
ffe kte
ĠMar ia
ĠMar rak
Ġlos werden
ĠMom ente
abe lle
ĠLu c
ĠBest immungen
Ġlok ale
Ġwes halb
ĠTrick s
Ġnation alen
Jahrhundert s
ĠEntdeck ung
E m
P er
f ast
Ġd etaill
ĠS un
et rie
ĠB ibel
ĠG ehe
ĠW ander
ĠK rypt
ĠSie ht
ĠT af
Ġge fÃ¼hlt
eu en
ĠSt ad
ĠIn spir
Ġre ch
Ã¼n dig
wer ten
im eter
ĠHo ward
ĠVor fahren
ĠAuf lÃ¶sung
qu elle
ĠGeb ot
Ġbesch loss
ĠBet rug
Ġoffen en
ĠHerzen s
Ġfrag st
Ġauft reten
ĠKÃ¶ pfe
jÃ¤hr igen
ĠblÃ¶ d
82 17
ĠErf indung
ĠZerst Ã¶rung
ĠerwÃ¤ hnen
ĠErwart ungen
ĠWich ser
7 0
f akt
r essen
s Ã¤tzlich
t lichen
ã ĥ
Ġun ge
ĠM os
ur de
Ġan wenden
sen s
ro s
ĠN iveau
ĠSch Ã¤tzchen
ĠC D
ĠC art
ĠÃ¼ber setzt
Ġ1 20
rÃ¤ ter
Ġ3 9
ĠWir d
ĠSo zi
Ġeinz iges
Ġbeh err
geh alten
Ġverschw enden
ĠSchul den
rÃ¤n ken
ĠSter ben
ĠKap itel
ĠGespr Ã¤che
Ġblie ben
ĠgewÃ¶hn t
ĠgÃ¼lt ige
Ġoffiz iell
Jeden falls
undzw anzig
Ġatt raktiv
ĠPerspekt ive
A kt
d ar
k al
n am
n chen
y nt
Ġd icht
Ġw id
Ã¶ ÃŁt
ĠH as
ĠF inden
mm a
Ġden k
ro llen
Ġo pfer
ĠZ ert
ĠSch reibt
ĠVer z
ĠVer wenden
ĠAn kunft
ĠAn nahme
ĠPro phet
Ġre st
Ġher an
In s
ĠAus maÃŁ
ĠHand t
ĠKl inik
Wo hl
qu is
gesch Ã¤ft
gesch rieben
wor k
ĠInter ess
erk ennung
ĠBed arf
ĠOper ationen
Ġkonzentr iert
Ġlief ert
Ġdefin ieren
ĠHol m
Ġbewer ten
Trotz dem
ĠDiskuss ion
Ġgrat is
A ktiv
B S
C ar
E hr
a ft
l ag
w Ã¤sche
z n
an lagen
ĠS uchen
ĠA LL
ĠK uh
ĠP ier
ĠP ingu
ig em
Ġl hr
Ġl aÃŁt
ol er
ĠVer pack
ĠAn lage
ĠAn zeichen
ĠSp y
ĠEn er
Ġgew ohnt
Ġschl ugen
ĠMon aco
ĠQ ue
Ġdr eh
ov e
ĠDi pl
Ġehr en
Ġversch m
Ġschn eiden
ograph ie
ĠFer ien
Ġwesent lich
Ġvergangen en
ĠTÃ¤ gliche
F ebruar
K urz
T h
d ann
f liegen
l Ã¤sst
m esser
u ste
w andel
ie ÃŁe
st eh
Ġs ens
ei er
Ġun mittel
ĠA spe
ĠW Ã¤hlen
ĠH Ã¶ren
ĠF arm
Ġl o
se e
ĠVer h
Ġsp ann
ger e
ĠGr an
Ġverl Ã¤sst
ĠBo ten
ĠFreund schaft
Ġbet rogen
ĠSon ntag
ĠDi agramm
Ġreg ion
ĠBlumenst rauÃŁ
ĠWol ke
Ġprof itieren
ĠGn aden
ĠSchwei zer
ĠStru kturen
ĠKrie ges
ĠNet flix
ĠBesser es
Ġgrundlegen de
ĠSec urity
ili ate
ĠOrigin al
Ġverpflich tet
ĠAssyr ien
G eld
L i
g ab
l itz
r ang
v it
st ud
Ġf il
ĠD ay
Ġaus gesetzt
sp iegel
ru cken
Wo zu
Ġbesser es
ĠNach kommen
Ġrau chen
ĠRei ter
pr et
Ġbede ckt
Ã¤cht ige
Ġecht es
ĠPf eil
ĠPrÃ¤ sent
Ġend gÃ¼lt
Ġmo dern
ĠAuss ehen
Ã¼hr t
Ġvorber eiten
Ġmedizin ischen
ĠAst ron
Ġzerb rochen
ĠScher z
Ġfreiwill ig
4 1
4 2
B A
B el
B aby
D amals
G r
e ut
n es
z ar
er kt
ar io
ach ung
ĠW alter
ĠK unde
ĠP est
Ġan scheinend
ol is
om os
ĠVer schlÃ¼ssel
ad ne
ĠMen gen
ĠRe f
ri x
uten ant
ĠSo f
ĠFall s
ĠMus keln
ĠKn ast
ĠJohn ny
ĠAll er
Ġreg istr
ĠHa mmer
Ġlei se
ĠRau ch
ĠMist kerl
ĠJon es
ĠOpen ELEC
ĠFal iraki
ĠSar ah
Ġvertrau e
ĠTick et
Ġwahnsinn ig
ĠFinstern is
F i
Z ug
c are
g in
p ad
z esse
st Ã¤d
Ġs itze
es h
ĠS ow
Ġn etter
Ġein gestellt
der ung
ĠH orm
ĠL Ã¤rm
ĠJ ed
ste cken
ĠC at
be gren
Ġst abil
Ġunser n
ĠRe ese
Ġkein es
ĠReg ionen
Ġzie h
ĠGew issen
ĠMan asse
ĠfÃ¼hr e
ĠDi abet
ĠCar ter
ĠExper imente
aly a
port ieren
AT IS
ĠEmpf ang
ĠPlatt formen
ĠhÃ¶ch sten
Ġfe sten
ĠFa vor
3 6
b lichkeit
h ab
h Ã¤usern
j i
r er
an ischen
an meldung
ĠS aison
ĠA stra
ĠH ong
ĠF utter
isch te
ehr ten
ĠC rew
ĠAn na
lei den
Ġkon figur
Ġgel aden
Ġzus Ã¤tzlich
ĠAnt rag
zahl ungen
land s
ĠBet rÃ¼
ĠVerl angen
ĠVerein barung
ese zeichen
ĠDir ektor
Zwei tens
Ġspezie llen
ĠExt r
Ġeinzigart ige
ĠHam burg
ĠFernseh er
Ã¤um t
ĠZiv ilisation
ĠHeiligt um
ĠFirm ware
5 8
K W
w esen
z eigen
á Ģ
Ġh olt
ĠK id
ĠR am
Ġt oten
Ġst aat
ĠGe st
Ġent lassen
ĠEin nahmen
Ġbes iegen
ĠwÃ¤ hl
auf gaben
zie h
Ġeinz iger
ĠKon zentr
ĠKon kur
Ġbede ute
ĠLe e
ĠKÃ¼ ste
ĠFin ch
ĠPhil osoph
ĠGleich gewicht
ĠPri m
ĠbeschÃ¤ft igen
ĠWol f
ĠDein em
rid ge
ĠAbst and
ĠVerteid igung
Ġbeeindru ckt
Ġdi agnost
ĠIsa ak
Ġpersonenbezogen en
kos ystem
Apart hotel
D on
a ver
f assen
l i
p unkte
un dern
Ġun n
Ġh underte
Ġzu hause
em on
ĠL ok
ĠR itu
Ġt ollen
ĠSp ekt
op a
ĠUn der
Ġent standen
lei b
wer ben
Ã¼t tern
ĠHo heit
Ġverst Ã¤r
ĠArt h
Ġbeg leiten
ard s
ĠGeh alt
Ġleben d
ian er
Ġheut ige
ĠStrate gien
ĠSamm lung
Ġwirtschaft lichen
ĠIndivid uen
alth care
ĠLux us
ĠWahrnehm ung
K ennen
R uss
W isst
f indet
o on
s itz
w affen
Ġs ichtbar
ĠS Ã¤tze
Ġh ob
Ġb rÃ¼
ĠM ig
ĠT ief
ĠI M
ĠV ari
ĠN in
Ġbe arbeiten
ste chn
ĠVer arbeitung
ĠAn spruch
ĠEin fÃ¼hrung
Ġbes prechen
rÃ¤ umt
ic an
ĠSchw anger
ow een
ite d
Ġinter agieren
Ġbeh eben
ĠStra f
Ġtre ffe
ĠVert rieb
ĠÃĸ sterreich
ĠDr ittel
ĠMag net
ĠSc ott
Ġaufge geben
ĠJe ff
verstÃ¤nd nis
Ġblau e
ĠTal ent
Lie be
ĠIdi oten
ĠBa al
minister ium
Ġmerk wÃ¼rdig
ĠInstr ument
Ã¼mmer t
Ġaufgeb aut
Ġmot iv
ĠPist ole
k amen
m Ã¤dchen
st et
Ġein nehmen
ab eth
Ã¶ die
et tern
Ġf erne
ĠW i
ĠD ial
lich em
le ger
ĠN AS
Ġwar f
kt op
ĠO P
ul a
Ġre duziert
lie ÃŁt
Ġgef euert
geb nisse
ack e
fahr er
ĠSchl Ã¤
zi pl
ĠGen om
Ġ6 00
ĠRabatt Code
ĠhÃ¶ chst
ĠÃĸ kosystem
ĠCl ient
ĠServ ices
ĠMag d
uk adne
ĠhÃ¶her e
Ġherr schen
klus ive
ĠWebc am
ĠQuad rat
Ġmon at
ĠTie fe
ĠKohlen stoff
ĠHT ML
F ragen
L u
z Ã¼ge
Ġm obile
Ã¼ pfen
Ġh eben
Ġz err
it tern
em in
ĠM ale
Ġf ielen
ĠB ulgar
ĠW ai
ĠK lo
ĠD igit
ĠP ur
ĠL ein
Ġver sprechen
Ġan g
Ġl Ã¤nd
ĠI D
all er
Ġsch aden
ft ig
Ġp m
sp rach
ri z
Ġpro bieren
ib iot
ĠKon figur
Ġbr ennen
geh Ã¶r
wir kung
Ġkosten losen
ĠGesicht s
Ġerm ut
Ġflie ÃŁt
Ġerg reifen
Ġbelie bt
Ġvern ichten
ĠOl ymp
ĠAc count
ĠLib anon
ĠhÃ¶ch ste
ĠAff iliate
ĠRett ung
ĠMaj estÃ¤t
ĠKÃ¤m pfer
ĠGouverne ur
Ange zeigt
ĠSchreibt isch
C O
S uchen
T P
Z one
f o
Ġm athemat
or et
ĠW ache
Ġver gewalt
is ion
Ġsch ickt
ĠN TV
ĠZ ehn
ĠZ Ã¼ge
ĠSt ab
Ġp ol
ien ung
ĠUn sch
ĠRe al
Ġkl ingen
ungs bedingungen
ĠWei ÃŁen
ĠVor sicht
Ġverb rachte
Ġbesch Ã¼tzt
pl ay
Komm st
ĠSu bst
ĠStimm ung
ump en
ĠLehr e
ĠNeb ukadne
Ġberuh igen
ĠHex e
Ġignor ieren
Ġbeit ragen
ĠEw igkeit
B ild
L ang
g as
u le
Î »
Ã¼ chte
ach el
ĠF ast
ĠE ll
ĠT urn
ĠL ow
Ġvon einander
Ġbe ster
il ber
ĠC hal
Ġab geb
Ġab gest
Ġst ieg
ien ce
Ġr Ã¤
ĠmÃ¼s se
ver d
Ġneu lich
Ġvers orgen
ĠVor lage
ĠBer ichte
ĠAnt litz
ĠMal aria
Ġerst klass
ĠgroÃŁ em
ĠBruder s
ĠJer obe
Ġ200 7
aun e
ĠBeg leiten
ĠKap ital
komm st
Ġvorh ers
ĠGalax ien
ĠRecei ver
Spr ich
H inter
o us
Ġ u
in ke
as a
ĠS eine
Ã¤ g
ĠT umor
ĠL ight
ĠR um
Ġt rugen
Ġaus geben
ĠÃ¼ber sehen
ĠEr sch
ĠBl u
ke y
Ġbrau chten
ĠAus gabe
Ġbeg reifen
ĠDe an
ĠKon z
ha i
itz er
ĠHÃ¶ hlen
ĠKn opf
Ġerle icht
ĠFrÃ¼ h
ĠtÃ¤ glichen
Vers uch
Ġkontroll iert
ĠTun nel
ĠKatast rophe
Ġbeeindruck end
brigen s
P A
f urt
m ap
t ran
Ñ Ĥ
Ø ±
er te
Ġs etze
Ġh eu
at ischen
ĠG abe
ĠK etten
ĠF ans
ĠL aÃŁ
ĠV ictor
and ten
ĠSch recken
Ġum zu
rau chen
Ġher kommen
Ġber uf
ĠAb sal
ĠAut om
Ġex per
if ikation
ĠGemein den
ĠLin ux
ĠBill y
ĠSchau spieler
Ġbehaup tet
Ġorganis iert
ĠZeu ge
wissen schaft
Ġinspir iert
Ġgolden e
ĠverrÃ¼ck te
ĠKa mmer
Ġhung rig
ĠDutzen d
ĠWai sen
ĠAbsal om
E ST
G ar
S etzen
T ags
l et
ar kt
Ġin nov
ĠP res
ĠP illen
um in
ind a
ĠSt Ã¶rung
Ġet liche
ĠU R
ĠLeben sst
ĠÃľber zeug
Ġle bst
olog isch
Ġbet reffen
ĠNacht s
ehl t
ĠBild ungs
Ġhoch wert
mittel t
ĠRicht linien
arr ang
ĠSam stag
Ġerf assen
ĠAlter s
ĠProt otyp
ĠWirtschaft s
ĠBeit rÃ¤ge
Ġert ragen
Sol che
Ġwirtschaft liche
Ġschlie ÃŁt
leg ung
ĠEntwicklungs l
Wechsel kurse
ĠImmobil ie
ĠGR ATIS
6 7
H och
K ategorie
R aus
R ufen
b ur
f ir
w achsen
Ð »
Ġs ystem
Ġh m
hr op
ĠM IT
sch ul
ĠB Ã¶sen
ĠK ra
ĠK rimin
ĠH umor
ĠH OTEL
ĠF els
ĠD arm
Ġer reich
Ġer Ã¶ffnet
ĠP in
Ġver arbeiten
ĠI S
Ġso zusagen
ol i
Ġall zu
men ge
Ġgew iss
iz ont
Ã¼t ig
ĠAb fall
ĠWei ÃŁe
gew orfen
app y
Ġkennen lernen
ĠHin tern
Dar an
ĠDar an
ĠBest immung
Ġne ur
ĠStandard s
ĠWeihn acht
Ġseltsam e
ĠEt was
ĠChrist us
ĠChem ie
Ġkomplex e
Ġstud iert
ĠBob by
Ġgolden en
F rank
M y
U K
s mittel
u ern
w och
en der
au men
Ġun ges
ĠG il
ĠD inger
ĠT in
ĠT asse
Ġsch Ã¤d
Ġbe zeichnen
ĠZ iegen
Ġj Ã¼d
Ġaus ziehen
Die sen
ot ter
ĠO bst
ĠAn lagen
ĠEr ic
ĠBe z
Ġgem eldet
ĠKl icken
Ġben utze
Ġentwick elte
az ier
ile y
ĠPf ad
ĠTre ppe
ash ion
ĠÃ¤lter e
stÃ¼ck e
Ġposit iv
Ġmut ig
ĠSchie ds
ĠMÃ¤d els
ĠOch sen
9 0
D S
b le
k ap
l Ã¶sen
m as
n em
s wÃ¼rdig
w Ã¶rter
ĠA kten
ĠW elten
Ġin zwischen
ĠH ill
ĠH iskia
ĠD auer
Ã¼r e
ĠT enn
ĠL eitung
Ġl ohnt
ann ter
ĠSch ock
ĠSt ill
ĠVer pflicht
Ġim pl
Ġges unde
rie f
ĠAl ice
Ġlos zu
Ġneue ste
Ġjeder mann
ĠHeil ung
ĠHar old
ĠfrÃ¼her en
ĠÃ¶ff net
Ġir r
ĠMotor rad
Gro ÃŁ
ĠHyp ot
log ger
Ġis ol
ĠNieder l
ĠVeranstalt ungen
ĠStÃ¤ mme
ĠKomplex itÃ¤t
Su per
ĠSchimpan sen
I s
R echt
Z w
b Ã¤
m ine
Ġd an
Ġs orge
Ġh ind
Ġn ackt
et tel
Ġf ahr
ĠB ir
ĠW ow
ĠW Ã¤chter
ĠT her
Ġsch rie
Ġsp az
ĠGe org
ad o
Ġdar stellen
Ġunter en
lie d
Ġ5 5
ĠJa c
Ġben utzer
ĠMan tel
ĠFlug zeuge
Ġausge stat
ĠSam aria
Ġkompl ette
vers icht
War st
ĠLÃ¶ we
ĠHost ing
ĠLeist ungen
Ġniedr igsten
Ber eit
ĠspÃ¼r e
ĠInvest ition
Ġaussch lieÃŁlich
ĠBatter ie
D o
E d
H alte
H altet
b ilder
c ript
k rÃ¤fte
o is
s g
u tern
er es
ei se
it o
ĠA qu
ĠG laube
mm el
ĠP orn
ĠT ruppen
ĠL ohn
ĠN eg
ĠN est
Ġo per
Ġab st
ĠO x
ĠO OO
Ġunter r
ges chen
Ġvers agt
ĠVor stell
ĠDie b
ĠBo ston
Ġgenau e
ĠSpiel s
rot ten
Ġbef ohlen
Ġange geben
ĠGro ÃŁe
ĠSu mme
Ã¤cht ig
Ġfr ische
Ġarbeite ten
ĠEp id
Ġverhin dert
Ġdefin iert
ĠZauber er
ave at
Ġposit ive
ĠJung frau
ĠPromotion Code
ĠMont ag
ĠPoten zial
ĠChines isch
J o
r Ã¤t
u al
Ġ uk
st ock
an al
Ġv ierte
ge fallen
ĠH it
ĠT ommy
Ġl ande
ĠR ussen
ĠfÃ¼r chtet
ĠJ Ã¤ger
Ġaus reich
ĠÃ¼ber lassen
ien te
ri c
ĠHo use
Ġkon s
Ġbeg lei
mit h
Ġerk unden
ĠSk ript
ĠKr am
ĠPrin z
ĠChe ck
ĠHinter lasse
ĠStamm es
bew esen
Pl ay
ĠMÃ¼n zen
Ġruss ische
Ġgehor chen
ĠGalax ie
ĠgehÃ¶r te
angeb ote
Ġmoment an
3 00
6 5
i zen
j o
k uchen
l ager
t ial
in er
Ġm aÃŁ
Ã¼ sten
ig stens
Ġl and
ĠR akete
ĠR aketen
ĠN oten
ĠSch icht
ĠC le
Ġdem selben
be ten
Ġst eh
ik te
sp recher
Ã¤r ten
Ġgen annten
Ġkl asse
ob s
Ġ20 22
im el
ech nen
ĠAl bt
Ġgel ang
Ġzus ehen
Ġbek annten
ĠUm gang
Ġerk enne
ĠÃ¼ ben
ĠRu hm
ĠWill iam
Ent weder
ĠDo ug
Ge fÃ¤llt
Ġfor dern
ĠAh ab
ĠSchau spiel
ĠgewÃ¶hn lich
ĠSol ar
krie gen
Ġunbegren zt
Ger ade
zum achen
ĠBeer digung
ĠKult uren
ĠMarrak esch
B ER
B ed
I hnen
K E
O r
T I
V ier
Z us
g sten
Â «
st att
Ġun heim
Ġn annten
or es
ĠG rau
ĠH underte
ĠE mail
Ġver wei
Ġver ges
Ġver mitteln
Ġauf merksam
ĠSch rank
ĠC af
Ã¤r ter
Ġlie st
Ġget rieben
Ġkon front
ĠHotel bewertungen
ho tels
Denn och
gl ing
ipp s
ĠGemein schaften
ĠDo c
ĠPass ag
ĠVis a
sichtig t
ĠRom an
ĠGeschle chtern
Ñģ Ðº
ĠLes er
ĠWichtig ste
Ġwirk liche
ĠDepress ion
ĠBast ard
ĠGehir ne
ĠSchwanger schaft
F rauen
O ST
R ichtig
Â ´
à ¤
Ġ arrang
Ġs endet
an y
Ġb it
Ġin dustrie
Ġer ober
Ġl agen
ĠI mmer
ĠR inder
se y
ĠN Ã¤chstes
ĠZ ur
om i
ĠO p
ĠVer Ã¶ffentlich
Ġkann ten
ad es
ĠEin ige
Ġger ichtet
Ã¤u ber
ichte te
ib le
ĠAnt ibiot
ĠKont roll
ov a
ron en
ĠDav e
ĠUnivers itÃ¤ten
Ġerwar te
ĠBu kar
Ġschwier ige
ĠPriv ate
ober flÃ¤che
utt on
Unter stÃ¼t
ĠPe te
ĠWord press
sta at
ĠKapit Ã¤n
oid ose
Statt dessen
aveat rain
C o
V om
b ett
s sel
ein gang
ĠS ara
Ġh a
at tet
ĠM ur
ge ant
ĠF RE
ĠE ffizienz
ĠT ime
Ġver un
ĠR og
ste te
om a
om Ã¶glich
ĠVer rÃ¤ter
Ġst oÃŁen
ik eln
ĠJahr h
Ġkl appt
Ġam Ã¼s
geb urt
ok l
ok ument
Sch atz
ĠÃľber t
Ġpro blem
unter laden
20 20
Ġrein kommen
forder t
ĠTechn iken
Ġvier zig
ĠEm p
Ġzerst Ã¶r
ĠBas eball
Ġar ab
Pro dukt
ĠSaul s
Ġtran sport
Ġeinzigart ig
ĠKe vin
Ġdauer te
ĠGru be
ĠStatist iken
Ġleu chten
ĠKais er
ĠPsal m
Ehr lich
ĠBukar est
4 3
E IN
H L
g laub
i i
i ber
m l
Ġ 00
ie gt
Ġm od
te lle
ll te
it ern
it iert
ĠB ass
ĠW Ã¤rme
ĠK ette
ĠF okus
ber ry
Ġall gemeine
Ġp acken
ast ung
Ã¤t tern
ĠâĢ ĭ
Ġher zu
Ġher gekommen
her stellung
ĠAb sch
Ġsicher stellen
ĠEnt sp
Ver gessen
fol ger
Ġho her
ĠUm feld
ĠBr ille
ĠGew ohn
sk op
ian o
ĠInd ik
ĠKr it
ieg elt
uk le
Ġjeg liche
ĠberÃ¼hm te
Wel ches
gÃ¤n z
olly wood
ĠEigent um
Ġwest lichen
Ġkauf te
ĠFig ur
Ġverzwei felt
ĠSÃ¼nd opfer
ĠExtr ar
Ø± Ø
G l
M iss
T H
d ringen
s qu
Ġd reck
ĠS us
Ã¶ ten
ĠW unden
ĠH alle
Ġer finden
Ġes se
ĠL y
ber eiten
Ġan stellen
enn a
ĠN ap
ĠN athan
Ġwar nen
ĠJ ess
Ġab t
Ġp reis
sp aren
op ft
Ġges endet
he orie
scha fter
Al ter
ĠCh annel
ster dam
Ġhei ra
Ġhei mlich
ĠAuf nahmen
ĠSo und
ĠBr ennst
ĠPh ot
Ġerw Ã¤hlt
Ġgek Ã¤mpft
ĠInter aktion
ktiv itÃ¤t
ĠFrei zeit
ĠCar l
Ġkeiner lei
ĠSpr ung
bew ohner
feren zen
ĠWh ite
ĠPrÃ¼ f
ĠÃľberwach ungs
ĠIngenie ur
Ġco upon
Ġdur fte
ĠLou is
ĠFlÃ¼ss igkeit
ĠInspir ation
Ġhind urch
6 6
7 7
J ul
b ai
d ach
j agt
t Ã¤t
z liche
st itut
ĠS PI
Ġk g
ĠM and
sch ild
ĠA cht
ĠA spekt
ĠD unk
ĠP rakt
ĠL ag
ĠJ eh
ĠSt ufen
ĠC am
ĠÃ¼ber s
ĠO t
scha fft
ri b
ges pr
ĠÃĦ hn
ĠEl ena
ĠTe pp
ĠWebs eiten
zeich nis
zeich nete
ĠGro up
Ġoffen e
Ġalt es
ĠHaupt stadt
ĠglÃ¼ck licher
Ġersch recken
ĠPer form
part ner
unt u
ĠZeug nis
Ġzuf Ã¤ll
ĠÃľ bel
Ar ch
ĠÃ¼berle gt
ĠWohl stand
ĠSn ap
ĠDam on
ĠSing ap
Ġzeich nen
Norm alerweise
Ġkonkur rieren
ĠLein wand
telle kt
ĠExtrar abatt
A G
F ahr
l ings
ie b
ĠS he
ĠG Ã¼ter
ĠW a
de uten
ĠP es
ĠP reisen
ĠP unkten
ĠR enn
Ġge bar
Ġt Ã¤u
Ġuns ichtbar
Ġvor zustellen
Ġman chen
ĠEr schein
ĠSp a
Ġverl ang
Ġgel andet
Ġ4 2
fÃ¼hr ten
ĠY or
ĠGew inner
Ġausge st
Ġmensch liches
ĠSpr ich
Ġentde ckte
ID S
Ġentsp annen
ĠÃ¤lter en
Ġuner war
Ġgarant iert
Ġfaszin ierend
ĠKlima wandel
Gro ÃŁe
ĠGi be
beweg ung
ĠThail and
ĠNAS A
Ġuk rain
A t
V oll
f els
i ÃŁ
i ffen
p erson
s aveatrain
ar is
ab or
ĠA uch
ĠB reite
ĠG alerie
Ġwir ft
ĠV alent
ĠN iger
ĠC oll
Ã¤t zung
sp itze
ĠU K
Ġher zlich
ĠRe chen
bl ut
Ġget ragen
ragen de
Ġgel ehrt
ĠTeil chen
ĠAm or
ĠRicht linie
ĠLicht er
Ġverdamm ter
ĠPar l
Ġtoll er
ĠBro ker
Ġschlimm sten
spro blem
ĠGericht s
ĠLeist ungs
Ġanf ing
ĠKredit karten
Ch ar
Dad urch
Wel cher
ĠCop s
ĠZiv il
ĠInstr umente
Ġbeeindru cken
Ġstimm e
ĠBran che
NÃ¤ch ste
Erinn ern
Ġta pfer
O L
S E
W eg
o ckt
à ¸
un Ã¤chst
Ã¤ nen
or sam
Ġf ange
ĠK im
ĠK ate
Ġer schw
ĠR itter
Ġo hn
Ġunser m
ad i
ang ehen
Ġent stand
Ġent werfen
bl ock
ĠHer bst
ĠHaus halt
Ġbew iesen
Ġvier ten
ager ten
ĠForm el
Ġsieben ten
system e
aly t
Ġteil nehmen
ĠBÃ¤ umen
ĠKur se
ĠFei er
Se ptember
ĠÃ¼berraschen d
Ġchines ischen
Ġpoten zie
Ġjens eits
Hel fen
ĠFantas ie
ĠErdbe ben
Ġverurt eilt
C C
F ahren
N ehmt
P ap
m aschinen
en e
ĠS urf
ir a
Ġk ult
Ã¶ cke
Ã¶ pft
Ġer folgt
Ġan kommen
ĠI ron
eu gen
Ġo ut
and ia
Ã¶r m
cht ig
ik ro
Ġr ichtet
op ath
ze pte
Ġges Ã¼ndigt
ĠU ND
ak a
Ġget eilt
ĠNach frage
ide os
Ġson der
Ġho tel
Ġbet rÃ¤gt
Ġvoll stÃ¤ndige
Ġverschieden er
ĠGro ÃŁen
ĠSchu h
folg ung
ĠRÃ¼ck erstattung
Ġverg rÃ¶
Ġersch reckt
ĠPer mal
ĠgroÃŁart igen
hol ung
ĠRuss isch
Ġjen em
Ġverschl ossen
ĠRestaurant s
behÃ¶r de
ĠGerÃ¤u sche
Ġill eg
Ġill egal
Ġdurchschnitt liche
Ġallgemein en
ĠAntivir us
Ġkorre kt
Flug hafen
ĠExplos ion
ĠDiabet es
B o
b rochen
h aut
y an
z iel
ie bte
Ġw agen
Ġw uÃŁ
at i
em p
ĠA pfel
ĠW Ã¤nde
ĠH ig
ĠD ick
Ã¼r t
ĠE M
ÃŁ ern
Ġt rank
ĠSt ate
Ġr as
ĠEr lebnis
ĠSp enden
Ġges ellschaft
Ein mal
Ġgew arnt
ĠAl ten
Ġgesch n
kl asse
Ã¤u le
yp e
Ver b
Ġsei st
sicht s
Ho le
ĠAmer ikan
ĠFrank furt
ĠFrei will
ĠBas ket
ĠLÃ¶ cher
Irgend wie
ĠhÃ¶her en
ĠAngel egenheit
ĠEng agement
ĠNÃ¤ch ste
kan al
kont o
ĠJahrz ehnt
ĠSel a
Ġtrain ieren
ĠBade zimmer
ĠSchlimm ste
ĠChir ur
ĠWÃ¤hrungs rechner
ĠVerzei hung
ĠAspe kte
5 4
b rÃ¼
b ran
z el
Ġ ord
Ġ aÃŁ
Ĩ Ĵ
Ġw Ã¼st
ei fen
Ġm uÃŁt
ĠS Ã¤nger
icht ung
Ġf ingen
Ġf Ã¤hrst
ĠH oll
ĠF ertig
Ġl hre
Ġmit genommen
Ġsch einbar
ĠSt olz
ĠPro ben
ĠEr nte
Ã¤ch te
ĠzurÃ¼ck gehen
Ġget rÃ¤umt
kl agen
ĠLe bewesen
rot t
alis ierte
ub a
Ġtoll es
ĠOrg an
ĠHa ken
ĠDann y
Ġbeob achte
Ġqu asi
Et wa
ĠGet reide
Ġbeant wortet
Ġei fers
Wor auf
ĠKug eln
Ġabh auen
Ġkre ativ
ĠWurz eln
Ġangen ehm
ĠHaz el
ĠElef anten
ĠUR L
Ġausgestat tet
9 5
A ND
K aufen
M ama
in u
au bt
Ġun vor
Ġein ig
em pf
ĠW ell
ĠW arten
ĠW are
ĠH ell
Ã¼r tel
ĠP akete
ĠT ja
Ġan gehen
Ġl Ã¶st
Ġt ats
ĠSt immt
ĠkÃ¶n ig
hal ter
her e
ess el
ĠCh ip
ĠAus land
Wo fÃ¼r
ĠAuf bau
ĠGen ehm
ĠNamen s
Ġrecht zeitig
if est
kun st
ĠPart eien
ĠKn oten
Ġern Ã¤hren
Ġeur es
ĠRob in
ĠJack e
ĠtrÃ¤ gst
Ġschn appen
ĠMod el
Ġbegren zt
ĠTed dy
ĠThr on
Ġgekenn zeichneten
ĠlÃ¤nd lichen
ĠChal dÃ¤
8 8
E cht
L esezeichen
e c
i or
u sch
z og
Ð ĴÐ
Ġs er
an er
ĠS mith
Ġh acken
Ã¶ gern
ĠA M
et it
ĠB arb
ĠB Ã¤ren
ĠK y
ĠE ch
ĠT ru
re d
us sten
Ã¤n glich
ĠO ma
ĠO sc
ĠVer ab
ad et
issen schaft
Ġunter richten
ant es
ĠGesch rei
ĠCh ief
Ġgeb ot
ĠAnt alya
rot tel
geh Ã¶rt
aul t
ĠSer ien
arr t
ĠGegen stÃ¤nde
Ġschlecht es
ĠTat ort
Schl ag
Wor Ã¼ber
ĠSitz ung
abil itÃ¤t
ĠKey board
Kosten lose
cel ona
ĠMas ke
ĠMoab iter
Ġbewir ken
R unter
i als
u zin
Ġw andte
Ġs au
Ġs orgt
ĠA U
ĠA sche
ĠB ah
ĠK anz
ĠD un
ĠT itan
Ġauf gel
eu e
ĠZ will
ĠAn erkennung
ĠSp itzen
Ġges unden
Ġges egnet
imm st
ĠUn abhÃ¤ng
Ġgen ehm
ver fahren
ĠVor stand
Ġdrei mal
gew andelt
Ġschw ul
Mein en
Ġvoll en
ĠWo hin
St ud
Ġange zogen
ose x
ĠWissen s
Ġausge geben
ĠGesetz es
ĠkÃ¤m pft
Ġperfe kten
ĠSc an
ĠProt ein
mÃ¤ÃŁ igen
Ġteil weise
ĠRom ant
ĠFrem de
Ġanf assen
Ġherr scht
ĠRezen sionen
ĠCol on
ĠReaktion en
ĠWal ker
Ġbewer tet
Ġnation ale
ĠJahrz ehnten
Ġruin iert
ĠVerschlÃ¼ssel ung
B as
H ost
O V
h aufen
p ool
s u
Ġ Î
Ã¼ chten
Ã¼ hungen
on ne
Ġz orn
sch utzer
ĠN ummern
ĠN orth
ĠZ o
ĠAn im
zu f
ĠSp azier
Ġbes agt
Ġber eiten
Ġkon stru
ĠSchw Ã¤che
ĠAuf zeichnungen
Ġzw ang
Ġbede ut
echs elt
Ġausge zeichnet
ĠDro hnen
ĠdÃ¼r fte
Ġel eg
fre ie
bet reiber
Ġrie chen
ĠOff icer
ĠTex te
ĠSÃ¼ÃŁ igkeiten
ĠBlÃ¶ d
ĠFrÃ¼hl ing
ĠPermal ink
b Ã¼cher
« Ð
Ġ organ
ie tet
ĠM uss
Ġf rustr
ĠK ass
ĠK aut
ĠF ÃľR
ĠP H
Ġver ge
Ġver Ã¤nderte
se x
agen t
was chen
ĠEn igma
fÃ¼ hlen
ri p
In ner
ĠKÃ¶n igen
eich te
Ġgeb unden
ĠGeb iete
zÃ¤hl t
Ġeinz us
Ġbet reten
Ġ8 5
ĠBuch ungs
ĠLu ke
ĠEur en
ĠfÃ¼nf zig
Sp e
Ġerf reut
ĠBel ohnung
ym ph
ĠOrganis men
ĠKor allen
ĠPal ast
ĠFreu den
ĠNÃ¤ch te
ĠKÃ¤ se
Ġbez wei
ĠDom in
schm utzung
ĠHall oween
ĠTrau er
ErzÃ¤hl en
ĠursprÃ¼n glichen
klei dung
Ġverbl Ã¼
Ġmobil en
reak fast
ĠRegistr ierung
schrau ber
J unge
S orry
W e
b untu
f eln
k Ã¼r
r ige
w ache
Ð ½
Ġs ign
ĠS end
Ġb zw
ĠM io
ig a
Ġmit tel
ag on
ĠN ob
kt on
il en
Ġaus machen
rie be
geb Ã¤u
In dem
gel aufen
Ġvers uch
So fort
Ver Ã¶ffentlicht
Ġbet rieben
Ġbr ut
Ġ8 00
gef angen
Ġbl ut
ehm end
Dar nach
Ġflie ÃŁen
ĠStand orten
sy l
stru ktion
ĠGast anmeldung
ĠVerd ammt
Ġauft auchen
ĠFinger ab
Ġherr lich
Re den
En dlich
ĠjÃ¤hr lich
Zie mlich
ĠZigar etten
ĠlÃ¼ gt
Ġsteig ern
hei mer
ĠAllgemein en
Ġerho ben
ĠVerstÃ¤r kung
ĠBasket ball
B ob
B ald
V ideo
f ield
o ver
p ut
p Ã¤ck
r or
u ge
ch in
an c
es a
Ã¼ mer
ar ja
ĠB arr
ĠB ird
ĠW Ã¤hrend
ĠK Ã¤ufer
Ġver Ã¤r
Ġver fÃ¼gen
Ġauf recht
ĠR atte
ĠV iele
Ġge fÃ¼llt
ra ke
ĠÃ¼ber qu
Ġst Ã¶rt
Ġr ennen
iv ing
Ġgeh olt
he ber
tel t
ĠBl Ã¤tter
Ġglau bten
ĠJa va
Ġganz em
Ġwahr haft
ĠAut ismus
Ġbet reiben
gar ten
ĠSte llung
ĠVerb recher
Ġerw e
Ġtre u
ĠSystem en
ĠNeu gier
aun en
ĠVideos p
Ġschreck lichen
gesicht s
komm unikation
ĠMedikamen ten
ĠSand wich
ĠMor al
ĠjÃ¤hr ige
jÃ¤hr ige
ĠDepress ionen
ĠSchalt flÃ¤che
Ġenorm e
ĠGentl emen
ĠArth ur
schutzer klÃ¤rung
C hin
D an
G laub
K enn
L S
P ower
U L
U N
W h
b ein
b ad
g a
k ord
t v
Ġw ild
ein halb
ein igt
Ġi sl
Ġn eigen
sch ritt
Ġf ro
ĠF ord
ĠT Ã¤n
ĠN ieren
Ġab holen
rei tete
lau ch
ick te
Ġkl Ã¤ren
pf lege
ĠVor gang
ĠUm lauf
zahl t
ĠPol en
ĠSte fan
wir ken
Ġ200 6
Ġverg lichen
ĠFahr zeuge
Ġhal tet
Ġtrin ke
ĠCar rie
Ã¼ss elt
ĠEng ine
ĠFran Ã§
ĠKredit karte
Ġausger ottet
wissen schaften
ĠHir ten
ĠRein igung
âĻ ª
Ġmiss b
ĠHem d
ĠTsch ech
Ġblock iert
Ġsorg fÃ¤ltig
ĠHard ware
ĠBulgar ien
ĠNebukadne zar
F amil
L egen
c odes
k Ã¶rper
l or
r ich
Ġ Ã¤h
Ġm isst
Ġn ehm
al ia
ĠD Ã¼r
is ierte
ĠSt ief
Ġaus get
ĠC ost
Ġst reng
ist in
Ġges etz
Ġe ffizien
alt ung
ster ben
ĠFl Ã¤che
ĠPl Ã¤tze
ĠAb satz
Ġho tels
ĠBr on
ĠBr it
sicht igen
ĠKn aben
ĠComp utern
ium s
ĠAmer ican
Ġch ron
Ġerf uhr
ĠTre ue
PI O
cy c
Ġzeig ten
ĠwÃ¼s sten
Ne w
Bes onder
Ġentsprechen d
ĠHex en
Ġbrit ischen
Ñĥ Ñģ
ĠFeatur es
ĠWesent lichen
imel ech
A F
B uchen
E ben
F er
N ie
S Ã¼
T Z
x id
Ġd omin
st recken
ĠS id
Ġg ucken
on ien
ĠM S
sch ei
ĠB utton
ĠK au
Ġl ese
am aki
Ġsch ock
le icht
ĠN adel
ĠVer fassung
Ġst ammen
Ġsoll e
lau en
op pt
ul in
ul pt
Ġdar gestellt
ĠRe chn
Ġunter t
fÃ¼ llen
ĠWelt krieg
ĠzurÃ¼ck ge
ĠHo sen
ĠAb schied
Ġgel Ã¶scht
ĠKont inent
ho le
ĠerzÃ¤hl st
ĠRo hr
Ġhinter her
eig ung
Ġfest gestellt
Ġ0 1
ĠKer le
ĠStud ios
ĠTr end
ĠFr is
ĠPrie stern
ĠPu bl
entr al
achst ums
ĠTro st
ĠMÃ¶ chten
ĠKrie ge
ĠZentr al
hand lungen
Ġzun ehmend
ĠInternation ale
Sh eldon
col n
Ġemotion ale
Ġgrau sam
ĠungewÃ¶hn lich
Ġbeseit igen
riz itÃ¤t
ĠParl ament
3 4
A lex
F rag
I C
K opf
M T
h ow
o ster
v es
st ers
Ġs uchten
ĠS eil
ĠS IE
Ġn Ã¶r
ĠG rÃ¤
ĠH ung
de k
ĠF ieber
ĠV illa
ra gend
ĠO d
Ġsp recht
ru hen
att form
ĠVor sitzen
ĠBer ater
Ġbest and
ĠVers uche
land schaft
ure lle
ĠPlan ung
ĠVerl etzungen
Ge bt
ĠFrieden s
Ãľ brigens
Ġhilf st
ĠNachbar schaft
way s
Ġabsch lieÃŁen
Ġschul de
ĠzukÃ¼nft igen
Ġmark iert
ĠSark oidose
ĠYor ker
ÑĥÑģ ÑģÐº
4 6
I hm
J edoch
S CH
b us
r ist
Ø §
ch ron
Ġs c
ĠS eid
au ten
Ã¼ ht
Ġn immer
ĠM echanis
Ġf euern
ĠB anken
ĠF arb
ĠT ok
Ġver lei
ĠN ah
ĠZ immern
Ġp ost
Ġvor schlagen
ik on
Ġsp ir
ĠIn c
iv a
ĠEr le
ĠAr zn
ĠBe ll
ĠUn ion
bl asen
ungs los
ess eln
ĠWas ch
ott o
ĠKÃ¶n nte
ett i
ĠLie utenant
iss ionen
ĠSte uern
Ġex ter
ĠBet a
ĠHin blick
Vor ige
201 5
Ġbas ierte
ĠUntersuch ungen
Ġseg ne
ĠPrinzip ien
ĠRÃ¤ ume
far be
ĠenttÃ¤u schen
ĠSyr er
Ġinf iziert
ĠprÃ¤sent ieren
ĠArg ument
ĠMagaz in
Verst ehst
ĠMisch ung
zipl in
Ġdan eben
5 1
D ich
G egen
M utter
N atura
f rauen
h und
v Ã¶
Ð ĺ
ie fer
un en
as y
Ã¼ hle
Ġh allo
Ġg ei
at ar
Ġk auft
ĠM all
Ġf lex
Ġf uhren
ĠB eute
ĠB einen
ĠD amit
ĠD rag
Ġan greifen
ĠR atten
Ġsch enken
ĠJ andia
ĠSch reib
Ġum gewandelt
ĠBe ge
ĠBe denken
ĠGe fahren
ĠU s
art h
Ġdurch aus
eid igt
Ġgew achsen
ĠDu sche
ĠPl atten
Ġverst and
ĠVor gehen
ĠGer e
Ġbesch reibt
ĠMit leid
ĠAut ob
ĠGel Ã¼b
ĠGew inne
Ġricht iger
Ġtrin kt
di mension
ix el
ĠsÃ¼ ÃŁen
Irgend was
ĠTerror ismus
produ ktion
verm iet
ĠComm un
Wen igstens
ĠTick ets
ĠauÃŁergewÃ¶hn lich
Ġgrundlegen den
ĠAnd rew
ĠAntivir en
ĠImmun system
Ġit alien
Res erv
Irgendw ann
ĠPres ident
B O
P at
T ag
W es
b ul
g Ã¤ng
i op
m ischen
n i
n tet
un a
ĠS ad
Ġg rauen
at on
sch icht
sch ool
ĠT a
ĠI I
Ġauf machen
ĠVer rÃ¼ck
ĠU fer
Ġgen ial
ĠÃľber gang
ĠBew ohner
ĠBru ce
Ġbef reit
ĠQu anten
ath ol
eint rÃ¤cht
ĠHaupt mann
ĠTelefon nummer
zus p
ail s
ĠKap azitÃ¤t
aff ung
ĠAngel egenheiten
ĠReich weite
ĠBrow n
Ġfaszin iert
Ġy ou
ĠCarol ine
ĠerÃ¶ff nen
ĠRepar atur
Ġzerr issen
Ġspaz ieren
ĠSPI EL
A C
I t
P riv
d el
i ode
i ale
k inder
en ke
st ar
Ġein stellen
ar at
Ġz iv
hr er
ach ter
ĠK ot
ĠK asse
ĠH ad
ĠP or
sen den
ĠV o
ĠZ one
ra ck
chen kt
ĠweiÃŁ er
ĠZeit ungen
her ine
art igen
Ġhin sichtlich
ap e
Ġgesch Ã¤ft
ĠAus stellung
yp en
ĠY og
ĠBen zin
ĠÃ¶ st
ĠHerz in
get rieben
ĠRaum schiff
stra ÃŁe
ĠEd itor
ĠÃ¤hn lichen
ĠPal ace
ĠMÃ¤r chen
Ġsa ÃŁen
ĠÐ ł
Ġres erv
ĠberÃ¼hm ten
Ġkomplex en
Ġeinzigart igen
Ġmitt eilen
ĠMÃ¼n chen
fil m
ĠAff Ã¤re
ĠMolekÃ¼ le
ĠbeschÃ¤d igt
Ġdurchzu fÃ¼hren
ĠAnst reng
k i
l ingen
u eller
Ġw onach
ĠS P
Ã¼ bt
Ã¼ pft
al k
ĠB rian
ĠW inkel
ĠP osten
ĠT Ã¤tigkeit
ĠR on
ĠAn meldung
ĠPro zesse
sp onder
iz abeth
ok oll
ĠMann schaft
ĠAl bert
Ã¤lt st
Ġbr ennt
ĠRab atte
ĠMus l
Ġ9 5
ĠRu ben
ĠIm pul
ĠDo sen
ĠSc ience
andel ten
Ġzahl t
ieg eln
Ġjen en
Ġfor men
Mr s
Ġantwor teten
Ġdumm e
ĠPri ce
Ġsex uelle
oper ation
ĠFakt or
Ġtradition elle
Ġchines ische
Ġwiederhol t
Ġjahr el
ĠZut aten
Ġverring ern
Ġult im
ĠFRE E
Ġverun rein
Inner halb
P reise
c ca
f ertig
g ift
un ft
Ġs etzten
Ġm echan
ĠA N
ĠA ven
Ġf icken
ĠG irl
ĠH alten
ĠF ing
ĠP ore
Ġan h
ro g
ĠN u
Ġda heim
ĠC hl
ĠO fen
Ġwei sen
ĠAn gaben
ĠSp ace
ass o
ed y
ay a
ak ult
ah el
ĠAus gaben
Ġbeg ab
ĠMan h
ĠAm sterdam
Ġ0 9
Ġverschw and
Hat te
ĠEm ily
Ġentsch uldige
ĠForm ular
ĠAll ah
Ġmensch licher
ĠDienst ag
Ġinner en
ĠBahn hof
Ã¼ss eln
ĠWar nung
ĠPost fach
ĠKo ordin
ĠRau chen
Ġlieb sten
ĠElekt rizitÃ¤t
ĠTel esk
ebs ite
Ġsogen annten
ĠNav ig
ĠGriechen land
Ġkonfront iert
squ o
ĠPes o
Ġeifers Ã¼chtig
E xt
U M
b zig
d iger
e ah
v i
x Bet
Ġd ienst
Ġd ynam
ĠS oph
Ġz ehnt
it sch
ĠA R
et ik
ĠG N
ĠT v
ĠT rÃ¼
ĠT ote
ĠL aser
Ġl ocker
ĠV ag
ut r
Ġsch Ã¼tzt
ĠN ic
Ġbe eilen
ĠC ast
Ġr squo
ĠEr b
ĠEr stellen
sp unkt
ze ll
Ġent s
ess a
lo ÃŁ
ack s
Ġselbst verstÃ¤ndlich
ĠHaus aufgaben
Ġleben den
ĠKomm ission
âĢ ĺ
ĠfrÃ¼ he
ĠSu ppe
ĠDes ktop
Ġverh andeln
ĠSpe zif
ĠPu zz
Ġstatt finden
HÃ¶r st
Ġaufge fallen
low ak
ĠTrÃ¤ umen
Ġmer ke
ĠNÃ¤ch ster
spl an
He althcare
ĠMÃ¼n ze
ĠPrem ier
Ġaufw achen
ĠRos se
ĠPoten tial
ĠursprÃ¼n glich
ĠVerbr eitung
Ġkop ieren
Engl isch
Ð¸Ð ¹
ĠHub schrauber
ĠKonzentr ation
ĠSingap ur
H Ã¤nde
R ein
o bt
w ell
z heimer
Ã ¢
ĠG itter
ĠK ro
ĠH orn
ĠT abelle
Ġan sieht
Ġl inke
ĠR iv
Ġge prÃ¼
als o
ĠO pf
Ġdes selben
ĠEr halten
ĠEr finder
Ġre alen
rie gt
ver halten
id o
od i
kl ang
ĠHand lungen
ĠKl im
Wo von
Ġzusammen zu
ĠVerb raucher
Ġvert reten
ĠHerr schaft
zug reifen
ding ung
ĠFÃ¼ gen
bo y
Ãľber all
ĠLin ken
ĠKranken schw
Ġar ch
ĠKor ru
ĠSchÃ¶n e
Ġentscheiden d
ĠverfÃ¼g baren
Ġrei zen
ĠStamm zellen
Ġmer kte
ĠTra ck
ĠUpd ates
ĠMult i
Ġinf o
Ġfrem den
Ġverfl ucht
ĠEinsch rÃ¤nkungen
zÃ¼n dung
Verzei hung
ĠBem Ã¼hungen
Ġexklus iven
ĠErkrank ungen
ĠArbeitspl atz
ĠPrior itÃ¤t
ĠWay ne
ĠDial og
ĠAntibiot ika
ĠKeyboard ing
L in
L OS
S echs
c ing
m aterial
p acken
Â »
Ġ reiten
Ġd okument
ar n
it ch
et ern
ĠG ord
ĠG ramm
ĠG PIO
ĠK ek
ĠH abt
Ã¼r zen
ĠE ffekte
ĠP ech
ĠT asten
Ġan stelle
re st
ro st
all y
ĠN Ã¤hr
ĠSch auen
ĠC ur
Ġwei bliche
men sionen
imm el
bl og
Ġbes uchte
fe kt
ell es
ges p
Ġgel iefert
ahm e
ĠUnter halt
qu ellen
ĠGeb Ã¼hr
ĠÃĦ ra
ĠUm fang
ĠVers uchen
Ġ6 4
ian ischen
Ġpl us
Be ste
ĠSer geant
ĠLiefer anten
ĠFir st
ĠWahl en
ĠBar geld
ffiz ient
ĠstÃ¤r k
ĠPak istan
ĠGra phen
ĠLog o
ĠPlay er
ĠFo ot
Ġko oper
ĠHyp oth
ĠFrie d
ĠFrie de
ĠBos heit
ĠPa zif
ĠHindern isse
ĠSmartph one
ĠMun ition
ĠAmor iter
Ġtats Ã¤ch
d om
f Ã¶rm
i hr
n ot
t es
v al
w an
z we
Ġw eich
Ġs al
Ġein get
or o
ĠM ent
ĠM iet
der m
ĠG it
ĠP R
re de
Ġmit hilfe
ĠO hne
eg o
ĠAn kÃ¼n
Ã¤t igung
he ken
so hn
lie gt
Ġeinfach es
ĠmÃ¶ ge
Ġgef reut
ate m
Ġgem Ã¼t
Ġverst oÃŁen
ĠSo uth
Ġfunktion ierte
sk a
ĠMe eting
ĠFor ex
Ġgek Ã¼mmert
Ġpl ant
ens ion
ĠDes halb
Gen auso
ĠSk ulpt
ĠWohn ungen
ĠVerl etzung
stra hlung
ĠEd elst
Ġwelt weiten
ĠCas h
will en
ĠSa al
ĠFel der
use eland
ĠHigh school
ĠInvest itionen
Ġerr etten
ĠPil ot
Ġspiel st
ĠAktu alisierung
pfl anzen
Ġinvest iert
Ġangem eldet
ĠAnder son
Ġrichte te
Art ikel
ĠUlt ra
Ġleist ungsst
ĠHarv ard
ĠReihen folge
ĠLiter atur
stÃ¤d te
ĠFranÃ§ ais
Fer ien
ÑĥÑģÑģÐº Ð¸Ð¹
ĠHerzin far
G u
M in
R ed
Z unÃ¤chst
r oren
w inkel
Ġ ter
Ġh ern
Ġg uck
al amar
Ġk Ã¤me
ĠF ahren
ĠP ok
ĠR et
ĠR asse
etzt lich
ĠBe wer
men sch
bst ahl
ger issen
ver ter
ĠVor bereitung
ĠschÃ¶n sten
ĠAm ate
Ġ12 3
Ġged auert
ĠEntwick ler
si dent
Ġfl og
ĠDurch fÃ¼hrung
ĠstÃ¤r ken
Ġniedr igen
ĠDruck er
ĠwunderschÃ¶n e
ĠSpeich erkarte
ĠTrain er
ĠJakob s
ĠInf os
Ġphys ikal
ĠKey logger
Ġdeut schen
Ġbegren zte
ĠBlei b
ĠJourn alisten
Ġhistor ischen
ĠWurz el
ĠunglÃ¼ck lich
ĠFeed back
Inter ess
bef ehl
ĠDiam anten
ĠAnkl age
ĠVerÃ¶ffentlich ung
D V
M Ã¶glich
d rei
f Ã¤llen
w Ã¤hrung
Â Ł
Ġ Ã¶rt
st rÃ¶
Ġw omÃ¶glich
ei s
au scht
Ġg Ã¤ng
ar ing
at ch
Ġk enn
ĠF ang
ĠE vent
ĠT oll
ĠL as
ĠL or
Ġbe urteilen
ĠSt irn
Ġaus richten
Ġuns icher
ĠIn t
lei sten
lo hen
ĠMa ke
Ġraus zu
geh olt
ĠHeil ige
ĠDar stellung
ĠAkt ien
ĠAk adem
ĠgrÃ¼ ne
Ġide al
ĠZit at
ĠAnn ie
ĠIndivid u
ĠInner en
ĠLieb haber
Ġag gress
leit ungen
ĠUnabhÃ¤ng igkeit
M Ã¤nner
V ater
W em
Z eigen
k y
r igen
r ats
¢ Ð
ch ester
an ische
ĠS E
Ġg inge
on us
al ph
it ive
el ia
Ã¶ pfe
de fin
ĠF ass
ĠT en
Ġan ony
Ġan fÃ¼hlt
all el
Ġsch ade
Ġbe auft
ol f
ol zen
ra c
ĠSch all
ĠVer lauf
ĠAn schluss
ist ik
Ã¤t t
Ġnach her
zu stand
anz er
eld orf
ĠAl an
Ġber echnen
Ġweg nehmen
Ġraus finden
ander t
ĠRo ut
io xid
Ġange stellt
Ġverm ass
Ġru hen
ĠVert reter
ĠfÃ¼hr enden
ĠDr itte
ĠOrg ane
ĠLin coln
ĠPriv ats
Ġaufzu halten
Ġstar tet
sto ffen
ĠSchwei gen
ĠLog ik
verb indung
sw esen
Ġirgendein er
ĠAnw esenheit
krie gt
ĠMult ip
ĠgehÃ¶r st
ĠHeb ron
ĠMi ami
Ġentschl ossen
ĠhÃ¤ss lich
ĠTrag Ã¶die
Ġerschw ing
N ov
P C
d ieren
k Ã¼ste
l ucht
s at
w el
Ã ³
Ã Ń
Ġ ï
Ġh y
Ġn ennst
Ã¤ ht
Ġk ehrte
or ient
ĠA ct
ĠG B
ĠF ax
Ã¼r k
ĠL t
Ġver schieben
re icht
Ġmit tels
Ġsch eiÃŁe
ĠSch am
Ġda zwischen
ĠSt ore
Ġab nehmen
Ġhier mit
Ġâ ĨĴ
Ġdar stellt
uch er
imm te
ĠU buntu
ĠEin stein
og ramm
att an
ĠAl zheimer
ĠPl at
Ġvers uchst
ĠAus weg
ĠVor schriften
ĠMal ware
ĠKomm un
Ġgek laut
Ġgek Ã¼sst
Ġ0 3
Ġverschw inde
ĠDi Ã¤t
abt eilung
ĠKr ist
ĠgefÃ¤hr liche
Ġstand ard
Ġgr us
ĠMÃ¤r kte
Ġbemer kte
ĠExt rem
ĠDV D
ĠMor de
ĠDeb atte
ĠSchrift steller
ĠKreis lauf
Ġabgeh auen
ĠZigar ette
ĠMerk male
ĠApartment s
ĠChin esen
Ġjeweil s
Ġwein te
Ġeinges perrt
ĠWÃ¼n sche
ĠBetrÃ¼ ger
Ġbedeute te
umin ium
gebÃ¤u de
6 4
G el
L etzte
g rade
o f
r ennen
s ser
t ausend
z Ã¼glich
ie in
an alyse
ĠS CH
Ã¼ hm
Ġein laden
Ã¤ glich
at ibel
Ġk ehrt
Ġk ehren
Ġzu folge
ĠM yl
ĠA ction
ĠG Ã¼rtel
ĠW unde
ĠK le
ur i
ĠP ST
ĠT iger
ĠSch eidung
hl st
ĠAn fragen
Ġet abl
Ġdurch gemacht
ĠEin er
ĠEin blick
Ġmal en
war ten
ĠFl ash
Ġvers ammelt
ĠhÃ¤t tet
Ġverst eh
ĠVor stellungen
ett bewer
Ġkommen den
Ġeigen tliche
Ġbest raft
Ver l
Ã¤nder ung
Ġzie hst
An ders
ĠMin er
ho use
Ġleid et
Ġvert eilen
Ġange passt
voll er
ÃĦ n
Ġerf asst
Ġerz Ã¼r
Ġerz ielen
aph at
ĠNet work
ĠRett ungs
ÃľberprÃ¼ ft
sprÃ¼ che
ĠParad ies
mÃ¶ gliche
Ġumge kehrt
ĠTatt oo
ĠWÃ¤l der
ĠIniti ative
ĠKonkur renz
Ġunheim lich
Ġverges se
Ġzorn ig
Ġisl am
P reis
b reite
c ia
l ers
Ġ Ã¤nderte
in chen
Ġs etz
Ġs ym
au ff
Ã¼ ster
Ġn ehmt
Ã¤ ser
sch ungen
ĠG laubst
eh Ã¶r
ĠW ette
ge ord
ĠH op
ĠF inn
ĠD og
ĠT rad
ĠL ange
Ġan n
Ġl Ã¤cheln
Ġso ftware
Ġsch eiden
Ġsch rift
Ġt op
Ġt ote
Ġbe ziehen
ĠZ wer
ĠSch ein
ĠSt reich
Ġaus macht
ot os
ĠPro xy
eil ungen
rie ch
Ã¼ck t
fe ktion
Ġgew ollt
ĠPl ak
Ã¤l tlich
Sch reibe
Ġpro du
Ġbesch eiden
ĠReg ist
gesch ritten
pro zess
ĠKomm ando
ĠQu atsch
Ġinteress anten
Ġfest halten
201 4
iter ien
ĠDi kt
Ġzer brechen
ĠSpe ed
ĠBrÃ¼ ssel
Bis her
Ġverste ckte
ĠExper te
ĠStre cke
Ġleg ten
Ġeinge fÃ¼hrt
ĠVerd acht
Ã¼hr ung
Re de
ĠMÃ¶ bel
ĠgrÃ¼n den
Ġkap iert
Ġbill ig
ĠGewicht s
ĠMy th
Ġerl angen
ĠCop yright
ĠblÃ¶ de
Sc ript
spart ner
Fol gen
ĠGetrÃ¤n ke
ĠHarv ey
Ġflo h
Ġausged rÃ¼ckt
ĠWit we
ĠFestpl atte
ĠRub el
ĠLebensst il
ĠGenehm igung
Besonder s
A mer
G rÃ¶
P eter
T O
T op
b is
g u
k orea
m at
t ausende
w all
Ġzu gelassen
or am
Ġder selbe
ĠB auer
ĠW etten
ĠK ochen
ĠE ile
ĠT rank
ĠT oren
ĠL anden
Ġan hand
Ġl eitet
ut sche
Ġge steckt
ag ner
ĠN SA
Ġaus drÃ¼cken
be vÃ¶lkerung
ĠAn leitung
ick elt
ĠUn gleich
her r
lei det
ob i
ĠFl ammen
ĠAb kommen
fl os
So weit
ĠVor hof
ĠEnt wurf
Wer de
ĠGew ehr
Ġvert rieben
Ġde p
ĠKopf schmerzen
ĠGed icht
Ġwider stehen
Vor her
Ġmusste st
Ġverg isst
CH E
ĠKÃ¼ chen
Ġunglaub lichen
ĠBel gien
ĠEigen schaft
ĠNÃ¤ gel
ĠKor b
ĠNord VPN
ĠSa ft
Ġnahe zu
organis ation
Ġuntersch eidet
Ġerr ette
ĠAnw Ã¤lte
ĠTour isten
ĠDam pf
Ġwin zig
techn ik
Mag st
Ġdire kte
Ġkoll ekt
ĠAdmin istrat
Ġkultur ellen
ĠgewÃ¤hr leisten
ĠSend ungen
S im
V C
p olitik
w Ã¼n
st ig
ĠS ektor
Ã¼ ben
Ġi mm
Ġv ari
icht ige
Ġk at
ĠB rad
ĠH Ã¶rt
ĠF eder
ĠE UR
ĠT eller
ĠL enden
ĠL ilien
ĠL KW
Ġan hÃ¶ren
Ġl eichte
Ġauf richt
ĠR A
ĠN el
ft igen
ĠÃ¼ber fallen
ot or
ĠVer sch
Ġst rate
Ġgeh Ã¶re
ĠUn gar
ĠFre d
ĠJa mmer
Ġeigen er
Ġschl afe
Ġ4 7
ĠWer den
ĠÃ¶ k
if tet
ip edia
az a
Ġwunder baren
bo le
Ġ200 4
ĠVir gin
ĠKal amaki
ĠMu sch
Ġrei ÃŁen
Ġir ren
ĠZahn arzt
ĠSim on
ĠSchwar ze
ĠFal sch
ĠLib re
Kont aktieren
Ġvis uelle
ĠFle cken
ĠDreck s
Ġschwei gen
ĠCous in
ĠAlgorit hmen
Ġauspro bieren
Ã¶nt gen
Ġregistr iert
ĠHerzinfar kt
ĠLt d
F angen
I L
T om
W eb
h aar
k om
Ġw etten
ĠS od
te ste
Ġein geben
Ġb ildet
al in
Ġk ogn
ĠG anzen
Ġin klusive
ĠH ollywood
ĠL ymph
Ġl agerten
re en
ann a
Ġauf zunehmen
Ġbe zieht
be finden
Ġbin den
ĠGe pÃ¤ck
Ġges chenkt
Ġhin Ã¼ber
ug h
ĠEin lagen
ĠFl u
Ġverl iere
ĠVor hers
ĠSchl afen
ĠKl einen
Ġzw e
ĠAut oren
ĠFreund innen
ĠGen ieÃŁen
ĠVers orgung
ĠVerb Ã¼n
ĠMein ungen
Ġbl icken
Ġged ient
ĠStud ium
ĠSk ype
ĠVerl uste
sh ark
ĠPartner schaft
Ġanz ur
Ġfor der
nach richten
Ġerfolgreich e
Ġniedr ig
ĠJul ia
ĠMaÃŁ stab
Ġgrund sÃ¤tzlich
ĠÃ¼bern ehme
ĠPhara os
ĠKom fort
hÃ¶r er
ĠZe dek
Ġoffiz ielle
ĠCom ic
ĠvorÃ¼ber gehend
ĠVeranstalt ung
ĠSens or
Ġelektr ische
ĠIll usion
ĠKÃ¼hl schrank
ĠKost Ã¼m
ĠWart ung
Ġmel de
ĠSÃ¤ug et
ĠFavor iten
ĠSpazier gang
6 2
M PEG
a al
f ass
m ung
n ers
n ummern
p ur
Ġd rucken
ie hlt
Ġh arten
Ġzu gleich
sch icken
Ã¶ te
Ġf undament
ur er
ĠD schung
ĠD aumen
Ġer werben
ĠE ver
ĠT ausenden
Ġl oben
ĠR aus
ĠR up
Ġsch Ã¤men
Ġge bt
ĠJ esse
ĠSt rÃ¶
Ġab geben
Ġr eine
ĠAr n
amm e
ĠZeit plan
Ġdurch einander
Ã¼n der
ĠwÃ¼r det
Ġwieder kommen
ĠLeben ser
ht tp
ap est
ĠPl age
ĠAuf zug
icher ung
ĠUm satz
ĠTage buch
Ġfol gendes
ĠNetz werken
Ġged achte
ile g
ĠFeuer wehr
Ġempf ind
ĠBÃ¼ chern
Mach st
ĠGar age
Ã¶ff el
Ġverz eihen
ĠSonnen system
reg eln
kÃ¼n fte
hÃ¶ hung
ĠPay ment
Her zlichen
Ġfantast ische
Ġlern ten
ĠVern unft
Ġsogen annte
ĠVeg as
ĠDonner stag
ĠLat ein
ĠFlag ge
Ã± ol
ĠTaf el
Aktiv ieren
ĠPhilosoph ie
aver ei
ĠKorru ption
A bst
B it
P M
f euer
j ath
l Ã¶
l ehen
r and
s un
s agen
Ġ ego
ie ter
as sten
ĠS ale
Ġh arm
it ute
el tern
sch alter
ĠB Ã¤r
ĠB ody
ĠB onnie
ĠSie hst
ĠF A
ĠD af
ĠT Ã¤ter
ĠT reibst
ĠT rottel
Ġall m
Ġst Ã¤dt
ĠAn dy
Ġwo durch
Ġkl ing
Ġgro ss
Ġ3 4
ĠEl ia
ĠKon g
ĠWasser s
son sten
Ġ7 00
ĠÃ¶ konom
Ġ0 6
ĠRicht ungen
ĠTr ends
ĠGegen stand
Ġreg eln
sprechen d
ĠKunst stoff
Ġar g
ĠTransp aren
achst an
ĠPal m
ĠtrÃ¤ umen
haf ter
ĠZust immung
Ġmer kt
ĠmÃ¤cht ige
uell es
Ġa ÃŁen
Ġstir bst
ĠCol a
ĠNutzer bewertungen
ĠKur ve
ĠArchite kten
ĠZe dern
ĠBedro hungen
ĠKu ppel
ĠzukÃ¼nft ige
ĠBeob achtung
problem e
Ġzust immen
Tran sponder
ĠCher ub
5 3
5 7
B ill
L etztes
M o
W elt
b ogen
b ilden
r annt
ie se
Ġs ilber
ei ert
Ġb rÃ¤
it ativ
ĠM ust
ĠM Ã¤use
ĠB un
ĠB IP
ĠH ai
ĠF TA
ĠT Ã¤t
ĠL eich
is p
ĠR oss
ĠN ad
ĠZ oo
Ġdem Ã¼t
Ġmein s
be ll
ĠVer zwei
iv al
ob et
ĠBl ase
Ġgef lohen
ĠzurÃ¼ck gekommen
ĠCh or
ine lle
kl Ã¤ren
Sch eint
ett s
ĠBer uh
zt in
me er
Ġlos lassen
wick lung
eist et
Ġbef rie
Sp are
Ġ200 5
ĠDi mensionen
Ġverg leich
auber n
ĠBar celona
ĠPu ppen
ĠBu ll
ĠLehrer in
reg ung
Blei bt
Ġtau chen
ĠNahr ungs
BI Z
ĠSÃ¼d afrika
Ber uh
ĠKÃ¤ fig
fle kt
programm e
Ġverab schieden
ĠJourn alist
Ġausgeb ildet
ynam ik
Wechsel kurs
ĠRas p
ĠPir aten
ĠbegrÃ¼ ÃŁen
ĠBroad cast
ĠGelÃ¼b de
ĠÐł ÑĥÑģÑģÐºÐ¸Ð¹
ĠManh attan
H olt
f amil
f ace
an ie
an st
ei gst
Ã¤ sten
ĠM ick
ĠM eld
ĠG assen
ĠW right
ĠH Ã¤usern
ur ce
ĠE R
ĠP el
ĠL oy
Ġauf einander
ĠSt Ã¶rungen
ĠO SC
rei st
Ġhier bleiben
sp ringen
bl att
art ikel
lie fer
im er
ĠFl ut
Ġber u
Ġber echt
Ġvers ehen
Ġvers etzt
ĠLie ber
Ġgegen wÃ¤rt
olog y
ĠGel Ã¤nde
fÃ¼hr te
ĠSte ll
Ġklar e
ĠCo oper
ĠAbend s
Ġte m
Hat test
Ġ200 3
Ġverg iss
ĠTr ump
ĠSk el
ĠWohn zimmer
Ġel f
ka mmer
wen der
ĠTro pfen
Ġnotwend igen
ĠFei ert
Ġerr ettet
ĠHaust ier
ĠJahrhundert s
Ġschne llen
ĠArab isch
ĠIngenie ure
hel fen
Ġmittler weile
Ġkompliz ierter
ĠSchÃ¶ pfer
Ġanalys ieren
Ġpf legen
ĠDÃ¶r fer
Ġerstklass ig
ĠErsch ienen
Ġausreich end
ĠFing ern
ĠOSC am
5 6
F unktion
L C
R Ã¼ck
T oll
m eid
n ik
o os
p ert
p ap
s orge
v ern
Ġ æ
in ien
Ġk und
ĠM elden
Ã¶ der
ge fahren
ĠF i
ĠD ritt
Ġver eint
Ġsch ieÃŁt
Ġt eilt
ĠZ irk
ra st
Ġab stra
ĠO ri
ast et
Ġvor geschlagen
ĠAr iz
fÃ¼ n
ĠBl ume
rÃ¤ der
ver schw
Ġgef logen
ster blichkeit
Ġgem erkt
ĠFl aschen
Ġber euen
ĠWei zen
form at
ĠHand schuhe
Ġbest anden
Ġ4 3
ĠUnter t
ĠGer Ã¼chte
ren ce
Ġverd iene
unter gang
ĠNe useeland
Ġgest altet
Ġbet eil
An statt
Ġfol gte
ĠSy mm
Ġgek riegt
ĠMiss brauch
opp ing
Ġnorm ales
ĠAd ler
ĠWerk zeugen
ĠPfl anze
Ġschlimm ste
Ġansch lieÃŁen
ĠMitglied schaft
ĠMÃ¶ chtest
ĠTri p
ĠHy per
rop hen
Ġentsprechen den
ĠVi ze
Ġdeut sche
ĠJahrz ehnte
ĠverrÃ¼ck ten
ĠMatt he
ĠZie h
undzw anz
Ġchem ische
ĠVersicher ung
ĠEuropÃ¤ ischen
Ġerweiter t
ĠElektron ik
ĠDigit al
Ġbit tet
glaub lich
ĠTÃ¤n zer
5 2
H ome
N ode
O D
P e
R ob
S ex
h os
i que
o in
p assung
t un
u ja
â Ĥ¬
Ġs ort
ein heit
as ien
Ġb itter
ĠM organ
ĠA ar
ĠB rÃ¤
ier bar
de x
ĠT ob
ĠN ett
Ġwar tete
ĠC ass
Er k
Ġent h
Ã¼n kt
id met
Ġweiter gehen
du ktion
Ġgel eistet
fahr ung
Ver stehen
ĠGeb ieten
av ier
An der
ĠBet on
Ã¤ng ern
ĠKan Ã¤len
ĠMe ere
Ġoffen bart
Sp rechen
Ġkosten loser
Vor sicht
ĠUr sprung
ĠMo unt
wert ung
ĠPap iere
Ã¤tz liche
rÃ¤n kung
ĠDro p
ĠX ML
ĠEle as
ĠZuf lucht
aph on
Wel chen
ĠBud d
Ġ199 0
ĠFei gling
ĠSÃ¼ÃŁ igkeit
ĠbetrÃ¼ gen
RT Node
ĠKen ia
ĠDÃ¤m onen
ĠFlie ge
ĠEint ritt
Ġangel ogen
Ġunangen ehm
Ġdreh te
ĠUnder wood
Ġvergewalt igt
ĠArzn ei
Ġstrate g
ĠTransparen z
B ahn
D achte
N IG
c s
d rÃ¼
g ehe
g rad
h agen
p ha
s ucht
v ie
v iert
v pn
Ġs ub
Ġs ende
an ch
ĠS qu
te x
Ġg ift
ir s
ir es
ĠM au
ĠP i
ĠP ick
ĠT reiber
Ġan w
ĠR a
ĠV all
ag ert
Ġwar test
ĠZ un
ra h
Ġum so
Ġum zugehen
ĠVer der
ĠAn ten
zen ten
ĠBe dingung
Ġre ale
ĠUn s
ĠU NS
amm eln
Ġunter n
art a
tern et
Ġviel mehr
ĠHer kunft
In d
od iert
kl agt
ĠVor fall
ĠSchl angen
gesch ickt
ĠEl fen
ĠTeil nahme
wie sen
ĠGew Ã¤sser
ĠBet eil
Ġbef est
ĠStra hlung
Ġ7 2
ip end
get s
we et
Ġerkl Ã¤re
ĠTr ennung
recht s
Ġinner e
ĠEd ward
Ġew igen
cen ter
ĠPos itionen
wÃ¼r fe
ĠKo hl
Ġfor dert
ĠKar ik
verb rauch
ĠStift ung
Ġphys ischen
Ġphys ische
Ġoffiz iellen
ĠmÃ¤nn liche
ĠInfe ktionen
Ġausgel Ã¶st
Ġangesch ossen
Ġmittler en
Ġunw ahrscheinlich
ĠStÃ¤ mmen
Ãĸff nen
Brau chst
ĠEth an
ĠPul ver
ĠLaut sprecher
Ġbevorzu gen
ĠPingu ine
Ġunn Ã¶t
geschen k
ĠKaut ion
ĠSPIEL E
ĠGraphen e
E le
G estern
H R
S en
m uster
r rt
w andeln
Ġ {
es p
Ġg o
on ia
Ġk ost
or men
ab s
em mt
ĠK ehle
ĠSie ben
ĠP rag
Ġl Ã¤ch
ĠR ichtig
ĠR Ã¶ntgen
ĠV ent
ĠJ am
Ġbe eintrÃ¤cht
ĠZ elt
il m
Ġr Ã¤chen
ĠSp itz
ad s
op ter
Ġunter schreiben
scha ff
ĠEs s
ĠAus weis
Ã¶rt lich
Ġgel eitet
ide on
ĠRo ute
wor ben
Ġbef re
ĠApp etit
ĠFot ograf
Ġerh Ã¤ltlich
Ġgek ostet
ĠJer ry
ĠAt hen
rieden heit
ĠTo uch
ĠKosten loser
Ġerf Ã¤hrt
Ġfort geschritten
vert rauen
ĠPal ette
ka sten
ĠHÃ¼t ten
ĠSpeich ern
ĠKrÃ¤ uter
ĠRep orter
ĠÃ¼bern ommen
ĠZw ang
Ġaussch alten
Ġschul dest
ĠAltern ativen
Ġfe ste
Ġzentr ale
Ġneg ativ
ĠImmobil ien
ĠAnf Ã¤nger
ĠIntegr ation
Ġunend lich
ĠMid ian
bur ger
ĠAlbt raum
ĠColon el
Kenn zeichnen
F inde
M a
b an
i ater
u den
u gend
Ġ asi
Ġ atem
it ation
ĠM Ã¼cken
ĠB ow
Ġin ne
Ġer schlagen
ĠP M
ĠP ut
ĠT um
ig st
Ġver arbeitet
Ġan onym
Ġl ehrt
Un ternehmen
le bt
ĠJ Ã¤hr
eu chtung
ĠSt einen
ĠC N
Ġab sichtlich
Ġp opul
ĠVer sp
Ġst ab
eg el
Ġunser s
ĠRe quis
ĠEn den
ed ition
ak ul
ĠCh uck
ekt ar
ĠHand eln
Ġ4 4
yp r
Ġpro motion
Ġklein ere
Ġgest anden
ĠRei fen
Ġerst mal
ischer weise
halt igkeit
Sp eichern
ĠLuft fahrt
ĠFrank en
ĠDeut schen
ĠFest ung
ĠSa fe
ĠhÃ¼b sche
ĠÃ¼bern immt
ĠPlug ins
ĠArab ien
Ġwirk lichen
angeb ot
ĠAmazon as
ĠGetrÃ¤n k
ĠZul etzt
ĠBereit stellung
ĠHÃ¤u pter
ĠSich em
ĠhÃ¤uf iger
ĠCount y
Ġstarte te
ĠKonfigur ation
ĠCaf Ã©
Bas ierend
ĠPrivats how
ĠLibre ELEC
Abst and
C he
D Ã¼r
F in
I K
I EN
U r
h alle
m art
n Ã¼tz
u ver
Ã ª
st eine
st rom
ar sch
Ã¤ fer
gen den
ĠB utter
ge blieben
de utet
ĠD Ã¼n
Ġer bar
Ġan l
le cht
ĠZ aun
ĠSch Ã¤tze
Ġaus rotten
rei ter
Ġst at
zu halten
Ġre icher
Ġdurch suchen
Ġgew idmet
iz a
ok uss
ĠAl ien
itt le
ĠVor der
Ġhei sst
ĠMa in
Ġle cker
ĠEl end
ĠDaten schutzerklÃ¤rung
Ġkam st
ĠPol y
St ick
ere view
ĠFor um
Ġfrei er
co upon
opp eln
Ġempf inden
ĠKosten los
ĠGesundheit swesen
ĠKÃ¼ sten
Ġfl Ã¼ss
ĠBu lle
wÃ¼r dige
ĠSym bole
All ein
ĠMat he
Ab gesehen
ĠNutz ungsbedingungen
Ġunver meid
ĠWohl befinden
Ġdauern d
Ġleiden schaft
ĠProtok olle
ĠHimbe ere
Ġgenet ischen
Ġblock ieren
Ġangew endet
ĠRoy al
funktion en
Ġelektron ische
ĠEst her
ĠViet nam
ĠEsp a
ĠPrÃ¤sent ation
chin aphon
ĠJava Script
NIG MA
chinaphon ereview
C on
J es
U k
W urde
d ay
h y
s f
Ġ }
en ten
an zug
Ġh au
Ġein richten
ar ma
Ġk Ã¼nstler
Ã¶ pfen
ĠA IDS
Ġf aul
ĠK rÃ¼
ĠK iew
ĠH ank
ĠH alte
Ġer gr
ig ant
is y
ĠR ent
ĠR ap
ĠR inge
le uten
Ġwie viel
ĠSt ationen
ĠC up
om er
Ġst Ã¤nd
Ġvor wÃ¤rts
Ã¶r tern
Ġgeh asst
ĠSp ar
ĠSp ott
ĠSp ruch
sp er
ĠBe cher
Ã¼n de
ĠBl ind
In stall
Ġgeb ildet
ĠMon itor
Ġdrei ÃŁig
iss a
An geb
Ġrein gehen
ĠGrund stÃ¼ck
ĠBr ing
ink eln
ĠBen achricht
Ġ0 2
Ġbel Ã¤st
ĠFÃ¼ lle
ĠRÃ¼ck seite
ĠPat rick
ĠCl ark
ĠDi mension
Ġkont akt
zus ingen
ĠwÃ¼n scht
ĠKontakt iere
ĠSen ator
ĠSuper h
ĠEngl ish
ĠTem p
ĠAuft ritt
bÃ¼r ger
ĠAss istent
met hoden
ĠBand breite
ĠTrans fer
ĠWh it
vis ion
ĠInf o
ĠSau di
ĠSteuer ung
Ġerfor dern
Ġverhaf ten
ĠNo ah
ĠNeb el
ĠAbsicht en
ĠWichtig es
ĠKompl ikationen
ĠTie fen
Ġvirt uellen
Ġunbek annt
Ġkombin iert
Ġbenutz te
ĠSow jet
ĠEpid emie
OST EN
Ġjahrel ang
ĠOri ent
ĠAriz ona
ĠAar ons
8 00
K omp
M ose
c ent
ĠS eba
ĠA ffe
Ġf ehler
ĠB eutel
ĠH appy
Ġl hnen
Ġl egal
is c
ĠV ill
ag es
ste st
ĠSt ille
il itÃ¤t
Ġges undheit
ne st
hal ben
Ġher bei
amm te
ahl en
Ġgew Ã¶hnen
ĠzurÃ¼ck bringen
Ġverl asse
inn st
vor gangs
ran ten
ĠDe kor
ĠKl age
Ġirgend einen
ĠGeb eine
ĠAnt rieb
ĠY o
ĠRabatt coupon
St u
sk ont
Ġerh olen
Sp Ã¤ter
ĠProgramm en
ĠStand punkt
ĠglÃ¼ck liche
iem als
ĠIm per
Ġreg ierte
ĠFern e
Ġstark er
ĠGrÃ¼n der
Ġaut or
ĠBon i
ĠCon ne
De utsch
Pl Ã¶tzlich
ĠSchwar zen
ĠNeur ow
besch reibung
ĠKÃ¶ der
Ġverwir r
Ã¤s se
ĠHalt ung
ĠBox en
kr ut
ĠMitt ler
ĠkÃ¶rper liche
Ġgeheim nis
ĠFig uren
Ġbrit ische
Ġniedriger e
Ġgehei me
ĠEinkauf s
ĠErweiter ung
Go ogle
ĠWik ipedia
ĠfÃ¼n ften
ĠVar ian
Ġrech nen
ĠBez irk
ĠTepp ich
ĠCost a
H arry
J uni
M er
Q L
Z T
k k
k reu
t reten
v ir
y er
ä ¸
Ġw eichen
Ġw andern
ein stellungen
ei ger
ĠS om
ĠS atur
Ġh arter
Ġein gerichtet
Ġv ideo
at ra
Ġk aufe
it ers
ĠM iz
ĠB I
ĠB Ã¶r
ĠW achstums
Ġer worben
ĠE ML
ĠP I
ĠT akt
ber echt
Ġan geschlossen
re ll
re gel
Ġge zÃ¤hlt
ĠJ ay
Ã¶n e
ĠSch ichten
Ġp at
Ġuns icht
ik ale
Ġâ Ħ
ĠIn tens
Ġre volution
ĠU t
ger icht
rÃ¤ glich
iz ei
Ġger inger
ĠAl te
Ġvers orgt
du kte
schl ossen
Ġ5 1
Ġ5 2
ĠSe quenz
ib an
Ġheraus f
ĠGeh Ã¶r
Mein er
ĠLe der
ĠMÃ¤n nchen
ĠKomm and
ĠWo hlt
ĠMan chmal
Ġerw ischen
ĠWe lle
Ġkurz er
Ġwunder volle
iff eren
schn itte
man agement
Ġzer schm
ĠTeu fels
Ste llt
ĠGo od
ĠDar lehen
ĠNot iz
ĠSchn ur
Ġwert volle
ĠBed ien
ĠEigen tlich
Ġgr aben
Ġwohn st
ĠLev i
ĠBill ionen
ĠMist stÃ¼ck
ĠWÃ¼r fel
ĠSl ot
ĠKommunikation s
ĠMikro ben
wach ung
Ġbez ahle
ĠVÃ¶ geln
Ġfinanz ielle
Ġfinanz iellen
Ġthe oret
Ġextra h
ĠSkl averei
ĠGi pfel
dat eien
Reg istrieren
ĠstÃ¼r zen
ĠerwÃ¼r gt
Ġausges ucht
gy pt
ĠImpf stoff
ĠAnh Ã¤nger
ĠKas achstan
ĠSant a
ĠgroÃŁzÃ¼g ig
bÃ¤ ume
ĠRomant ik
ĠMusl ime
ĠSpezif ikationen
ĠFoot ball
ĠDschung el
fÃ¼n f
ĠEspa Ã±ol
K ap
k unde
s ort
s eiten
à ·
st Ã¤r
ein er
ĠS ame
Ã¤ hne
Ġzu gehÃ¶rt
ĠW ende
ĠK ennen
ĠF oren
ĠT ech
um er
re dung
Ġge denken
ĠN agel
ĠJ ar
ĠSch oÃŁ
ĠSt reifen
ĠC ro
ill t
Ġwei blichen
ĠVer gewalt
Ġvor zusingen
Was ser
ĠBl Ã¤ttern
ess elt
lie f
ger echt
ĠzurÃ¼ck gelassen
ah ath
ĠAb lauf
ord nen
ĠHand sch
ud em
Ġganz er
Ġgest iegen
EN T
An scheinend
Ġraus holen
ĠVers ammlung
gr unde
Ġrecht fert
ĠQu art
ĠKn abe
ĠDr ess
ĠDank opfer
ĠProgramm s
ĠWill e
Ġgl att
ĠDro hne
ĠHaar spitze
ĠSc anner
ifiz ieren
ĠGebÃ¤u den
inder t
ĠBrie ft
Ġhervor ragende
ĠÃ¼berw acht
Ġheim suchen
ĠPo ster
ĠLau ra
Ã¼st ung
ĠPsych iater
ĠTrans aktion
Ġangeb lich
spruch s
Ġbi ologische
Ġtie fen
KÃ¶nnte st
wart ung
ĠToil etten
ĠNor wegen
Ġbewir kt
ĠHann ah
ĠMahl zeit
Ġmar sch
Ġmaxim ale
Ġromant isch
ĠPen is
Ġmanip uliert
ĠKanaan iter
ĠDep osit
cover y
ĠZert ifik
ĠSus an
A V
C S
L O
N o
S uche
S atelliten
k ter
k Ã¤m
k ette
m Ã¶rder
Ã £
Î ½
Ġ @
Ġ Ã¤nder
Ġm et
Ġun besch
Ġein gel
Ġein fallen
at ter
ĠM iete
ĠB ande
ĠB BC
ĠK orn
ĠH arm
ĠH istor
ĠF undament
ĠE mma
ĠT Ã¤u
ĠT reib
ĠL isten
Ġl eug
ag h
ĠN az
ĠC all
ĠVer zeichnis
ĠAn blick
ĠAn lass
Ġvor kommen
ĠSp ir
Ġwoll e
ant wortet
att le
Ġger issen
id sch
iger weise
ĠAl ph
Ġvers icher
Ã¤l testen
Ġzusammen ge
Ġle ere
aÃŁ nahmen
Ġleben de
Ġrein gelegt
ĠRo hst
rÃ¼n n
ĠCo ckt
Ġbevor zug
ĠEurop as
ĠAd d
Ġsozi al
ĠKranken wagen
stra fe
ĠNa ja
ĠProt eine
ĠAng riffe
ĠAk ne
Ġal bern
ĠTut or
ĠJuni or
Ġausgew Ã¤hlte
Ġkor rig
zut reten
Mich ael
ĠWel ches
ĠComm ander
ĠAbm achung
ĠmÃ¤nn lich
ĠprÃ¤sent iert
Ġgener ieren
Ġpfl anzen
ĠPortug al
dien ste
ĠLaufen den
ĠDÃ¤m on
Ġgehei men
ĠvernÃ¼nft ig
ĠAlgorit hmus
Ġkrei eren
ĠProje kten
ĠMotiv ation
ĠResult at
Ġbewaff net
fakt oren
Ġopfer te
ĠValent in
ĠPH P
Power ed
ĠYog a
akult Ã¤t
verschw endung
1 50
D ienst
O ktober
P R
b etten
f asst
g Ã¼nst
h ten
z ehnten
æ ĸ
Ġ ordentlich
as ka
Ġdie jenige
ar akter
Ġb ot
ab len
el a
ĠW RTNode
Ġin vol
re am
is b
ĠV ul
Ġsch uf
Ġt sch
ste ten
ĠC EO
etz ter
rei fe
Ġst ein
Ġsp Ã¤ten
ĠEr Ã¶ff
Ġgeh eilt
ru ktur
ed a
Ġe vent
rÃ¤ gen
id ad
ĠAl uminium
Ġgesch Ã¤tzt
Sch eiÃŁ
fl ucht
fl Ã¼ge
fl Ã¼ss
Ġ4 9
ĠWer bet
ĠEl izabeth
Ġbew Ã¤lt
ĠerzÃ¤hl ten
Ġschnell ste
Ġex akt
ĠLu cy
ĠEur er
ĠBlut druck
Ġwider sp
Ġausge gangen
Ġsel be
ĠMusik er
Ġern euer
opp elte
Ġverg eht
Ġersch Ã¶pft
rain ing
ĠFr anz
ĠGef Ã¤ÃŁe
ĠThe orien
Ġempf ehle
ĠÃĦn gste
vert rag
Ġlei hen
ĠPark plÃ¤tze
da zu
Ġei ser
kont akt
Ġinspir ieren
Ġidentifiz iert
Ġabgel ehnt
ĠFro st
ĠPet ers
Ġgenet ische
zÃ¼n det
Ġhoff nungs
Ġeil ig
ĠDeck ung
Ġflo hen
Ġbeherr schen
ĠVerh andlung
ĠJerobe am
ĠEntwicklungsl Ã¤ndern
ĠBlÃ¶d sinn
ĠverblÃ¼ ffen
ĠCommun ity
Reserv e
ĠRequis iten
OSTEN LOS
ä¸ Ń
7 9
A ug
C op
F Ã¼gen
L and
S ehe
W E
b rachte
m acher
p osition
r esse
u c
y on
st art
Ġs enken
Ġh igh
Ġzu stÃ¤ndig
ĠA ster
ĠW inde
ĠK laus
ĠK orea
ĠK orean
ĠH undert
ĠH eth
ĠF ell
ur opa
Ġer laub
Ġer mitteln
ĠE cken
ĠT rinken
Ġver schaffen
eu f
and al
ĠÃ¼ber st
ot isch
ĠVer gebung
ĠAn s
ist et
Er stellen
ĠIn n
ĠPro vin
ĠSp ieÃŁ
ul u
Ġent w
bl Ã¤tter
ĠEin klang
ant om
lie be
ap her
ĠWir st
Ġber aten
ĠAus dauer
Ġbeg ehen
ud d
ĠMar doch
ĠÃľber einst
ĠEl enden
ĠEx port
ĠStra hl
Ġdr itt
Ġerh ielten
ĠJo as
Ġrede ten
ĠSal es
ĠVerl ob
ÃĦ h
Ġreg nen
ĠChr omos
ĠDar win
ĠHa w
War tet
ĠNa hen
reu ung
ĠPark platz
Ġheil ige
len ken
Ġbed anken
ommer ce
ĠGeschle chter
ĠmÃ¤cht iger
ĠwunderschÃ¶n en
ĠKÃ¶nigreich e
Ġgrund le
Ġtie fe
Ġ300 00
Son dern
ĠExpress VPN
log gen
ĠmÃ¤nn lichen
Ġanges agt
ĠStatist ik
ĠPul s
Verm utlich
Ġdeaktiv iert
Ġdram atisch
ĠVorstell ungskraft
okl yn
ĠNiger ia
ĠChaldÃ¤ er
Ġbezwei fle
Ġgei rrt
A s
B ar
C aptain
I ON
T M
f u
j agen
k Ã¶n
s be
t Ã¼r
Ġ \
Ġ ×
en hagen
Ġw ilden
Ġw ebsite
an bieter
ei gerung
Ġun t
Ġun zÃ¤hl
al iano
Ġk os
em anden
sch st
ĠG ideon
ĠD osis
ber auben
um rechnung
ut es
Ġsch reit
Ġt v
Ġbe weist
ĠC a
ĠO s
ĠVer walt
os p
Ġvor nehmen
Ġvor gesehen
wei ÃŁ
zu legen
ad or
Ġre alist
rin zip
Ġkl ingst
fÃ¼ llung
richt er
ĠWei bern
ĠLie der
qu et
Ġbesch wer
Ã¤m pfung
Ġgest Ã¶rt
Ġbew ahrt
pro vis
Ġ19 99
ĠQu iz
sk y
ĠWor k
ath ie
ĠJer sey
ĠCl ass
ĠAll m
ĠAd m
ĠReise pass
Ġgl Ã¤nzen
ĠChar ter
ĠVerein ten
Ġaufge zeichnet
Ġzahl reiche
ĠDem onstr
han a
ĠtÃ¤ gliche
ĠHel m
ĠJos h
Ġfin ster
Ġbedeuten d
ĠKÃ¶nigreich s
He utzutage
Ġand auern
ĠNar ben
ĠMad ame
ĠPhys iker
ĠhÃ¼bsch es
ĠJord ans
arch ie
Ġschul den
Ġverder bt
ĠCor por
ĠeuropÃ¤ ische
ĠMeg a
Ġrespekt ieren
Gesch Ã¤ft
ĠCamp us
Ġpfl anz
ĠMahl zeiten
ĠErkrank ung
Ġdeaktiv ieren
ĠVerwand ten
Ġafrikan ischen
ĠKandid aten
ĠRum Ã¤n
Ġbeglei tet
ĠDunk eln
Ġkult urelle
Ġatem berauben
8 9
H en
K arte
L ernen
M I
W usste
b em
b recher
h ann
l isten
o fer
r uss
er ing
Ġs yn
ĠS af
Ġun iverse
Ġk och
ĠM ol
Ã¶ schen
et ische
ĠK asten
Ġin tellekt
ĠF aust
ĠD raht
ĠP ers
ĠP ollen
ĠP otter
ĠL il
ĠL ong
ĠL Ã¤mmer
ĠL aune
Ġan ger
um rechung
ĠZ eilen
ĠAn ker
ĠAn wender
ist ischer
eigen en
iz ierten
Ġgef Ã¤l
ak im
war en
Ġgem essen
ĠEs au
ĠAb imelech
ĠVor schlÃ¤ge
Ġmus lim
ĠMar io
Ġwahr nehmen
ĠÃľber setz
Ġeinz unehmen
ĠAut omat
Ã¶t ter
unter richt
Ġleben sl
br ett
ĠProdu ktivitÃ¤t
ĠRo uter
gl Ã¤ub
ĠDat a
ĠFor ce
ĠSchu ppen
Sp aren
ĠLiefer ungen
ĠMet apher
Ġzer schlagen
ĠBro oklyn
ĠSpe zi
Ġreich e
ĠWirtschaft sw
Ġanz Ã¼nden
ĠKal orien
ĠPort al
ĠErd boden
gren ze
ĠBall on
Ġbill igsten
ussen dlich
ĠCook ie
ĠOl iver
spr ich
ĠInvest oren
pfl anzt
Ġbemerken swert
ask us
Ġberuh igt
ĠWechselkurs umrechnung
Ex press
opt ion
techn ologie
Ġruf st
ĠSens oren
ĠStoff wechsel
ĠGentl eman
Ġwinz igen
ces so
kat alog
fell os
Ġverkauf te
ĠKÃ¼r ze
ĠVerpack ung
fir ma
cript ion
ĠTreibst off
G ab
K at
Z udem
h ut
k rÃ¶
p aar
p ersonen
v iele
Ġd on
Ġs inken
ei fe
ĠS echs
te am
on i
on ik
Ġb ild
ĠM amm
ĠM ah
ĠK aren
ĠK rim
ĠF itz
Ġver laufen
sen z
Ġl es
Ġauf hÃ¶rt
ro it
Ġmit machen
ĠV eter
ut te
Ġsch Ã¼chtern
ind el
Ġt alent
and le
Ġaus ser
Ġaus ruhen
om s
ot ische
ĠAn schlag
ĠSp annung
sp eicher
stell ungs
Ġent z
bl icken
Ġgen ossen
ĠEin zahlungen
Der zeit
ĠGr enz
ĠAl aska
ĠSchl age
mer k
Ġhei rate
Ġbesser er
Ġgleich wie
ĠUnter lagen
ĠUnter wasser
Ġwahr er
Ġgest oÃŁen
ĠUm geb
reiben de
opf ert
Ġ19 80
Ġbeh Ã¤lt
ĠmÃ¶glich st
Ġbesten s
ĠSu ite
ĠMensch lichkeit
ĠTele kommunikation
we lle
ĠSam s
ĠBesch Ã¤ft
CH T
ĠgrÃ¶ÃŁer es
ĠTh un
je kten
ĠFern bed
bie tern
Ġsozi aler
ĠDeut sche
Ġaktiv en
Ġschwier igen
Ġne ws
sh all
ĠJack son
Ġverdammt es
Ġanz unehmen
kam er
bew usstsein
ĠNahr ungsmittel
ĠEhe frau
ĠPsych ologie
ĠGu mm
Dad dy
Zie hen
Ġaufgeh alten
ĠFÃ¼hrer schein
Ġauss ah
ĠSalz burg
Ġindivid uellen
ĠAnge stellten
ĠAlb um
ĠgewÃ¼n scht
Ġabl ehnen
ĠTy ler
ĠJas on
On line
ĠKra w
ĠtÃ¤u schen
Ġgeschn appt
Ġerwe cken
ĠUmlauf bahn
ĠPremier minister
ĠUngar n
ĠZedek ia
Ãª s
ĠSatur n
G uck
M us
c am
l och
l Ã¤uf
r enn
u be
u Ãªs
z ieren
ie st
Ġun recht
Ġun hÃ¶
Ġh om
Ġn ull
ir gt
Ġzu gest
Ġzu grunde
ĠK el
ĠF rag
ĠE go
ĠP ent
ÃŁ end
Ġver prÃ¼
ĠR iver
Ġt raten
Ġbe Ã¤ngst
ĠZ eig
ĠSch reiber
Ġp ack
ĠAn stieg
ik um
ff el
ĠPro st
ĠEr ziehung
ru he
ru ckt
fÃ¼ t
Ġbes iegt
im in
ver se
ĠAl pt
ster i
Ã¤hl er
ĠAb ram
Ã¤u scht
ĠEnt steh
Ġob jekt
Ġ4 1
ĠMar ine
ĠSo fort
ĠSo urce
ĠNach haltigkeit
Ġbesch rÃ¤nkt
Dies mal
ĠRei s
Ġinter nen
ĠBr enn
ac ebook
ĠHerr scher
Ġkomp atibel
Ġgek annt
ĠGl anz
ĠAmer ica
Ġzerst reut
ĠPer iode
ohlen e
ĠHaar es
Geh st
ĠTrÃ¤ ger
ĠSonnen licht
ĠWeib chen
Ġanf Ã¤ngt
schlÃ¤ gt
ĠIr rt
abr iken
ĠÃľberleben den
frei heit
Bes uchen
ĠDam askus
ĠCom ics
ĠVamp ire
freund lich
Ġfrem d
ĠFle ck
Ġse par
ĠTabl et
ĠSchlimm es
ĠHu hn
ĠSche ck
ÃľberprÃ¼ fen
ĠGei seln
Ġaufget aucht
Ġdire kten
ĠberÃ¼ck sichtigen
Ġspann end
Ġunterr ichtet
Arch iv
ĠwuÃŁ te
ĠVag ina
ĠPazif ik
Ġprodu ktiv
Jes us
æĸ ĩ
C as
F al
U P
f a
g ei
h Ã¤
r ump
Ã ¨
Å ¡
Ġ í
Ġs ite
ein kommen
an ia
Ġg riech
Ã¤ hen
ĠM T
ĠB Ã¼nd
ĠG ates
ĠK Ã¼n
ĠK ri
ĠK Ã¼nst
ĠD E
ĠD einen
och at
Ġbe te
Ġaus suchen
Ġab gew
ĠAn rei
ff in
ĠIn spe
ĠPro Natura
Ġman uell
ĠEr r
und drei
ank a
Ġre flekt
Ġent hÃ¼
ĠRe kord
Ġe p
Ġe volution
Ġe ffizient
rach ter
Ġgef asst
ĠHer unterladen
ĠGott lose
Ġgel be
ĠHand lung
ĠArt ikeln
ĠJa ke
ĠProblem s
ĠSchw imm
ĠKl ug
ĠWeg es
ĠWasser stoff
An d
Ġschw Ã¶ren
pro be
ĠBr em
ĠKan inchen
rat zen
ĠPart nern
ĠÃ¼ blich
ĠFol ie
ĠFol ter
Ġ0 8
Hat ten
Ġentsch eidet
ĠComputer s
etter t
ĠPf eile
stehen den
Ste h
ĠpersÃ¶n licher
ĠBest Ã¤tigung
ĠgefÃ¤hr det
ĠProf i
ĠTem po
AR T
Seit dem
Ġtrau e
ĠSa iten
kÃ¼n digt
Ġerstaun lichen
ĠAk k
ĠTÃ¶ ten
ĠBÃ¤ cker
ĠEt ik
Ã¤rm ung
ĠNerv ens
ĠBud apest
ĠPaar e
Ġaufgeh oben
Ġseg nen
Ã¼nd ige
ĠBedÃ¼rf nis
ĠCharakter e
far ben
ĠVerbesser ungen
ĠFle derm
ĠKompl iment
ĠBehand lungs
ĠBatter ien
ĠdÃ¼n n
ĠLegen de
Ġfrie dlich
Ġrelev ant
usse ll
ĠHolm es
ĠKonz ert
Zw ischen
ĠverÃ¤r gert
ĠTrack ing
ĠVirgin ia
ĠDaf Ã¼r
F Ã¼hren
G emein
M C
d rÃ¼ckt
h ar
h at
k unden
s ign
Ġ achte
ĠS av
ĠS ime
ll ten
ar men
Ġb reite
al i
Ġzu einander
et ica
eh em
ĠF und
ĠP anzer
ĠT ap
ĠL en
Ġan legen
Ġan gesichts
ĠR ate
ut s
Ġsch Ã¤tzt
ĠSch alter
ĠSch Ã¤den
Ġall t
il dete
ill ionen
Ġp fle
ĠO fer
Ġst arr
ort s
ĠAr gent
bl en
iz ierte
Ġ3 44
Ã¼t tet
Ġzwei hundert
Ġget rost
ĠLie ben
Ġgeb issen
Ġgleich er
Ġweg zu
Ġweg laufen
ib r
av ig
Ġbesch euert
atÃ¼r liche
ĠEl ite
gew ohn
Ġ& #
gl inge
ĠSh ows
ĠBuch ungssystem
Ġgute m
sk raft
ĠSu mmen
ĠAt tent
LU S
ĠWissenschaft lern
Ġhe bt
ĠChr isten
ĠgroÃŁart iger
ĠOb ama
Ġne utr
ĠTransp osh
ĠAs so
ĠtrÃ¤ um
ĠSonnen untergang
ĠZÃ¤ hnen
ĠSchm ach
Ġvern ichtet
Ġerl Ã¶st
ĠVersand kosten
ĠTim ing
ĠjÃ¼n gsten
Ġor ient
Se c
Ġrepar iert
Ġabgesch nitten
Ġgeist igen
ĠMaj or
ĠKurz em
ĠEv angel
Ġspezif ische
ĠbefÃ¼r chte
ĠtrÃ¶ sten
ĠPur pur
ĠHypot hek
Zus Ã¤tzlich
ĠRegist erkarte
ä¸Ń æĸĩ
8 5
A gent
F orm
H E
M ail
P rin
R o
b Ã¼
b ungen
d card
f ehler
f Ã¤llig
j ob
v ort
v ester
Ġ <
Ġ Ã¤hm
Ġ Ã¤ltesten
in son
ie ger
Ġw ilde
Ġm ent
Ġm ieten
Ġg Ã¶t
Ġein geschlossen
Ġein kaufen
on ent
ar us
hr te
ĠA DS
ĠG Ã¤n
ĠG uar
ĠW Ã¶l
ĠW urm
ĠH ag
ĠH il
ĠL ampe
ig o
Ġl ink
Ġsch einst
Ġge eig
Ġge opfert
ĠJ ub
ĠSch reck
Ġab halten
Ġum drehen
om aten
ĠVer gessen
ist ern
Ã¤t test
Er ste
ĠEr stes
ĠAr ena
ĠUn begren
Ġkl ang
Ġdurch gehen
im um
Ġweiter zu
ĠSchl uck
ats on
ĠKon struktion
Ġben annt
ĠMin der
Ã¤h lich
ĠVers ehen
ĠKomm st
Ã¶s ser
ac y
ĠtÃ¶ dlich
Ġde press
ĠInst itute
ĠhÃ¶ flich
ĠJer ich
ĠEm ulator
ipp t
Ġnorm aler
ĠBesch werden
Kl eine
Ġfl ach
ĠEd die
ĠProt on
Ġsamm elt
ĠJe den
wind igkeiten
Ġbas ieren
ĠBot schafter
ĠRegen wald
Ġpriv at
ux e
Ġzun ichte
ĠOze ane
spe zif
Ġausl Ã¶sen
Ġschaff te
Ġgekl appt
Ġindivid uelle
Ġintegr iert
Ġkompliz ierte
ĠMolekÃ¼ l
GlÃ¼ck licherweise
Ġpre digen
Ġmanip ulieren
Techn ische
ĠJust iz
eucht igkeit
ĠCart oon
Ġkonfigur ieren
Ġdiagnost iziert
Ġloszu werden
Ġarab ischen
Pap a
inu ier
ĠFried hof
ĠRout ine
ĠLoy alitÃ¤t
Stick erei
F A
L etzten
M el
M Ã¼ssen
P rÃ¼
P Li
T ele
g eist
h auen
i fte
k ins
l an
p os
s uche
w ellen
Ġw endet
un ion
an bul
ĠS ab
ĠS etz
ĠS ave
Ġein her
Ġk alte
em onie
ĠW achen
ĠH ay
ĠF eigen
ĠD ort
ĠL ampen
Ġver Ã¤nder
Ġan rÃ¼
Ġan sprechen
Ġl erne
Ġl etztlich
Ġmit bringen
Ġsch alten
Ġge jagt
ĠN ag
ĠSch Ã¼sse
Ġab brechen
Ġuns rer
ĠVer wir
ĠVer stehen
ĠVer giss
Ġsp ekt
Ġnach sehen
ĠSp rechen
sp anne
ĠBe vor
ick et
ĠUn ger
Ġent setz
rin a
Ġunter einander
Ġunter brechen
Ã¼n det
ger te
Ġber echnet
Ġvers aut
Ġvers Ã¶hnen
Sch wer
ĠHand werk
ĠVor hang
schl afen
ĠSchw elle
ĠMar cus
ĠGer man
ib a
ĠWer kst
Ã¤m t
ĠUm setzung
ĠschÃ¶n ste
pl ant
Ġraus kommen
ĠRo te
ĠSte phen
ĠPh antom
ĠMed ium
isten ten
ĠGro ÃŁer
alte te
werk raft
ĠMail and
Ġbel ogen
ĠSta ates
err t
gem Ã¤ÃŁ
ĠSam ar
ĠSk ala
ain er
voll es
Ġreg net
th on
ĠSpe cial
Ġ13 0
Ġstark es
ĠKr iterien
ĠGeheim dienst
ĠChe ats
ĠHoff nungen
ĠFamilien mitglie
ĠJe an
ĠStre am
ĠNord amerika
oo le
ĠSan kt
ĠLad ung
ĠJul ian
AS S
ĠAir port
ĠKÃ¤ fer
ĠTrain ings
aktiv itÃ¤t
Ġverschl Ã¼sselt
ĠDis ney
Ġposit iven
ĠGefangen e
ĠHall uzin
ĠStaats anwalt
ĠrÃ¼ hmen
Ġide ale
Ġschme cken
ĠÃ¼bersch reiten
ĠKlassen zimmer
ĠZwischen zeit
Vert rau
ĠHu sten
Brau chen
ĠRi olis
Ġjeweil igen
Ġserv iert
ĠFestpl atten
Ġlangfrist ige
Ġbeschleun igen
ĠKell ner
ĠKid s
Ġexper iment
ĠTenn is
Ġimpl ement
stitut ion
ĠSurf shark
ĠNob el
vermiet ungen
Î½ Î
ĠWerbet reibende
ĠEntsteh ung
B ox
O ft
f tet
k lichen
l Ã¤uft
m ehl
m aster
o tel
p at
z ern
Ġw andelt
an fall
as ha
ĠS eht
ĠS ven
al ie
at her
ĠM A
ĠM is
eh nung
eh lung
Ġin tu
ĠP and
ĠP ad
ĠL Ã¼
ĠL ar
ĠL amm
ĠL unge
Ġver he
ĠJ och
ĠSch Ã¼tzen
ĠC entral
Ġab ends
Ġdem onstr
Es sen
Ġsp ielten
Ġr Ã¶
ĠEr klÃ¤r
sp uren
stell bar
ick s
Ġdar ein
men gen
ĠRe vier
ĠEin sicht
lo yd
ĠAl i
ĠFl oren
ĠSo ft
aden d
ĠReg ime
olog ischer
ĠEx c
ĠLe ck
ĠLebens qualitÃ¤t
Ġakt ive
Ġwenig sten
ĠKre aturen
ĠDr itten
co id
erk rank
ĠMet ern
ipp er
ĠEurop e
itter t
ĠMag gie
ĠOrganis mus
ĠGleich ung
eth ode
ĠMot oren
Ġries ig
Ġries iges
ĠgrÃ¼n dlich
ĠRÃ¼cken mark
ĠSicht weise
ĠFinanz ierung
ĠInstitut ion
Kosten loses
ĠInnov ationen
ĠKons um
Ġreligi Ã¶sen
ĠBestand teil
Ġqual itativ
Ġvorzu bereiten
ĠTatt oos
Ġwiederher stellen
Ġsan ft
Ġdetaill ierte
ĠIron ie
ĠVerab redung
ĠTelesk op
ĠEleas ar
Bahn reisen
ĠVall ey
ĠValentin stag
ĠÃľbereinst immung
4 00
A ir
A chtung
F indest
F reut
M usst
U B
j Ã¤ger
l Ã¤nd
m b
m Ã¤r
u ay
w is
Â ·
ir men
Ġk rÃ¤
el zen
Ġ- )
Ġf ix
ĠB R
ĠB ut
ĠG ig
ĠK ollege
ĠF ond
ĠD Ã¤n
ĠT anzen
ut ung
le pp
ĠN E
ĠSch werkraft
ĠSt ipend
Ġum kehren
Ġp erson
Ġsp ont
Ġgeh eiligt
ĠSp am
ĠBe vÃ¶lker
rin nen
Ġwieder zusehen
Ġam p
ap fen
Ġzwei ter
ges undheit
ĠDu bai
Ġgem alt
Ġgel angt
form ular
ĠKl ingt
ichte ten
ĠÃľber blick
br iken
ĠGrund lagen
ĠtÃ¶ teten
Ġwichtig es
Ġverm uten
ief st
ĠMein st
ĠRes iden
Be w
ĠCl ay
fang s
ile am
Ġste ckst
ĠMiss verstÃ¤ndnis
Gen er
sie hst
Ġhal bes
Ġch arm
ĠKomp rom
Ġanzu fangen
ĠgefÃ¤hr lichen
ĠTre ffer
Ġversp rach
ĠDem o
Ġsamm elte
ĠProzess or
omb ies
ĠAfr ikas
Ġansch aut
ĠFe en
Ġantwor tet
ĠDet roit
liegen den
organis ationen
ĠAuft rÃ¤ge
ĠSÃ¼d amerika
Ġlag ern
Ġschick ten
ĠjÃ¤hr igen
Ġausger ichtet
ĠBat man
Ne ws
Ġverwende te
ĠBeruf s
ĠSher lock
ĠKonfl ikte
ĠVerschw inden
ĠKÃ¤m pfe
Ġversamm eln
ĠRebe llen
Ġabsol ute
ĠverstÃ¤nd lich
Ġschmerz haft
Woll te
ypr VPN
ĠunhÃ¶ flich
6 00
A B
A ss
A bs
H eiÃŁt
I NG
M Ã¤dchen
b ier
d ite
f achen
h art
o h
y en
× ¨
Ġw essen
un fall
Ġv ia
Ġb ar
em i
Ġf rucht
eh er
ĠH ipp
ĠD urst
Ġge dreht
ĠN er
Ġbe ab
ol as
ĠSch ale
ĠSch Ã¤fer
Ġaus geschlossen
ĠC ow
Ġum kommen
ot zt
ĠVer handlungen
os se
Ġhier bei
Er n
ĠEr l
ĠSp ann
ĠSp innen
ĠBe zahlung
ru ft
he adend
imm ons
ĠU ser
og etica
ungs fÃ¤h
ĠMenschen rechte
Ġgef ickt
id ay
auf bau
ont o
Ġget reten
Sch aut
Ġgel ingt
ĠKl avier
ĠBo y
Ġeinz eln
ĠNe der
pro jekt
ĠLe o
mit ten
ĠPh one
Ġbeh alte
alis ierten
fel der
Ġbel eidigen
Ġfolgen der
ĠLiefer gebiete
Ã¶hn t
Ġanzu zeigen
ĠBas an
ĠBi om
hol m
ĠsÃ¼ ÃŁe
ĠÃĦr ztin
ĠSÃ¼n der
ĠLa ÃŁt
ĠDir e
ĠMat ch
ĠSuper markt
Ġhervor ragend
ĠmuÃŁ te
ĠfÃ¼rchte te
Pl us
ĠAc cesso
ĠEing abe
Ġfinanz iert
Ġerfor scht
ĠBal ance
Ġschlie f
Ġor igin
Ġkre ative
ĠUntern ehm
ĠVerteid igungs
cl ub
Offen sichtlich
Ġangew iesen
ĠPortug uÃªs
Ã§ e
ĠZahlungs vorgangs
Ġvertil gt
Ġzut iefst
Ġbenutz ten
ĠHÃ¼hn chen
ĠreprÃ¤sent iert
Daten schutz
ĠSabb at
ĠIndik ator
Ġultim ative
Ext ra
Ġsym bol
Ġbefre undet
ĠConne ct
ĠBrieft asche
B ro
J er
K n
d own
k rÃ¤
k ultur
r ut
è ª
Ġ Ã¤
Ġ Ã¤lte
Ĺ ¥
ļ ÐĲ
ľ ¬
Ġd el
Ġs k
ĠS co
au ze
ir urg
Ġz unehmen
at schen
at men
Ġk Ã¼nft
or p
em m
ĠM ami
ĠA re
ĠA mal
ĠB uck
ĠB rÃ¼cken
ĠG or
ĠG am
ĠG lo
ĠG asse
ĠF rÃ¶
ĠL ook
Ġver lo
Ġauf bew
us k
Ġsch rieben
Ġt Ã¶r
ĠSch irm
ĠSch ritten
fen ster
ahr ung
rau ben
ĠO dem
ĠO pa
be te
ĠAn liegen
ĠIn halten
ohn ern
ver arbeitung
ver waltung
ay er
schaft s
ĠzurÃ¼ck geben
ĠCh ips
Ġgesch nitten
ĠTag s
ĠAu ktion
itt y
dem Ã¼t
ĠKl ass
ĠIs ma
ĠAuf stieg
ĠMar ok
ĠMar gar
Ġweg gefÃ¼hrt
qu al
Ġho hes
gew ebe
Ã¤lt in
ĠSpiel chen
Ġinter akt
Ġ19 60
St eig
ĠÃ¼ bliche
ĠBlut gef
ikan ische
Ġoffen sicht
ĠRaum fahrt
Be weg
ĠLicht s
ĠUr heber
Ġste ckte
Hotel s
ĠLeu cht
Ste ht
ĠBro dy
Ent sp
CH EN
Ġsechs hundert
beh andlung
ĠErgeb nissen
ante e
ĠProf it
ĠProf ession
ĠCas inos
Ã¼lt ig
ĠDesign s
ĠPal Ã¤st
ĠWieder herstellung
ĠKo operation
ĠIt aliano
ĠErfolg s
Ġerstaun t
Ġweh getan
ĠTÃ¶ chtern
ĠGra vit
ĠHel en
ĠHochzeit s
klus iv
ĠKÃ¶ pfen
Ġkor ru
ĠÃľberrasch ungen
Sh op
ĠschlÃ¤ fst
ĠRay mond
Ġfrem de
ĠFro mmen
Ġignor iert
ĠVoraus setzung
ĠMitt woch
ĠEntdeck ungen
Ġruin ieren
ĠChir urg
ĠRoll stuhl
ĠSet up
Ġplatz ieren
Beg innen
Ġverar schen
Ġintens iv
leib igkeit
Chin a
Ðĺ ÐĴÐ
ĠGN U
Ġdep rim
Aug ust
Ġspekt akul
coid osis
F ar
H and
J ames
P ol
S aul
T ot
T eil
T eile
e e
j ung
n o
n ames
s ache
Ð ł
Ù Ĭ
st Ã¶
st chen
Ġw eb
Ġs Ã¼ndigen
Ġm ikro
ĠS age
Ã¼ h
Ã¼ ger
Ġun gest
te k
Ġh ack
Ġn ass
Ġn eig
Ġn Ã¤hern
Ġg igant
ĠM P
ĠB re
ĠB ug
ĠB reakfast
ĠG hana
ĠW Ã¼sten
ĠK enntnisse
ĠK ammern
ur d
ĠT rotz
ÃŁ ert
Ġl a
Ġl enken
am erikan
am otten
le d
ind ungs
Ġt raum
Ġbe folgen
ĠSt roh
Ġaus fÃ¼hr
ĠC T
ĠC hen
ĠC amb
Ġp rim
be cken
Ġr en
ul ierung
uch sen
bl er
heit s
Ġunter halb
Ġgro sse
ges agt
Sch war
Ġgel ungen
fahr e
dig ungen
ĠGer Ã¼cht
Ġpro biert
ĠKon go
Ġbet reibt
ĠEx em
ĠRei set
ehl ungen
ĠVerb rauch
Ġbef ahl
ĠCo uch
son s
Auf grund
Ġde cken
gie ÃŁen
Ġ0 7
fin anz
Ġhal fen
ĠAmer ikas
ĠHa ie
Ġak adem
kur sen
Ġtechn isch
ĠSonnen auf
Ġansch lieÃŁend
ĠErk enntnisse
ĠNutz ern
ĠTerr itor
ĠHel fer
prÃ¤ gt
ĠprÃ¤ z
Ġsauber e
ĠHy b
ĠWider s
ĠTau ben
Ġgewalt tÃ¤t
ĠMathemat iker
ĠOff ice
ĠWel cher
Ġnirgend s
Ġemotion al
ĠJerem y
ĠvorÃ¼ber gehen
Ġhistor ische
Ġengl ischen
Ġelektr ischen
Ġklass ischen
ĠRh yt
ĠLaw rence
Ġausgesch altet
gehÃ¶r igen
Ġerleicht ert
Ġgenehm igt
Ġdienst leistungen
ĠPuzz le
ĠKrankenschw ester
Lin ux
ĠMultip lex
Cop yright
ĠFernbed ienung
èª ŀ
A pril
F rau
I ER
L auf
M att
P ar
T ed
b ird
i ften
n uss
p ten
r it
¨ ÐĺÐĴÐ
æ ľ¬
au x
Ã¼ tet
Ġb Ã¼r
Ġb reiten
Ġk an
Ġk alten
der ungen
Ġf ind
Ġf okuss
ĠG lied
eh mlich
ĠW atson
ĠH ug
ĠF I
ĠF ashion
Ġver Ã¤ngst
Ġge demÃ¼t
ĠN ed
ĠZ eile
ĠSch ilde
ĠSch affung
ĠÃ¼ber zeu
be am
.. ..
Ġhier fÃ¼r
Ġ... ?
ĠPro v
ĠPro gn
Ġgeh andelt
aus fall
imm e
Ġviel ver
fach e
fe cht
ay lor
Ġgeht s
pf te
ech ter
Ã¼t ten
ĠFl ur
fl ung
Ġgel ingen
schl Ã¼sse
ĠDe ep
Ġgeb ucht
ĠGeld es
ĠArbeit geber
pro bieren
schieden e
zent ren
wa ii
St eigen
io us
ĠQu inn
Ġfol ge
ĠHÃ¶ ch
ĠBeh aupt
ĠSatelliten betreiber
ĠSk i
tem peratur
Ġ+ +
ĠNot izen
ĠBu ff
ĠFin anzen
ĠGebÃ¤u des
Ġaufzu geben
hol t
ĠService gebÃ¼hren
kon g
ĠKor re
ĠÃ¼bert rieben
bau ten
ĠJe de
ĠAch se
Ġkn acken
gren zen
ĠgrÃ¼n dete
Ġrie fen
deck ung
Ġregel mÃ¤ÃŁigen
ĠBal ken
ĠSchlag z
ĠKein er
ĠursprÃ¼n gliche
ĠAnder en
ĠAbl Ã¤uft
Ġsinn voll
Ġzentr alen
Ġzweit es
ĠlÃ¼ gst
ĠgewÃ¼n schten
con om
ĠPy ram
ĠSchÃ¶ pfung
Ġmy steri
Ġprogramm iert
ĠBehinder ung
ynt het
ĠSubst anz
Ġhochwert ige
Ġunges Ã¤u
Char lie
«Ð ¨ÐĺÐĴÐ
Ġeinzus etzen
ĠPore c
Ġarg ument
ĠMardoch ai
«Ð¨ÐĺÐĴÐ ļÐĲ
H ar
L hr
L Ã¤nder
N ennen
O W
S D
T rink
T RA
Z ul
b ot
f ische
f ine
g ingen
t ra
w al
Ã ł
Ġ ten
an ja
Ã¼ mm
Ġun aus
Ġun ster
Ġh Ã¤rter
Ġau th
ĠA B
ĠA ro
et o
et ime
Ġf asse
ĠB rau
ĠW einen
ge wei
ĠF racht
ur l
ur ne
Ġver sen
Ġan kommt
re gen
ĠR ud
ĠR achel
le chter
ehr er
ent halben
ik i
Ġr ings
Ġgeh ackt
ru der
ĠU hren
Ã¤r men
ug el
ĠBl ue
Ġbes prochen
rÃ¤ te
ht hal
ĠFre ak
ĠFl otte
ĠWei tere
ĠSchw ieger
Ġ4 6
ĠUnter wÃ¤sche
ĠZu versicht
ite map
ĠKon vert
Ġdachte st
ĠGel b
Ġinter pret
ĠLe x
ĠVers agen
up ons
ĠLi ber
Ġkurz frist
ĠEm ir
Ġung ern
Ġbesonder es
lin es
Ġmensch lich
ĠInd ianer
Ã¶hn ung
Ġgemein nÃ¼tz
eten z
ÃĦ hm
ĠSek ret
Ġversch oben
ĠOb dach
ĠVerein igte
Ġaufge fÃ¼hrt
Ġentscheiden de
ĠSchm etter
Ġober sten
ĠMikro fon
seh er
Wor an
Wor um
ĠWider spruch
OM E
ĠAlex ander
ĠRÃ¤ der
freund liche
Ġschlau er
Dir ekt
ĠLaptop s
Ġintelligen te
ĠBlÃ¶ ÃŁe
Ġangesch aut
Ġtrain iert
Ã¶ffentlich te
ĠUni form
ĠKoffer raum
ĠGlob al
ĠSchach tel
Ġwe cken
Ġmoral ische
Ġjens eit
Chr is
ĠKrypt ow
oler anz
ĠPrÃ¼f ungen
ĠPerform ance
ĠBuchungs gebÃ¼hren
ĠTrank opfer
ĠVerzwei flung
ĠZirk us
ĠVerwalt ungs
ĠJerich o
×¨ ×
Ĺ¥ æľ¬
ĠgedemÃ¼t igt
B i
C ard
F ort
G ehe
L ange
M ad
O l
P aul
S omit
T ra
U p
a ÃŁen
g asse
r ien
ķ ľ
Ġm ed
Ġm ater
ĠS agt
ĠS ucht
Ġh auen
Ġn etten
ir r
Ġein genommen
Ġein binden
ĠM ache
ĠM echan
ĠB uchen
ĠG Ã¤rten
ĠW Ã¤sche
ĠK ick
ĠK rak
ur es
ĠE ast
ĠT rin
ĠL eb
ĠL Ã¼cke
Ġsie bzig
Ġso eben
ĠR E
ĠR ele
Un glaublich
Ġt ier
Ġaus geht
ĠC H
ĠVer folgung
ĠSp recher
ick ets
bl es
Ġhin gegen
ĠWelt all
ĠPl atte
Ġvers etzen
Ġvers ichern
ĠAus fÃ¼hrung
ĠAus bruch
ĠAb hÃ¤ng
schie ÃŁen
Ġverst orben
gesch nitten
Ġgest Ã¼rzt
pl attform
Ġerst mals
ĠwÃ¤hr et
gl as
ĠEur em
ĠFil men
ĠBÃ¼r os
Ġ200 1
KÃ¶n nt
ĠRu fen
ĠInternet s
ĠTh or
ĠFunktion alitÃ¤t
ĠKÃ¼ he
ĠKr ab
ĠPriv ileg
ĠsÃ¼ chtig
Ġglob al
ĠVerd Ã¤chtigen
ĠUp grade
ĠTal iban
ĠKrÃ¤ ften
ĠTrans formation
ĠSoll te
ĠGol den
Ġopt ion
Ġgehor cht
ĠVit am
ĠSat an
ĠReview s
Ġdauer haft
Ġunbegren zte
Ġlog isch
ĠTabl etten
Ġneg ative
ĠFremd ling
ĠInterview s
Ġpoten t
ĠErmitt lung
ĠAtlant a
ĠChamp agner
ĠDist anz
ĠkÃ¶st lich
ĠtÃ¤t ig
ĠauslÃ¤nd ischen
Ġunf air
ĠberÃ¼ck sichtigt
Î» Î
ĠJahrh underten
ĠFris ur
ĠGere chte
gÃ¤ng ig
GrÃ¶ ÃŁe
Ã¼nkt lich
Ġgrundle gend
ķľ ê
A A
A k
M W
M itt
M ike
N T
S l
V alamar
W Ã¤hrungs
c an
g nung
m Ã¤chtig
Ļ ×
er w
Ġd euten
in sel
ĠS ri
ĠS dcard
au gen
Ġun klar
Ġh aut
gen e
em ark
Ġf Ã¼ttern
ĠW ale
ĠK ill
ĠK issen
ĠK han
ĠK Ã¤lte
ĠK OSTENLOS
ĠH Ã¤nd
ĠSie ger
ĠT ai
ĠL ach
Ġver le
Ġan getrieben
re el
ĠR aj
ĠV ia
ag a
ĠJ eb
ĠZ ucht
Ġhat tet
Ġall enthalben
ĠSt abilitÃ¤t
il enz
Ġaus zur
Ġaus steigen
ent ieren
os op
Ġst unden
Ġst inkt
ĠAn passung
Ġvor genommen
ĠEr schlagen
ĠAr ter
sp rot
Ġent l
Ã¤ch ern
pp er
art y
lie ben
im it
ĠHer berge
Ġger echnet
ges ellschaften
od ie
ĠAus sch
ĠVor bild
Ġverw ickelt
ĠSchl Ã¶sser
ĠAuf regung
ats App
ib ir
Ġverd r
ĠEl sa
pl Ã¤ne
cher ch
ĠBr ett
wend ungs
ĠSh ang
ĠHin zufÃ¼gen
get reten
Ġ9 00
ĠÃĸ kon
Ġgek n
ĠAll tag
Ġverh Ã¤lt
Ġverg iftet
Ġspr ingt
ĠMo sche
ĠGef Ã¤hr
des ign
oth am
ĠDen kst
ĠFrei gabe
iker in
Ġstatt findet
Ġentfern ten
ĠGar den
wÃ¼r digen
Ġvorher ige
Ġkom fort
ĠExp edition
ĠnÃ¼t zliche
ĠMart y
ĠFo und
ĠAutor itÃ¤t
Ġkre ativen
ĠauÃŁergewÃ¶hn liche
ĠgewÃ¼n schte
Ġhoff te
Ġspezif ischen
ĠkÃ¼nst liche
Ġungeh orsam
ĠOffiz ier
ize d
Ġunmittel bar
ĠPest ilenz
ĠRef und
ĠSof ia
ĠSpekt rum
ĠÃľberzeug ung
ĠVerpflicht ung
ĠKrit ik
Ġspir itu
ĠgeprÃ¼ ft
Ġgrus elig
ĠCherub im
ĠSkel ett
ĠNeurow issenschaft
Ġí ķľê
coidosis UK
7 2
K AU
L ust
S ar
U T
b il
f it
g ung
g ers
h u
h orn
l uft
m ische
r al
Ã ´
Î º
Ġ Ã¤ngst
st unden
st ufe
un er
Ġs ur
Ġs Ã¤m
es end
ĠS O
ĠS ho
ĠS aph
ĠS obald
ĠS orte
Ġh or
Ġg rad
Ġb Ã¶ses
Ã¤ ÃŁt
Ġzu gerichtet
el ement
Ġau ser
ĠA S
ĠA chtung
et ch
et ar
Ġf uer
ĠG all
ĠK aufen
ĠK enntnis
ĠF Ã¤r
ĠF aden
ĠF ull
ĠF emin
ĠT it
ĠT enden
Ġver rÃ¤t
Ġver schafft
is ierten
ĠSch lieÃŁ
ĠSch lieÃŁen
Ġum k
Ġum welt
iel s
Ġvor igen
Ã¶r er
Ã¶r te
Ġsp enden
ĠPro stat
ĠSp ider
ĠSp aren
ad ok
Ġdurch ziehen
Ġe kel
arb eitern
wer de
Ġgef ressen
Ġgef eiert
ges etz
ĠWei ss
ĠDie go
dig keit
Ġmus ikal
Ġbest rafen
zie le
Ġgeb Ã¤ren
Ġwahr schein
Ġdrei hundert
ĠUm w
Ġschnell sten
abe am
Ġbef ragen
ies isch
Ġverk ehrt
get eilt
ĠEntsch uldige
Ġ0 4
Ġpl Ã¶t
ĠBeh Ã¤lter
ĠNeu en
ĠPar as
Ġfr isst
ain t
Ġhe ftig
vers icherung
ĠGrÃ¼n dung
ĠPass ah
ĠEle ct
Ġerinner te
ĠWein berge
Au gen
Ġauszu fÃ¼hren
ĠMat rix
iver sen
verl etzung
ĠFe ste
Ġwachsen den
ĠWechsel kursen
ĠWÃ¼r den
Ġverlie ben
ĠReich en
Ġbein halten
ĠIr land
ĠProduktion s
ĠKil o
ĠFett leibigkeit
ĠMuse en
fil ter
ĠEisen bahn
ĠEinkommen s
ĠEigent Ã¼mer
ĠRepu bl
ĠBack up
Offen bar
Ġstimm te
ĠDenk weise
Ġgekl Ã¤rt
spar ungen
Ġdunk ler
Ġvirt uelle
Ġchem ischen
ĠZent imeter
Ġehemal ige
Geb urt
ĠGlÃ¼cks spiel
ĠauslÃ¤nd ische
Verschw inde
Em pf
ĠDipl omat
Ġermut igen
brÃ¼ che
Ġzehnt ausend
ĠAmate ur
ĠgÃ¤ng igen
ĠLebenser wartung
Ġæ Ĺ¥æľ¬
ĠbewÃ¤lt igen
Hen ry
ĠGuar antee
Ġauth ent
WÃ¤hrungs umrechung
M ai
N ick
N ett
O ut
O LI
h ams
o den
s an
y o
µ Ń
ì ĸ
au b
ĠM otto
ĠA V
Ġf lei
ĠB le
ĠW oll
ĠK odi
ĠF us
ĠE S
ĠP s
ĠP au
Ġver achtet
Ġan spruchs
Ġl eite
Ġl ud
Ġl ehrte
re gend
am as
Ġsch ieben
Ġsch eitern
Ġge denke
Ġt rÃ¼
ĠJ ab
Ġbe denken
ĠZ ehen
om be
iel te
Ġp u
ĠVer steck
Ġr at
ĠIn tu
sp fl
ĠBe at
Ġre cherch
so ftware
Ġkl Ã¼ger
her zig
ĠEin es
ri ce
eid igung
ĠAl iens
ĠDie bstahl
ran s
oren en
ĠKl ienten
zie he
Ġklein ste
ĠVater hÃ¤usern
Ġverd ienst
ĠNe apel
ĠStadt landschaft
ĠUm t
ĠRo ten
ĠBet re
ĠCo ol
urt eilung
ian ische
Ġ0 5
Ġverschw endet
ĠStud ierenden
ĠGef Ã¤llt
eiter t
Ġkont inuier
ĠIm port
ĠFrei en
Ġna ja
ĠKat alog
Ġfort schritt
ĠBel astung
Ġneben an
Ġneben bei
fre quenz
Ġauszu drÃ¼cken
ĠRat schlÃ¤ge
Ġschlimm e
Ġerfolg reichen
ĠFÃ¼hr ungsk
ĠMod ul
Ġamerikan ischer
ĠVerd au
bÃ¼r o
ĠJos aphat
ĠSchÃ¼ lern
ĠiP od
ĠDel fin
ĠItalien isch
Ġausgew Ã¤hlten
Ġwissenschaft lich
ilde ten
Ġbi ologischen
Ġregel mÃ¤ÃŁige
ĠKol umb
ĠTÃ¼rk Ã§e
ĠEinw ander
ĠWeiter lesen
Ġunbegren zten
ĠErf indungen
ĠVoraus setzungen
Ġintelligen t
ih u
Ġnutz los
ĠRoy ale
Ġneg ativen
ĠTab ak
ĠPy thon
ĠEuropÃ¤ ische
Ġauspro biert
Ġehemal igen
Ġfotograf iert
ĠKart off
ĠfranzÃ¶s ischen
ĠSchauspiel erin
Ġerober n
gespr Ã¤ch
ĠSprich wort
Kopf hÃ¶he
Ander erseits
Ġrechtfert igen
Ġversicher e
ĠAmal ek
C al
G E
G H
G ast
H A
J ane
S ich
S al
c omputer
f indung
k ret
m itt
p ackt
y rin
Â ¶
Î ¬
en gt
un s
ein s
ei dest
Ġm ies
ĠS etzen
Ġun ber
Ġh uman
Ġb aten
Ġf Ã¶rdert
ĠB E
ĠH Ã¤
ĠH arr
ĠH unt
ĠF rÃ¤
ĠF Ã¶der
ĠD est
ĠD ichter
ĠP ie
ĠP racht
ĠP ink
ĠT atsÃ¤chlich
ĠT ari
ĠL ann
ĠL arry
Ġver folg
Ġl i
Ġl acht
Ġl andet
ann y
ĠR unter
Ġge ehrt
le ucht
ĠZ ombies
ĠC onn
ĠÃ¼ber denken
ot herapie
Ġst Ã¶ÃŁt
Ġvor lesen
Ġsp rengen
Ġâ ľ
ĠEr forschung
ĠEr hÃ¶hung
ul son
Ġges pr
Ġbes org
ĠGes ang
ĠGes etzen
ĠCh ole
ĠDu ft
ĠEs c
Ġkon serv
ĠAb ner
ĠSchl immer
ĠSe an
Ġschl ag
ĠIs ol
achte ten
Ver standen
Ġzw ingt
ĠWer ken
ĠMit bewohner
ph ia
ĠMÃ¤dchen s
ĠBuch ungen
âĢ ļ
urt eile
ĠBes p
Ġbel ohnt
riff st
Ġste chen
Ġen ormen
Ġ16 0
ĠKunst werk
ĠProjekt s
ĠDurch messer
ĠProf is
low n
ĠLab yrin
ĠAlt Ã¤re
dit s
MÃ¶ ge
ĠRau schen
ĠSchiff s
Ġerforder lichen
ilf lich
Ġfehl te
ĠUk rain
Ġauft aucht
Ġautomat ische
ĠSim ulation
amer a
ĠBewusstsein s
ĠLauf werk
ĠSar g
ĠPil oten
ĠHi ob
ĠMc C
ĠHor izont
ĠBlei ben
umm i
For ce
ĠTyr us
ĠZeich nungen
Ġnachhalt ige
Ġstell st
Ã¶ch ent
ï¿½ ï¿½
Ġklin ischen
Ġtelefon ieren
ĠÃĸff nen
ĠmilitÃ¤r ische
Ġwid men
Lang sam
Ġtransport ieren
ĠGewohn heiten
ĠWa age
Ġaufricht ig
ĠFA Q
Ġzugest immt
ĠIrrt um
ĠReiset ipps
ìĸ ´
- -
8 6
8 7
B ra
G em
P opul
R om
d ungen
d ale
k und
o hnen
p rie
p hin
Ġ rate
st ro
as ern
ĠS ier
Ġn Ã¼tzt
on te
Ġb Ã¶ser
Ã¤ sch
Ġzu viel
Ġf arb
ĠG ame
ĠK olle
Ġin st
ĠH amm
ĠF abriken
ĠE IN
ĠP aten
ĠR iegel
Un gefÃ¤hr
Ġsch ar
Ġt oter
Ġt rop
Ġbe denkt
Ã¤n zt
Ġst ieÃŁ
ĠAn pass
Ġim portieren
ist ers
Ġr ation
Ġnach denkt
ĠEr sten
ĠEr gÃ¤nz
ĠBe cken
ĠBe arbeitung
Ġges perrt
Ġet h
art iges
Ġe v
Ġgef orm
Ġgef ehlt
ĠAb u
Ġgel ben
form ieren
Ġverw andt
ĠKl amotten
ĠAuf wand
ĠHotel buch
ĠÃĦ qu
Ġzie m
ĠKon zepte
Ġgest attet
Ġraus gehen
Ġbeh ilflich
ĠWo od
wa ff
ĠtÃ¶ test
ĠLebens raum
esser t
ĠAm b
ĠÃ¼ blichen
Ġfest zustellen
ĠKn arre
Ġausge zogen
ĠRu cks
ĠTelefon nummern
Gen ug
ĠFr ise
ump e
Ġna ht
ĠOber flÃ¤chen
ĠOb wohl
Ġbestimmt es
ĠAs aph
ĠÃ¶ff nete
Ġreich lich
Ġbelie bten
MÃ¶ gen
19 9
Ġschau ten
ĠKlein es
ĠGra ce
ĠVersuch ung
ĠTro cken
Ġuntersch rieben
Ġuner wÃ¼n
ĠMad am
Mar y
Ġfinanz ieren
ĠInhalt sst
zut eilen
Ġseg nete
kr ise
Ġko ordin
Ġabh Ã¤ngen
Reg el
Ð¾ Ð
ĠerwÃ¼r gen
Ġreligi Ã¶se
Ġausb reiten
Ġversamm elten
Arb eiten
Ġausged acht
Ġvertil gen
Chr ist
ĠBor de
Ġkommerzie lle
Ġbeunruh igt
ĠWeihnacht smann
ĠJac ob
Ġkons um
Ġukrain ischen
ĠHig gs
Ġmissb raucht
oster on
MÃ¶glich erweise
Nov ember
Ġanzur ufen
http s
ĠRasp berry
Ġtem por
ĠVerder ben
ĠCup c
Ġinvol viert
ĠAccesso ires
ĠSonnenauf gang
Zul etzt
ĠFound ation
Ġíķľê µŃ
C ol
G rÃ¼
L ies
M il
M ont
M AN
b elt
i j
k ol
k ennung
l ehnen
m ein
p ot
p reise
u ÃŁer
Ø ¹
Ġd ringen
ie bt
Ġw andelte
un tern
Ã¼ ler
Ġn utze
ll y
Ġv Ã¶
Ġb Ã¶s
Ġk reu
Ġk athol
ĠA T
Ġf eu
ĠB eil
ĠK Ã¤tzchen
ĠF ra
ĠD inner
ĠE arth
ĠT ara
ĠT ausend
Ġauf heben
ĠR ande
ĠR yan
ĠSch em
ĠSt ri
Ã¼ber wachung
Ġum werfen
eg a
ĠAn at
ĠIn dex
iv itÃ¤t
eil te
ĠUn geh
Ġnie dlich
ke pt
Ġgew Ã¤hren
Ġgro ssen
ĠWelt bevÃ¶lkerung
Ġzwei tens
ĠGr ill
ĠAus strahlung
Sch icken
atz t
Ġbeg riffen
ĠSchw Ã¤chen
ĠGer ichte
Ġweg gehen
ĠGeb oten
ĠBo ard
Ġbek ehren
ĠAut h
ĠRo ad
Ġbeh er
Ġbef assen
ĠLebens dauer
if ic
urs ache
ĠSy d
ĠBÃ¼r gern
hung ern
Ġste cke
Ġersch reck
Ġen ge
ĠLuft waffe
Ġunbe w
ĠGef Ã¤ÃŁ
ĠGegen den
Ġch arakter
Ġblo ÃŁen
rech ungen
Gut schein
ĠBef rag
ĠHa waii
ĠHaar en
ifiz ierte
omat ische
ĠsÃ¼ dlich
ĠZwei ten
kon ferenz
ĠSchÃ¶n es
ĠPark s
Ġlau fe
ĠStandard wÃ¤hrung
ĠRau bt
ĠRad i
Pro f
ĠKir chen
ĠJes reel
ĠHÃ¶he punkt
ish ing
ĠAgent ur
Ġbez aubern
ĠNar be
bed arf
ĠProphe zei
ĠKop enhagen
ĠBrust krebs
sb onus
row ser
Ġaufgew acht
opt ionen
ĠNeue ste
ĠKapit alismus
ĠBeob acht
Ġengl ische
ĠSchle cht
ĠBehÃ¶r de
ĠSpezial isten
ĠHur erei
NÃ¤ch ster
ĠReh abeam
ĠVerk Ã¤ufer
Ġveran st
Ã¼ndig te
ĠQue en
Russ land
ĠIS O
ĠBrennst off
bran che
Ġbrut al
syl van
DV B
Ġbefrie digen
ĠSowjet union
ĠNeder lands
ĠUmt ausch
ĠíķľêµŃ ìĸ´
K T
K om
e ur
h Ã¤nge
k ram
× ĳ
Ġg eil
ar ien
ar ium
Ġz Ã¶gern
Ġzu g
sch ulen
ĠB ileam
ĠK is
ĠH ide
ĠD il
ĠE ck
ĠP ress
ĠT alen
ĠL ut
ĠL ion
ber ater
ĠR ac
ĠR Ã¤uber
Un ten
ag ne
ag net
ĠJ enn
eu tet
eu gt
and ard
Ġbe tete
ĠC ard
rau ÃŁen
ĠÃ¼ber ein
Ġwei st
Ġwei den
ĠEr fÃ¼llung
ang st
bl ing
Ġkl appen
ĠBl inden
Ġgew eint
Ġgew inne
Ã¼t zer
ĠAl ib
per ten
Ġverb raucht
ĠMar ie
Ġc odes
ĠÃľber re
Ġho hem
ĠNe un
Ġle ck
ĠKon vers
gew inn
ĠPol ski
ahn t
ĠBuch es
Ġte ure
ĠWort es
gef asst
ĠKre dite
ĠSy l
ĠDank barkeit
az ar
Ġged uldig
ĠJo hann
Ġern ste
ĠMo z
ĠkÃ¼ hl
ĠSchul tern
Aus leucht
ĠPrie sters
ins eln
ĠTre ppen
Ġew ige
ĠÃĦr zten
Ġentde ckten
ĠBlick winkel
Ġqu er
Ġjeg liches
emen ten
Ġlust ige
Ġanst Ã¤ndig
Ġtau cht
ĠEt age
ĠTrans aktionen
ĠDis ziplin
ĠerwÃ¤hn te
ĠSei fe
Ġeng ag
ĠGre y
ĠErst geburt
Ġrisk ant
ĠRos a
Ġbemerken swerte
ĠMosk it
Ġemotion alen
Ġfein d
ĠWechselkurs rechner
vier tel
ĠMinister ium
ĠAusl Ã¤nder
ĠAtt ra
ĠHÃ¼hn er
Mark ierungen
Ġschmutz ig
Ġrette te
ĠStan ford
Ġkommerzie llen
ĠLuc as
Ġvorhers agen
ĠAutom obil
Is rael
Ġlande te
ĠPassag iere
ĠRog er
Ø±Ø ¨
ĠHoll and
ĠMechanis mus
Ġann Ã¤hern
ĠMeld ung
ĠVill age
Ġevent uell
ĠADS L
ĠRele ase
ĠChole ster
Ø¹ Ø±Ø¨
Ausleucht zone
7 1
D i
K Ã¼
S at
W ind
W ussten
b isch
d ungs
h auf
i ard
l em
l uss
z elt
z ettel
¹ Îº
ĠS lo
ĠS ina
ĠS eien
Ġi ran
te vent
Ġn en
Ġb aden
Ġzu dem
ĠM I
ĠM inn
ĠM ath
ĠH Ã¼b
ĠH uman
ĠF ischen
ĠT opf
ÃŁ ten
ĠL yn
ĠL inda
re ens
ĠV al
Ġge antwortet
ag st
Ġwar fen
Ġj Ã¤mmer
Ġaus f
Ġaus sp
ĠC orte
Ġwei sst
Ġvor m
ik opter
ĠGe bete
Ġges amt
Ġges ichert
Ġbes etzt
iz z
Ġ3 000
ĠzurÃ¼ck lassen
mal en
ĠAus flug
ord nungen
atz er
ĠSchw immen
ĠMa ÃŁe
Ġschl achten
ĠSo cken
Ġlos legen
Ver kauf
ĠWer ten
ĠFreund es
EN D
ĠSpiel ern
ĠApp arat
Ġange st
Ġange kÃ¼ndigt
ere cht
Ġfol gten
ĠKam ele
ĠFot ografie
Ġfest gelegt
ĠVert rÃ¤ge
Ġem p
ath on
Be achten
ĠEm issionen
bo ot
ĠRu der
Ġern iedr
ĠTr es
Ġch a
stra te
ĠJu de
Ġhinaus gehen
ĠLa ke
Wissen schaft
ĠMitglie dern
Ġverz ichten
ĠGeburt s
ĠMittel n
arbeit ungs
Ġkostenlos es
Ġverbunden en
Ġteil te
ĠDan sk
ĠFrem der
ĠAngel a
prÃ¤ sident
ĠGefÃ¼ hlen
ĠTom aten
Ġphys isch
Ġgewalt ig
arl ach
ĠzurÃ¼ckzu kehren
ĠunabhÃ¤ng ige
ĠNerven zellen
adel phia
ĠPortug iesisch
Ġad opt
Ġelektron ischen
Ġkombin ieren
grÃ¼n de
Ġanerk annt
ĠHom er
ĠfÃ¼n fte
ĠÃ¼berwÃ¤lt igen
ĠKell y
ĠResult ate
ĠEner gien
ĠUnsch uld
ĠPrototyp en
ĠÎ ķ
ĠAven ue
ĠHypoth ese
Ġbeauft ragt
ĠSymm etrie
ĠArznei mittel
ĠProvin z
ĠSven ska
ĠMarok ko
ĠKrak au
×ĳ ×¨×
7 000
C omputer
F rei
H aupt
J os
K anal
P rom
T ue
V ER
Z ehn
h och
i fer
k ing
l ist
m Ã¼
n icht
s ack
w est
¢ ×ĳ×¨×
Ġs ynthet
Ã¼ ff
at ing
Ġk Ã¤men
Ġzu hauf
ĠM ast
Ġf oss
ĠG laub
ĠG ath
ge kriegt
ĠD I
ĠD ER
ĠP ion
ĠL Ã¤den
ĠL ove
Ġver gehen
Ġver Ã¶ffentlichte
Ġan geben
Ġan gebracht
Ġan beten
ann els
Ġauf sp
Ġsch oss
Ġt ausenden
ĠJ ur
Ġbe geben
ĠSt opp
Ġaus drÃ¼ck
ĠC ell
hl ehem
om bie
ot ischen
eg te
eg elt
Ġbei ÃŁen
ĠIn vas
ĠâĢ ³
hm a
ĠUn bek
Ġlie ge
ant hrop
ĠwÃ¤ hle
In formationen
ĠGr ant
Ã¤u fen
Ġsicher gehen
ett y
Ġbeg inne
reich er
Ver sprich
Ġklein eren
ĠEl isa
ĠUm schlag
Ã¤nd isch
ph y
Ġ6 9
Ġ19 50
ĠWo fÃ¼r
Ġrecht lichen
Ġdr Ã¤ngen
uer tevent
Ġerh ob
ĠIst anbul
ĠAt omen
ens eits
ĠOh io
Ġro llen
ĠMo der
ĠEntwick lungen
ĠFr esse
ĠTh omp
ĠKomp ass
zw ingen
stra hl
ĠBel euchtung
ĠgefÃ¤hr licher
Ġverste ckten
Ġernst hafte
ĠAfr ikaner
ĠMich a
ĠLÃ¶ schen
Ã¼g eln
ĠVerm Ã¤chtnis
ĠWechsel kurse
ĠfÃ¼rchte ten
Ġprakt ische
Ġbestehen den
Ġjung es
ogra fen
Ġgewalt ige
ĠgenÃ¼ gt
Ġschlie ÃŁe
ĠRelig ionen
Ġis rael
ĠverrÃ¼ck ter
Ġoptim istisch
hÃ¼ ter
ĠHeiligt ums
Ġromant ische
ĠKomponen te
ĠZul assung
ĠscheiÃŁ egal
Ġplatz iert
ĠzuverlÃ¤ss ig
ĠLob by
Ġanalys iert
Ġaltern ative
ĠHuren sohn
Î» Î»Î
Ġheu len
ĠNiederl ande
ĠGibe on
ĠChirur gie
cyc ling
ĠTok io
ĠDrag on
ĠTv headend
ĠstÃ¤rk sten
Ġhern ach
ĠAkadem ie
ĠIndividu um
ĠMyth os
ĠDemonstr ation
ĠKraw atte
ĠErklÃ¤r ungen
ĠIsma el
ĠÃ¼berzeu gend
Ļ× ª
Popul Ã¤re
sylvan ia
ĠÎķ Î»Î»Î
¢×ĳ×¨× Ļ×ª
uertevent ura
G laubt
K K
L ink
N ord
P ort
S uch
T re
b ungs
l ast
o iden
v y
w ollen
· Î½Î
Ġ Ø§
Ġd own
Ġw eiche
an ien
as il
ei f
Ġm l
Ġn ack
Ġn ord
ll os
ĠM ix
ĠA er
ĠG AM
eh in
ĠH ang
ĠF lei
ĠF akultÃ¤t
Ġer fr
ĠE ich
ĠE gal
ĠP eg
ĠL ed
ĠL aster
ĠL anka
re det
Ġauf zur
all as
le ans
Ġt Ã¤te
Ġt anzt
Ġwie gt
Ġj agt
ĠSch ema
il er
Ġaus sprechen
om etern
ĠO D
os port
eg ten
Ġr ettet
ĠEr t
ĠâĢ º
ĠSp inne
ĠBe ck
ad as
ru ben
op hren
ze d
Ġre ag
he bung
tel ang
ĠRe akt
ĠZeit schriften
ĠEin bruch
Ġkein s
ob a
Ġwieder zu
Al t
ĠwÃ¤ hlt
iz ophren
ĠGesch windigkeiten
ĠFre vel
ĠAu di
Ġweiter gegeben
ĠAuf stand
ĠMar sch
Ver w
Ġc oole
Ġlang es
An n
pl atte
br acht
opf ers
ĠBet hlehem
Ġrecht liche
ĠSh ield
Wei hn
ikan ischer
ĠBes uche
ĠVert rau
ĠComp any
Den kt
mus ik
Ġsofort ige
Ġkosten frei
ĠAll i
ĠPrÃ¤ senz
ĠTo ast
ĠDa isy
ĠBeg eister
ĠBesch leun
ĠfÃ¼hl ten
rÃ¤n ke
Ġna iv
ĠÃ¼br ige
ĠBrÃ¼ ste
ĠDurch bruch
ĠÃĦgypten s
Ġmo le
sinn ig
ĠKor an
ment s
Ġvorher igen
ĠSport ler
bet rag
Ġwachsen de
Ġauft au
ĠTerr asse
ĠhÃ¼b scher
ĠLei be
ĠMÃ¶ gliche
ĠGlauben s
Ġhol te
ĠGefangen schaft
Dr eh
Ġeffekt iver
Ġopf ert
ĠVerkehr s
Ġvis uellen
ict ion
ĠSchie ÃŁer
ĠHeb rÃ¤
ĠAbl en
ĠBos n
ĠRezept ion
ĠBestand teile
entwick lung
Ġwinz ige
ĠGestalt ung
Ġpri mit
ĠPrior itÃ¤ten
kÃ¶ mm
ĠTrink wasser
Ġrest lichen
Ġstaat lichen
ĠverstÃ¤r kt
ĠVictor ia
ĠVerpflicht ungen
ĠPassag ier
Ġohn mÃ¤chtig
ĠkÃ¶nig lichen
ĠÃ¼berqu eren
ĠGord on
ĠZwer g
ĠPlak at
Ġallm Ã¤hlich
Ġberecht igt
fÃ¼nf zig
Ġ× ¢×ĳ×¨×Ļ×ª
ĠShang hai
ĠLabyrin th
ĠSier ra
¹Îº Î¬
ĠÎķÎ»Î»Î ·Î½Î
ĠÎķÎ»Î»Î·Î½Î ¹ÎºÎ¬
B Ã¼r
D el
H al
H Ã¤tten
N iemals
S erv
W ach
d orf
f rÃ¼
f Ã¤ll
h andlung
k in
k auft
l ig
m ed
o z
o ke
r el
r ung
r ik
r ische
r ise
t r
t in
w achstum
ŀ Ð
Ġd Ã¤m
Ġd rÃ¼ckt
Ġw echsel
Ġm ail
te ch
ir al
al on
ab schluss
em burg
sch recken
ĠA L
ĠB ucht
Ġin mitten
ĠH Ã¼r
ĠF ox
Ġwir kst
ĠE conom
ĠP ixel
sen de
Ġl Ã¤ng
ĠR ass
ĠR io
ag ern
ĠN ig
ĠN euer
ĠN ukle
ĠZ wie
Ġaus wendig
Ġum zusetzen
Ġp Ã¼nktlich
ĠO f
ĠAn onym
ast a
Ġnoch mals
ff ic
zu laden
sp rech
ru b
Ġre krut
ert o
ĠEn ter
Ã¤r fe
ĠBl ois
ant worten
arb eite
Ġgef Ã¤llig
Ġ3 50
ĠOr bit
gel eitet
war ds
ekt oren
ĠAb zug
fl Ã¼gel
ĠVor les
ĠMa is
Ġschl af
ust on
ĠLand schaften
ĠUnter drÃ¼ck
ren gt
ĠÃľber setzungen
ib ilitÃ¤t
gesch n
ĠMal ays
Ġben ehmen
br eitung
ĠSte ven
ĠCo le
ĠMed a
ĠQu ell
euer te
ĠKre b
ian e
ĠGeschÃ¤ft sm
ĠInter pret
ĠInter face
ĠUr kn
lin der
stehen de
ĠGegen zug
ĠGroÃŁ es
Ġch rist
haft es
ĠpersÃ¶n liches
ĠBar s
ĠLehr ern
stag es
aterial ien
ĠPhil adelphia
Ġaufzu hÃ¶ren
Ġwelt weite
Ã¤ss ig
ĠMittel punkt
Ġgesp annt
ĠAlt ars
ĠFest ival
Ġinternation aler
utt le
Ġsu bt
ĠAk zent
ĠTats achen
ĠKar l
Ġschrei bst
ĠKnecht es
ĠDel uxe
Ġsex uellen
rasch all
Ġerl Ã¶sen
ĠHy d
ĠVertrag spart
ĠEinzel nen
Immer hin
Ġpsych ische
ird ischen
ĠJung frauen
ĠMer c
ĠBesonder e
ĠunabhÃ¤ng igen
ĠSem mel
ĠSchild krÃ¶
Ġexp onent
Sam uel
ĠVerschw endung
Ġgeist ige
Ġdurchschnitt lich
ĠAustr al
Ã¼tz liche
ĠCarol ina
ĠHilf s
ĠAbw eich
Ġklass ische
ĠRebe cca
ĠArbeitspl Ã¤tze
Ġgelegen tlich
Ġklin ische
Ġverkn Ã¼pft
Ph il
ĠendgÃ¼lt ig
Gr und
ĠBah asa
Ġeffizien ter
ĠRechn ungen
ĠRA ID
ĠLymph om
ĠMatthe w
Ele kt
ĠMiz pa
ĠRumÃ¤n ien
ĠJeb us
ĠBegeister ung
2 50
D inge
D ownload
J ungs
K am
N enn
P asst
S ing
X X
b eutel
l ichten
m i
m il
m iss
m Ã¤nner
p age
p aket
s as
w p
w achen
x ml
à ¥
ch ange
Ġw eint
Ġw ehren
an forderungen
ĠS ah
ĠS ollen
ĠS ES
Ã¼ l
Ã¼ bung
Ġg rÃ¤
Ġg reif
Ġein gef
ar me
ab ad
em bed
sch aut
Ã¶ pf
ĠG ate
ĠK isten
ĠSie d
ĠF euchtigkeit
ur ten
ĠD sch
Ġer richten
ĠP od
ĠP ille
ĠT es
ĠT aylor
ber ger
Ġver lieÃŁen
Ġver mittelt
Ġan kam
Ġan fordern
ĠI hn
ĠI hm
Ġt h
ĠJ edes
Ġbe arbeitet
ĠSch ott
Ã¼ber tragung
Ġp ort
Ġp asse
ĠkÃ¶n ntet
esch Ã¶n
ĠAn alyt
Ġr asch
ĠEr ster
ĠSp ende
ĠBe arbeiten
ĠUn rein
Ġhin dern
ĠEin heim
ĠBl o
ĠBl asen
Ġeinfach ste
Ġgew Ã¤hrt
ver schmutzung
richt linien
ĠFl Ã¤chen
ack er
Ġvers agen
Ġverl Ã¤uft
fl u
ett o
rank en
ud a
ĠBer Ã¼hrung
ĠArb it
ĠMar shall
ĠGer ing
ide en
av a
ĠBo hnen
ĠAnt ik
ite e
Wer det
ĠEl is
Ġleben digen
Ġvoll stÃ¤ndigen
Ġinter view
opf ern
ĠRo ot
ĠVide ochat
ĠMan ip
ĠSon y
ĠauÃŁer ordentlich
ĠKre u
Ġfrei gegeben
ĠLi fe
Ġem por
ĠWe ste
ĠSchei tern
ĠRÃ¼ck zug
ager ung
ĠStr ick
ĠForm ate
ĠHe be
ĠTo uren
ĠGroÃŁ eltern
zus prechen
Ġanzu bieten
Ġ14 0
ĠSil o
ĠSex u
ĠWieder gabe
Ġqu itt
load s
Irgend etwas
mar sch
ĠTer mine
ĠHel ium
ĠHel ikopter
Ġverantwort ungs
ĠKÃ¤ mmer
ĠIr re
gien e
ĠOpen PLi
ĠgewÃ¶hn lichen
ĠBlog s
ĠAbst immung
ĠEing riff
ĠPil z
Ġdurchs ucht
ĠWel pen
ĠAlex and
ĠKÃ¶rp ert
Ġabgel egen
Ġ197 0
ĠWild nis
ĠInse kt
Ġschwarz es
vol k
ĠSing le
ĠMass age
Ġversamm elte
Ġabl Ã¤uft
ĠFischer ei
ĠSchwach sinn
ĠGeschw ister
ĠfranzÃ¶s ische
ĠHorm on
ĠHong kong
ĠNin ja
Ġerleicht ern
Ġarrang ieren
ĠJess ica
ĠPok er
Ġanl Ã¼gen
ĠMittler en
ĠTreib haus
Ġsyn chron
ĠBevÃ¶lker ungs
ĠÃ¤lte ste
Ġâľ ħ
Ġgeform t
0 15
H T
H a
M e
P o
P ark
T est
b richt
b nis
b rief
f uhr
f eier
l assung
m orgen
m eter
p ern
r iert
r ichen
s eine
w ahrscheinlich
Ġ asso
Ġs inkt
an kt
ĠS in
ĠS is
Ã¼ chter
Ġn ukle
ir ca
Ã¤ ften
at zen
ĠG if
ĠG mb
ĠW Ã¶rtern
ĠK I
ĠH um
ĠH ektar
ĠF ert
ĠD reie
ĠE k
ĠP OP
ĠL ily
ĠL Ã¶ffel
ig an
Ġl ine
Ġl indern
re cke
Ġauf gestellt
ĠR anger
Ġsch er
Ġsch ritt
ĠZ U
Ġj ugend
ĠSch ieÃŁ
ĠSt offe
ĠC lown
Ġab gef
Ġab genommen
Ġum ziehen
ĠÃ¼ber einst
ill on
Ġsp erren
Ġr ennt
ĠEr zeug
ĠSp art
sp osh
elt samen
Ġmehr mals
Ġwoll est
ĠEin gewei
ungs ver
Ġger Ã¼stet
Ġzwei fellos
In ternation
Ġverb rauchen
Ġgeb iete
ĠÂ ®
Ġweg genommen
Ġpro t
ĠÃĦ uÃŁer
ĠWeb master
ĠBo ck
Ġverd or
ĠZu erst
Ġben achricht
ogen ese
wie gend
ĠCo ach
Ġange ordnet
ĠTechn iker
geh eim
ĠRes e
Ġte urer
ĠAuto unfall
ĠEntsch uldigen
ivers itÃ¤t
ĠAt ome
bo ok
ĠTelefon e
Ã¤ndig keit
ĠFr ist
ĠKranken hÃ¤user
Ġel imin
Ġanzu passen
ĠGar y
ĠSil vester
Ġverz ehrt
ĠÐ ¸
Ã¼cht igen
Ġverbr annte
ĠHÃ¶r ner
ĠJes u
ĠmÃ¤cht igen
schlÃ¤ gen
ĠVerkauf s
ĠIP TV
ĠSilber linge
Ġkomplex er
ĠGeschlecht s
ĠKol onie
Ġvertrau st
behÃ¶r den
ĠBur sche
Ġverein bart
ĠTel eg
ris iko
Ġsinn los
mod els
ĠKons umenten
Ġumfassen de
ĠAbw esenheit
ĠDiskuss ionen
Ġmaxim al
Ġaust auschen
Ġerweiter te
ĠFlÃ¼cht linge
Ġkop iert
ĠOptim ierung
Qu alitÃ¤t
ĠKok ain
Ġvieler lei
ICH T
Car ol
ĠRef lex
Ġmotiv iert
Produkt katalog
ĠEntsp annung
ĠJeh u
ĠKanz ler
Famil ien
Wes halb
ĠKek se
Ġuntern ommen
ĠBeteil igung
ĠKarik atur
ĠWohlt Ã¤tigkeit
ĠPeters burg
ĠbeÃ¤ngst igend
Tele fon
Ġverlo bt
ĠCamb ridge
ĠExem pl
ĠTari fe
reens h
B G
F ick
K rie
M s
T eilen
W eh
f Ã¤hrt
i alen
m eine
z ungen
Ġ urteilen
Ġs icht
Ġs uch
ĠS hr
Ġun gesch
Ġz Ã¤hle
Ġzu versicht
ĠM Ã¶n
ĠM ov
ĠA i
Ġf Ãĥ
den k
ĠK it
ĠH art
ĠD J
ĠD iv
ĠD own
Ã¼r ich
ĠP ant
ĠL is
ĠL ine
ĠL isa
ĠL loyd
Ġl ahm
Ġso fern
Ġauf gehen
Ġge wei
Ġt eile
Ġt Ã¼rk
Ġbe zogen
ĠZ en
Ġaus gesehen
Ġaus reden
Ġst im
Ġst ore
Ġhier hin
Ġsp ort
Ġr Ã¤um
Ġbei der
eil er
ĠGe fecht
Ġges al
ĠUn c
ĠUn t
ĠRe cher
ĠRe des
Ã¤r fen
Ġgen ieÃŁt
Ġunter brochen
Ġhin fahren
fÃ¼ hle
Ġe kl
ver folgen
ĠHer den
ht h
Ġger inge
ĠOr leans
gel enk
od ierung
Ġkon zip
ode x
fahr zeug
Ġ5 8
Ġ5 9
ĠEnt fernen
ĠSe p
Ġschl icht
ĠUnter gang
Ġho st
Ġdrei dimension
ĠAnt arkt
Ġgest ritten
ĠGew Ã¼r
echn ungen
Ġange p
if ers
ov o
sk osten
off rey
Ã¤uf st
Ġbl uten
Ġwider lich
ĠMo tel
ĠEntscheid ungs
Ġbestimm ter
ĠTest osteron
Ġch irurg
ĠBar ry
ĠChr ome
Am y
ĠdÃ¼r ft
ĠOber ste
ĠBef Ã¶rderung
ĠHa iti
Ġbem Ã¼hen
ĠEinz elt
ĠBed auern
Ġstar ren
Ġverz ehren
fre d
ĠHÃ¼ ter
ĠEmpf ehlungen
Ġniedr ige
bew usst
ĠPo int
ĠSim ul
ĠDok umenten
ĠTri b
ĠIdent ifizierung
ĠNahrung ser
ĠblÃ¶ den
Ġeng agiert
Ġgesund es
ĠBur ger
ĠPop ulation
Ġoptim ieren
Ġco upons
Ġnutz ten
ĠTar nung
ĠRi ad
geboren e
Ġpri ma
Ġgewisser maÃŁen
ĠPenn er
à¦ ¾
ĠBehinder ungen
Ru briken
ĠZus atz
ĠSeb ul
Bel iebte
ĠErschein ung
ĠRechen schaft
Ġilleg ale
ĠOsc ar
ĠFingerab druck
ĠHung ers
Ġkooper ieren
ĠTÃ¤u schung
ĠCockt ail
ĠWiders acher
ĠæĹ¥æľ¬ èªŀ
ĠTres or
ĠRedes Zone
6 1
D ress
F acebook
I hn
J as
K o
N utzen
P an
P assen
V O
V illa
W in
W under
W onach
b Ã¤nder
b rot
b ock
g art
k Ã¤mpfen
m odell
t halb
u y
u an
v ideo
Â £
ĺ ħ
er ten
Ġd icken
st ad
as ser
ĠS ide
Ã¼ tern
Ġun ent
Ġh aus
Ġh yp
Ã¤ mm
Ã¤ he
Ġz ahle
icht igen
Ġk rimin
em ann
ĠM essen
ĠM ost
Ã¶ ck
Ã¶ cher
ĠA C
ĠA z
ĠA sh
ĠG a
ĠK ru
ĠK ennst
ĠH unden
ĠF ab
ĠF lo
ĠF ace
ĠD op
ĠD od
Ġer d
Ġer raten
ĠE imer
re p
ann is
ĠR ute
Ġge ograf
ĠN am
ĠJ A
ĠJ enseits
ĠZ yp
ĠC reme
Sie ben
om bar
om etr
Ġmein ten
ĠVer rat
ĠAn ne
Ġr angehen
ĠEr folge
ĠAr du
ĠSp ender
Ġander thalb
Ġher gebracht
so le
Ġunter zeichnet
lei ste
ĠÃ Ĺ
Ġimmer hin
ohn ungen
Ġgef roren
Ġgef esselt
ĠOr ion
ges ucht
Ġgem ocht
ĠAus wirkung
Ġkon vention
ĠWei bes
Sch m
fahr ten
Ġ5 7
ĠSe attle
ĠDe x
rag te
Ver gleichen
Ġwahr genommen
ide e
ĠVater hÃ¤user
ĠBo ote
ĠReg istrieren
ĠAnt h
olog in
ĠUm arm
Ġbet Ã¤u
ĠEx cel
pl or
ph ys
ĠnÃ¤ch ster
hem en
Ġbef and
ĠKan one
ĠMan che
Dar in
Ġerwar tete
ĠDienst es
ĠDa zu
ĠDa her
haft igkeit
ĠAdr ess
ĠNot aus
ĠVort rÃ¤ge
ĠSchn auze
ĠOb jekten
ĠlÃ¤nger e
ĠVir tu
Ġerg ab
Ġakzept iere
ĠEp is
Entsch uldigt
Ġverbr ingt
Ġpolit isch
such ung
OR T
schlÃ¤ ger
ĠMikro skop
ĠExp ert
Le onard
Schl af
ĠRessour ce
ĠMad rid
ĠVoll zeit
Wel ch
ĠJapan isch
ba idsch
Ġpsych ischen
ĠTour ismus
Bet rachten
ĠRÃ¤ uch
Ġprofession ellen
ĠÃĦl ter
Ġwesent lichen
ĠZer emonie
ĠEigent ums
ĠbetrÃ¼ bt
Ġgenet isch
ĠrÃ¼ck wÃ¤rts
FÃ¼ hlst
Ġwest liche
Ġdur ften
ĠCont rol
Verzei hen
krank heiten
ĠVersicher ungs
ĠPenn sylvania
ĠTot al
Ġopfer ten
ĠInteress antes
ĠrÃ¤ uch
Ġunerwar tet
ĠvergrÃ¶ ÃŁern
ĠWell ness
Priv ate
ĠImpul s
ĠChl oe
ĠMiet wagen
ĠgemÃ¼t lich
Ferien vermietungen
Ġvermass elt
iein halb
ĠTrad itionen
skont rolle
ĠZertifik at
ĠSams ung
ĠDÃ¤n emark
ĠAbhÃ¤ng igkeit
ĠIntu ition
ĠThomp son
D I
F ang
F euer
J on
J oe
K arten
M ed
N ummer
P rÃ¤
R ich
S eite
Z eigt
b anken
d is
g ummi
k ons
w eich
z un
Ġ Ã¤rm
Ġd ienten
st attung
Ġs eltsamen
ĠS omm
Ã¼ hlen
Ġun ert
Ġh andelte
em men
ĠM yr
sch lei
Ġf ernen
ĠB y
ĠG ES
ĠG MT
ĠK h
ĠK reise
ĠH omo
ĠH osp
ĠF R
ĠF err
ĠF DA
ĠE ro
ĠL enn
Ġver bleiben
Ġauf stellen
ro utes
ĠR ig
ĠR alph
ut ig
Ġsch adet
Ġge achtet
ĠN A
ĠN ie
ĠN asen
ĠN ike
ĠZ in
ĠZ ombie
ĠSch reien
ĠSt apel
ĠÃ¼ber reden
Ġp o
Ġwei ten
Ġst et
ik es
ieren der
Ġaber mals
zu cht
ĠSp er
men schen
ĠU rin
Ã¤ch ten
ĠZeit verschwendung
Ġlie fen
ri kt
Ġbes p
ungs weise
lie fern
Ġbis lang
Ġgew eckt
ver kauf
geb nis
Ġzwei er
auf nahmen
Ġgesch l
Ġgesch Ã¼t
Ġgem ischte
od a
Ġvers ichert
ĠAb el
ĠVor bereit
ĠAuf gang
Ã¤nder ungen
zÃ¤hl en
av in
ĠWer de
Ġarb eits
ĠMit arbeitern
Ġeinz ur
ho u
ĠGen f
Ġvoll endet
ĠMÃ¤n n
ĠY our
ĠSte ck
Ġklar en
sche f
Ġdr um
Ho ward
Ġgek r
Ġbel eidigt
Ġausge zeichnete
ĠCl ash
Ġtrin k
zentr ale
Ġhe be
ĠChr onik
ĠTor heit
ĠDar Ã¼ber
Ġbem Ã¼ht
Ġfort setzen
Ã¼ss eldorf
ĠPfl ichten
Ġerg riffen
ĠFÃ¼hr ungs
ĠBus h
Ġrei st
ĠGewalt igen
ĠBÃ¼rger krieg
gewÃ¶hn liches
yl an
Ġober ste
Lie ber
Lie fer
Ġsex uell
Ġind ischen
ĠMy ster
ĠBetrieb s
Ġweiss agen
Ġident isch
ĠVertrag s
ĠJugend liche
ĠPil ze
ĠhÃ¶ch stens
Ġentsprechen de
Ġeffekt ive
ĠPrem iere
ĠErst aun
Kosten loser
ĠFo od
ĠNor men
ĠZie ge
ĠWillkommen sbonus
Ġtyp isch
Ġtyp ische
Ġunw ichtig
Ġgefol tert
Ġmark ieren
ĠÃľb elt
Ġnirgendwo hin
Ġra ffin
Ġmoral ischen
ĠRel ais
Ġexplod iert
ĠAuff assung
ĠHob by
ĠIM AP
ĠZehn tel
Ġbenutzer defin
UnterstÃ¼t zt
ĠNap hthal
Ġhotel eigenen
ĠFreiwill igen
ĠChirur gen
ĠZwill inge
ĠOpf ern
ĠÃ¶rt lichen
ĠSod om
Ġego istisch
Ġbeteil igen
undzwanz igtausend
ĠPut in
Stu denten
ĠunzÃ¤hl ige
ĠArgent inien
ĠHalluzin ationen
ĠÃ¤ gypt
ĠFÃ¶der ation
9 2
H Ã¤ttest
J A
L og
N HL
S B
T sch
e ver
f abrik
g ra
h um
h ilf
j ahre
k Ã¶r
n on
s itemap
à ¶
Ġ as
Ġ áĢ
ch at
Ġd iente
in str
st ill
st one
Ġs ingt
ĠS i
Ã¼ hlt
Ġun zu
Ġg ra
Ġg reift
Ġein gest
Ġz ittern
Ġk ol
Ġk lauen
or ca
em ma
Ġau str
Ġder gleichen
et willen
Ġf ra
ĠG Ã¤sten
ĠW alt
ĠW Ã¤nden
ĠF air
ĠD C
ĠD ow
ĠD ichte
Ġer wiesen
ĠT ul
ĠL ind
ber ichte
ĠI II
re ben
ĠR asen
ĠR anch
ĠV iv
ĠV ok
ĠN utte
ĠJ oram
ĠZ im
ĠZ adok
ra ÃŁe
il z
Ġaus n
Ġab ger
Ġp utzen
ĠO ste
Ġmein etwegen
be er
be ziehen
Ġwei ser
ing o
ĠAn melden
ist a
Ġr annte
sp erren
sp olitik
ad resse
ul ein
ĠU g
ER N
pp chen
lei hen
ĠwÃ¼r d
ĠwÃ¼r dig
Ġgro b
Ġ3 60
ĠGes p
Ġger ingen
Ġger iet
Ġber eite
Ġweiter geben
Ġverl ange
ĠVor stÃ¤dte
Ġverw undet
ĠJa zz
ĠSchl Ã¤ger
ĠDe v
ĠAuf zeichnung
ĠUnter schrift
ĠBo hr
aut omaten
Ġbew under
Ġbew undern
pl atten
Ġleben s
ĠVers Ã¶hnung
ĠBet ten
âĢ ĭ
ĠMr d
Ġerk annten
ĠHÃ¶ chst
urt eil
alte ten
Ġbel eu
Sp rache
ĠNetz e
ĠInter aktionen
Ġbesonder er
ĠStand orte
uldig ungen
bes itz
Ġreg iert
ĠPu ppe
ĠGleich heit
ĠZeug nisse
ĠMÃ¼ digkeit
Ġrei f
Ġschau st
ĠHÃ¼ fte
ĠErk Ã¤lt
ĠEmpf ohlene
Ġabzu schlieÃŁen
burg h
Ġdumm en
Ġinteressant es
Ġober e
ĠZuf riedenheit
ĠDel hi
ĠEi fer
Le ge
ĠspÃ¼r te
ĠDownload s
ĠIns ulin
produ kt
Ġverwir klichen
Ġfurcht bare
Ã¼tter t
Ġbewer ben
Ġabsch alten
ĠÃ¤uÃŁer en
antas ie
ĠLeib rock
ĠArg umente
Ġdiskut iert
ĠAbra hams
ĠungewÃ¶hn liche
Ġeil end
ĠZeich nung
krank heit
ĠKatast rophen
ĠbefÃ¼r chten
Ġschuld et
Ġprogramm ieren
bas is
Ġverring ert
ĠWÃ¤l dern
gro ÃŁ
ĠIndones ien
ĠFire wall
Ins gesamt
ĠHorm one
ĠGesichts aus
Ġberuf lich
Ġisol iert
Ġheira tet
Ġord nungs
ifest yle
ĠErle ichter
ĠVorgehen sweise
Ã¼hm t
ĠErÃ¶ff nung
hÃ¤ fen
unddrei ÃŁig
ĠNervens ystem
ĠFond s
ĠFÃ¼hrungsk rÃ¤fte
ĠErgÃ¤nz ungen
ĠRucks ack
ĠADSL Zone
ĠSina i
Ġasso zi
ĠRese arch
Ġzuversicht lich
7 4
C R
G uter
H S
H au
M or
T o
Z iel
b ringe
c at
d licher
h us
Ġ Ä
Ġ à
Ġ agieren
Ġd rÃ¼ck
in ar
ich st
Ġw acht
ĠS ort
ĠS ele
ĠS ende
ĠS lowak
Ġi ron
Ġn o
Ġn acht
Ġn Ã¤h
Ġg alt
Ġein getragen
Ġb ro
Ġb ack
it Ã¤ren
it iven
ĠA men
ĠA scher
ĠB iest
ĠG ames
ĠW Ã¤re
ĠW Ã¤hler
Ġer qu
ĠI an
Ġge zeichnet
ag ue
ind ig
ĠN im
Ġbe tet
ion a
ĠSch rott
Das selbe
Ġaus geh
ĠO el
ĠO ak
os phÃ¤re
Ġst ol
ĠAn alog
Ġvor geht
ĠSp reng
aus rÃ¼stung
ang ere
Ġgen auen
her bergen
ĠEin sparungen
Ġgef il
ĠOr b
ĠOr angen
ĠAl ab
ĠAl pha
Ġber eden
Ġget Ã¤uscht
ah oma
ud o
ĠMa f
ĠDe c
Ġschl ussendlich
ĠUnter sch
Ġpro test
Ġbesch affen
iss heit
gesch ichten
ĠVol umen
pr es
dr eh
ĠBr ig
Ġ6 6
ĠWo zu
Ġvert ragen
St arten
Ã¤ng te
up e
Ġverk Ã¼ndigen
Ġverm utet
Ġerk ennst
ĠKre atur
wir ft
ende ten
ĠnatÃ¼rlich es
ĠPat ri
ĠHaupt leute
ativ es
Ġverloren en
ĠRu anda
ĠGl et
Ġverh eim
ĠIm age
ĠSal omos
Ġtrin kst
CH A
rÃ¤n kte
ĠVerl ierer
press um
ĠChar me
ĠArm band
ĠDar yl
ĠkÃ¤m pfe
ĠBu sch
stra hlen
Ġanzu schauen
ĠBenutzer oberflÃ¤che
leist ungs
Ġlei ser
Ġgesp Ã¼rt
Ġlau ten
ĠPost eingang
ĠAng eln
ĠDor a
Ġtau b
ĠWinter fell
ĠLieblings models
ĠDel fine
ĠWh atsApp
Ġprakt ischen
ilis ieren
ĠStÃ¤r ken
ĠWÃ¶rter buch
Ġeng agieren
AL E
Ġfaszin ierende
ĠschlÃ¤ gst
ĠGenau igkeit
Ġprofession ell
ĠKÃ¶rp ern
ĠAp ot
ĠSpion age
ĠSzen ario
ĠTermin al
Ġeingesch lafen
Ġeingesch rÃ¤nkt
ĠWeiÃŁ russ
ĠDokument ation
Ġausgel Ã¶scht
ĠjÃ¼nger en
ĠUlt raschall
ĠMagaz ine
ĠHeu ch
ĠSeg el
ĠAusl Ã¶ser
ĠBek annt
ĠOptim ismus
Ġexplod ieren
ĠsÃ¤ he
ĠTurn ier
ĠOx ford
ĠGewohn heit
rib ut
Ġohn ehin
ĠBege gnung
ĠProst itu
ĠAlpt raum
gei z
ĠMargar et
B reite
C y
D rÃ¼cken
E her
F est
P G
R ay
d on
e f
h inge
j am
j agd
o ons
w Ã¤hlen
z ert
Ġd Ã¼ster
in al
st amm
Ġw Ã¶chent
ĠS ech
au te
Ġg ren
ir rt
Ġein ger
Ġv s
ar in
at in
ab a
em o
ĠA le
Ġf NHL
ĠB ringen
ĠK ebs
Ġin n
ĠH es
mm etr
Ġer weisen
ĠE den
ĠT uch
ĠT itten
ĠL Ã¼cken
ĠL iga
Ġan einander
sen dung
Ġl itt
ro u
ĠV orm
Ġge pflanzt
ĠJ r
ion ieren
ĠZ Ã¼rich
ste d
ĠSt op
ĠC amer
ĠC row
Ġab legen
om ben
Ġp al
be stell
Ġst rÃ¶
Ġst rafen
ĠEr stellung
ĠSp rÃ¼
ĠSp ons
he llen
Ġwoll tet
Ġhin legen
Ġlie gst
lie b
iz itÃ¤t
ok raten
ok kan
ĠWelt meister
ĠGesch Ã¤ften
ĠzurÃ¼ck kommt
ĠFl ach
Ġweiter entwick
Ġgel acht
Ġ5 3
ĠEnt tÃ¤u
Ġverb annt
ĠÂ ²
ĠUnter b
ren e
ĠBo te
ĠBo ut
ĠKont inen
ue ber
aut y
ĠKon serv
Ġgest ehen
ha hn
Ġ6 7
ĠBet rachter
Ġbef Ã¶rdert
Ġange fasst
ĠStra ft
ĠSh opping
ĠKan als
Ġbie te
Ġmag ische
ĠSchu bl
ĠWor Ã¼ber
ĠSchei be
Sp ort
Ġkosten gÃ¼nst
Ġverg aÃŁ
prÃ¼ fung
ĠProzent satz
ĠNatur produkte
oth y
uck s
Ġsozi ales
ĠBef rei
ĠSinn es
Ġfort zusetzen
ĠFac etime
ĠPhil ipp
ĠbenÃ¶t igten
Ge orge
ĠRuss ischen
ĠWein stock
ĠÃ¶ff ne
ĠDem okrat
ĠSym b
Ġnett es
ĠMÃ¤r kten
ĠVis ionen
Ġanz ut
ĠerhÃ¶ hte
gest altung
ĠHÃ¼ geln
Ġtrau ern
ĠGeschÃ¤fts fÃ¼hrer
ĠKlein igkeit
ĠAuss agen
rug uay
Ġeinge geben
Ġgeg ossen
ĠBaum w
ĠJul ie
SchÃ¶n e
ĠAss ur
ĠEhe partner
ĠDein er
Ġgelie bten
ĠZorn s
ĠAc cess
spr achen
Ġextrem e
Ġkr itis
ĠMart ha
ĠMobil itÃ¤t
Ġzerb rach
Ġpar ano
umb ai
ĠVerschw Ã¶rung
ĠAnd re
Ġgener iert
Ġangeh alten
ĠPatient in
Waren gruppen
Arb eit
Ġleu chtet
Ġnachhalt ig
ĠÃ¤r ger
Ġkrei ert
ĠZy klus
ĠJed i
stechn ologie
Ġerreich bar
ĠGil gal
ĠStill leben
Ġland wirtschaft
Ġverwei gern
Ġindustrie lle
Ġausgest orben
ĠEch o
Ġwahrhaft ig
ĠzurÃ¼ckge kehrt
Ġexter nen
Ġexter ne
ĠAnstreng ungen
ĠNavig ation
ĠSkulpt uren
ĠVerbÃ¼n deten
Ġbeschwer en
ĠRhyt hmus
ĠverÃ¤ngst igt
Ġstunden lang
ĠErschlagen en
ĠBeil eid
ĠannÃ¤hern d
ĠKebs wei
F O
H eil
K re
K op
L ad
L inks
P ay
W ichtig
Y eah
f lie
g ast
i ah
l Ã¤nge
m s
m und
t or
v ey
w Ã¤l
w Ã¤chter
z igtausend
Ñ ı
ã Ĥ
Ġ ap
Ġd is
st euerung
ĠS W
ĠS itten
ĠS ans
ĠS EO
ĠS immons
ll ie
Ġein bringen
on de
Ġb un
Ġb iz
Ã¤ umen
or ische
ĠM E
el ine
sch reiten
ĠG uer
ĠW eich
ier ig
ĠF eu
ĠD ur
Ġer zogen
Ġer halte
ĠP as
ĠP fe
ĠP ension
ĠT ir
ĠT ausch
ĠL ittle
Ġver nach
Ġl auf
re te
Ġauf legen
Ġauf gebracht
ĠR ente
ĠR ussell
ĠN Y
ĠN ow
ĠJ unk
ĠZ ielen
ĠZ iegel
Ġj auch
ĠVer schmutzung
Ġst ritt
Ġvor haben
eben e
sp ot
ĠGe ste
ang a
ĠRe port
ĠZeit schrift
ri pte
Ġbes itze
ungs datum
ungs vermÃ¶gen
Ġviel mals
Ġwieder ver
Ġgef or
Ġger Ã¤t
Ġger egelt
ĠOr ange
war f
ĠFl amme
ĠfÃ¼ gt
ĠAb geord
ĠWei de
Ġsicher es
ĠSchw e
me ckt
ren ge
ĠNach denken
Ver flucht
qu es
Ġzusammen gestellt
Ġwahr es
ĠArbeit sk
nung zeiten
Ġverd rÃ¤n
Ġverd oppelt
Ġbek annter
ĠMill er
ĠGel egenheiten
Ġschw eben
br un
br ennen
ĠLe wis
alis ierungen
Ġde ckt
ĠLebens lauf
ĠSicher ung
Ġ9 6
ĠÃĸ k
ĠDr ama
ĠGl Ã¼h
ĠFr isch
ĠTo wer
Ġch annels
Ġhinzu zufÃ¼gen
Ent decken
glie d
Soll test
rech nen
ĠHotels uch
Ġlaufen de
ĠFrÃ¼ her
air o
part y
ĠSil as
ĠAs a
ĠSport s
Ġrei ste
De te
Ġteil ten
ĠEmpf ehlung
ĠBot schaften
sour cen
ight s
ĠJes aja
ĠMord es
spl ant
ĠAss istenten
Ġbill ige
rid ay
meld ungen
Her zlich
Ġkr ass
ĠÃľberleben s
Ġ199 8
ĠClub s
ĠKÃ¼nstler in
Ġlern st
pack ung
ĠVi enna
ĠJoseph s
Ġabgel aufen
ĠSchwer ter
Best immt
ĠKlar heit
Ġausges prochen
Ãĸff ne
ĠCra ig
ĠCra ck
ĠTab ellen
Zusammen arbeit
ĠJÃ¼n glinge
geboren en
Ġgott verd
Ġbeseit igt
ĠNote pad
ĠkÃ¤mpf te
Ġerreich te
ĠJahrh underte
Ġabt rÃ¼nn
sproblem e
ĠPubl ic
ĠnÃ¶r dlich
Ġforder te
Ġempfind lich
famil ie
Ġberu ht
pap ier
ĠMidian iter
ĠSales Force
erkrank ungen
Ġfolgender maÃŁen
Ġunster blich
Ġwahrschein licher
ĠUmtausch kurs
ĠInvas ion
ĠGmb H
ĠErleichter ung
Ġvernach lÃ¤ss
I ST
K ey
K rieg
O ff
R ose
T rau
W omit
Z uf
b Ã¤r
c ar
k es
m or
m att
m asse
u ff
w ein
» ¿
Ð ¯
Ġ af
Ġ achtet
Ġd icke
st heorie
Ġw uchsen
ĠS eiden
Ã¼ stern
Ġun beh
Ġh asste
Ġg riff
Ġz ehnten
or ra
ab on
ĠM ister
Ġf ert
ĠB ann
ĠW em
ĠK ard
ĠK iefer
de cke
ĠSie ge
ĠD Ã¼sseldorf
Ã¼r me
ĠP ho
ĠT orn
ĠT euerung
ÃŁ chen
Ġden jenigen
ĠI b
ĠI d
ĠI van
Ġdu schen
ro hr
ĠR assen
ĠN ab
Ġo bl
il osoph
Ġwer fe
Ġab end
Ġum geht
Ġum armen
Ġp inkeln
ĠO z
Ġst ink
Ġst ress
ĠAn a
op at
ul Ã¤re
end ioxid
Ġdein s
Ein em
Ġunter drÃ¼cken
Ġhin setzen
Ġwieder hole
ĠzurÃ¼ck holen
ĠHo hen
ic ia
kl ahoma
Sch lieÃŁen
Ġgel b
Ġverst Ã¶rt
ĠVor her
Ġ5 6
Ġverb reitete
Ġeigen tlichen
ĠBer ech
sam er
Ġklein sten
ĠWer kt
iss abon
ĠKont os
Ġlang em
ierte m
ĠQ PSK
ĠGen en
Ġbr asil
ĠIde al
ĠBr ut
Ġtot ale
asch in
Ã¤ng ert
ĠKan sas
ĠInst inkt
Ġfest genommen
Ġfest gehalten
Ġgek ocht
Ġper man
Ã¤cht iger
Ġged ruckt
ativ er
stÃ¤nd iger
schn itten
Ġverloren e
ĠHe alth
Ġ11 0
Ã¤rt ner
Ġbezahl te
ĠfÃ¼hren de
ĠKlei dern
ĠSal at
bes itzer
Sag te
Ġerf and
ĠTor onto
Ġanzu wenden
Ġaufge passt
ĠBeweg ungs
ĠScheiÃŁ kerl
Irgend wo
IS S
ĠServer zeit
Ġteil zunehmen
Ġtau chte
ĠAk zept
such ten
ĠZahn bÃ¼r
Ġentsp erren
ĠMitglied staaten
osk op
Schl uss
abr iel
Ġeinf Ã¤llt
bol a
gÃ¤n zung
ĠjÃ¼n gste
ĠSchlacht feld
ĠFehl ern
Kon zentr
Ġrespekt iert
Ġzeich net
ĠgÃ¼nst igen
ĠgÃ¼nst ige
ĠrÃ¼ck gÃ¤ngig
ĠErzÃ¤hl en
ĠLux emburg
Ġmar okkan
ĠGei sel
ĠZent ner
ĠEdom iter
Ġkrit ische
ĠAP K
Irgendw elche
Ġbeweg te
Ġbeschleun igt
ĠAbonnement s
Ġdro hen
ĠHob b
ĠStad ion
ĠVerz Ã¶
gere icht
ĠSof a
ĠRitu al
ĠJerobe ams
Ġverlei hen
ĠKoordin aten
schaff ung
ĠVersp Ã¤t
ĠFloren z
ĠprÃ¤z ise
ehmlich keiten
Ġhor izont
ĠTalen te
ĠSemmel mehl
6 3
F indet
I de
J apan
L ady
U D
V i
m ass
m ore
n isch
p end
v ia
x x
Â Ń
Ġ endete
es ien
Ġm ischen
Ġh eilt
Ġg rade
on ey
gen au
el chen
Ã¶ den
ĠB indung
ĠK ie
Ġin wendig
ĠH arb
ĠF alten
ĠF lex
ĠF ix
ĠD IE
ĠP end
ĠL A
ĠL ay
ber eiche
Ġan zugreifen
Ġl eitete
Ġl Ã¤ufst
ĠI W
ro cken
ĠR ats
ĠV ase
ĠN ash
Ġt rieb
ĠZ ungen
ĠSch afen
ĠSch ilf
ĠSch Ã¤tzung
ĠSch Ã¤rfe
ft ige
Ġab schneiden
ĠÃ¼ber aus
ot zen
ĠO ver
ĠO ster
ĠAn sch
Ġvor gehen
Ġsp anischen
Ġbei seite
ĠSp ren
ĠSp agh
Ġent gehen
ĠRe vol
ĠEn zy
Ã¤r mlich
Ġkl uge
Ġunter m
lei te
ĠEin k
ob ie
ĠBl Ã¼ten
Ġviel fÃ¤lt
rach tet
geb Ã¼hr
id es
ĠCh ild
Ġzur zeit
In fo
ĠAl ben
Ġgesch ieden
ĠFl Ã¼sse
ode lle
Sch ritt
Ġgel obt
Ġhei ÃŁer
ĠKl inge
zie her
Ġc irca
Ġbesch w
Ġverd orben
ĠZu hÃ¶rer
Ġgest euert
ĠUm fragen
ĠEx plor
Ã¤nd igen
ĠLe on
ĠLe ague
ĠY ah
St apel
wend bar
ĠStra hlen
app er
ĠLebens mitteln
ikan ischen
fr ar
legen heit
ĠKer zen
Ġflie ge
ĠInternet verbindung
ĠPrÃ¤ z
ĠMo dern
ĠTest ament
ĠTest version
ĠBeg riffe
Ġna hen
Ġkompl etten
Ġfort fahren
Ġanzu gehen
ĠTre ff
teil s
ĠZwei ge
kon stru
ĠSen at
AT E
ĠNord korea
ĠSonnen br
mar ken
ĠJahres zeit
res erv
Ġbewusst los
ĠKrÃ¤ hen
ĠSchwei ÃŁ
ĠIr is
ĠChrist ian
aktiv itÃ¤ten
ĠInstall ieren
ssystem e
ĠVen e
ĠVen us
ĠgrÃ¼ ÃŁen
Ch at
ET ZT
ĠAbst urz
Ġfreund liche
ĠÃľberleben de
ĠKop ieren
Ġfinanz iell
reib ungen
ĠStar ken
ĠAnw Ã¤ltin
Ġschaff ten
Ġrisk iert
ĠwÃ¼sste st
ĠBedÃ¼rf nissen
Ġzerb rech
ĠTherap ien
ĠTur k
ĠSuch maschinen
ĠDrink s
ĠBlock s
ĠRech ner
Ġdurchschnitt lichen
fert igt
ih ad
ĠEinsch rÃ¤nkung
Start preis
Ġtyp ischen
ĠHilf smittel
ĠInnen stadt
ĠkÃ¶rper lichen
ĠErsatz teile
ĠAbs ol
ĠBem erk
ĠMÃ¤d el
Ġzuzu hÃ¶ren
ĠErmitt ler
ĠErmitt lungen
ĠEhr lichkeit
ĠElektron en
ĠJoj akim
ĠWil son
ĠreprÃ¤sent ieren
ĠViet names
ĠShirt s
ĠVerhaltens weisen
Ġjapan ische
ĠDÃ¶r fern
ĠStad ium
ĠHandt uch
ĠTin te
ĠHit ler
Jul i
ĠOsc am
ĠVideosp iele
SÃ¼ ÃŁ
ĠAnstreng ung
Ġverunrein igt
ĠGirl s
Ġaggress iv
ĠUngleich heit
Ġzwe ieinhalb
ĠstÃ¤dt ischen
ĠMick ey
ĠAlph abet
Ġkorrig ieren
GeschÃ¤ft s
ĠKri sen
ĠSime on
ĠDest in
ĠHotelbuch ung
ĠCholester in
ĠArbit ration
Ġchannels Satelliten
7 3
8 3
D am
G rat
G host
H Ã¤ltst
K al
M E
U F
b ir
b chen
b org
c raft
f aden
f ox
g ess
g rÃ¤
k op
l asst
s n
t ritt
w ider
z eln
ch se
Ġd ownload
ie ser
Ġw inner
Ġw isse
Ġs Ã¤u
te d
Ã¤ gen
ĠM eile
Ġf logen
ĠB amb
ĠB anner
ĠK und
ĠF un
ĠF Ã¤den
ur den
ĠD Ã¼
ĠD yn
ĠD ynamik
ĠD allas
ĠT i
ĠT ib
ĠT Ã¶ne
ĠL ov
Ġver rate
Ġver legt
am an
ĠR ahel
ĠR Ã¼stung
ĠV S
se ktor
Ġt reibst
Ġt oler
Ġwar me
och e
ĠZ ettel
Ã¶n en
ehr ung
il zt
Ġum setzen
Ġst ritten
Ġim provis
Ġhier zu
ik alen
Ġbei zubringen
wei lt
ĠAr aber
Ġre gener
ĠUn ited
Ġent fÃ¼hren
Ġkl agen
her um
Ã¼n dern
Ġalles amt
ke e
Ġger einigt
ĠDas h
ic on
ges etzten
ĠfÃ¼ gte
ĠAus schuss
ĠKinder spiel
schl ug
ĠBer ges
ĠBer echnungen
Ġ4 50
ĠAuf sicht
af el
Ġweg werfen
Ġweg geworfen
achte te
Ġc on
ĠÃľber einkommen
ĠRei ÃŁ
ĠGen es
pro f
ĠLe ere
ost ar
Ġvert reiben
sk rank
sk arte
eig nen
off iz
ĠSy nt
Ġausge stellt
ategor ized
ĠPrÃ¤ m
ĠNachrichten News
Ġ18 0
Ġzer reiÃŁen
Ġch atten
rom agnet
glie der
Bl ut
gn issen
ĠPhil istern
ĠsÃ¼ d
Ġar mer
Ġversp richt
ĠTransp lant
ĠDir ekt
ĠAktiv ierung
Ġzahl reichen
Ġgr imm
Ġerg Ã¤nzen
ĠErw Ã¤rmung
ĠRad ar
kam era
Ġries iger
ĠnÃ¶t igen
Ġvertrauen s
Ġprof it
Ġentsp ann
ĠAir lines
ĠAgent in
rein igung
kn allt
ĠHy dro
ĠJapan er
Ġabge fahren
zut ragen
ĠSei de
ĠKol onien
ĠGefangen er
ĠmÃ¼sste st
ĠTherap eut
ĠIntelligen ce
ĠWichtig keit
ĠZer o
ĠBlÃ¶ cke
Ġeint reten
ĠLeg o
ĠBeob achter
best immungen
ĠCra w
ĠTyr annen
ĠDutzen de
ĠFlie ger
Ġexklus ive
ĠWit wen
ĠRecei vers
ĠEint rÃ¤ge
ĠschÃ¼t teln
kat ast
Erinn ert
ĠÃ¼berwÃ¤lt igt
Ġbrill ant
Ġafrikan ische
ĠTaf eln
Don ald
ĠLok al
Ġindustrie llen
ĠSid on
Ġschock iert
ĠVorsitzen der
ĠSoph ie
ĠTÃ¤t igkeiten
Funktion iert
Ġergr immte
ĠCorpor ation
Ġdepress iv
ĠUmw andlung
Geburt stag
ĠSchem ata
ĠSchlecht es
ĠSchott land
ĠUnc ategorized
ifers ucht
Ġbewunder e
' t
8 1
B ay
C am
C odes
M ache
M CA
P D
R eisen
R abatt
b licher
c u
c le
g on
i ÃŁt
m p
m Ã¤
m isch
m edizin
o cken
r inger
x im
er ung
ein g
ein satz
as mus
Ġm eldet
ĠS ites
Ã¼ chtet
Ġh aar
Ġn Ã¼tzen
Ġz Ã¼chten
ab lo
ĠM B
ĠM esse
el ei
sch Ã¼tzen
Ġf ur
ĠW eite
ĠK ater
ĠK arm
ĠK ummer
ĠK raut
ĠF Ã¤l
ĠF aszin
ĠT ritt
ĠL ak
Ġver einen
Ġan steck
Ġl Ã¼ge
Ġl ila
Ġauf hÃ¶r
Ġge bl
ag in
ĠN acken
eu ter
ĠSt angen
Ġaus gelegt
ĠC lau
ĠC AP
Ġab warten
ĠO klahoma
ĠVer folger
ĠAn weisung
ĠPro b
ĠPro test
Ġman geln
ĠEr holung
ĠAr k
ĠSp inner
op sie
he bt
ĠUn gew
Ġher z
Ġher kÃ¶mm
ĠRe bek
ĠEin kaufen
Ã¼n dete
ĠBl Ã¼te
rÃ¤ g
ĠHer oin
Ã¼t iger
ĠFre quenzen
ĠOr den
ĠGr aben
ĠWir bel
Ġber ichtete
ichtig keit
kl ein
ild ing
ĠVor rÃ¤te
Ġ5 000
ĠSchl amm
Ġverb ringe
ĠAuf rufe
ĠLand ung
zeit ige
Ġc odiert
Ġle gend
Wer fen
ĠEl ias
ĠEl ementen
ĠWasser n
An gst
An na
Ġbereit gestellt
Ġvoll em
pro t
ĠLe be
dr ing
dr Ã¤ngt
Ġ6 3
ĠGew Ã¤ch
ĠOrt schaften
ĠTechn ology
Ġkennen lern
Ġhoch geladen
ron e
ĠWahr s
Ġaller er
Ġoffen er
ath y
ĠRÃ¼ck flug
ĠnatÃ¼rlich er
ĠStr asse
iet ung
ĠSÃ¼ ÃŁer
Ġhil flos
Ġempf inde
Ste hen
ĠFein des
Ġreg ieren
ĠKat herine
ĠCar son
ĠLehr en
ĠPu ll
Ġbem erk
ĠMil it
Ġaufge fordert
ĠWein berg
ĠRuhe stand
Ġwor in
ksam keit
will igung
Ġinternation al
Ġglob aler
Ġbed au
Ġbed arf
Ġantwor te
Ġanf Ã¤llig
ĠGra ham
ox id
prÃ¤ chen
Ġbege hrt
ĠTal k
Ġur b
ĠLog in
ĠKÃ¤ pt
ĠDon ald
UR G
ĠÃ¼bern achten
ĠDis play
ĠKop ien
ĠGang ster
plan ung
Ġabge geben
ĠJugend lichen
zut auschen
Ġat me
jÃ¤hr iger
Ġerr ichtet
ĠAst hma
Ġfei ert
ĠRÃ¤ umen
ĠSehen swÃ¼rdig
Ġwesent liche
ĠHeb el
Ġgering ste
zy klus
ĠOffen heit
Fol ge
ĠTsch Ã¼ss
ĠKenn edy
Vert rauen
ĠBran chen
ĠjÃ¼nger e
ĠSchokol aden
Ġsech sten
ĠSchlei er
ĠFunk gerÃ¤t
Engl ish
Ġfotograf ieren
ĠSnow den
ĠSmartph ones
Ġdemokrat ische
Ġlo cken
ĠendgÃ¼lt ige
ĠwÃ¤hl te
Ġmathemat ische
ĠrÃ¤ umen
tran s
Recht liche
UnterstÃ¼t zung
ĠIndik atoren
ĠzufÃ¤ll ige
ĠSnap Tube
ĠGibe a
ĠStief el
Ġphysikal ischen
ĠEvent s
ĠTen er
Ġislam ischen
ĠFalsch es
Ġharm los
ĠZun eigung
ĠKohl endioxid
Ġverwirr end
ifferen z
Ġleug nen
Ġerlaub te
euf zen
ĠUmgeb ungen
ĠVerwir rung
Schwar z
ĠSchlagz eilen
osop hen
ĠFus co
ĠSyd ney
ĠSchieÃŁer ei
ĠAblen kung
ĠNaphthal i
ĠAlab ama
A chten
B rian
F ran
M ensch
O per
R i
R ick
S her
S eltsam
T od
T Ã¶te
W Ã¤r
W art
W essen
d iert
d eln
g ib
h op
k od
s eits
ļ Ðł
er isch
Ġd rast
Ġm e
Ġn avig
Ġv ir
Ġz ielen
icht s
at ein
or ia
it ies
ĠM Ã¤g
ĠA ED
Ġder art
Ġf Ã¤ngst
ĠB ert
ĠB alt
ĠG aben
ĠW on
ĠW end
ĠE X
ĠP ank
ĠT R
ĠT eich
ĠL eine
ĠL iv
ĠL iz
ĠL Ã¤ufer
ig ment
Ġauf weisen
am al
is iko
Ġmit zuteilen
ĠR un
ĠR od
ĠR ama
ut o
ĠN ichte
ĠN AT
Ġt Ã¤ten
Ġt riffst
ĠZ iff
ĠZ ehnten
ĠSch Ã¼tze
ĠSch iffen
ĠSt or
Ġaus Ã¼ben
ĠC ore
Ġum gesetzt
ĠAn sehen
wei len
ĠEr haltung
ĠAr kt
ĠBe lla
ang riff
Ġges essen
ick st
Ġet hn
Ã¤r kt
Ġdurch laufen
Ġschon en
ĠEin nahme
ob y
geb ieten
Ġger e
Ġzwei fel
ĠCh ile
gel ten
ĠDu ke
ah a
ĠAus schau
ĠAus zeichnung
ĠAus sterben
ĠAus erw
ĠAb holz
ĠVor lieben
ĠAuf re
Ver p
Ġwahr lich
Ġhel ft
ĠArbeit nehmer
ĠReg isse
ss atelliten
ĠMal er
unter halt
aut o
Ġheraus gestellt
ĠEx change
ĠNacht eile
ho se
pr ise
ĠProdu ct
ĠVers ager
dr ungen
Ġde kor
ĠSh uttle
ĠAm os
ĠAm eise
ĠLu ca
zeug te
Ġerh olt
Ġweit gehend
wir t
Ġbl a
Ġanders wo
ĠStr ich
Ġ200 2
Ġung ut
Ġfalsch er
ĠIm p
ĠPer u
Ġherum zu
ĠUhr zeit
ĠDar auf
ĠBest ie
ĠHa der
ĠÃ¤hn liches
ĠPrin zen
ĠSpr ing
vert eilung
ĠKor ah
ĠHinter kopf
port iert
ĠEp ha
reg ion
Ġpolit ischer
Ġwarte ten
Ġblau em
ĠÃ¼berle ge
ĠWÃ¼r mer
ĠLei der
ĠPsych ologen
Ġkom ische
ĠChem otherapie
ĠgewÃ¶hn liche
Ġrie che
ĠNov a
Ġbehaup te
ĠEinzel heiten
Ġabonn iere
Ġstud ierte
ĠErei gnissen
ĠTau ch
hÃ¶r nchen
pack ers
lÃ¶s ungen
AL L
osh op
ĠauÃŁergewÃ¶hn lichen
Ġauss agen
mod us
ĠrÃ¼ck sichts
Ġdi pl
Ġangeh Ã¶rt
FÃ¼ hlen
FÃ¼ hlt
ĠStark s
ĠKenn wort
Ġerhe blich
ĠGlob alisierung
Ġleist ungsfÃ¤h
ĠTyr ann
ĠChin as
Ġerb Ã¤rmlich
Ġangemessen e
ĠProje ct
Ġverkauf ten
Ġzuge ordnet
ĠVin cent
Ġungeh euer
ĠKlick s
ĠBern ard
ĠkÃ¤mpf ten
Ġregion ale
ĠFrÃ¼h jahr
ĠÃľberzeug ungen
ĠEntwicklungsl Ã¤nder
ĠjÃ¼d ischen
ĠZivil isten
emp ner
ĠFreiwill ige
Ġbeobachte te
Host els
Eben so
ĠtatsÃ¤ch lichen
Ġanw esend
Fin ch
Ġextrah ieren
stÃ¤r ke
ĠverblÃ¼ffen d
ĠAster oiden
ĠverprÃ¼ gelt
ĠKÃ¼n ste
Ġallt Ã¤
ĠEvangel ium
Ġkan ad
ĠKrab ben
ĠTai wan
ĠConn or
ĠKreu zung
Ġgesal bt
ĠNahrungser gÃ¤nz
ĠDop amin
ĠDex ter
ĠAnth ony
ĠUg anda
H Ã¶re
J im
J ose
N ot
S n
S he
b ia
b aut
f ein
f utter
g riff
h ard
h ese
i hre
i ams
j etzt
l on
n g
n acht
x press
y re
en kte
Ġd o
ie fen
st em
Ġs andten
es ie
ĠS I
ĠS ALE
Ġh Ã¼
Ġn eigt
Ġg if
ir me
Ġein zustellen
Ã¤ k
at om
at he
em er
ĠM umbai
ĠA llen
ĠA syl
et on
et isch
Ġf Ã¤llen
ĠB olt
ĠG aming
ĠH ind
ĠH altet
ĠH asen
ĠH underten
ĠF oss
ĠF uerteventura
ĠP S
ber s
Ġan kl
Ġauf er
Ġauf zusp
is her
ĠR ome
ĠR uth
ut scht
se ch
ag ung
le u
ĠN ight
ĠfÃ¼r chter
Ġbe er
ĠSch izophren
ĠSt eigerung
ĠC in
Ġwas ser
Ġum sehen
ĠÃ¼ber mitteln
be z
Ġwei te
Ġwei gert
Ġst reit
Ġst ruktur
ĠAn dro
ĠAn sÃ¤tze
Ġhier von
Ġsp art
ĠEr spar
und vier
ĠSp inn
sp unkte
ru st
issen schaften
ĠUn sicherheit
ĠUn iversen
Ġkl eiden
Ġkl ettern
ri ÃŁ
che ll
pf ten
iz er
ĠGes al
Ġger eist
id s
ĠCh o
ragen den
ĠKÃ¶n nten
Ã¤hr e
ĠHand voll
ĠHand buch
ĠVor rat
Ġverw altet
ĠJa x
unde ten
ĠAuf ruf
sam t
ĠNach dem
qu art
for scher
Ġpro vo
ĠWer w
Ġbesch rÃ¤nken
ĠAnt hrop
Ġverd anken
ĠKon d
ĠInform atik
ĠBr ingt
ĠSte cken
Ġklar stellen
ĠtÃ¶ dliche
hem a
Ġ8 6
Ġmag net
Ġhoch laden
Ġhinter lÃ¤sst
ĠEur osport
ĠMein en
ron g
Ġerk enn
urs ions
ock s
Ġweit aus
ĠKn Ã¶ch
anis h
ĠGutschein codes
ĠCl int
ĠCl arke
Ġwunder vollen
Ġentsch eide
Ġalt mod
err ung
ĠGl Ã¤ub
Ġgegeben en
ĠglÃ¼ck lichen
Ġen gen
Ã¼nst ige
ain ment
ĠChar l
Ben utz
ĠSter e
Ġfl ehe
ĠSc reensh
ĠFin ale
Ġfort zu
ĠRob o
ĠGrÃ¶ ÃŁer
ĠÃĦr mel
vert reter
ĠPark er
dit or
ĠCon ax
Ã¼cht ige
Ġanst rengen
ĠDor nen
ĠKanÃ¤le Transponder
Ġbau e
Ġentsp annt
ĠTodes strafe
En de
Ġwes wegen
ĠTra vel
ĠSpei sen
ĠPlay a
ĠHam ath
ĠTrau ma
ĠMaster Card
ĠDokument arf
ĠGraf iken
ĠMitt eilung
Ġanges prochen
ĠAnge kl
sse st
ĠkÃ¶rper lich
ĠLeonard o
ĠSche une
Ġbra un
Ġunbek annte
ĠRÃ¶ hren
Ġmass ive
Ġmass iven
ĠImpf stoffe
pn g
kÃ¶ pfe
Ġgekenn zeichnet
Ġtelefon iert
ĠDreh buch
Ru he
ĠFire fox
ĠmilitÃ¤r ischen
Ġstaat liche
ĠverstÃ¤r ken
ĠTin ten
Ġarrang iert
Ġilleg alen
schei be
ĠKau gummi
arn ing
ĠMent or
ĠGit arre
ĠAnkÃ¼n digung
ÃĦn dern
ĠVarian te
ĠKommand ant
ĠWirtschaftsw achstum
PrÃ¼ fen
ĠGerman y
ĠExc ursions
ĠCow boy
ĠTerritor ium
ĠPyram ide
Ġverle ug
ĠsÃ¤m tliche
Ġflei ÃŁig
Ġev aku
ĠKonvers ation
ĠjÃ¤mmer lich
Ġausf indig
Ġkonzip iert
ĠAntarkt is
ĠnÃ¤h ert
frar ot
A ust
B ack
D eb
E X
G ibst
K an
S W
S an
S il
T rinken
V ideos
W alter
Z ahl
Z immer
a hnen
b in
b els
b ons
c m
f and
h ir
h ad
j ah
j ets
k indern
k ugel
p her
u pp
u cke
w ochen
in te
st ande
Ġw eine
Ġw ort
Ġw achen
un ch
an isch
an sicht
an fang
ei zt
Ã¼ len
Ã¼ mmel
Ġi ÃŁt
Ġein fluss
Ã¤ ge
Ã¤ rin
Ġz Ã¼r
at o
Ġk ind
it im
Ġf ass
Ġf einen
ĠB enn
ĠB og
ĠB ase
ĠW ater
ĠW isc
ĠK ul
ĠK ahath
ĠE du
ĠP P
ĠP ip
ĠT ruppe
ĠL ese
ber eitet
Ġan gerichtet
ĠI Q
is er
ĠR id
Ġsch Ã¼tze
Ġge zahlt
ĠN ud
Ġt anz
ser baidsch
ĠJ ury
ĠZ ens
ĠZ AF
ĠSch arf
ĠSt eig
Ġum wandeln
ot ik
Ġp osition
be stand
ĠVer ifiziert
ĠPro p
ĠEr wer
und es
ĠBe kleidung
ad ette
he ke
ĠUn fÃ¤lle
Ġent rinnen
ĠRe ferenz
ĠRe cycling
bl umen
Ã¤r er
Ġlie fer
ĠÃ ĥ
ger Ã¤u
im ore
Ġgew annen
ver ein
ĠGesch ick
ĠzurÃ¼ck ziehen
ĠOr ig
iger e
ĠPl a
Ã¤hr te
Ġverl Ã¤ÃŁt
atz ung
ĠVor urteile
ĠSe en
ey n
ĠBo ur
Ġbesch rieb
ĠKon ferenzen
Ã¤m ie
ĠInform ant
ĠInform anten
ho sen
essen heit
pro ben
ĠPh ill
ĠPh asen
Ġeinmal ige
ĠVide ok
ĠBru cht
Ġ8 4
Ġverk aufe
Ho he
ian ischer
Nach richten
min istrat
Ġwider sprechen
ĠlÃ¤ ssest
Ġentsch uldigt
ĠAt omb
ĠGl enn
Dar aus
Mehr ere
Ġen ger
Ġgemein schaft
ĠBesch werde
ĠTh ank
ĠCar los
hÃ¤lt nisse
ek ut
ĠgroÃŁart iges
ĠZusammen setzung
ĠJerusalem s
ĠÃĦn dern
ĠgefÃ¤hr den
ĠBed ienung
ĠDir ne
ĠPos aune
All gemeine
ober t
Ġbetrach te
ĠKal b
Ġschreck licher
Ab gelegt
Ġtrau rige
Ġanst ren
ven ten
ĠSa at
AS H
Ġperfekt es
ĠLei bes
ĠLog istik
ĠTra cker
Ġdigit al
kn Ã¼
Ġerl Ã¤u
spekt or
bahn hof
ĠEinzel ne
ĠSar coidosisUK
Ġbi ÃŁchen
ĠSamm y
ĠSamm eln
Ġgewalt igen
akte ur
Ġaufre gende
Ġtradition ell
ĠCal a
ĠLast wagen
ĠStock holm
ĠgehÃ¶r ten
ĠSel f
ĠMeg an
ĠZie hen
Ġverfl uchte
ĠTemperatur en
ĠErzÃ¤hl ung
Ġindivid uell
Herr gott
ĠCont ainer
Ġerhe bt
ĠGlob us
ĠNav y
Ġbeschissen e
aku um
ĠAP P
ĠHom osex
ĠNan cy
Th omas
ĠPrim aten
ĠSchlÃ¤ ge
Ġhochwert igen
Ġbeeindrucken de
ĠFingerab drÃ¼cke
TZ E
Ġnimmer mehr
ĠAutob ahn
ĠNÃ¤hr stoffe
ĠAnkÃ¼n digungen
ĠMyl ady
Ġkontakt iert
ĠOrient ierung
ĠBÃ¶r sen
ĠHandsch ellen
Wusste st
ĠVeter anen
Ġentz Ã¼ck
Form ula
ĠSamar itan
ĠSchlimmer es
Ġunert rÃ¤glich
still stand
ĠWeiÃŁruss land
ĠBout ique
Dete ctive
ĠZahnbÃ¼r ste
ĠSehenswÃ¼rdig keiten
1 000
C D
E uch
G EN
H C
K S
M et
N et
N Ã¤chstes
P ack
b rach
c c
e chen
i ologie
j unge
k as
k orean
n ad
n Ã¤ck
p on
t rÃ¤ger
st immen
Ġw a
Ġs ank
Ġun Ã¼ber
Ġun ruh
Ġh Ã¤us
Ġein fÃ¼hren
Ġein heim
Ġb reitet
Ġz Ã¤hlte
Ġk le
ab druck
ĠA D
Ġf abel
ĠB MW
ĠG in
ĠG ab
ĠW ollt
ĠK ay
ĠH R
ĠF riday
Ġwir kte
Ġer ben
ĠE bola
ĠP ic
ĠT rÃ¶
ĠL issabon
ig ator
Ġver graben
Ġan gelegt
Ġl Ã¤u
Ġl ehnte
Ġl Ã¤dt
re at
Ġauf m
ĠV as
Ġsch reie
ĠN on
Ġt p
eu len
ĠZ ip
Ġj etz
ra hmen
ĠSch lauch
ĠC ann
Ã¤n zlich
ĠO wen
ĠVer rÃ¼ckt
Ġdes ig
ĠIn du
op ol
Ġges Ã¼nder
Ġdar zustellen
ĠUn f
Ġgen ieÃŁe
Ġunter gehen
lei dung
lie ÃŁe
rÃ¤ um
Ã¼t igen
ĠHo uston
gel egen
ĠAb is
Ã¤d ag
form ate
Ġeigen artig
ĠDe f
ĠKl uft
ĠÂ ´
ĠIs asch
ĠMar athon
ĠGer ade
fall e
Ġpro b
ĠWeb b
ĠMal erei
ĠNe al
ĠNe ut
Ġbew e
Ġbet onen
Ã¤nd et
ĠVol t
Ġschw ed
Ġleben dige
Ġbede cken
ĠLe ktionen
Ġbr enn
eisten s
gr am
Ġange klagt
Ġdrau ssen
ĠSh aring
Ġinteress ierte
ĠSon st
ĠSon gs
ĠHerr gott
Ġtre te
ĠFlug hÃ¤fen
ĠSchei ss
Ġ12 5
Ġ12 13
fr essen
Ġwider fahren
ĠProgramm ierer
ĠPat ch
ĠCl ans
ffent liche
iff a
ĠGl Ã¤ser
ĠJo han
Ġverh eiÃŁen
ĠStud ierende
Ġerle dige
auft rag
ĠBeg leiter
ĠHoch schul
ĠNot ruf
ĠBest immt
Ġabs urd
ĠSc ot
ĠSc ans
sh ire
ĠBi ologen
vert reten
ĠJack ie
ĠAs ser
Ġfor dere
Ġrei ÃŁt
Ġexist ierte
ĠMich el
Ġschn eidet
ĠÐ ľ
Ġerre gt
Irgend eine
ĠFe dern
Ġkn all
ĠPrÃ¤sident in
fÃ¤h ige
ĠmuÃŁ ten
gemein schaft
ĠPan el
ĠPan ier
ĠSand y
Ġbedeuten de
ĠStreit krÃ¤fte
blei bt
Ġwunderbar er
ĠÃ¤u ÃŁern
ĠArchite kt
kont rolle
ird ische
imen ten
ĠInternation alen
dru cken
ĠDenn is
ĠBabys itter
ĠNational park
Ġverab schie
ĠNieder lage
tert ainment
Ġeingeb rochen
ĠSec ret
ĠSchwer punkt
ĠgÃ¼nst ig
ĠHei z
Ġanges p
Ġangew andt
out ube
ĠHann a
ĠSack gasse
Ġgep ackt
Cl aire
con tent
ĠBan anen
Ġunbek annten
ĠRÃ¶ mer
Ġgez ielt
ĠGrÃ¶ÃŁen ordnung
mÃ¶ glichen
ĠAtlant ik
ĠSur fen
ĠDumm kopf
ĠAuÃŁer dem
Ġbrill ante
AH R
Ġdro ht
sens or
Ġregion alen
ĠOlymp ischen
My Ass
Ġoper iert
ĠÃľbert ret
Gl ob
Host el
ĠAnim ation
ĠEngine ering
Ġflex ibel
ĠKrist all
ĠMyl ord
ĠBudd h
drÃ¼ sen
DÃ¼r fte
Ġleidenschaft lich
ĠHarm onie
ĠVul kan
ĠÃľbersetz er
ĠAuth ent
ĠLion el
ĠÃľberre ste
ĠGAM ES
ĠKÃ¤mmer er
ĠEingewei de
ĠSebul on
ĠWisc ons
ĠZAF UL
9 7
A cht
H Ã¶
I ss
I NE
K ur
K aum
K unst
L M
O X
S ter
T D
T er
T CHA
U ND
Y ou
b Ã¤ren
i enn
r d
s werten
z ia
Ä į
Ñ ĭ
st Ã¶rungen
Ġw achte
Ġun gerecht
Ġh Ã¤
Ġh eb
Ġg ieÃŁen
ar chen
Ã¤ ure
al m
al ja
Ġk raft
Ġk ocht
or gst
or ado
it Ã¤re
ĠM um
ĠM ommy
ĠA hm
ĠA gend
ĠA gr
der er
ĠG aza
ĠW onne
ĠH Ã¤uf
ĠF ick
ĠF usion
ĠD ot
ĠD ere
ĠE her
ĠP ed
ĠP ek
ĠT M
ĠL ifestyle
Ġl ade
um gebung
Ġauf kommen
is sten
is per
ĠR O
ĠR ie
ĠV yprVPN
Ġge Ã¼bt
Ġge prÃ¤gt
ĠN ehmt
ĠN AND
ĠfÃ¼r einander
Ġbe zeugen
isch ten
kt oren
Ġwer ben
ĠC ab
Ġp art
ĠO ct
Wir f
be griffen
ĠVer f
os a
Ġst ation
Ġst ahl
ing ham
Ġvor sicht
Ġbei getragen
ĠAr ist
mmer t
ĠSp ins
eil ten
ĠGe stÃ¤ndnis
Ġander mal
op her
Ġre gen
men Ã¼
ĠRe form
ĠRe prÃ¤sent
ug in
ĠEin mal
ĠEin willigung
eid es
pf chen
ĠFre ut
ate d
war nung
Ġgem engt
ĠFl ehen
ĠAus zahlung
ĠAb grund
ĠHand schrift
ĠHand gelenk
ĠVor haben
ĠEnt decken
ĠMa ach
zie hst
ĠMon ica
ĠMar co
Ġgegen einander
ĠUnter kÃ¼nfte
Ġirgend wer
qu ent
Ġc omputer
ĠÃľber sicht
ĠÃĦ h
Ġverd oppeln
Ġgest oppt
Ġbew ahre
Ġbet teln
An genommen
Ġraus gefunden
ĠMill iard
ĠMin en
ĠGen uss
Ġvert eidigt
ĠQu ar
up loads
Ġmag ischen
ĠSon ic
ĠWissen schaften
Ġhinter lieÃŁ
ĠPart ikel
aren ergie
geh st
hle ten
Ġgek Ã¼ndigt
Ġgek leidet
Ġbel egt
ĠKunden dienst
ĠAt men
ĠWill iams
ĠPf eilt
Ġverg ossen
ĠPrÃ¤ vention
ĠEssen z
duz ierte
ĠX klusiv
ĠSelbst vertrauen
ĠBest raf
Ġabs or
EL D
Ġwert los
ĠZusammen bruch
ifiz ierten
Ġ25 6
ĠÃ¤hn elt
ĠKarte ll
HÃ¶r et
ĠZwei g
ĠZwei te
ĠCas ey
Ġaut on
ĠChe at
ĠLab an
Ġgemeinsam es
Ġauszu probieren
ĠVis ier
ĠCon verter
Ġderzeit ige
ĠFen stern
AT EN
ĠtÃ¤ g
ĠÐ ²
ĠErn Ã¤hrungs
ĠErd gas
bet rieb
Ġunterschied licher
sa ft
ĠVerm utung
ĠLad ys
ĠPo esie
ĠUmwelt schutz
ES S
ĠSim ei
Ġbeant ragen
ĠSÃ¤ cke
Ġei sk
ĠjÃ¤hr liche
Ġverschl Ã¼ssel
Ġert eilt
Ġnerv t
ĠHam an
ĠKil ometern
ĠArschl Ã¶cher
ĠFernseh sender
ĠVi ol
Ġaufw acht
ĠStaats bÃ¼rger
ĠAuÃŁen minister
maÃŁ nahmen
ĠAp oll
Ġoptim ale
sicher ung
ĠJourn alismus
ĠLang zeit
Ġbelieb ige
Ġmoch ten
Ġangeh euert
Ã¤ck chen
Ġintegr ieren
Ãĸff nungzeiten
Ġbetroffen en
Ġerb aut
Ġrad ikal
ĠIntegr itÃ¤t
Ġinteressanter weise
Woll test
ĠMobiltelefon e
ĠMos es
ĠZert ifizierung
Ġkonfigur iert
Ġabgeb rochen
ĠTher m
ĠEmp athie
Ġkonstru iert
ĠMall orca
ĠSkulpt ur
ĠEdelst eine
Ġleistungsst arke
ĠMiner alien
ĠAdministrat or
ĠbeeintrÃ¤cht igt
Ġmuslim ischen
ĠBeschÃ¤ft igung
kamer as
ĠAkk u
ĠAsso ci
Sec urity
eto oth
Ġauser w
ĠProphezei ung
Ġmole kul
ĠÃ¤rm sten
ĠHes bon
ĠPfe ffer
ĠBamb us
Ġ1213 32
B E
B M
B EN
G al
N utz
O pt
O ption
P enny
R uh
S etzt
T or
W ahr
a a
f acht
f urcht
g irl
k enn
m ans
m pfe
r iss
r ichtet
u i
w ahr
w ord
w ohnung
Ġ ach
Ġ reise
Ġ act
Ġ ueber
er o
st ift
un sten
Ġm eiden
ĠS low
Ġun an
Ġh ieÃŁen
Ġg Ã¤nzlich
ir ekt
Ġb reche
Ġb ombar
Ġk Ã¼ndigen
ĠM olly
sch Ã¤tzen
ĠA GB
ĠB eim
ĠB Ã¤lle
ĠG Ã¤nge
den z
eh bar
ĠK uba
ge stellten
ier bare
de cker
ĠF u
ĠF iction
ĠD S
ĠD rache
ĠE y
Ġver achten
Ġver legen
Ġan bie
um a
um her
is key
ut ten
us a
us iness
Ġsch ienen
Ġge pf
ĠN Ã¼tzliche
ser ie
ĠSch lau
ĠSch arlach
ĠC PA
om bo
ĠÃ¼ber zogen
be lla
eg le
ĠAn ordnung
Ġvor s
Ġvor kommt
ik els
ik ator
Ġr ass
ĠEr inn
ĠSp on
Ġre ichte
ass es
rie t
Ã¤r chen
Ġdurch brechen
ri um
alt ar
ĠAus b
ĠAus rede
Ã¤d igung
Sch Ã¤tze
fl asche
Ġverw Ã¼stet
Ġ5 4
ĠEnt hÃ¼
ĠEnt zÃ¼ndung
Ġzus amm
Ġverb rachten
ĠMon sie
ĠAuf klÃ¤rung
ĠNach name
ĠArbeit sm
for schungen
pro pos
sst and
ys on
Ġklar er
uld et
ĠRabatt Codes
Ġbef ragt
ĠMed ical
Ġ7 3
Ġ7 6
ĠLebens unterhalt
Ġverk Ã¶r
stand s
ĠSchu hen
gef logen
Ġerh Ã¶rt
amp fen
Ġbl asen
Ġpl an
ĠRÃ¼ck gang
az ien
ĠAt h
LI N
kehr te
KÃ¶n ig
Ġant i
ĠJo ey
Ġverg ib
ĠMo hren
ĠLeu chter
voll ziehen
Ġzer mal
Ġeh erne
ĠFilm s
ĠEssen s
uck er
ĠDo ctor
Ġerfahren e
ĠDurch fall
ĠBel ast
Ġhinein gehen
ĠHack ing
Ġlok al
Ġauszu schalten
Ġjen es
Ġhervor rufen
ĠVerfÃ¼g barkeit
ĠJe p
Ġschn app
utt gart
Ġverbr ennt
ĠVerd Ã¤chtige
ĠÃ¼brig geblieben
ĠPrivat leben
Ġhing eh
ĠÃ¤lter er
Lie bling
Ġuntersch Ã¤tzt
ĠTED T
ĠChrist i
ĠHy giene
ĠInvest ment
Ġ199 7
ĠAmt s
Ġabh Ã¤ngt
ĠSzen en
ĠFro sch
82 16
ĠBrun o
Ġeingeb aut
fert ige
ĠVerw alten
zum al
Fre unde
Ã¤hm t
ĠBereit schaft
Gleich zeitig
pul ver
ĠChamp ion
ĠkÃ¼nst lichen
ĠCre dits
ĠAnh Ã¶rung
Ġaltern ativen
ĠVerstÃ¤r ker
ĠCS GO
ĠHome page
Ġverp ackt
Ġbeunruh igen
ĠCart oons
sg iving
Ġheira tete
Ġgesellschaft lichen
Ġfrustr iert
iop i
ettbewer bs
ĠVorhers agen
ĠRup ie
ĠBrÃ¤ utig
Uk raine
ĠFranz osen
ĠKlug heit
Ġgleicher maÃŁen
ĠWÃ¶l fe
Ġspont an
Ern st
ĠtÃ¶r icht
ĠMosche e
ĠTenden z
ĠParas iten
ĠFrÃ¤ ulein
Ġumwerfen d
ĠBeobacht ungen
ĠAlib i
ŀÐ ¢Ð
ĠArdu ino
Rich ard
ĠCamer on
ĠCharl otte
ĠWiscons in
ĠMonsie ur
7 8
9 8
C le
K einen
L ord
O rt
S age
V illen
b licherweise
d og
f reu
j u
s ive
s eide
u alisierung
y ar
z erst
Ä ĥ
Ġ Ù
Ġ ç
Ġ ðŁ
Ĩ Ĳ
en ix
Ġd eutet
st el
ĠS ud
ĠS up
ĠS ih
Ġun auf
Ġun wohl
ar itÃ¤t
icht iger
Ġk ehre
ab les
el z
el or
sch auer
et ro
Ġf ang
ĠW y
ĠW eit
ĠK ent
ĠK ub
ĠH ort
ĠF iona
ur o
ĠD rÃ¤
ĠD onna
ĠD essert
ĠE arl
ĠP B
ĠP her
ĠP RO
Ġl oy
Ġl ehre
Ġl iber
re f
Ġdu mmer
Ġauf h
ĠR unden
Ġge waschen
ag ing
ĠSch ad
ĠSch auf
Ġaus genommen
ĠÃ¼ber stehen
ĠÃ¼ber setz
ĠO mar
Ġst reichen
ik ten
ĠIn haber
sp y
ĠU HD
Ġent mut
ER E
amm a
Ġkl opfen
ed s
Ġdurch machen
ĠEin st
ĠEin samkeit
ant ien
iz it
Ġgef l
eld rÃ¼
id as
auf gabe
ĠCh ats
ĠHo ffentlich
amen te
ĠFl y
ĠAb wasser
ĠAb jath
kl op
Sch ade
Sch reib
fahr zeuge
So zi
ĠVor wÃ¼rfe
ĠSchw indel
Ver schiedene
ĠÃľber trag
ĠÃľber fluss
ĠÃĦ pfel
wick elt
igt es
ĠNacht wache
pr esse
ĠLe op
Ġrein gekommen
Ġ6 8
ĠBru ch
ĠMus ic
Ġ7 4
Ġvier hundert
Ġaller g
ĠDat ent
Ã¶l n
ĠWor auf
ĠGed alja
Be eil
test s
Ġged eihen
ĠNeu start
Ġverh Ã¼
Ġverh eira
ĠInd ian
ĠSk yl
haus es
Ġbezahl ten
ĠIm pl
Ã¤tz ungen
str and
str itten
ĠBar on
ĠbenÃ¶t igte
Ġar rog
ĠWar st
aly sen
ĠProzess es
ĠAgen cy
Ġfor schen
Ġglob ales
ĠMich igan
ĠStre ben
Ġtechn ologische
ĠNord pol
ĠKir jath
Ġerfolgreich er
Ġschm elzen
ĠAuft reten
Ġlieb ten
hÃ¶ re
ĠOper ator
Ġvorh at
ĠZahn fleisch
herap eut
ias at
ĠPe arl
Ġelekt romagnet
ĠReisen de
hand els
Her unterladen
Ġhol st
ĠVoll id
ĠAbst Ã¤nden
oc al
ĠHam burger
Ġ199 5
Ġwunderbar es
ĠSach arja
Ġfantast ischen
lad im
ĠblÃ¶ der
ĠBeruf ung
ĠSchlag anfall
ĠKlima anlage
Ġtr ennt
ĠMobil funk
Ġor ange
ĠHor ror
Erst aun
ĠBlei bt
ĠMas on
ĠForsch ungen
Pass wort
ĠPre diger
Ġintelligen ten
Kon nte
ĠbetrÃ¼ gt
ĠÃ¼bersch ritten
Weiter lesen
ĠDurchschnitt s
Ġnutz te
ĠAbw ehr
Ġ198 4
Ġbra v
ĠverÃ¶ffent lichten
ĠRebe ll
Ġwiederher zustellen
ĠWach s
Ġkrit ischen
sprogramm e
ĠWÃ¼n schen
ĠZy linder
Ġjapan ischen
Ġheutige stages
ĠHypot heken
ĠGeorg ia
ĠAmerikan ern
Ġaufgel istet
OV ER
Ġorgan ische
strÃ¶ me
Ġvari ieren
ĠNel ken
ĠNel son
Welt weit
ĠSuperh elden
Ġmarsch ieren
ĠThun fisch
[...]
