{"<|endoftext|>":0,"!":1,"\"":2,"#":3,"$":4,"%":5,"&":6,"'":7,"(":8,")":9,"*":10,"+":11,",":12,"-":13,".":14,"/":15,"0":16,"1":17,"2":18,"3":19,"4":20,"5":21,"6":22,"7":23,"8":24,"9":25,":":26,";":27,"<":28,"=":29,">":30,"?":31,"@":32,"A":33,"B":34,"C":35,"D":36,"E":37,"F":38,"G":39,"H":40,"I":41,"J":42,"K":43,"L":44,"M":45,"N":46,"O":47,"P":48,"Q":49,"R":50,"S":51,"T":52,"U":53,"V":54,"W":55,"X":56,"Y":57,"Z":58,"[":59,"\\":60,"]":61,"^":62,"_":63,"`":64,"a":65,"b":66,"c":67,"d":68,"e":69,"f":70,"g":71,"h":72,"i":73,"j":74,"k":75,"l":76,"m":77,"n":78,"o":79,"p":80,"q":81,"r":82,"s":83,"t":84,"u":85,"v":86,"w":87,"x":88,"y":89,"z":90,"{":91,"|":92,"}":93,"~":94,"¡":95,"¢":96,"£":97,"¤":98,"¥":99,"¦":100,"§":101,"¨":102,"©":103,"ª":104,"«":105,"¬":106,"®":107,"¯":108,"°":109,"±":110,"²":111,"³":112,"´":113,"µ":114,"¶":115,"·":116,"¸":117,"¹":118,"º":119,"»":120,"¼":121,"½":122,"¾":123,"¿":124,"À":125,"Á":126,"Â":127,"Ã":128,"Ä":129,"Å":130,"Æ":131,"Ç":132,"È":133,"É":134,"Ê":135,"Ë":136,"Ì":137,"Í":138,"Î":139,"Ï":140,"Ð":141,"Ñ":142,"Ò":143,"Ó":144,"Ô":145,"Õ":146,"Ö":147,"×":148,"Ø":149,"Ù":150,"Ú":151,"Û":152,"Ü":153,"Ý":154,"Þ":155,"ß":156,"à":157,"á":158,"â":159,"ã":160,"ä":161,"å":162,"æ":163,"ç":164,"è":165,"é":166,"ê":167,"ë":168,"ì":169,"í":170,"î":171,"ï":172,"ð":173,"ñ":174,"ò":175,"ó":176,"ô":177,"õ":178,"ö":179,"÷":180,"ø":181,"ù":182,"ú":183,"û":184,"ü":185,"ý":186,"þ":187,"ÿ":188,"Ā":189,"ā":190,"Ă":191,"ă":192,"Ą":193,"ą":194,"Ć":195,"ć":196,"Ĉ":197,"ĉ":198,"Ċ":199,"ċ":200,"Č":201,"č":202,"Ď":203,"ď":204,"Đ":205,"đ":206,"Ē":207,"ē":208,"Ĕ":209,"ĕ":210,"Ė":211,"ė":212,"Ę":213,"ę":214,"Ě":215,"ě":216,"Ĝ":217,"ĝ":218,"Ğ":219,"ğ":220,"Ġ":221,"ġ":222,"Ģ":223,"ģ":224,"Ĥ":225,"ĥ":226,"Ħ":227,"ħ":228,"Ĩ":229,"ĩ":230,"Ī":231,"ī":232,"Ĭ":233,"ĭ":234,"Į":235,"į":236,"İ":237,"ı":238,"Ĳ":239,"ĳ":240,"Ĵ":241,"ĵ":242,"Ķ":243,"ķ":244,"ĸ":245,"Ĺ":246,"ĺ":247,"Ļ":248,"ļ":249,"Ľ":250,"ľ":251,"Ŀ":252,"ŀ":253,"Ł":254,"ł":255,"Ń":256,"en":257,"er":258,"ch":259,"Ġd":260,"in":261,"Ġ.":262,"ie":263,"Ġ,":264,"ich":265,"st":266,"Ġw":267,"un":268,"Ġs":269,"ein":270,"an":271,"as":272,"ei":273,"es":274,"Ġm":275,"ĠS":276,"au":277,"Ã¼":278,"Ġi":279,"Ġun":280,"te":281,"Ġh":282,"Ġn":283,"Ġg":284,"ll":285,"ir":286,"Ġein":287,"on":288,"Ġdie":289,"Ġv":290,"ar":291,"Ġb":292,"Ã¤":293,"Ġz":294,"Ġund":295,"icht":296,"hr":297,"gen":298,"al":299,"Ġdas":300,"at":301,"Ġ?":302,"Ġk":303,"Ġzu":304,"or":305,"it":306,"ab":307,"em":308,"ten":309,"ĠM":310,"el":311,"sch":312,"Ġist":313,"Ã¶":314,"Ġau":315,"ĠA":316,"Ġder":317,"der":318,"ach":319,"Ġ-":320,"et":321,"Ġf":322,"ĠB":323,"Ġnicht":324,"ĠG":325,"den":326,"eh":327,"ĠW":328,"Ich":329,"Ġich":330,"ĠK":331,"Ġin":332,"ge":333,"ĠH":334,"ier":335,"de":336,"ĠSie":337,"ĠF":338,"Ġwir":339,"mm":340,"ur":341,"ter":342,"ĠD":343,"Ã¼r":344,"ung":345,"Ġer":346,"ĠE":347,"ĠP":348,"ĠT":349,"ÃŁ":350,"Ġes":351,"ĠL":352,"ig":353,"ber":354,"lich":355,"Ġden":356,"Ġver":357,"Ġan":358,"sen":359,"Ġl":360,"ĠI":361,"um":362,"re":363,"Ġsie":364,"ck":365,"Ġdu":366,"Ġhab":367,"ann":368,"Ġso":369,"Ġauf":370,"am":371,"is":372,"ro":373,"ben":374,"eit":375,"hn":376,"Ġmit":377,"ĠR":378,"ĠV":379,"Ġvon":380,"Un":381,"ut":382,"all":383,"us":384,"Ġsch":385,"enn":386,"se":387,"Ġge":388,"ag":389,"le":390,"ind":391,"eine":392,"ĠN":393,"ĠfÃ¼r":394,"Ġt":395,"Ġwar":396,"Ġeine":397,"ser":398,"ĠJ":399,"eu":400,"Ġdass":401,"Ġwie":402,"och":403,"Ġo":404,"and":405,"Ġbe":406,"ion":407,"Ġ!":408,"ĠZ":409,"Ã¶n":410,"Ġhat":411,"ol":412,"Ġj":413,"Und":414,"ste":415,"ra":416,"Ġ:":417,"ehen":418,"Ġsich":419,"ĠSch":420,"fen":421,"isch":422,"Ġsind":423,"kt":424,"Ġda":425,"als":426,"Das":427,"omm":428,"Ġall":429,"ehr":430,"ĠSt":431,"Ã¼ber":432,"il":433,"ft":434,"Ġwer":435,"Ġaus":436,"ĠC":437,"Ġwas":438,"Sie":439,"Ġhaben":440,"etz":441,"nen":442,"Ġihr":443,"ahr":444,"ent":445,"Ġmir":446,"Ġsein":447,"Ġab":448,"hl":449,"Ġ\"":450,"Ġals":451,"Ġmich":452,"Ġum":453,"Ġdem":454,"oll":455,"chen":456,"om":457,"Die":458,"Ã¤n":459,"rau":460,"ĠÃ¼ber":461,"ot":462,"ill":463,"iel":464,"Ġp":465,"sten":466,"ĠO":467,"Ġuns":468,"Wir":469,"rei":470,"ern":471,"Es":472,"Ġmein":473,"be":474,"ĠkÃ¶n":475,"Ġwei":476,"ĠVer":477,"os":478,"Ġst":479,"esch":480,"eg":481,"ing":482,"Ġdes":483,"ĠAn":484,"Ġeinen":485,"rÃ¼":486,"ast":487,"Ġvor":488,"Ġkann":489,"..":490,"Ã¶r":491,"Ġhabe":492,"Ġim":493,"Ġoder":494,"ungen":495,"cht":496,"Ġhier":497,"Ġ1":498,"acht":499,"ik":500,"Ġwerden":501,"Ġwird":502,"bt":503,"Ġihn":504,"Ġsoll":505,"ist":506,"ĠIhr":507,"ien":508,"Ġdich":509,"Ġnoch":510,"Ġsp":511,"ieren":512,"Du":513,"Ã¤t":514,"Ġ2":515,"Ġâ":516,"Ġwenn":517,"Ġ...":518,"Ġr":519,"Er":520,"Ġnach":521,"Ġnur":522,"Ġ)":523,"lle":524,"Ġbei":525,"Ġauch":526,"ort":527,"wei":528,"ff":529,"Ġaber":530,"Ġdir":531,"iert":532,"ĠIn":533,"etzt":534,"ĠPro":535,"ĠIch":536,"zen":537,"Ġman":538,"tet":539,"iv":540,"ommen":541,"eben":542,"ĠEr":543,"Ġgeh":544,"achen":545,"ĠAr":546,"und":547,"ĠâĢ":548,"ĠkÃ¶nnen":549,"zu":550,"Ġbin":551,"Ġunser":552,"mmer":553,"agen":554,"igen":555,"lau":556,"ĠSp":557,"sp":558,"ĠBe":559,"eil":560,"Was":561,"ige":562,"ĠGe":563,"ation":564,"hm":565,"elt":566,"Ġander":567,"ad":568,"ru":569,"stell":570,"ank":571,"op":572,"uss":573,"aus":574,"ang":575,"Ġwill":576,"ze":577,"was":578,"ul":579,"Ġdies":580,"Ġmehr":581,"Ġges":582,"ick":583,"Ġet":584,"Aber":585,"Ġdiese":586,"Ġre":587,"ne":588,"Ġ;":589,"Ã¼s":590,"schen":591,"Ġdar":592,"uch":593,"he":594,"ass":595,"rie":596,"end":597,"Ġeinem":598,"00":599,"urch":600,"Ġeiner":601,"men":602,"imm":603,"ffen":604,"ĠJahr":605,"hal":606,"ert":607,"tel":608,"issen":609,"ĠUn":610,"ĠU":611,"Ġent":612,"ers":613,"assen":614,"Ġalle":615,"Ġhast":616,"Ġdein":617,"Ġwo":618,"Ġ(":619,"Ġher":620,"ER":621,"so":622,"ĠMen":623,"Ġmeine":624,"Wie":625,"ĠRe":626,"Ġwoll":627,"ibt":628,"bl":629,"eute":630,"Ġzum":631,"ischen":632,"Ġetwas":633,"ĠEn":634,"ĠweiÃŁ":635,"hnen":636,"amm":637,"rin":638,"Ã¤r":639,"Ġgen":640,"Ġkl":641,"Ã¤ch":642,"ed":643,"uf":644,"Ein":645,"Ġwur":646,"pp":647,"gt":648,"heit":649,"ĠZeit":650,"Ġunter":651,"rÃ¼ck":652,"her":653,"lei":654,"ÃŁen":655,"art":656,"Ġhin":657,"dern":658,"Ġlie":659,"Ġgibt":660,"Ġdurch":661,"Ġnie":662,"Ġschon":663,"fÃ¼":664,"ug":665,"Ġsehr":666,"Ġjetzt":667,"ken":668,"ĠÃ":669,"ĠEin":670,"scha":671,"tern":672,"Ġdann":673,"Ġkeine":674,"bst":675,"Wenn":676,"og":677,"Ã¼n":678,"Ġsag":679,"Ġtun":680,"eiten":681,"Ġkein":682,"Ġsehen":683,"Ġimmer":684,"est":685,"Ġe":686,"ĠmÃ¼s":687,"ri":688,"Ġalles":689,"Ġgut":690,"ĠwÃ¼r":691,"ob":692,"orm":693,"ĠBl":694,"Ġbist":695,"Ġbes":696,"ungs":697,"ĠIhnen":698,"unden":699,"ess":700,"Ġviel":701,"anz":702,"Ġwieder":703,"ERR":704,"ĠWas":705,"ner":706,"che":707,"ĠLeben":708,"Ã¼ck":709,"fach":710,"Der":711,"pt":712,"ant":713,"Ġam":714,"ĠHERR":715,"Ġmachen":716,"Ġihm":717,"lie":718,"kommen":719,"ische":720,"Al":721,"eb":722,"keit":723,"ke":724,"liche":725,"aten":726,"ger":727,"Ġbis":728,"ĠmÃ¼ssen":729,"Ġ20":730,"ahl":731,"arb":732,"Ġvie":733,"age":734,"chte":735,"Ġmuss":736,"eigen":737,"nte":738,"ott":739,"Ġmal":740,"wer":741,"ĠMenschen":742,"im":743,"ĠwÃ¤":744,"Ġhatte":745,"Ġsagen":746,"ohn":747,"fe":748,"rÃ¤":749,"Ġeinfach":750,"ĠmÃ¶":751,"inden":752,"rach":753,"eid":754,"Ġgew":755,"eln":756,"ver":757,"lichen":758,"ehmen":759,"Ġnichts":760,"Ġje":761,"Ġwurde":762,"Ġgro":763,"ay":764,"Ġdieser":765,"ĠdaÃŁ":766,"schaft":767,"ÃŁe":768,"gend":769,"Ġgeht":770,"pf":771,"iz":772,"Ġgef":773,"ĠIhre":774,"Ġneu":775,"Ġ3":776,"Ġkomm":777,"ĠHer":778,"bar":779,"geb":780,"ok":781,"Ġwissen":782,"ĠWelt":783,"Ġglau":784,"lo":785,"alt":786,"itte":787,"Ġalso":788,"ell":789,"att":790,"Ġ'":791,"klich":792,"ĠKin":793,"Ġdoch":794,"eld":795,"ĠGes":796,"utz":797,"ech":798,"arum":799,"ht":800,"hen":801,"Ã¼t":802,"ĠGesch":803,"ĠzurÃ¼ck":804,"Ġger":805,"ktion":806,"ap":807,"id":808,"Ġzwei":809,"ak":810,"ĠFre":811,"auf":812,"ont":813,"ĠwÃ¼rde":814,"agt":815,"Ġihre":816,"ĠCh":817,"ĠHo":818,"Ġeu":819,"uchen":820,"Ġzur":821,"ĠDas":822,"In":823,"ĠMann":824,"ic":825,"ĠOr":826,"ate":827,"ine":828,"lleicht":829,"ges":830,"ĠGott":831,"gel":832,"mal":833,"ĠâĢĵ":834,"Ġdenn":835,"iger":836,"ĠDu":837,"leich":838,"Ġbrau":839,"ĠGr":840,"ĠAl":841,"Ġwirklich":842,"richt":843,"angen":844,"Ġgesch":845,"ster":846,"Ġwaren":847,"egen":848,"Da":849,"amen":850,"elbst":851,"ĠWir":852,"Ġgehen":853,"Ġwerde":854,"war":855,"Ġseine":856,"Ġgem":857,"ĠFl":858,"Ġeuch":859,"Ġunsere":860,"ĠHau":861,"Ã¤hl":862,"Ġber":863,"ater":864,"od":865,"ack":866,"per":867,"ĠPl":868,"ĠfÃ¼":869,"eite":870,"alten":871,"Ġvers":872,"glich":873,"ĠTag":874,"Ġget":875,"hne":876,"amit":877,"eht":878,"ĠEs":879,"ragen":880,"ĠAu":881,"nis":882,"fer":883,"Ġja":884,"ler":885,"ĠKÃ¶n":886,"Ã¤hr":887,"Ġweiter":888,"Ġverl":889,"ade":890,"ah":891,"ekt":892,"Ġdeine":893,"ichtig":894,"ĠFrau":895,"Ġ_":896,"du":897,"ĠhÃ¤t":898,"halten":899,"Ã¤l":900,"ĠAus":901,"Ġkon":902,"ÃŁt":903,"umen":904,"Ja":905,"ĠKinder":906,"Ġihnen":907,"ode":908,"Ġmach":909,"Also":910,"ĠAb":911,"Ã¤d":912,"kl":913,"ĠWei":914,"Sch":915,"akt":916,"enden":917,"Ġ201":918,"ennen":919,"inn":920,"Ġdiesem":921,"ringen":922,"Ã¶rt":923,"Ġanderen":924,"Ġjem":925,"fl":926,"stellen":927,"ammen":928,"Ġgel":929,"vor":930,"eich":931,"ÃŁer":932,"schie":933,"itt":934,"Ġdamit":935,"form":936,"fahr":937,"Ã¤u":938,"Ġsicher":939,"blem":940,"ord":941,"ia":942,"ľber":943,"ild":944,"ĠLeute":945,"Ã¶ren":946,"ĠHand":947,"Ġweil":948,"'s":949,"Ġwollen":950,"omp":951,"Ġsollte":952,"aar":953,"Ġdieses":954,"Ġverst":955,"Ġandere":956,"atz":957,"So":958,"ĠVor":959,"schl":960,"Ġverw":961,"ett":962,"Ġ5":963,"Ġdiesen":964,"esen":965,"ĠArt":966,"rank":967,"orgen":968,"Ġkommen":969,"ĠKÃ¶nig":970,"aben":971,"Ġbeg":972,"Ġ--":973,"Ġsagte":974,"ĠLie":975,"rechen":976,"Ġviele":977,"ĠDie":978,"anden":979,"Ġheute":980,"ĠwÃ¤re":981,"ĠkÃ¶nnte":982,"ran":983,"ĠJa":984,"Ġwollte":985,"rgend":986,"von":987,"ĠUnd":988,"Ġeines":989,"ĠEnt":990,"ud":991,"ale":992,"Ġzus":993,"Ihr":994,"Ġpass":995,"dig":996,"unde":997,"Ġwen":998,"ĠSchl":999,"oren":1000,"ĠProblem":1001,"ĠSe":1002,"Ġverb":1003,"ange":1004,"ute":1005,"Ġgan":1006,"under":1007,"Ġgesagt":1008,"inge":1009,"ationen":1010,"ĠSchw":1011,"schein":1012,"ffe":1013,"Ġselbst":1014,"mer":1015,"sel":1016,"Ġmus":1017,"Ġeigen":1018,"Ġhei":1019,"uten":1020,"ĠMa":1021,"reich":1022,"ĠDe":1023,"ĠBer":1024,"Ġschl":1025,"Ġbest":1026,"Ġganz":1027,"Ġob":1028,"Ġ4":1029,"Ġmeinen":1030,"ow":1031,"cken":1032,"zi":1033,"dem":1034,"itÃ¤t":1035,"ĠKl":1036,"zie":1037,"Ġlassen":1038,"Ġfinden":1039,"ĠArb":1040,"Warum":1041,"Ġgeb":1042,"ust":1043,"ĠWie":1044,"rag":1045,"ĠÂ":1046,"geben":1047,"igkeit":1048,"hren":1049,"ichte":1050,"Wo":1051,"ĠIs":1052,"ĠMon":1053,"Ġbesser":1054,"ĠAuf":1055,"ionen":1056,"ĠLand":1057,"ĠMar":1058,"Nein":1059,"llen":1060,"af":1061,"zeit":1062,"zt":1063,"yp":1064,"ĠhÃ¤tte":1065,"Ist":1066,"Ġgleich":1067,"me":1068,"sam":1069,"Ġgegen":1070,"ahm":1071,"ey":1072,"rÃ¶":1073,"ĠUnter":1074,"ĠGer":1075,"zeu":1076,"Ġweg":1077,"ren":1078,"kte":1079,"ĠSo":1080,"Ġkommt":1081,"Ġgemacht":1082,"ĠGeld":1083,"ĠNach":1084,"ĠHotel":1085,"lÃ¼ck":1086,"Ġlos":1087,"Ġirgend":1088,"achte":1089,"utter":1090,"Ver":1091,"ĠHaus":1092,"yst":1093,"qu":1094,"ĠJahre":1095,"ats":1096,"Ġvom":1097,"ĠHERRN":1098,"Ġc":1099,"hin":1100,"Ġzusammen":1101,"ce":1102,"Ġwahr":1103,"fÃ¼r":1104,"ĠÃľber":1105,"Ġzw":1106,"Ġsprach":1107,"ĠJahren":1108,"ache":1109,"Ġblei":1110,"ĠmÃ¶chte":1111,"Ġhel":1112,"aden":1113,"Ġdavon":1114,"anke":1115,"ĠArbeit":1116,"ĠGeb":1117,"Ġohne":1118,"ive":1119,"Ã¤nder":1120,"gst":1121,"fall":1122,"for":1123,"Ġmeiner":1124,"ehe":1125,"adt":1126,"ystem":1127,"Ġpro":1128,"ib":1129,"Ġglaube":1130,"zÃ¤hl":1131,"ĠÃĦ":1132,"ide":1133,"ĠSohn":1134,"ĠWeb":1135,"ĠBlumen":1136,"nten":1137,"Ġmacht":1138,"Ġson":1139,"unktion":1140,"av":1141,"ucht":1142,"los":1143,"Ġgerade":1144,"Ġletz":1145,"Ġklein":1146,"chten":1147,"aufen":1148,"Ġmeinem":1149,"Ġgeben":1150,"ĠWer":1151,"ĠVater":1152,"Ġrau":1153,"ĠBo":1154,"Ġbesch":1155,"nung":1156,"rage":1157,"Diese":1158,"auen":1159,"Ġarb":1160,"Ġvielleicht":1161,"ingt":1162,"Ġgesehen":1163,"ĠMit":1164,"fol":1165,"ĠReg":1166,"Ġho":1167,"Ġdrei":1168,"iss":1169,"ielen":1170,"immt":1171,"Ġhelfen":1172,"gesch":1173,"ĠDinge":1174,"Ġgenau":1175,"ark":1176,"kay":1177,"ĠAnt":1178,"Ġeinz":1179,"Dann":1180,"Ġverd":1181,"ĠKont":1182,"osten":1183,"hlen":1184,"Ġzie":1185,"ĠâĢľ":1186,"rael":1187,"eiden":1188,"ĠZu":1189,"Ġbitte":1190,"Ġbek":1191,"Ġpaar":1192,"tlich":1193,"Ġjemand":1194,"ss":1195,"aum":1196,"Man":1197,"ierung":1198,"ĠMal":1199,"inde":1200,"ĠAut":1201,"ĠWeg":1202,"Ġpassiert":1203,"Ġnun":1204,"ard":1205,"ite":1206,"atÃ¼r":1207,"alen":1208,"Ġ/":1209,"Hier":1210,"ue":1211,"Ã¶t":1212,"unter":1213,"Ġdort":1214,"aut":1215,"ĠIsrael":1216,"ĠNe":1217,"wick":1218,"halb":1219,"Ġle":1220,"asse":1221,"Ġlang":1222,"ĠFreund":1223,"olog":1224,"Ġseinen":1225,"aÃŁ":1226,"Wer":1227,"Dies":1228,"ĠEl":1229,"icher":1230,"ĠKon":1231,"igt":1232,"ĠWasser":1233,"Ġheraus":1234,"ele":1235,"Ã¤m":1236,"Ġgest":1237,"ĠStadt":1238,"Ġneue":1239,"ĠGeh":1240,"Ġ10":1241,"Ġsollten":1242,"Ġben":1243,"ĠUm":1244,"ha":1245,"Ġwel":1246,"Ġbew":1247,"nell":1248,"zahl":1249,"Ġihren":1250,"EN":1251,"ĠschÃ¶n":1252,"amil":1253,"Vie":1254,"Ġbet":1255,"ĠHause":1256,"Ġsei":1257,"ĠGut":1258,"gew":1259,"20":1260,"An":1261,"ĠEx":1262,"Ġreden":1263,"gehen":1264,"ierte":1265,"Ġkannst":1266,"Nun":1267,"Ġbereit":1268,"ĠMutter":1269,"Ġins":1270,"erv":1271,"pl":1272,"Ġwohl":1273,"Ġniem":1274,"Ġkeinen":1275,"iere":1276,"ĠNein":1277,"Ġraus":1278,"Ġwurden":1279,"weise":1280,"Ġdachte":1281,"Ġtut":1282,"ĠMill":1283,"ald":1284,"wo":1285,"Ã¤nd":1286,"ĠTeil":1287,"Ġsollen":1288,"ĠBew":1289,"Ã¤lt":1290,"ckt":1291,"ĠRei":1292,"ĠSpiel":1293,"erst":1294,"ĠGel":1295,"Ġhatten":1296,"Ġlange":1297,"com":1298,"net":1299,"ĠInform":1300,"ĠVol":1301,"ĠSeite":1302,"ĠQ":1303,"Ã¤ndern":1304,"spiel":1305,"Ġschw":1306,"Eine":1307,"stellt":1308,"Ġdenke":1309,"Ġerst":1310,"Ġleben":1311,"eist":1312,"ĠTe":1313,"reiben":1314,"ĠMin":1315,"ĠNacht":1316,"ander":1317,"ho":1318,"nt":1319,"pr":1320,"Nicht":1321,"Ġjed":1322,"etzen":1323,"utzen":1324,"Mein":1325,"ĠGen":1326,"ĠFamil":1327,"uter":1328,"Ġvoll":1329,"line":1330,"ĠDaten":1331,"Ġinter":1332,"br":1333,"Ġgetan":1334,"ĠerzÃ¤hl":1335,"atur":1336,"000":1337,"opf":1338,"keiten":1339,"Ġwarum":1340,"affen":1341,"ogen":1342,"Ġbede":1343,"essen":1344,"erson":1345,"ĠdarÃ¼ber":1346,"fÃ¼hr":1347,"pro":1348,"Ġwillst":1349,"ĠgroÃŁ":1350,"cher":1351,"wort":1352,"ĠProdu":1353,"schw":1354,"ĠLe":1355,"ĠgehÃ¶rt":1356,"ĠVolk":1357,"Ġschnell":1358,"ĠGeschichte":1359,"mit":1360,"schieden":1361,"ĠAugen":1362,"Ġkam":1363,"Ġbr":1364,"Ã¤ft":1365,"Ã¤h":1366,"Ġrein":1367,"Ã¤dchen":1368,"onder":1369,"ĠVers":1370,"Ġseiner":1371,"Jetzt":1372,"ĠMÃ¤n":1373,"eisten":1374,"stellung":1375,"itz":1376,"ĠGrund":1377,"ĠRo":1378,"Ġdazu":1379,"land":1380,"Denn":1381,"ramm":1382,"Ġgab":1383,"ĠIde":1384,"ĠdafÃ¼r":1385,"Ġgar":1386,"ure":1387,"dr":1388,"Ã¶glich":1389,"gar":1390,"racht":1391,"ĠKomm":1392,"Ã¶s":1393,"arte":1394,"ĠRab":1395,"Ġkonnte":1396,"Ġunserer":1397,"atÃ¼rlich":1398,"wor":1399,"lung":1400,"Ġsol":1401,"Ġ$":1402,"Ġdeinen":1403,"wie":1404,"sst":1405,"Ġsagt":1406,"ph":1407,"eim":1408,"ĠBr":1409,"ys":1410,"ĠPol":1411,"Als":1412,"annt":1413,"ĠY":1414,"Ã¤ren":1415,"Ġ6":1416,"ĠSte":1417,"Ġseinem":1418,"ĠPh":1419,"ĠGew":1420,"ĠMom":1421,"Ġgern":1422,"fahren":1423,"ac":1424,"oten":1425,"asst":1426,"Ġzwischen":1427,"ĠWebs":1428,"Ġex":1429,"ehl":1430,"Ġ19":1431,"zent":1432,"lles":1433,"Vielleicht":1434,"Ġganze":1435,"ingen":1436,"ĠBei":1437,"ink":1438,"abe":1439,"ahn":1440,"hau":1441,"rot":1442,"Ã¤ll":1443,"Ġwirst":1444,"orden":1445,"Ġbeh":1446,"ischer":1447,"Ġbrauchen":1448,"Ġleid":1449,"ma":1450,"ĠBild":1451,"ĠUS":1452,"ĠMÃ¤dchen":1453,"Ġeinmal":1454,"Ġihrer":1455,"Ġmusst":1456,"sicht":1457,"Oh":1458,"ost":1459,"ĠVerb":1460,"ĠWo":1461,"arten":1462,"PN":1463,"Ġnehmen":1464,"Ġklar":1465,"endet":1466,"ĠAben":1467,"Ġvert":1468,"Ġjeder":1469,"Komm":1470,"abei":1471,"wa":1472,"Ġeinige":1473,"Ġsieht":1474,"Ġbringen":1475,"uld":1476,"innen":1477,"ĠgrÃ¶":1478,"Ġtot":1479,"ĠRabatt":1480,"Ġallen":1481,"Ġ&":1482,"ĠNamen":1483,"ĠVide":1484,"ĠEnde":1485,"sehen":1486,"Ġdaran":1487,"ĠnÃ¤ch":1488,"ĠtÃ¶":1489,"licher":1490,"St":1491,"ellen":1492,"ker":1493,"Ġbekommen":1494,"Ġdenen":1495,"Ġdenken":1496,"rupp":1497,"io":1498,"alis":1499,"ider":1500,"gr":1501,"iele":1502,"Ã¤ter":1503,"rÃ¼n":1504,"unge":1505,"ĠKind":1506,"zeich":1507,"ĠBru":1508,"Hast":1509,"Ġwichtig":1510,"Ġseit":1511,"hem":1512,"ĠWoch":1513,"eilen":1514,"ĠBet":1515,"Ġfunktion":1516,"asch":1517,"iten":1518,"fte":1519,"urz":1520,"ĠOrt":1521,"ame":1522,"echn":1523,"ĠFall":1524,"Ġbef":1525,"ĠMus":1526,"Mit":1527,"Ġersten":1528,"wend":1529,"ult":1530,"ies":1531,"ften":1532,"ĠBen":1533,"Ġsprechen":1534,"ĠwÃ¤hr":1535,"Ġwus":1536,"Ġging":1537,"sche":1538,"ĠApp":1539,"ilfe":1540,"ĠFrage":1541,"ennt":1542,"ĠCo":1543,"Ġrecht":1544,"Ã¤ng":1545,"Ġange":1546,"eigt":1547,"ĠMed":1548,"ĠStra":1549,"ĠFrauen":1550,"son":1551,"Ġmeisten":1552,"Ġ8":1553,"Ġ7":1554,"Auf":1555,"ĠweiÃŁt":1556,"gramm":1557,"ette":1558,"ose":1559,"Ġdabei":1560,"ĠQu":1561,"eder":1562,"Ġdarauf":1563,"Ġsondern":1564,"Ġde":1565,"ĠInformationen":1566,"ĠgroÃŁe":1567,"gl":1568,"etten":1569,"uche":1570,"app":1571,"Ġdrau":1572,"ĠwÃ¤hrend":1573,"Ġster":1574,"olle":1575,"ĠPlan":1576,"nahm":1577,"ĠSh":1578,"ĠIhren":1579,"ĠBab":1580,"ĠMÃ¤nner":1581,"Ġgenug":1582,"ĠwÃ¼rden":1583,"icken":1584,"Ġjeden":1585,"ĠSache":1586,"ĠBuch":1587,"ĠKan":1588,"reis":1589,"stÃ¼t":1590,"ĠhÃ¶ren":1591,"ĠAngst":1592,"els":1593,"utzer":1594,"Ġgute":1595,"gie":1596,"ĠTage":1597,"ternehmen":1598,"ĠNachricht":1599,"mlich":1600,"FÃ¼r":1601,"Ġerhalten":1602,"utet":1603,"ĠPerson":1604,"hst":1605,"forder":1606,"achten":1607,"ĠWenn":1608,"ub":1609,"Ġbie":1610,"Ã¤nde":1611,"Ġverschieden":1612,"Ġbevor":1613,"esse":1614,"ĠInst":1615,"ichten":1616,"immer":1617,"up":1618,"Ġbleiben":1619,"org":1620,"Ġinteress":1621,"ĠKÃ¶r":1622,"Ġerste":1623,"Ã¤chter":1624,"ĠLebens":1625,"det":1626,"Ġakt":1627,"Ġdr":1628,"Ġglauben":1629,"rem":1630,"ĠIhrer":1631,"Ġhalten":1632,"ĠTechn":1633,"olen":1634,"euer":1635,"isten":1636,"Im":1637,"ĠFamilie":1638,"ĠÃ¶":1639,"esser":1640,"eitet":1641,"ĠMan":1642,"Ġganzen":1643,"ja":1644,"ition":1645,"Ã¤chlich":1646,"ere":1647,"ware":1648,"if":1649,"Ġfol":1650,"ĠAbend":1651,"Meine":1652,"Ġkennen":1653,"Ã¼nf":1654,"âĢ":1655,"Ġschle":1656,"Ġmag":1657,"halt":1658,"Ġverk":1659,"ĠmÃ¶glich":1660,"ĠZug":1661,"fern":1662,"ov":1663,"ĠAm":1664,"ĠSicher":1665,"itten":1666,"ĠMr":1667,"Ġverm":1668,"Ġhoch":1669,"rad":1670,"kun":1671,"unkt":1672,"Ġschwer":1673,"rieg":1674,"ĠSon":1675,"Ġvier":1676,"Ġbesten":1677,"Ġletzten":1678,"eter":1679,"ĠkÃ¶nnten":1680,"Wei":1681,"ĠHerz":1682,"ĠLu":1683,"rat":1684,"ĠWissen":1685,"Ġhinter":1686,"sk":1687,"ĠLachen":1688,"Ġgefunden":1689,"Ġdeinem":1690,"Ġsogar":1691,"Ġsteht":1692,"Ġrichtig":1693,"ritt":1694,"ief":1695,"nehmen":1696,"ĠEur":1697,"fort":1698,"ĠNew":1699,"uer":1700,"Ġwenig":1701,"ĠPart":1702,"Ġerw":1703,"ĠâĢŀ":1704,"eig":1705,"ĠMein":1706,"ry":1707,"ĠKopf":1708,"gangen":1709,"dent":1710,"ron":1711,"Ġarbeiten":1712,"irn":1713,"Ġerk":1714,"ĠÃ¼":1715,"ĠHÃ¶":1716,"ĠKam":1717,"urt":1718,"Ġbeim":1719,"denn":1720,"ĠWahr":1721,"zeug":1722,"emein":1723,"laub":1724,"ĠIhrem":1725,"Ġverstehen":1726,"ollar":1727,"aren":1728,"ĠGro":1729,"ruck":1730,"ĠGlÃ¼ck":1731,"ĠHerr":1732,"geh":1733,"ĠTÃ¼r":1734,"Ġzeigen":1735,"Ġtre":1736,"Ġunseren":1737,"kunft":1738,"ĠSystem":1739,"ool":1740,"stand":1741,"ial":1742,"ĠFot":1743,"off":1744,"Ġbedeutet":1745,"ĠRes":1746,"ĠMe":1747,"raum":1748,"ĠGelÃ¤chter":1749,"Ġ15":1750,"urs":1751,"ĠKrank":1752,"ĠFlug":1753,"Ġsuchen":1754,"gessen":1755,"alte":1756,"rieben":1757,"fon":1758,"ienst":1759,"ĠfrÃ¼":1760,"ĠUnternehmen":1761,"ĠFol":1762,"ĠAber":1763,"Ġsah":1764,"ĠDollar":1765,"ĠHilfe":1766,"Ġsterben":1767,"ĠIdee":1768,"Ho":1769,"Ġaller":1770,"ice":1771,"hle":1772,"Ġdeiner":1773,"ĠBlut":1774,"uren":1775,"ĠDat":1776,"inner":1777,"ĠFor":1778,"ĠSchu":1779,"ock":1780,"ip":1781,"mittel":1782,"old":1783,"Ġte":1784,"Ġneuen":1785,"Ġ*":1786,"allen":1787,"ĠHin":1788,"gor":1789,"atsÃ¤chlich":1790,"uÃŁ":1791,"Ġfest":1792,"ĠSu":1793,"Ã¶l":1794,"ĠWort":1795,"ĠBruder":1796,"gef":1797,"auer":1798,"Ġru":1799,"Ġerh":1800,"Ġweit":1801,"ologie":1802,"Ġwusste":1803,"Nur":1804,"Alle":1805,"ĠDer":1806,"Alles":1807,"get":1808,"Ġ9":1809,"ĠOrd":1810,"Ġetwa":1811,"ĠheiÃŁt":1812,"ernen":1813,"Ġstehen":1814,"ĠâĻ":1815,"ĠFil":1816,"ĠauÃŁer":1817,"ĠDav":1818,"Ġfal":1819,"ikan":1820,"ĠKre":1821,"bei":1822,"bringen":1823,"ika":1824,"ollen":1825,"Ġspricht":1826,"fÃ¼hl":1827,"werk":1828,"Ġfrei":1829,"ĠBes":1830,"rauen":1831,"echs":1832,"ĠVert":1833,"ign":1834,"ahren":1835,"Ġallein":1836,"lieÃŁ":1837,"ĠSicherheit":1838,"eile":1839,"indet":1840,"ĠStunden":1841,"ĠAuto":1842,"dro":1843,"Ġkomp":1844,"ande":1845,"Ġwegen":1846,"ĠBeispiel":1847,"ĠLi":1848,"ĠWor":1849,"ĠKn":1850,"ĠEntsch":1851,"affe":1852,"enne":1853,"ww":1854,"raft":1855,"Ġem":1856,"amp":1857,"ĠfÃ¼nf":1858,"Ġoffen":1859,"Ġliegt":1860,"iges":1861,"ĠMoment":1862,"arm":1863,"ĠIntern":1864,"ĠComp":1865,"Ġziemlich":1866,"ienen":1867,"leben":1868,"ĠfÃ¼hr":1869,"ĠhÃ¶":1870,"nisse":1871,"ium":1872,"ian":1873,"ĠMail":1874,"Will":1875,"Ġfre":1876,"ĠOn":1877,"ath":1878,"einander":1879,"eint":1880,"aler":1881,"achsen":1882,"ĠÃĸ":1883,"wir":1884,"anis":1885,"Den":1886,"ausen":1887,"Nach":1888,"egt":1889,"Ġniemand":1890,"ielt":1891,"Ã¤llt":1892,"ĠSir":1893,"ĠTod":1894,"Ġhabt":1895,"Ġversuchen":1896,"ĠSy":1897,"ĠMÃ¶glich":1898,"undert":1899,"zlich":1900,"Ġgek":1901,"Unser":1902,"Ġihrem":1903,"ĠgroÃŁen":1904,"Ġliebe":1905,"Ġbeide":1906,"ĠGutschein":1907,"Kann":1908,"ĠFragen":1909,"Ġ%":1910,"unk":1911,"elden":1912,"alitÃ¤t":1913,"ina":1914,"ĠErde":1915,"ende":1916,"fel":1917,"ient":1918,"usst":1919,"Ġ0":1920,"Ġbel":1921,"zug":1922,"ĠRecht":1923,"Ġfast":1924,"scheinlich":1925,"Weil":1926,"ote":1927,"Ġon":1928,"Bitte":1929,"Ã¤uf":1930,"ĠWe":1931,"igkeiten":1932,"ĠspÃ¤ter":1933,"ding":1934,"ivers":1935,"ĠMensch":1936,"itzen":1937,"riff":1938,"ĠFreunde":1939,"Ġweniger":1940,"ĠSchei":1941,"Ġentwick":1942,"Ġbl":1943,"Ġpl":1944,"ierten":1945,"Sp":1946,"cke":1947,"ĠTyp":1948,"folg":1949,"ĠGed":1950,"ĠZahl":1951,"Ġ12":1952,"Ã¤re":1953,"fr":1954,"ĠtÃ¶ten":1955,"atell":1956,"ĠDr":1957,"ĠRaum":1958,"ĠIst":1959,"Be":1960,"Hey":1961,"ĠFÃ¼":1962,"satz":1963,"Na":1964,"ĠBeh":1965,"ĠDank":1966,"ĠJer":1967,"ĠNetz":1968,"Haben":1969,"Ġkleine":1970,"Ġverschw":1971,"min":1972,"ĠRÃ¼ck":1973,"ĠWebsite":1974,"mus":1975,"Ġwider":1976,"Danke":1977,"Ã¤nger":1978,"ĠBÃ¼r":1979,"co":1980,"ĠMinuten":1981,"schied":1982,"Ġausge":1983,"ĠMillionen":1984,"ĠnatÃ¼rlich":1985,"ĠhÃ¶r":1986,"ager":1987,"Ġanders":1988,"ĠGeschÃ¤ft":1989,"ĠDavid":1990,"Ġ30":1991,"legen":1992,"az":1993,"Ġoben":1994,"ĠRicht":1995,"ertig":1996,"Ġwelche":1997,"Ġsofort":1998,"ftware":1999,"jekt":2000,"aul":2001,"Ġper":2002,"ĠProgramm":2003,"gang":2004,"one":2005,"are":2006,"ĠJob":2007,"Ġeigenen":2008,"Ã¤uft":2009,"Ġnein":2010,"ĠLicht":2011,"wohl":2012,"Ġsage":2013,"ategor":2014,"test":2015,"Ġkurz":2016,"anken":2017,"olut":2018,"fangen":2019,"ĠâĢĿ":2020,"Ã¤cht":2021,"ĠTele":2022,"ĠOrdnung":2023,"Um":2024,"Zu":2025,"ĠPat":2026,"ĠCl":2027,"Ġbrauche":2028,"Ã¤ndert":2029,"weg":2030,"Ġsehe":2031,"ĠStr":2032,"ĠWarum":2033,"Ġfunktioniert":2034,"Ġsel":2035,"ester":2036,"ĠKunden":2037,"Hat":2038,"Ġkosten":2039,"lassen":2040,"ĠKrieg":2041,"ĠlÃ¤":2042,"fang":2043,"Oder":2044,"afen":2045,"Vor":2046,"ĠInter":2047,"Ġged":2048,"ĠKÃ¶rper":2049,"ehm":2050,"Ġverwenden":2051,"ĠBewert":2052,"ĠMorgen":2053,"ile":2054,"Ġdrin":2055,"Ġfragen":2056,"ĠtatsÃ¤chlich":2057,"Ġbereits":2058,"tschaft":2059,"ffent":2060,"ĠEm":2061,"Ġwunder":2062,"Ġoft":2063,"ĠNeu":2064,"we":2065,"Ġentsch":2066,"Ġkleinen":2067,"ĠMenge":2068,"Ġalt":2069,"Ġspielen":2070,"ĠAt":2071,"ĠNicht":2072,"iff":2073,"rieb":2074,"Ġverdamm":2075,"fÃ¼g":2076,"ĠHaupt":2077,"einen":2078,"haupt":2079,"riv":2080,"ochter":2081,"bo":2082,"Ġdarum":2083,"Ġmache":2084,"LI":2085,"ĠUnivers":2086,"ens":2087,"Ġmachst":2088,"Ġessen":2089,"ĠJohn":2090,"kehr":2091,"ensch":2092,"Wieso":2093,"Ġonline":2094,"ĠSta":2095,"ĠSer":2096,"pfen":2097,"Ġ200":2098,"Ġsollst":2099,"Ġerkl":2100,"ĠGottes":2101,"ct":2102,"ĠForm":2103,"Ġallem":2104,"lex":2105,"ĠComputer":2106,"erk":2107,"ance":2108,"ativ":2109,"ĠVPN":2110,"ĠPar":2111,"ĠStimm":2112,"stÃ¤nd":2113,"ore":2114,"olz":2115,"KÃ¶n":2116,"err":2117,"ĠSatell":2118,"ĠGehirn":2119,"hung":2120,"chmal":2121,"ziehen":2122,"pfer":2123,"ĠGesicht":2124,"ĠdrauÃŁen":2125,"schn":2126,"Ġverloren":2127,"fÃ¼hrt":2128,"ĠVideo":2129,"Ġeben":2130,"ĠProbleme":2131,"201":2132,"zogen":2133,"Ġseid":2134,"Ġant":2135,"ĠHe":2136,"orn":2137,"ĠRu":2138,"Ġgewesen":2139,"Lass":2140,"ĠGl":2141,"ergie":2142,"Ġeigentlich":2143,"ĠÃ¤ndern":2144,"ĠLiebe":2145,"ktiv":2146,"Ġung":2147,"arr":2148,"ĠWahrheit":2149,"Bei":2150,"ĠUr":2151,"ehn":2152,"Ġanderes":2153,"rÃ¼ckt":2154,"ĠZukunft":2155,"ĠTochter":2156,"Ġfolgen":2157,"Ġokay":2158,"Ġbesonder":2159,"ĠLiefer":2160,"Dar":2161,"ĠMet":2162,"ĠWill":2163,"ipp":2164,"ĠhÃ¤tten":2165,"ikel":2166,"ĠMusik":2167,"finden":2168,"Ġunten":2169,"Okay":2170,"ĠSoftware":2171,"ersÃ¶n":2172,"Ġmorgen":2173,"igung":2174,"ĠDes":2175,"ĠBaby":2176,"ons":2177,"ook":2178,"Ã¤tze":2179,"Ġjede":2180,"kst":2181,"Dieser":2182,"Ġecht":2183,"Ġstellen":2184,"etter":2185,"scht":2186,"eien":2187,"ax":2188,"ĠName":2189,"ans":2190,"Ã¶sen":2191,"Ġbraucht":2192,"Ġste":2193,"Ã¤hn":2194,"ĠAll":2195,"Ġvergessen":2196,"ĠGrupp":2197,"ĠEurop":2198,"Ġnahm":2199,"ehler":2200,"Ġletzte":2201,"ĠPf":2202,"iter":2203,"isk":2204,"ĠMiss":2205,"ĠJunge":2206,"Ġgerne":2207,"Ġschaffen":2208,"ĠJo":2209,"Mehr":2210,"Ġern":2211,"reichen":2212,"Hotel":2213,"ĠTran":2214,"ieÃŁen":2215,"Ġgegeben":2216,"Ġerm":2217,"raf":2218,"zept":2219,"ĠOh":2220,"zess":2221,"ĠâĻ«":2222,"reck":2223,"ĠWeise":2224,"ĠKer":2225,"opp":2226,"Ġerwar":2227,"Ġ11":2228,"indung":2229,"Ġro":2230,"Ġmusste":2231,"Ġflie":2232,"Ġverh":2233,"schaften":2234,"zung":2235,"ĠDi":2236,"Ġverg":2237,"Ġgehe":2238,"gem":2239,"Ã¤ten":2240,"ĠÃ¼berhaupt":2241,"Ġeinzige":2242,"ĠInternet":2243,"ĠTelefon":2244,"Ġ]":2245,"Ġricht":2246,"kten":2247,"ĠPoliz":2248,"ĠPrÃ¤":2249,"Ġnutzen":2250,"iet":2251,"Ġwarten":2252,"ĠSÃ¼":2253,"Ã¤ndig":2254,"lin":2255,"Ġvielen":2256,"ĠKindern":2257,"prÃ¼":2258,"ĠFir":2259,"Ġdarf":2260,"ches":2261,"ĠGemein":2262,"gebracht":2263,"ase":2264,"Ġsonst":2265,"Ġverwendet":2266,"Ġmachte":2267,"Ġmensch":2268,"Ġ100":2269,"ĠWahl":2270,"ĠFeuer":2271,"Ġversucht":2272,"heiten":2273,"ĠStand":2274,"Ġunserem":2275,"uldig":2276,"Ġbisschen":2277,"ĠStud":2278,"ĠGeschen":2279,"ĠglÃ¼ck":2280,"ĠHimm":2281,"Ġdarin":2282,"ĠNachrichten":2283,"ĠMacht":2284,"ai":2285,"stens":2286,"man":2287,"Ġersch":2288,"Ġspr":2289,"ĠMo":2290,"ĠgrÃ¶ÃŁ":2291,"Ġnorm":2292,"Ġlernen":2293,"egal":2294,"Ġeins":2295,"rache":2296,"tete":2297,"ĠAngeb":2298,"Ã¼tzen":2299,"ilder":2300,"ĠAd":2301,"ĠInd":2302,"eren":2303,"Gen":2304,"Ã¼ssel":2305,"Ġfinde":2306,"andeln":2307,"ĠEntwick":2308,"lagen":2309,"ufen":2310,"Ġmeines":2311,"Keine":2312,"Ġbeiden":2313,"ĠEntscheid":2314,"sie":2315,"Ġfertig":2316,"Ġkrie":2317,"Ġverlassen":2318,"fin":2319,"itter":2320,"Ġgekommen":2321,"ummer":2322,"chn":2323,"Ġwarst":2324,"ossen":2325,"ĠThem":2326,"Ġtreffen":2327,"ĠRest":2328,"ĠTeam":2329,"Ġhil":2330,"Ġhoffe":2331,"ĠLeu":2332,"Ġbeste":2333,"Ã¶hn":2334,"10":2335,"Ãľber":2336,"ĠkÃ¼":2337,"rain":2338,"Des":2339,"ĠCode":2340,"oss":2341,"Ġ18":2342,"Ġkomme":2343,"ĠSatelliten":2344,"ĠProzent":2345,"ou":2346,"chter":2347,"genommen":2348,"ĠFahr":2349,"ĠZimmer":2350,"liches":2351,"reifen":2352,"alter":2353,"ĠWoche":2354,"Ġvorbei":2355,"Ġbestimm":2356,"isches":2357,"weis":2358,"laus":2359,"ator":2360,"utzt":2361,"Ġerle":2362,"ĠSam":2363,"auft":2364,"ĠTr":2365,"Ġen":2366,"ĠLuft":2367,"Ġjemanden":2368,"eichen":2369,"ĠSk":2370,"ĠFr":2371,"bs":2372,"Ã¤rt":2373,"lichkeit":2374,"licht":2375,"Ã¶tet":2376,"Ġfr":2377,"andelt":2378,"ĠerzÃ¤hlen":2379,"ĠOnline":2380,"ĠnÃ¤chsten":2381,"ity":2382,"Ġunbe":2383,"stehen":2384,"reten":2385,"undheit":2386,"haus":2387,"ĠFÃ¼r":2388,"lieÃŁlich":2389,"rieden":2390,"hÃ¶ren":2391,"ĠTo":2392,"bung":2393,"Ġhal":2394,"ĠZiel":2395,"Ã¼nst":2396,"aber":2397,"ĠAmer":2398,"denken":2399,"Ġbezahl":2400,"ĠGef":2401,"Ġrede":2402,"ĠDienst":2403,"wert":2404,"ĠThe":2405,"ĠStÃ¤d":2406,"ĠDa":2407,"ĠfÃ¼hren":2408,"ickt":2409,"ume":2410,"ĠÂ»":2411,"ement":2412,"Ġempf":2413,"sy":2414,"ĠFolge":2415,"Ã¤us":2416,"ĠDad":2417,"LU":2418,"Ġsolltest":2419,"ĠProdukte":2420,"ĠEnergie":2421,"ain":2422,"eiter":2423,"onnen":2424,"ĠHÃ¤nde":2425,"ĠGegen":2426,"ĠFehler":2427,"Sind":2428,"Ġjedes":2429,"aun":2430,"ĠSchule":2431,"Ġ50":2432,"ĠServ":2433,"Ġspe":2434,"ond":2435,"ĠTest":2436,"ĠgetÃ¶tet":2437,"ĠWissenschaft":2438,"ĠGroÃŁ":2439,"Ġleicht":2440,"ĠAlso":2441,"ĠTages":2442,"voll":2443,"Ã¤che":2444,"weit":2445,"ĠPap":2446,"fallen":2447,"WeiÃŁt":2448,"bel":2449,"worten":2450,"enz":2451,"echt":2452,"Ġzer":2453,"Ġindem":2454,"Ġeh":2455,"ĠBestellung":2456,"Ã¤ÃŁ":2457,"Ġerinn":2458,"ister":2459,"ellschaft":2460,"des":2461,"Ġcode":2462,"ĠReise":2463,"Willst":2464,"Ġgl":2465,"ĠWochen":2466,"ĠWerk":2467,"uelle":2468,"Ġgemein":2469,"ĠArtikel":2470,"ĠKlei":2471,"ĠNatur":2472,"ings":2473,"Ġtoll":2474,"gabe":2475,"Ġch":2476,"ĠTeu":2477,"ĠSpaÃŁ":2478,"Doch":2479,"itu":2480,"Ġwollten":2481,"ĠStÃ¼ck":2482,"haft":2483,"auern":2484,"tem":2485,"onn":2486,"die":2487,"ĠBeg":2488,"Ġkenne":2489,"si":2490,"ehme":2491,"ĠKosten":2492,"rochen":2493,"usammen":2494,"itze":2495,"ĠEltern":2496,"ĠSpiele":2497,"Ġeure":2498,"ĠWind":2499,"Ste":2500,"lt":2501,"ĠFrank":2502,"ĠJud":2503,"Ġfalsch":2504,"iem":2505,"Ġhinzu":2506,"ĠMeer":2507,"Ġbleibt":2508,"ĠFilm":2509,"elle":2510,"inger":2511,"Ġbald":2512,"ĠFein":2513,"Von":2514,"oth":2515,"ĠBesch":2516,"Ġwahrscheinlich":2517,"Ġfahren":2518,"eug":2519,"reisen":2520,"anzen":2521,"Ġkont":2522,"ump":2523,"ĠBro":2524,"ĠerzÃ¤hlt":2525,"ĠEssen":2526,"ĠHeil":2527,"Ihre":2528,"Ġbrach":2529,"ĠIm":2530,"lose":2531,"ĠStu":2532,"lossen":2533,"reise":2534,"Ġ2018":2535,"auber":2536,"ĠlÃ¤sst":2537,"Ġbringt":2538,"...":2539,"ĠSchul":2540,"ĠSal":2541,"xt":2542,"isst":2543,"Ġ+":2544,"Ã¼gen":2545,"eten":2546,"ĠGesetz":2547,"raten":2548,"Ġtrin":2549,"Ġdirekt":2550,"gyp":2551,"ĠKonto":2552,"amt":2553,"Ġkonnten":2554,"bes":2555,"inks":2556,"Ent":2557,"uck":2558,"wegen":2559,"recht":2560,"unst":2561,"Ġzerst":2562,"ommt":2563,"ffentlich":2564,"MEN":2565,"CH":2566,"ĠLÃ¶s":2567,"ĠAntwort":2568,"zus":2569,"Ġgeworden":2570,"alls":2571,"ĠMag":2572,"allo":2573,"ĠfÃ¼hl":2574,"ĠFar":2575,"ĠEuch":2576,"Ġgebe":2577,"stellungen":2578,"zentr":2579,"gestellt":2580,"rom":2581,"ĠÃĦgyp":2582,"Ġinner":2583,"ĠDen":2584,"Ġ2019":2585,"ĠPreis":2586,"Ã¤tz":2587,"antwort":2588,"ĠOrg":2589,"ĠgrÃ¶ÃŁer":2590,"atten":2591,"nahme":2592,"bte":2593,"rÃ¤n":2594,"ĠPer":2595,"ĠErfahr":2596,"Ã¤hlen":2597,"Ġkamen":2598,"ĠWohn":2599,"Ġstimmt":2600,"ama":2601,"Kl":2602,"orge":2603,"ĠpersÃ¶n":2604,"ember":2605,"ĠKne":2606,"Sag":2607,"chst":2608,"andlung":2609,"eitung":2610,"glie":2611,"ĠVerl":2612,"eilt":2613,"ĠmÃ¶chten":2614,"ĠFrei":2615,"ĠTh":2616,"ennst":2617,"50":2618,"echsel":2619,"Ġsechs":2620,"Ġna":2621,"ĠFunktion":2622,"alien":2623,"Ġsieben":2624,"ÃĦ":2625,"Ġblo":2626,"Ġschreiben":2627,"Ġrunter":2628,"Ġreg":2629,"press":2630,"ĠKat":2631,"VPN":2632,"fft":2633,"ĠApplaus":2634,"ĠÃ¼br":2635,"ĠTeufel":2636,"ĠDanke":2637,"ome":2638,"str":2639,"Ġhe":2640,"Ġbietet":2641,"ĠHoch":2642,"rotz":2643,"ĠGo":2644,"ĠGefÃ¼hl":2645,"ĠHimmel":2646,"Ġerf":2647,"wendung":2648,"ĠFÃ¤h":2649,"annte":2650,"Dieses":2651,"ĠChar":2652,"afft":2653,"ND":2654,"ĠKomp":2655,"schung":2656,"kel":2657,"ĠBar":2658,"ĠlÃ¤uft":2659,"Ġherum":2660,"ĠunterstÃ¼t":2661,"ohlen":2662,"Ġ[":2663,"fÃ¼hren":2664,"lieÃŁen":2665,"ĠDo":2666,"Ġbegann":2667,"ĠChance":2668,"bild":2669,"je":2670,"Ġkompl":2671,"ĠAhn":2672,"ichtet":2673,"ernt":2674,"ĠOpt":2675,"Ġ24":2676,"Ġwicht":2677,"ĠBLU":2678,"ĠLin":2679,"th":2680,"ĠSpe":2681,"inen":2682,"ĠSek":2683,"ĠUhr":2684,"ĠGener":2685,"ĠBLUMEN":2686,"ĠTV":2687,"cker":2688,"Ġniemals":2689,"TV":2690,"zw":2691,"ĠAhnung":2692,"ail":2693,"Ġarbeite":2694,"gleich":2695,"ĠGesundheit":2696,"bare":2697,"alisiert":2698,"gegen":2699,"ĠCar":2700,"ĠChr":2701,"Ġjedem":2702,"ĠwÃ¼n":2703,"ĠKontakt":2704,"Kein":2705,"ĠPlatz":2706,"ĠKerl":2707,"hundert":2708,"ĠKÃ¼":2709,"Ġ13":2710,"ĠArm":2711,"sprechen":2712,"ĠLehr":2713,"ĠÂ·":2714,"eister":2715,"aschine":2716,"Ġschlecht":2717,"Soll":2718,"ĠJuda":2719,"Am":2720,"stag":2721,"anten":2722,"punkt":2723,"ĠTechnologie":2724,"beh":2725,"Ġkaufen":2726,"ĠDro":2727,"ork":2728,"ĠAdr":2729,"ĠLage":2730,"Aus":2731,"Ġward":2732,"duz":2733,"ĠEuropa":2734,"ĠLeuten":2735,"ras":2736,"setz":2737,"ĠTor":2738,"ĠverrÃ¼ckt":2739,"Ġtat":2740,"ĠDar":2741,"ĠMonat":2742,"ĠNot":2743,"system":2744,"abt":2745,"Bist":2746,"ĠLieferung":2747,"tp":2748,"ĠdÃ¼r":2749,"ara":2750,"Ã¤ngt":2751,"ĠPrie":2752,"ĠlieÃŁ":2753,"Ġbieten":2754,"ĠwÃ¤ren":2755,"ĠUSA":2756,"ĠPu":2757,"yn":2758,"rech":2759,"falls":2760,"ĠX":2761,"ĠFern":2762,"bie":2763,"Ġerfahren":2764,"sl":2765,"alem":2766,"iker":2767,"NG":2768,"ane":2769,"Ã¶rder":2770,"ĠSelbst":2771,"ĠMÃ¶glichkeit":2772,"ĠPolizei":2773,"Ġguten":2774,"Ġegal":2775,"ĠHotels":2776,"grund":2777,"Gut":2778,"Mir":2779,"ĠOber":2780,"Ġretten":2781,"glichen":2782,"roffen":2783,"Ġsozi":2784,"ĠBest":2785,"Unsere":2786,"vers":2787,"ĠBef":2788,"ĠHerzen":2789,"ĠKranken":2790,"ĠEine":2791,"rig":2792,"ĠHa":2793,"ienten":2794,"Ġscheint":2795,"Ġunglaub":2796,"Ġweitere":2797,"ĠDeut":2798,"ĠSchwester":2799,"ategorien":2800,"ĠglÃ¼cklich":2801,"War":2802,"Ġguter":2803,"urg":2804,"ĠkÃ¤m":2805,"Ġsowie":2806,"Ġ16":2807,"ĠMeinung":2808,"Ġlieben":2809,"Ġherunter":2810,"iemand":2811,"Ġperfe":2812,"di":2813,"ĠVie":2814,"elche":2815,"Ġabs":2816,"Zum":2817,"Ben":2818,"rt":2819,"Ġehr":2820,"ĠhÃ¤lt":2821,"ĠSinn":2822,"ĠErgeb":2823,"Ġfand":2824,"ĠÃ¼berall":2825,"hause":2826,"ante":2827,"ĠSprache":2828,"Ġel":2829,"ĠGeist":2830,"lauben":2831,"ĠUnterstÃ¼t":2832,"Ġverschiedene":2833,"Ã¶ll":2834,"Ġlesen":2835,"ĠStimme":2836,"ktur":2837,"Ġlieber":2838,"Ġziehen":2839,"EL":2840,"ĠMode":2841,"ĠKunst":2842,"ĠSter":2843,"Ġnennen":2844,"hre":2845,"Ġstark":2846,"seite":2847,"ĠProjekt":2848,"ĠBÃ¼":2849,"ĠHar":2850,"ĠBezie":2851,"Ġverschiedenen":2852,"ĠDing":2853,"ĠVort":2854,"izin":2855,"Ġfl":2856,"Ġfrag":2857,"ĠKr":2858,"Bl":2859,"aterial":2860,"ĠBu":2861,"Auch":2862,"aktion":2863,"hÃ¤lt":2864,"zeigt":2865,"ĠHaar":2866,"indest":2867,"ĠSchn":2868,"Ġend":2869,"Ġwert":2870,"ĠGrÃ¼n":2871,"ĠLande":2872,"blick":2873,"//":2874,"stra":2875,"ĠwÃ¤r":2876,"Ġsolche":2877,"Ġaktiv":2878,"://":2879,"ĠBrÃ¼":2880,"ĠVerbindung":2881,"ausend":2882,"ĠKap":2883,"ĠHey":2884,"Ġversch":2885,"Ġsagten":2886,"ED":2887,"Ġzeigt":2888,"opfer":2889,"iar":2890,"ĠAlter":2891,"ĠEd":2892,"Ġbem":2893,"Ġseines":2894,"ek":2895,"Ġdran":2896,"Ġlaufen":2897,"uh":2898,"reiten":2899,"digen":2900,"ĠPass":2901,"ĠJungs":2902,"Ã¶se":2903,"ffiz":2904,"ĠgroÃŁart":2905,"dingungen":2906,"ĠGruppe":2907,"ift":2908,"Ġsiehst":2909,"Ġbenutzen":2910,"druck":2911,"ĠSc":2912,"Ã¤te":2913,"ĠFin":2914,"ĠEinz":2915,"ĠSeele":2916,"ĠFrÃ¼":2917,"ĠOb":2918,"stellte":2919,"ĠMil":2920,"Ġfort":2921,"ĠKÃ¶nigs":2922,"air":2923,"Ġerreichen":2924,"Ġdanke":2925,"Ġeur":2926,"ĠBett":2927,"ĠFuÃŁ":2928,"ins":2929,"ĠZusammen":2930,"Ġstatt":2931,"Ġkeiner":2932,"Mach":2933,"ĠDurch":2934,"olution":2935,"Ġanzu":2936,"Je":2937,"andel":2938,"usalem":2939,"ochen":2940,"Ġbeein":2941,"dlich":2942,"ĠBenutzer":2943,"ĠWorte":2944,"stall":2945,"ĠfÃ¼hlen":2946,"Ġschwier":2947,"gn":2948,"ĠSachen":2949,"ĠBel":2950,"iken":2951,"leist":2952,"ĠBoden":2953,"Ġne":2954,"Ġbestimmt":2955,"ifiz":2956,"Ġ25":2957,"ex":2958,"ĠGold":2959,"wenden":2960,"Ġgesam":2961,"fÃ¼gen":2962,"ĠGeheim":2963,"sych":2964,"ix":2965,"welt":2966,"ĠSchuld":2967,"ĠspÃ¤t":2968,"obil":2969,"ĠJerusalem":2970,"ino":2971,"ĠFoto":2972,"ĠListe":2973,"dung":2974,"Ġmanchmal":2975,"ĠÃĦn":2976,"ĠBas":2977,"Ã¤hlt":2978,"ĠGesellschaft":2979,"setzen":2980,"Ġwann":2981,"Ġnehme":2982,"onen":2983,"ĠVerein":2984,"weisen":2985,"Ġverstehe":2986,"ĠÃĦgypten":2987,"Bis":2988,"ĠRob":2989,"dy":2990,"uar":2991,"walt":2992,"ĠÃ¤hn":2993,"ĠFac":2994,"rolle":2995,"denten":2996,"nahmen":2997,"Ġgedacht":2998,"Ġht":2999,"Ã¼ge":3000,"ST":3001,"Ã¶ffent":3002,"ĠArten":3003,"ĠYork":3004,"ĠGrÃ¶":3005,"ĠvÃ¶ll":3006,"ĠBilder":3007,"ĠKarte":3008,"iko":3009,"ĠgefÃ¤hr":3010,"Ġstand":3011,"ĠnÃ¤chste":3012,"Ġbesonders":3013,"part":3014,"mmern":3015,"ikation":3016,"ĠGebÃ¤u":3017,"sh":3018,"Ġbauen":3019,"ĠTre":3020,"ĠProf":3021,"ĠPartner":3022,"omat":3023,"Ġsetzen":3024,"Ġgenommen":3025,"ĠBi":3026,"Ġew":3027,"Ġbeginnen":3028,"ĠPriv":3029,"ĠUnterstÃ¼tzung":3030,"HÃ¶r":3031,"ĠKraft":3032,"Ã¤nden":3033,"Ġirgendwie":3034,"ĠPunkt":3035,"deut":3036,"Tut":3037,"prochen":3038,"Darum":3039,"Ġaufge":3040,"ruch":3041,"ogle":3042,"Ġhttp":3043,"olit":3044,"ĠWagen":3045,"ĠPrin":3046,"Ġverste":3047,"lage":3048,"emand":3049,"Ġpassieren":3050,"ĠNetzwerk":3051,"Ġmo":3052,"ĠBereich":3053,"ĠEle":3054,"ĠJu":3055,"ĠPhil":3056,"ĠRegierung":3057,"ĠNa":3058,"Ã¶lker":3059,"Ġaufzu":3060,"aur":3061,"Ġerkennen":3062,"atte":3063,"schnitt":3064,"inder":3065,"Ġvorstellen":3066,"ĠSpr":3067,"aff":3068,"hol":3069,"ĠProdukt":3070,"volution":3071,"ĠsÃ¼":3072,"Ġaktu":3073,"ĠMund":3074,"ym":3075,"Ġwelt":3076,"reu":3077,"ĠAnfang":3078,"ĠBed":3079,"pen":3080,"sm":3081,"igten":3082,"ĠSchutz":3083,"Ġhinaus":3084,"Ġ14":3085,"Ġ17":3086,"ĠBeweg":3087,"itÃ¤ten":3088,"ĠHast":3089,"Ġok":3090,"own":3091,"cen":3092,"ĠMilliar":3093,"Lassen":3094,"ĠWaffe":3095,"roll":3096,"ĠExper":3097,"anach":3098,"orben":3099,"ebook":3100,"ĠFreundin":3101,"Ġdahin":3102,"Ġworden":3103,"ĠEigen":3104,"uchte":3105,"elbe":3106,"ĠPrÃ¤si":3107,"Jeder":3108,"zig":3109,"Ġak":3110,"asche":3111,"ismus":3112,"ĠNun":3113,"NE":3114,"Ã¼b":3115,"Ġentfern":3116,"ĠFlor":3117,"ĠMonate":3118,"ĠvÃ¶llig":3119,"laden":3120,"Ã¤ss":3121,"ĠGar":3122,"ĠDann":3123,"ĠTagen":3124,"Ġerinnern":3125,"entr":3126,"Ġ2017":3127,"KÃ¶nnen":3128,"ragt":3129,"Ġlass":3130,"Ġtue":3131,"Geh":3132,"ĠSchlÃ¼ssel":3133,"Dein":3134,"ĠfrÃ¼her":3135,"Heute":3136,"ĠLiebl":3137,"Ġbekannt":3138,"schte":3139,"gesehen":3140,"auso":3141,"Ġbesuchen":3142,"eige":3143,"ese":3144,"Ġgeboren":3145,"ĠIsraels":3146,"ĠHD":3147,"ĠberÃ¼":3148,"ĠÃĦr":3149,"ĠPlaneten":3150,"kauf":3151,"ĠProt":3152,"ĠGren":3153,"ĠbenÃ¶t":3154,"Ġar":3155,"zeugen":3156,"teil":3157,"Ġderen":3158,"ĠSÃ¼n":3159,"ĠZwei":3160,"ĠGedanken":3161,"Ġinnerhalb":3162,"Ã¶st":3163,"Ġverlieren":3164,"Ġtragen":3165,"ultur":3166,"Ġversp":3167,"hÃ¤ng":3168,"ative":3169,"ĠwÃ¤hlen":3170,"akter":3171,"folgen":3172,"ĠLa":3173,"ĠlÃ¤nger":3174,"ĠMik":3175,"Ġernst":3176,"vert":3177,"ieÃŁ":3178,"ĠTransp":3179,"unt":3180,"ĠService":3181,"Ok":3182,"ĠHier":3183,"ise":3184,"ĠJack":3185,"gaben":3186,"gefÃ¤hr":3187,"ĠSil":3188,"ĠWaffen":3189,"Ġ40":3190,"sinn":3191,"Wissen":3192,"ram":3193,"Ġstar":3194,"Ge":3195,"Ġ>":3196,"erei":3197,"roh":3198,"Ã¶ff":3199,"ĠStart":3200,"Ġentde":3201,"Ġzehn":3202,"ĠCas":3203,"ehlen":3204,"annten":3205,"ĠNÃ¤":3206,"ĠOrganis":3207,"ĠgefÃ¤llt":3208,"Ã¤mlich":3209,"Ġverdammt":3210,"ĠEntwicklung":3211,"ĠPriester":3212,"Ġhinein":3213,"ica":3214,"ows":3215,"ĠAdresse":3216,"jen":3217,"ĠDir":3218,"baren":3219,"ĠHaut":3220,"sto":3221,"ĠRis":3222,"ĠStÃ¤dte":3223,"ĠVideos":3224,"ĠfÃ¼hrt":3225,"ĠRuss":3226,"kon":3227,"ĠSorgen":3228,"ĠAktiv":3229,"ĠMitglie":3230,"ĠPos":3231,"rift":3232,"digt":3233,"acken":3234,"iesen":3235,"Ã¤ngnis":3236,"ĠKampf":3237,"Ġtrinken":3238,"Ġholen":3239,"zte":3240,"Ġaut":3241,"amals":3242,"Ġerinner":3243,"ĠSchwert":3244,"ĠerklÃ¤ren":3245,"innt":3246,"ĠAs":3247,"ĠKor":3248,"ĠSchÃ¶n":3249,"Wann":3250,"Ġentscheiden":3251,"ĠWein":3252,"reibt":3253,"Ġgleichen":3254,"www":3255,"Ġzahl":3256,"scher":3257,"Ġlei":3258,"ĠRuhe":3259,"low":3260,"ĠÃ¶ff":3261,"ĠermÃ¶":3262,"Ġwor":3263,"Ġgebracht":3264,"ment":3265,"anuar":3266,"ums":3267,"ĠBahn":3268,"wÃ¼r":3269,"ĠPark":3270,"Ġjemals":3271,"rakt":3272,"ĠWert":3273,"ĠDem":3274,"Ġvorher":3275,"zustellen":3276,"ĠFotos":3277,"ĠBewertung":3278,"Deine":3279,"NatÃ¼rlich":3280,"ĠSym":3281,"Ã¼ss":3282,"ĠBlick":3283,"Ġlangsam":3284,"Ġext":3285,"Ġruh":3286,"Ġschlafen":3287,"All":3288,"ĠEntscheidung":3289,"machen":3290,"ĠChe":3291,"Ã¤ngen":3292,"ksam":3293,"ĠWar":3294,"Ġalten":3295,"ĠAngebot":3296,"ĠSex":3297,"Ġeher":3298,"ĠFacebook":3299,"Gib":3300,"Ġgr":3301,"Ġjedoch":3302,"ĠHoff":3303,"ument":3304,"zimmer":3305,"droid":3306,"itzt":3307,"ĠFamilien":3308,"schlag":3309,"llt":3310,"ĠBau":3311,"Ġnachdem":3312,"Ġneben":3313,"Ġverz":3314,"AN":3315,"ĠNummer":3316,"Ġkleiner":3317,"ĠPatienten":3318,"ais":3319,"eniger":3320,"Ã¤ufig":3321,"Noch":3322,"Tu":3323,"vest":3324,"ĠPfl":3325,"inter":3326,"Ã¤chst":3327,"ĠGeburt":3328,"ĠGÃ¶t":3329,"sein":3330,"Ġzwar":3331,"achst":3332,"ĠHack":3333,"otion":3334,"forderungen":3335,"ĠÃĸl":3336,"geht":3337,"Ã¼lt":3338,"ĠJungen":3339,"ĠMittel":3340,"Ġnett":3341,"Ġentwickelt":3342,"ĠGoogle":3343,"ieg":3344,"iew":3345,"schutz":3346,"ĠLab":3347,"ĠSchatz":3348,"ĠSchmer":3349,"mÃ¤ÃŁ":3350,"ĠGleich":3351,"ĠTier":3352,"ĠâĢ¦":3353,"immen":3354,"Ġgeschrieben":3355,"Ġfallen":3356,"Ġbeob":3357,"Ġreich":3358,"mo":3359,"geladen":3360,"ĠStraÃŁe":3361,"ĠErfahrung":3362,"ierungen":3363,"Ġlok":3364,"ĠLÃ¶sung":3365,"Niemand":3366,"Ġgesp":3367,"Ġeigene":3368,"ĠverfÃ¼g":3369,"laubt":3370,"ĠÂ«":3371,"ĠHund":3372,"Ġlau":3373,"Ġtrotz":3374,"ĠOkay":3375,"ĠKamer":3376,"ĠBehandlung":3377,"mÃ¶glich":3378,"Ġzuvor":3379,"ĠArzt":3380,"leisch":3381,"ĠVersion":3382,"ĠGefÃ¤ngnis":3383,"ĠSeiten":3384,"ĠKann":3385,"ĠHinter":3386,"Ġacht":3387,"ĠSitu":3388,"ĠAlt":3389,"ober":3390,"ĠFest":3391,"ĠStat":3392,"edet":3393,"ĠDesign":3394,"ĠÃĦnder":3395,"Ġinstall":3396,"Ġgewinnen":3397,"ĠPal":3398,"ĠfrÃ¼h":3399,"fre":3400,"par":3401,"ĠMose":3402,"ĠTraum":3403,"amens":3404,"ake":3405,"ĠMarkt":3406,"12":3407,"ĠBon":3408,"ĠHandy":3409,"Ġverbesser":3410,"Ġinteressiert":3411,"ĠverÃ¤ndert":3412,"ĠSonne":3413,"arbeitet":3414,"Au":3415,"zer":3416,"ĠKomment":3417,"Ġgemeinsam":3418,"Ã¼ste":3419,"Ġkaum":3420,"ettet":3421,"ĠGeschenke":3422,"ĠGebÃ¤ude":3423,"ets":3424,"Ġkommst":3425,"ĠWirtschaft":3426,"ĠSchlaf":3427,"eth":3428,"ĠZeug":3429,"Ġauszu":3430,"ĠOpfer":3431,"Ġbewegen":3432,"dit":3433,"Ġzuf":3434,"Ġdeines":3435,"arbeit":3436,"ĠWieder":3437,"Ġheil":3438,"aly":3439,"ĠJetzt":3440,"ĠArch":3441,"ĠgegenÃ¼ber":3442,"ĠMot":3443,"ĠBitte":3444,"30":3445,"Ġentfernt":3446,"UNG":3447,"kungen":3448,"rÃ¼cken":3449,"Ġsagst":3450,"ittag":3451,"ĠMÃ¤r":3452,"Ġtust":3453,"ternation":3454,"ĠVis":3455,"zeuge":3456,"Ġteilen":3457,"ĠBewertungen":3458,"ĠRat":3459,"ĠCon":3460,"Ġhilft":3461,"ĠSen":3462,"abel":3463,"ĠVir":3464,"Ġerg":3465,"ĠgroÃŁer":3466,"Ġlebt":3467,"ĠbloÃŁ":3468,"ĠLÃ¤nder":3469,"Ġsiehe":3470,"ille":3471,"ĠChina":3472,"ĠSÃ¶":3473,"arbeiten":3474,"Ġanz":3475,"serv":3476,"port":3477,"Ġfindet":3478,"Ġjen":3479,"ĠGeschichten":3480,"Ġschlimm":3481,"Deshalb":3482,"Ġ=":3483,"sichtlich":3484,"ĠnÃ¤mlich":3485,"iven":3486,"Ġkleines":3487,"sent":3488,"ĠSchritt":3489,"Ġliegen":3490,"Ġbetrach":3491,"Ġnamens":3492,"EC":3493,"ĠFort":3494,"isse":3495,"losen":3496,"schluss":3497,"Ġbelie":3498,"Genau":3499,"ĠTop":3500,"Ã¤nge":3501,"ĠverÃ¤ndern":3502,"ĠPost":3503,"ams":3504,"Gott":3505,"ĠKal":3506,"ufe":3507,"Ġsamm":3508,"ĠErw":3509,"raut":3510,"ĠMÃ¶glichkeiten":3511,"ĠMat":3512,"ĠDien":3513,"Ġneues":3514,"richten":3515,"ilt":3516,"Ã¤hrend":3517,"ĠBrie":3518,"Ġgenauso":3519,"kur":3520,"ĠLÃ¤ndern":3521,"Ġdrauf":3522,"utlich":3523,"ĠStunde":3524,"etzte":3525,"ĠProzess":3526,"ĠHÃ¶lle":3527,"ĠFrieden":3528,"ehrt":3529,"ĠIdeen":3530,"itel":3531,"Ġerfolg":3532,"ĠÃ¼berras":3533,"MÃ¶":3534,"ĠRechte":3535,"Ġdenkst":3536,"ĠKanal":3537,"Ġkrank":3538,"ĠÃ¼bert":3539,"ĠKo":3540,"Ġschreck":3541,"rufen":3542,"Ġwohn":3543,"ĠMilliarden":3544,"Ġqu":3545,"Ġzuerst":3546,"ĠAgen":3547,"ĠMu":3548,"Ġhierher":3549,"ĠBlumenst":3550,"ĠFÃ¼hr":3551,"Ġderzeit":3552,"omb":3553,"zin":3554,"odes":3555,"Ã¤lter":3556,"ĠhÃ¤ttest":3557,"ĠScheiÃŁ":3558,"Ġendlich":3559,"len":3560,"ĠMÃ¼":3561,"elig":3562,"ĠBÃ¼ro":3563,"Ġbesteht":3564,"ĠStaaten":3565,"lang":3566,"sal":3567,"Ġstarb":3568,"ĠerhÃ¶":3569,"Ġeinigen":3570,"ĠdÃ¼rfen":3571,"ĠAndroid":3572,"ĠSuper":3573,"Ġgestern":3574,"Ġgefallen":3575,"ĠwÃ¼rdest":3576,"ĠEngl":3577,"ĠZugang":3578,"Ġhervor":3579,"will":3580,"gest":3581,"ĠThema":3582,"altet":3583,"ĠSport":3584,"ĠBus":3585,"ĠTem":3586,"ruar":3587,"ebruar":3588,"selben":3589,"Zwei":3590,"uk":3591,"ĠTiere":3592,"ringe":3593,"Ġeinzel":3594,"ruf":3595,"ĠFen":3596,"ĠTrÃ¤":3597,"ĠKontrolle":3598,"olt":3599,"blik":3600,"rifft":3601,"han":3602,"ĠAfr":3603,"Ġgeschehen":3604,"19":3605,"ĠtrÃ¤":3606,"bau":3607,"ĠungefÃ¤hr":3608,"Ġjeg":3609,"iver":3610,"ĠStandard":3611,"les":3612,"mann":3613,"ĠTat":3614,"ĠRau":3615,"ĠAng":3616,"istr":3617,"ĠBesuch":3618,"Ġ2016":3619,"AR":3620,"erikan":3621,"Ġgesprochen":3622,"Ġfor":3623,"ĠVerhalten":3624,"Ġewig":3625,"Sehen":3626,"zember":3627,"Ġrei":3628,"ĠhÃ¶rt":3629,"Ġschau":3630,"Ġgeredet":3631,"kung":3632,"ehst":3633,"eilung":3634,"Ã¶ffentlicht":3635,"urcht":3636,"lauf":3637,"ĠEis":3638,"ĠWeihn":3639,"nern":3640,"ĠAlles":3641,"ĠBund":3642,"ĠPort":3643,"tels":3644,"Ab":3645,"OS":3646,"holen":3647,"aster":3648,"vent":3649,"ĠRad":3650,"ime":3651,"Ġgetroffen":3652,"klÃ¤r":3653,"AT":3654,"US":3655,"Ã¤ndler":3656,"ĠAlle":3657,"urm":3658,"gliche":3659,"sichtig":3660,"Ġanderer":3661,"rÃ¤u":3662,"Ġgegangen":3663,"elten":3664,"Ġmeinst":3665,"ĠVerfÃ¼g":3666,"ĠLev":3667,"ĠRolle":3668,"ations":3669,"ĠMedik":3670,"emen":3671,"ĠSchiff":3672,"Ġexist":3673,"eira":3674,"Ġinternation":3675,"ĠArsch":3676,"ĠBank":3677,"ffekt":3678,"Ġselben":3679,"hungen":3680,"achtet":3681,"flÃ¤che":3682,"ball":3683,"Ġsollt":3684,"ĠGewalt":3685,"ĠDatei":3686,"Ġansehen":3687,"Ġmiteinander":3688,"ĠUnterschied":3689,"Ġglob":3690,"Ach":3691,"ĠMaterial":3692,"ĠJe":3693,"ĠfÃ¼hle":3694,"aters":3695,"ĠBeste":3696,"ĠReihe":3697,"verl":3698,"eller":3699,"ĠkÃ¤mpfen":3700,"tell":3701,"ĠhÃ¶rte":3702,"wind":3703,"ĠDateien":3704,"Ġbemer":3705,"ĠÃľ":3706,"Ġbrachte":3707,"Damit":3708,"Ġsa":3709,"reche":3710,"ĠHÃ¼":3711,"ĠScheiÃŁe":3712,"Ġlust":3713,"Ġschauen":3714,"Ã¤user":3715,"ĠMich":3716,"Ġschn":3717,"kam":3718,"ĠStre":3719,"unikation":3720,"ĠSuche":3721,"Ġgefragt":3722,"ĠNÃ¤he":3723,"view":3724,"ĠtÃ¤":3725,"gesetzt":3726,"Ġbenutzt":3727,"Ġtechn":3728,"Ġeuer":3729,"Ġrichtige":3730,"ĠgrÃ¶ÃŁten":3731,"ĠWohnung":3732,"ĠÐ":3733,"uldigen":3734,"Ġkostenlos":3735,"ĠStelle":3736,"Pro":3737,"haben":3738,"stru":3739,"ĠLÃ¶":3740,"Ġverbunden":3741,"oter":3742,"Ġhart":3743,"ĠErn":3744,"spro":3745,"Ġnimmt":3746,"Ġsprachen":3747,"Ġeinsch":3748,"Ã¤le":3749,"ĠWege":3750,"Ġsitzen":3751,"ĠKaffe":3752,"Einige":3753,"Ob":3754,"load":3755,"ĠMonaten":3756,"Ġversuche":3757,"ruppen":3758,"buch":3759,"ĠWunder":3760,"ĠNord":3761,"erne":3762,"passen":3763,"Ã¼cht":3764,"Ġerre":3765,"ĠHost":3766,"Ġerforder":3767,"ĠIt":3768,"Seit":3769,"Ġtrau":3770,"hof":3771,"Ġkriegen":3772,"Ġmoder":3773,"Ġakzept":3774,"wand":3775,"Ġdamals":3776,"Ġfroh":3777,"ĠschÃ¼tzen":3778,"Ġgelernt":3779,"Ġehrlich":3780,"ling":3781,"ĠSonnen":3782,"ĠGeschÃ¤fts":3783,"Mr":3784,"yr":3785,"ĠAkt":3786,"unger":3787,"ilf":3788,"ash":3789,"Ã¤lle":3790,"Ġschwar":3791,"Ġdessen":3792,"11":3793,"nete":3794,"ĠBÃ¼rger":3795,"suchen":3796,"ĠGerÃ¤t":3797,"by":3798,"phe":3799,"gebung":3800,"Ġzweite":3801,"ĠKlein":3802,"De":3803,"ka":3804,"Ġtief":3805,"Ġmehrere":3806,"igh":3807,"bert":3808,"ĠÃ¼berw":3809,"Ġandern":3810,"ĠAuge":3811,"Ġfunktionieren":3812,"ktor":3813,"Ġries":3814,"Blumen":3815,"Ġruhig":3816,"Ġverurs":3817,"Ġanst":3818,"Ġbed":3819,"ammt":3820,"Irgend":3821,"ĠAch":3822,"Ġanfangen":3823,"utt":3824,"Ġansch":3825,"amin":3826,"Ġunglaublich":3827,"IS":3828,"ko":3829,"ppe":3830,"Ar":3831,"ommer":3832,"ĠmÃ¶gen":3833,"ĠKrebs":3834,"Ġihres":3835,"Ã¤tzen":3836,"Ġfliegen":3837,"unken":3838,"dere":3839,"ĠZÃ¤":3840,"ĠMod":3841,"igit":3842,"verstÃ¤nd":3843,"melden":3844,"ĠFe":3845,"ĠaufhÃ¶ren":3846,"schaffen":3847,"ĠHeraus":3848,"ĠMedien":3849,"Ġgingen":3850,"ĠErk":3851,"EF":3852,"ress":3853,"stoff":3854,"ĠGast":3855,"ĠNutz":3856,"ĠServer":3857,"inne":3858,"schreiben":3859,"Ġfehl":3860,"Ġleg":3861,"Ġ21":3862,"ĠErd":3863,"ĠArme":3864,"Ġantwor":3865,"ĠAuss":3866,"Ġklingt":3867,"okrat":3868,"Ġgleiche":3869,"Ġirgendwo":3870,"Ã¶tzlich":3871,"ĠHoffnung":3872,"ales":3873,"ehren":3874,"Ġwerdet":3875,"ĠErfolg":3876,"Ġunseres":3877,"ĠRichtung":3878,"Ġteil":3879,"Woher":3880,"nach":3881,"Ġerwartet":3882,"ĠDet":3883,"Ã¤hrung":3884,"ĠgrÃ¶ÃŁte":3885,"ĠLehrer":3886,"ĠGrÃ¶ÃŁe":3887,"lungen":3888,"ari":3889,"ĠlÃ¶sen":3890,"NA":3891,"hlt":3892,"Vielen":3893,"mar":3894,"Ġdanach":3895,"ĠKir":3896,"ĠEp":3897,"Ġkn":3898,"Unter":3899,"ĠEmpf":3900,"Ġ2020":3901,"iment":3902,"ĠGericht":3903,"ĠTypen":3904,"ĠnÃ¶t":3905,"eits":3906,"Ġentwickeln":3907,"ĠVerfÃ¼gung":3908,"Ġof":3909,"bet":3910,"Ġirgendw":3911,"ĠPolit":3912,"ĠFlugzeug":3913,"frage":3914,"ierend":3915,"Ġgehst":3916,"Ġunterschied":3917,"ven":3918,"Ġalte":3919,"auert":3920,"ĠFeld":3921,"ĠDor":3922,"gesicht":3923,"haf":3924,"ament":3925,"ĠÃ¼berprÃ¼":3926,"asen":3927,"ĠSa":3928,"Ġabzu":3929,"Ġbezahlen":3930,"brechen":3931,"iegel":3932,"ĠStamm":3933,"Ġamerikan":3934,"Ġgestorben":3935,"stern":3936,"ĠDeine":3937,"ĠVaters":3938,"rate":3939,"ĠUk":3940,"apan":3941,"schlagen":3942,"sion":3943,"ĠGespr":3944,"schÃ¶n":3945,"Ġverstanden":3946,"Ġsu":3947,"elte":3948,"ĠHaben":3949,"ppen":3950,"Ġarbeitet":3951,"15":3952,"Ġbas":3953,"reg":3954,"eltsam":3955,"ĠFreu":3956,"aschinen":3957,"ace":3958,"oo":3959,"ĠverfÃ¼gbar":3960,"ĠnatÃ¼r":3961,"Ġgeschafft":3962,"ĠAufgabe":3963,"Entsch":3964,"Br":3965,"ĠGem":3966,"urn":3967,"rug":3968,"ĠAnzahl":3969,"liegen":3970,"uen":3971,"ĠJanuar":3972,"ĠZeiten":3973,"zeichen":3974,"gekommen":3975,"Ġlasse":3976,"ĠZeichen":3977,"ehmer":3978,"Ġwieso":3979,"ĠKaffee":3980,"iste":3981,"ĠBewegung":3982,"Benutzer":3983,"AuÃŁer":3984,"kÃ¼n":3985,"Ġeinge":3986,"Ġ27":3987,"zeichnet":3988,"Kannst":3989,"Ġspezi":3990,"Blei":3991,"burg":3992,"Ġdumm":3993,"ĠstÃ¤r":3994,"Ġstolz":3995,"ĠFenster":3996,"kor":3997,"ĠLeist":3998,"ĠEben":3999,"Ã¤lfte":4000,"ĠWeib":4001,"ĠWindows":4002,"Ġnahe":4003,"Ġtau":4004,"Ġerstaun":4005,"Ġschneller":4006,"organis":4007,"sa":4008,"ðŁ":4009,"ĠTisch":4010,"anger":4011,"Ã¤hrt":4012,"ĠKrankenhaus":4013,"ĠBeziehung":4014,"ĠPrÃ¤sident":4015,"iziert":4016,"Ġerfolgreich":4017,"ines":4018,"ĠDan":4019,"ĠTool":4020,"omen":4021,"unkte":4022,"Ġzog":4023,"ĠRom":4024,"Ġschm":4025,"oph":4026,"Ġniedr":4027,"ktionen":4028,"Viele":4029,"pekt":4030,"Ġalleine":4031,"ĠAuft":4032,"Ġverbr":4033,"Ġbekommt":4034,"gren":4035,"Ġgeg":4036,"ĠJahres":4037,"Vers":4038,"fÃ¤h":4039,"orgt":4040,"ĠNation":4041,"ĠVerd":4042,"ĠBrand":4043,"ĠSituation":4044,"ĠSan":4045,"Ã¼g":4046,"Ġpolit":4047,"bew":4048,"zeitig":4049,"trag":4050,"iegen":4051,"Ġwachsen":4052,"arbeiter":4053,"ĠhÃ¶her":4054,"ĠLager":4055,"PI":4056,"PS":4057,"pft":4058,"ĠVerm":4059,"gewÃ¶hn":4060,"yl":4061,"Ġweh":4062,"Ã¼ten":4063,"geschlossen":4064,"Ġaussehen":4065,"Sieh":4066,"reiber":4067,"ĠGerÃ¤te":4068,"LER":4069,"ĠKrankheit":4070,"Ġrichtigen":4071,"wahl":4072,"Ġbrauchst":4073,"Ġ60":4074,"Ġph":4075,"Ġgenannt":4076,"Nichts":4077,"ĠPersonen":4078,"ĠWÃ¼ste":4079,"ĠVerÃ¤nder":4080,"Wollen":4081,"Ġgebaut":4082,"Ġverdient":4083,"Ġstellt":4084,"ĠRund":4085,"Ġlieb":4086,"leistungen":4087,"UNGEN":4088,"WÃ¤hrend":4089,"Ġdenkt":4090,"ĠNahr":4091,"riffen":4092,"ĠAk":4093,"ĠWechsel":4094,"ĠLos":4095,"Ġdeshalb":4096,"ĠGeschle":4097,"ĠBaum":4098,"Ġheim":4099,"ĠMark":4100,"BI":4101,"Ã¤her":4102,"zial":4103,"ĠSign":4104,"weil":4105,"ĠRegel":4106,"raine":4107,"Ġweltweit":4108,"ĠTÃ¶":4109,"ĠLive":4110,"Ġauft":4111,"ĠÃ¶ffent":4112,"ĠÃ¼brig":4113,"ĠLad":4114,"ĠJul":4115,"ĠÃĦnderungen":4116,"hÃ¶":4117,"orie":4118,"ĠPo":4119,"Ġvoller":4120,"Ġwarte":4121,"ĠStick":4122,"ĠBÃ¤":4123,"ĠKeine":4124,"ĠHeim":4125,"ĠMaÃŁ":4126,"Ġwelches":4127,"ĠBot":4128,"Ġerstellen":4129,"ĠPri":4130,"ĠTerr":4131,"Ġautomat":4132,"uni":4133,"merksam":4134,"ĠFleisch":4135,"Ġinteressant":4136,"telligen":4137,"Los":4138,"unsch":4139,"ĠTer":4140,"ames":4141,"Dass":4142,"ca":4143,"Ã¤fte":4144,"stelle":4145,"ĠForschung":4146,"ĠmuÃŁ":4147,"ilden":4148,"Ġnochmal":4149,"ĠbeschÃ¤ft":4150,"ĠgroÃŁes":4151,"ĠErinner":4152,"ĠGeschenk":4153,"ĠON":4154,"ĠFinger":4155,"osit":4156,"gerufen":4157,"ĠPosition":4158,"ĠWol":4159,"rÃ¤uÃŁe":4160,"wÃ¤rt":4161,"Ġir":4162,"urÃ¼ck":4163,"ĠLinks":4164,"ĠOper":4165,"AS":4166,"Ġfalls":4167,"ĠHÃ¤lfte":4168,"igte":4169,"ĠUmwelt":4170,"setzung":4171,"cy":4172,"ĠAh":4173,"sieht":4174,"ES":4175,"res":4176,"ĠBlumenstrÃ¤uÃŁe":4177,"gemein":4178,"ĠBill":4179,"ĠFrem":4180,"ĠTon":4181,"Ġverhin":4182,"Ġglaubst":4183,"ĠPapier":4184,"IN":4185,"TC":4186,"pfe":4187,"irm":4188,"Ġans":4189,"Ġbeginnt":4190,"Et":4191,"Gehen":4192,"SchÃ¶n":4193,"ID":4194,"iot":4195,"arf":4196,"Ġvertrauen":4197,"ĠSaul":4198,"ĠMist":4199,"ĠIhres":4200,"ackt":4201,"Ġmussten":4202,"Ġprof":4203,"LINE":4204,"Ġerinnere":4205,"Ġanf":4206,"ĠStrom":4207,"zellen":4208,"halte":4209,"ĠQualitÃ¤t":4210,"ĠSÃ¼d":4211,"Ġ#":4212,"rauch":4213,"ĠAngel":4214,"ve":4215,"ieht":4216,"ograf":4217,"Ġverkaufen":4218,"ĠFirma":4219,"Ġblau":4220,"ĠMaschine":4221,"ĠKultur":4222,"ĠPak":4223,"Ġirgendwas":4224,"Ã¤llig":4225,"ĠSekunden":4226,"Ġschwierig":4227,"22":4228,"komm":4229,"such":4230,"ĠHÃ¶r":4231,"ĠZust":4232,"ĠSchm":4233,"Ġstarten":4234,"hemat":4235,"ĠhinzufÃ¼gen":4236,"Ġkonzentr":4237,"ĠRegeln":4238,"Seine":4239,"Ġmer":4240,"ĠTw":4241,"Ġspezie":4242,"ĠâĢĻ":4243,"Ġabsolut":4244,"ĠKuchen":4245,"Ġvern":4246,"ĠViel":4247,"âĢŀ":4248,"Darf":4249,"Ġzeig":4250,"ĠDruck":4251,"Ġdaher":4252,"ĠstÃ¤ndig":4253,"Ġvorh":4254,"ĠJohnson":4255,"ĠFunktionen":4256,"Ã¼tzt":4257,"dust":4258,"ĠPrivat":4259,"durch":4260,"ĠHÃ¼t":4261,"ĠFel":4262,"ĠfÃ¼rchte":4263,"ĠkÃ¼mmern":4264,"ĠSÃ¶hne":4265,"WÃ¼r":4266,"ĠerfÃ¼":4267,"spir":4268,"umpel":4269,"ĠRisiko":4270,"ana":4271,"Ġstill":4272,"ĠParty":4273,"ĠReserv":4274,"ĠFÃ¤higkeit":4275,"ĠONLINE":4276,"Ġhalte":4277,"ĠSohnes":4278,"ĠAntworten":4279,"echtigkeit":4280,"Ġblie":4281,"ĠGra":4282,"dest":4283,"ĠÃ¼berle":4284,"fig":4285,"ox":4286,"Ġnot":4287,"Ġherr":4288,"sour":4289,"gelegt":4290,"Ġschlimmer":4291,"Ãĥ":4292,"Ġkennt":4293,"ites":4294,"ĠPreise":4295,"ĠLass":4296,"ĠDies":4297,"ĠWÃ¼r":4298,"ĠEng":4299,"Ġfragte":4300,"Ã¼te":4301,"ĠHallo":4302,"Ġjunge":4303,"rÃ¤ge":4304,"Ġeinzig":4305,"Ġkontroll":4306,"Ġtrotzdem":4307,"ĠAfrika":4308,"OR":4309,"fluss":4310,"ight":4311,"ĠZahn":4312,"ischt":4313,"ausende":4314,"Einen":4315,"herap":4316,"schland":4317,"ĠVersuch":4318,"haltung":4319,"ownload":4320,"ĠEnglisch":4321,"Ġ~":4322,"ĠJes":4323,"ĠVerwendung":4324,"laufen":4325,"Ġreicht":4326,"Ġobwohl":4327,"zeugt":4328,"ÃĦND":4329,"ĠhÃ¼b":4330,"Ġgilt":4331,"ĠBrot":4332,"agieren":4333,"ĠNÃ¤ch":4334,"Ġober":4335,"edizin":4336,"duzieren":4337,"17":4338,"bÃ¼r":4339,"Ġhing":4340,"ĠfÃ¤llt":4341,"ĠHel":4342,"ĠJos":4343,"ĠKanÃ¤le":4344,"ĠWald":4345,"Ã¶rter":4346,"ðŁĴ":4347,"Sein":4348,"assung":4349,"Ġliefern":4350,"EFER":4351,"Kategorien":4352,"Ãľ":4353,"egenheit":4354,"fÃ¼hrung":4355,"Ġverschwinden":4356,"unehmen":4357,"ĠBedeut":4358,"bildung":4359,"ĠSl":4360,"Ã¼hr":4361,"Ġ22":4362,"ĠHeiden":4363,"Ġverlie":4364,"ðŁĴĲ":4365,"Ġbau":4366,"ima":4367,"ĠAutos":4368,"ĠExt":4369,"ĠhÃ¶re":4370,"weder":4371,"ĠBall":4372,"ĠUp":4373,"Ġentsp":4374,"ĠPlatt":4375,"jenigen":4376,"prÃ¤":4377,"Ġlegen":4378,"recken":4379,"Ġperfekt":4380,"ĠÃ¶ffnen":4381,"Durch":4382,"Ganz":4383,"standen":4384,"Ġlag":4385,"fÃ¼gt":4386,"ĠTodes":4387,"ĠplÃ¶tzlich":4388,"Ġfolgenden":4389,"HÃĦND":4390,"wen":4391,"Ġal":4392,"rink":4393,"LIEFER":4394,"Ġmenschliche":4395,"HÃĦNDLER":4396,"oking":4397,"ĠÂ£":4398,"ĠBLUMENHÃĦNDLER":4399,"Ġerz":4400,"bedingungen":4401,"ada":4402,"Ġbewusst":4403,"ĠStraÃŁen":4404,"Ġ80":4405,"ĠHochzeit":4406,"ĠFÃ¤higkeiten":4407,"lungs":4408,"uhr":4409,"ĠmÃ¤cht":4410,"ĠGet":4411,"ĠTro":4412,"glicht":4413,"ĠkÃ¼mmer":4414,"Re":4415,"ĠÃ¤lter":4416,"anen":4417,"tens":4418,"Ã¤ngst":4419,"Ġspielt":4420,"Ġgutes":4421,"Sagen":4422,"ĠFebruar":4423,"Ġbege":4424,"ĠgenieÃŁen":4425,"ĠBLUMENLIEFER":4426,"ĠBLUMENLIEFERUNGEN":4427,"stÃ¤ndig":4428,"Ġcool":4429,"ĠSorge":4430,"ĠTats":4431,"schlÃ¤":4432,"ĠWebseite":4433,"radition":4434,"ĠVielleicht":4435,"ĠMord":4436,"ĠLei":4437,"Ġjemandem":4438,"ĠKommunikation":4439,"ikaner":4440,"wirkungen":4441,"code":4442,"Ġunver":4443,"abhÃ¤ng":4444,"ĠKar":4445,"ĠFran":4446,"alle":4447,"ĠZÃ¤hne":4448,"ON":4449,"bten":4450,"ĠPan":4451,"use":4452,"Ġhattest":4453,"eiratet":4454,"Geben":4455,"kommt":4456,"ua":4457,"ĠMeine":4458,"ĠLeid":4459,"Ġschrei":4460,"ĠschÃ¤tze":4461,"ĠheiÃŁen":4462,"Ġherauszu":4463,"spl":4464,"ĠZuhause":4465,"ĠDetail":4466,"AP":4467,"Nimm":4468,"rak":4469,"uchst":4470,"Ġerwarten":4471,"Ã¼nstler":4472,"ĠLabor":4473,"Ġinstallieren":4474,"Ġseltsam":4475,"ĠSommer":4476,"ĠKauf":4477,"hotel":4478,"ĠwunderschÃ¶n":4479,"Tube":4480,"da":4481,"Ã¶re":4482,"ĠnÃ¶tig":4483,"99":4484,"uell":4485,"Ġaufs":4486,"Ġlief":4487,"2016":4488,"ondon":4489,"klÃ¤rung":4490,"ull":4491,"Ġverantwort":4492,"ĠZuf":4493,"ĠgehÃ¶ren":4494,"ĠCoup":4495,"ĠDrogen":4496,"ĠBis":4497,"Ġumbringen":4498,"ĠVergangen":4499,"ĠRoboter":4500,"EG":4501,"ĠTal":4502,"ession":4503,"ĠInformation":4504,"ĠMinute":4505,"ĠermÃ¶glicht":4506,"wagen":4507,"ĠAss":4508,"andte":4509,"ĠReich":4510,"Ġbekam":4511,"ĠKnecht":4512,"ĠunterstÃ¼tzen":4513,"Ġgesamte":4514,"ias":4515,"kurs":4516,"stalt":4517,"Ġfanden":4518,"ĠDezember":4519,"ĠStudenten":4520,"ĠUkraine":4521,"Ġeinzu":4522,"Ġfrage":4523,"Ġwillen":4524,"wasser":4525,"Lie":4526,"ĠShow":4527,"Ġschlechte":4528,"ategorie":4529,"Ġfin":4530,"ĠKumpel":4531,"ĠLau":4532,"tere":4533,"ativen":4534,"Ġsahen":4535,"ĠGn":4536,"ĠDV":4537,"ĠEhe":4538,"ĠVerantwort":4539,"ĠVerkauf":4540,"ĠVertrauen":4541,"unkel":4542,"Ġhilf":4543,"Ã¼hren":4544,"teten":4545,"ĠPfer":4546,"klus":4547,"Ġmenschlichen":4548,"ĠMikro":4549,"ĠRussland":4550,"ĠMedikamen":4551,"feld":4552,"vÃ¶lker":4553,"ged":4554,"jekte":4555,"dustrie":4556,"ong":4557,"Ġdasselbe":4558,"ĠGefahr":4559,"Ġwohnen":4560,"Ġeuren":4561,"Ġgeschickt":4562,"Ġmachten":4563,"ĠVergangenheit":4564,"ĠSpeich":4565,"Ġdaraus":4566,"ĠFreunden":4567,"ĠHerrn":4568,"ĠUniversum":4569,"windigkeit":4570,"ritte":4571,"stÃ¼ck":4572,"ĠMittag":4573,"ĠKoll":4574,"ĠKrÃ¤":4575,"ĠSchau":4576,"Ġbeeinfl":4577,"Ġhasse":4578,"Ġnennt":4579,"ĠGal":4580,"Ġkur":4581,"ĠMut":4582,"Ã¶rung":4583,"ĠBerg":4584,"ĠGemeinschaft":4585,"ĠMitglied":4586,"Ġnimm":4587,"Ġrum":4588,"Ġverbessern":4589,"Ġlustig":4590,"stes":4591,"ĠMÃ¶":4592,"spiele":4593,"ĠLandes":4594,"Ġverdienen":4595,"ĠBÃ¼cher":4596,"Ġerreicht":4597,"Ġhundert":4598,"abl":4599,"ĠgeÃ¤ndert":4600,"ĠNur":4601,"ĠDein":4602,"ckte":4603,"ĠRede":4604,"Ġgerettet":4605,"Ġbehalten":4606,"ĠBedeutung":4607,"Code":4608,"ĠStein":4609,"ĠHolz":4610,"ierungs":4611,"Ġschicken":4612,"ĠBestellungen":4613,"Ġgestellt":4614,"ĠAnforderungen":4615,"ĠGerechtigkeit":4616,"Ġsammeln":4617,"aph":4618,"service":4619,"Geht":4620,"itÃ¤r":4621,"ĠWeil":4622,"ĠSchwei":4623,"ĠprÃ¤":4624,"eba":4625,"ĠChat":4626,"Ġbessere":4627,"wach":4628,"ĠHigh":4629,"ĠPay":4630,"ĠSchÃ¼":4631,"ĠHÃ¶he":4632,"ĠAngebote":4633,"apt":4634,"fung":4635,"Ġwollt":4636,"Schon":4637,"ĠwÃ¼nschte":4638,"ĠBonus":4639,"met":4640,"viel":4641,"ĠMehr":4642,"ĠRegen":4643,"ĠZeitpunkt":4644,"Ġ35":4645,"lowers":4646,"Ã¼st":4647,"ĠAir":4648,"ĠkÃ¶nnt":4649,"ivid":4650,"IP":4651,"ĠSand":4652,"Ġbringe":4653,"ĠEt":4654,"ĠPsych":4655,"Ġliebt":4656,"Ġnieder":4657,"zip":4658,"Ġbedeuten":4659,"ĠElekt":4660,"Gibt":4661,"hang":4662,"ĠSim":4663,"ĠEhre":4664,"ĠLaden":4665,"ĠDeutschland":4666,"ĠgefÃ¤hrlich":4667,"IT":4668,"Ĥ¬":4669,"ars":4670,"Ġbitten":4671,"ĠLondon":4672,"Ġbeant":4673,"neten":4674,"euert":4675,"Ġdagegen":4676,"Ã¤ne":4677,"ĠzusÃ¤tz":4678,"Ġschlagen":4679,"quenz":4680,"usstsein":4681,"Hab":4682,"gern":4683,"hÃ¤ndler":4684,"ĠgrÃ¼n":4685,"Ġerschein":4686,"ĠIdi":4687,"zei":4688,"ĠSÃ¤":4689,"Ã¤llen":4690,"ĠWaren":4691,"ĠVon":4692,"ĠSpan":4693,"Ġuntersch":4694,"Ġbekomm":4695,"runken":4696,"ĠDok":4697,"ingst":4698,"ĠBooking":4699,"Ġtotal":4700,"Ber":4701,"gal":4702,"Ġkap":4703,"ley":4704,"ĠKÃ¶nigreich":4705,"Ġwussten":4706,"ĠAmerika":4707,"Ġwolltest":4708,"Ġgrund":4709,"bauen":4710,"seh":4711,"Ġa":4712,"erweise":4713,"Ġdank":4714,"annen":4715,"ish":4716,"ĠGefÃ¼":4717,"rÃ¼cke":4718,"ĠCasino":4719,"ĠMÃ¤rz":4720,"ĠFreude":4721,"Ġur":4722,"aron":4723,"ĠLog":4724,"eiche":4725,"ĠBrow":4726,"ael":4727,"ĠhieÃŁ":4728,"ates":4729,"ĠPe":4730,"achts":4731,"steller":4732,"ĠInstant":4733,"ĠStreit":4734,"Jemand":4735,"stein":4736,"Ġweder":4737,"ĠnÃ¤her":4738,"leiten":4739,"ĠWieso":4740,"nungen":4741,"Ġ28":4742,"ĠAgent":4743,"ombin":4744,"Ġbill":4745,"ĠHÃ¤nden":4746,"dete":4747,"Ġbestimmte":4748,"En":4749,"Ġwes":4750,"Ġwem":4751,"ĠiP":4752,"ĠDingen":4753,"igsten":4754,"Ġschick":4755,"ĠJon":4756,"Manchmal":4757,"ologien":4758,"ĠYou":4759,"ĠBrÃ¼der":4760,"Ġei":4761,"Ġbein":4762,"ĠschlieÃŁlich":4763,"rÃ¼ben":4764,"ĠSold":4765,"itut":4766,"ehnt":4767,"Ġstir":4768,"dings":4769,"ĠRÃ¼cken":4770,"ĠFeinde":4771,"ĠWinter":4772,"ots":4773,"Ġdefin":4774,"Ġelekt":4775,"ĠMor":4776,"hafen":4777,"Ġbestimmten":4778,"aurant":4779,"ĠLieblings":4780,"ĠBeit":4781,"ĠTra":4782,"ĠIP":4783,"ĠDiese":4784,"ĠWohl":4785,"ĠfÃ¼hrte":4786,"oben":4787,"ĠKÃ¤":4788,"Ġlinks":4789,"osk":4790,"laubst":4791,"Ġpriv":4792,"Ġgelesen":4793,"Ã©":4794,"Ġdigit":4795,"Ġkom":4796,"ĠHat":4797,"ussen":4798,"Sieht":4799,"Ġumgebracht":4800,"ohner":4801,"ĠText":4802,"greifen":4803,"irt":4804,"ehle":4805,"ĠTrain":4806,"amer":4807,"akob":4808,"Ġheut":4809,"Ġgezeigt":4810,"wegs":4811,"ĠErgebnisse":4812,"ieben":4813,"Ġkennst":4814,"Ġres":4815,"ĠTwitter":4816,"16":4817,"25":4818,"agement":4819,"heim":4820,"ĠmÃ¼":4821,"rid":4822,"ĠâĻª":4823,"ĠUniversitÃ¤t":4824,"ĠIndien":4825,"ĠOhren":4826,"indestens":4827,"Ġbezahlt":4828,"Ġdienen":4829,"ĠTED":4830,"ĠIr":4831,"ĠenthÃ¤lt":4832,"Ġgefangen":4833,"Ġgelie":4834,"fahrt":4835,"ĠMac":4836,"ĠfÃ¼hlt":4837,"ĠunterstÃ¼tzt":4838,"18":4839,"Weniger":4840,"Ġverletzt":4841,"aktieren":4842,"passt":4843,"Ġsauber":4844,"ĠOut":4845,"Ġdurchge":4846,"Ġglaubt":4847,"flowers":4848,"gien":4849,"aschen":4850,"Machen":4851,"Sei":4852,"das":4853,"ĠDon":4854,"ĠDel":4855,"ĠZellen":4856,"ĠModell":4857,"eiÃŁ":4858,"ĠBand":4859,"Ġgearbeitet":4860,"ĠjÃ¤hr":4861,"ĠStru":4862,"ĠOpen":4863,"izieren":4864,"ĠTatsache":4865,"ĠWand":4866,"ĠWesen":4867,"ĠSpei":4868,"uchten":4869,"feren":4870,"ĠKamera":4871,"Ġmodernen":4872,"bald":4873,"schu":4874,"ĠEi":4875,"Ġzahlen":4876,"ĠSind":4877,"ĠMach":4878,"Ġerlaubt":4879,"ĠPlay":4880,"Sehr":4881,"iete":4882,"dert":4883,"Verwenden":4884,"ĠTrans":4885,"ĠBrief":4886,"ĠunmÃ¶glich":4887,"ĠImm":4888,"edes":4889,"werfen":4890,"act":4891,"He":4892,"ĠWh":4893,"agn":4894,"ĠZwe":4895,"Ã¼sse":4896,"ĠGlas":4897,"ĠChrist":4898,"ĠTri":4899,"Ã¤tte":4900,"ĠChem":4901,"ĠSag":4902,"Ġgeschieht":4903,"ĠschÃ¶ne":4904,"ĠCook":4905,"Ġ70":4906,"ĠHÃ¼tte":4907,"Ġbez":4908,"reibung":4909,"aktiv":4910,"Ġrufen":4911,"ĠGemeinde":4912,"ĠdrÃ¼ben":4913,"ĠTut":4914,"ĠTeile":4915,"ĠHerren":4916,"Ġverkauft":4917,"ĠEntscheidungen":4918,"our":4919,"Ġdaselbst":4920,"ĠIdent":4921,"ĠRep":4922,"ĠGewicht":4923,"Ġneun":4924,"ĠGesprÃ¤ch":4925,"Hallo":4926,"ĠSoll":4927,"ĠBist":4928,"ĠKrie":4929,"ds":4930,"zeiten":4931,"Ġsex":4932,"ĠWord":4933,"ĠGebiet":4934,"ĠVereinigten":4935,"ham":4936,"ĠZorn":4937,"ĠExp":4938,"Pl":4939,"Ġind":4940,"Ġschrieb":4941,"alerweise":4942,"Welche":4943,"pel":4944,"testen":4945,"Ġanrufen":4946,"Ġjungen":4947,"ĠNachbar":4948,"Ġsprich":4949,"ĠSicht":4950,"ĠKarten":4951,"recher":4952,"ĠSchwar":4953,"Ġprakt":4954,"ĠOl":4955,"Ġherausfinden":4956,"sletter":4957,"Viel":4958,"nov":4959,"Ġsenden":4960,"ĠBerge":4961,"Ġwichtiger":4962,"stant":4963,"ĠFisch":4964,"weiter":4965,"ript":4966,"Ġwelcher":4967,"Kommen":4968,"stadt":4969,"ĠSiehe":4970,"ĠTun":4971,"antast":4972,"ux":4973,"Ġuner":4974,"Ġangeb":4975,"ilien":4976,"ĠItalien":4977,"etwas":4978,"Ġverschl":4979,"Ġtran":4980,"Ġ23":4981,"platz":4982,"Kommt":4983,"Ġnotwend":4984,"ole":4985,"rein":4986,"Ġdauern":4987,"ĠGol":4988,"ĠJuni":4989,"edig":4990,"verb":4991,"Ġbestehen":4992,"ĠOptionen":4993,"Ser":4994,"ĠOk":4995,"Ġseien":4996,"fÃ¼hrer":4997,"Ġkomplett":4998,"ĠKategorien":4999,"ĠHen":5000,"ungsk":5001,"Ġeinfache":5002,"Ã¶gen":5003,"ĠZentr":5004,"UR":5005,"ĠAc":5006,"ĠFÃ¼rsten":5007,"ĠÃ¼brigen":5008,"Ġfangen":5009,"ĠJakob":5010,"Ã¤rm":5011,"Ġgeschah":5012,"ĠkÃ¶nntest":5013,"ĠReisen":5014,"Stellen":5015,"Le":5016,"urf":5017,"Schl":5018,"uldigung":5019,"merksamkeit":5020,"ĠMy":5021,"Ġinform":5022,"spr":5023,"Einer":5024,"inken":5025,"iell":5026,"Ġsobald":5027,"Ġtaten":5028,"Ġneuer":5029,"ĠUmgebung":5030,"blich":5031,"fle":5032,"sw":5033,"Ġleb":5034,"andt":5035,"ĠgewÃ¶hn":5036,"ĠGu":5037,"ĠFal":5038,"ĠÃ¼berleben":5039,"ĠParis":5040,"ĠErgebnis":5041,"Ã¶rper":5042,"istan":5043,"ĠRezen":5044,"ĠMitarbeiter":5045,"vis":5046,"ĠMama":5047,"ilis":5048,"ahre":5049,"ĠspÃ¼r":5050,"ĠBezug":5051,"ĠEinsatz":5052,"folge":5053,"forderung":5054,"ĠZahlen":5055,"ĠPublik":5056,"45":5057,"anze":5058,"ĠhÃ¤ufig":5059,"abr":5060,"ĠDom":5061,"ielten":5062,"Ġrie":5063,"Ġrief":5064,"Ġgewonnen":5065,"ĠGrunde":5066,"Ġgebrau":5067,"ĠBetrieb":5068,"ĠFarbe":5069,"ĠZauber":5070,"Ġausgew":5071,"Ġentschieden":5072,"rasch":5073,"fernen":5074,"ĠÂ°":5075,"ĠKredit":5076,"ĠInteresse":5077,"ĠFreiheit":5078,"kn":5079,"Ãĸ":5080,"ĠGute":5081,"Ġerl":5082,"ĠStÃ¤r":5083,"Ġwissenschaft":5084,"Ġheiraten":5085,"Ġbewegt":5086,"Ġbefinden":5087,"ĠwÃ¼s":5088,"Ġert":5089,"ĠAngesicht":5090,"ĠNeur":5091,"ĠRessour":5092,"ĠÃ¤hnlich":5093,"ĠSprachen":5094,"500":5095,"ĠMitte":5096,"Ġfern":5097,"Ġangerufen":5098,"Ġwohin":5099,"ollege":5100,"chem":5101,"etztes":5102,"Ġklicken":5103,"Wor":5104,"Ġnerv":5105,"ĠWett":5106,"ĠbestÃ¤t":5107,"hstÃ¼ck":5108,"ĠGruppen":5109,"na":5110,"Ġhielt":5111,"reut":5112,"blei":5113,"anzÃ¶s":5114,"folgt":5115,"ĠInstall":5116,"ĠZugriff":5117,"ĠberÃ¼hm":5118,"ĠSilber":5119,"meld":5120,"ĠGlauben":5121,"gendes":5122,"Ġgarant":5123,"Ġsorgen":5124,"ire":5125,"artet":5126,"ĠHy":5127,"Siehe":5128,"ĠSchluss":5129,"Ġniemanden":5130,"ĠRestaurant":5131,"ĠDownload":5132,"Ġopt":5133,"ĠÃ¼bern":5134,"ĠAufmerksamkeit":5135,"tember":5136,"indungen":5137,"Lasst":5138,"mals":5139,"teuer":5140,"Ġaussieht":5141,"ĠUnser":5142,"Ġ90":5143,"ĠauÃŁerhalb":5144,"ĠWerkzeug":5145,"ĠSterne":5146,"ĠYouTube":5147,"Ġstellte":5148,"Ġdachten":5149,"Ġerschaffen":5150,"ĠVÃ¶":5151,"Ġzweiten":5152,"ĠWeile":5153,"alisieren":5154,"ĠWillst":5155,"ĠMission":5156,"ĠeinschlieÃŁlich":5157,"hand":5158,"ĠNerv":5159,"Gute":5160,"ĠbÃ¶se":5161,"ĠWider":5162,"ĠLust":5163,"Ġleiden":5164,"Ġsowohl":5165,"ĠCol":5166,"Ã¤cher":5167,"AuÃŁerdem":5168,"Ġverhindern":5169,"chtet":5170,"Ġand":5171,"euern":5172,"Ġweiss":5173,"ĠBoot":5174,"ssystem":5175,"getan":5176,"ĠBom":5177,"ĠGib":5178,"ĠVen":5179,"Ġumf":5180,"Ġrund":5181,"zenz":5182,"ĠMÃ¤nnern":5183,"ĠKleider":5184,"60":5185,"ĠMir":5186,"elen":5187,"ĠInf":5188,"ĠInsel":5189,"ostet":5190,"Ġverantwortlich":5191,"Nehmen":5192,"aup":5193,"ausch":5194,"ĠNar":5195,"ĠNov":5196,"appen":5197,"Ġsparen":5198,"ĠReaktion":5199,"werden":5200,"ĠsÃ¼ÃŁ":5201,"Ġsuper":5202,"oy":5203,"ĠgÃ¼lt":5204,"Ã¤chen":5205,"Ġausger":5206,"ĠAuswahl":5207,"ĠgroÃŁartig":5208,"ĠPolitik":5209,"ĠMad":5210,"bed":5211,"ĠBedingungen":5212,"Ġhinauf":5213,"ĠBlog":5214,"ĠHeer":5215,"Ġherauszufinden":5216,"Her":5217,"tÃ¤u":5218,"ĠgrÃ¼":5219,"ĠHÃ¤user":5220,"ierter":5221,"ĠIns":5222,"stellten":5223,"ohnt":5224,"uldige":5225,"ĠFortsch":5226,"Ch":5227,"Falls":5228,"MS":5229,"Ġhol":5230,"ungsm":5231,"ĠBildung":5232,"Ġkomplex":5233,"13":5234,"ĠSau":5235,"ĠVoll":5236,"ulen":5237,"ĠSchÃ¼ler":5238,"ĠnÃ¼t":5239,"ĠGarten":5240,"ions":5241,"rÃ¼st":5242,"ĠProphe":5243,"lernen":5244,"ĠNewsletter":5245,"setzt":5246,"sweise":5247,"Ġlaut":5248,"eichern":5249,"Ġextrem":5250,"Dad":5251,"gte":5252,"ĠTipp":5253,"oper":5254,"ĠMedizin":5255,"ĠDis":5256,"ĠNutzer":5257,"ĠVerstand":5258,"angel":5259,"Ã¼ssen":5260,"ĠBericht":5261,"ĠTee":5262,"Ġbefindet":5263,"ET":5264,"ĠSn":5265,"Ġzun":5266,"ennung":5267,"ĠCodes":5268,"ĠheiÃŁ":5269,"ĠbeschÃ¼tzen":5270,"ĠTerror":5271,"vÃ¶lkerung":5272,"ĠGefÃ¼hle":5273,"karte":5274,"Ġdauert":5275,"ĠVergleich":5276,"ĠAnwendung":5277,"ĠVersand":5278,"achstum":5279,"Ġkalt":5280,"ĠfÃ¼rs":5281,"Ġsolchen":5282,"ĠStickerei":5283,"ĠAbst":5284,"mme":5285,"reite":5286,"ĠWirklich":5287,"Ġbehaup":5288,"ĠGeheimnis":5289,"ĠGrenzen":5290,"Bin":5291,"oc":5292,"Ġeinf":5293,"ĠKur":5294,"ĠgefÃ¼hrt":5295,"Ġeinzigart":5296,"Ġmindestens":5297,"ital":5298,"ĠHam":5299,"omo":5300,"ĠâĢ¢":5301,"Ġverbringen":5302,"ĠStudie":5303,"ĠGrenze":5304,"bol":5305,"aszin":5306,"bern":5307,"ĠSchne":5308,"spekt":5309,"Ġbisher":5310,"Ġweiterhin":5311,"Ġganzes":5312,"ĠInstag":5313,"ĠSicherheits":5314,"ĠVerantwortung":5315,"ptember":5316,"ritten":5317,"sta":5318,"ĠMaschinen":5319,"ĠApart":5320,"Ġfreund":5321,"ĠFrankreich":5322,"ĠPaket":5323,"24":5324,"int":5325,"ĠPr":5326,"Ġhinten":5327,"ML":5328,"bahn":5329,"motion":5330,"appe":5331,"ĠFinanz":5332,"Ġident":5333,"arbie":5334,"ĠMonster":5335,"Ġsolange":5336,"ĠÃ¼berrascht":5337,"ĠMuster":5338,"Ġkr":5339,"mmen":5340,"ĠOze":5341,"hoden":5342,"ĠDienstleistungen":5343,"ĠbenÃ¶tigen":5344,"ĠErden":5345,"ĠProduktion":5346,"ĠVertrag":5347,"14":5348,"go":5349,"ielle":5350,"ĠTim":5351,"Ġmitten":5352,"Ġwerfen":5353,"reitet":5354,"Ġnachdenken":5355,"ĠInvest":5356,"immung":5357,"Ġzumindest":5358,"obile":5359,"ĠBewusstsein":5360,"pril":5361,"ĠWebsites":5362,"uel":5363,"ĠBoss":5364,"ĠÃľberleben":5365,"ĠÃ¼bel":5366,"ĠSysteme":5367,"Ġwichtige":5368,"Ġalter":5369,"Ã¤st":5370,"ierst":5371,"Ġgehalten":5372,"estern":5373,"Ġirgendein":5374,"ĠBabel":5375,"mitteln":5376,"ĠStÃ¤dten":5377,"Ã¶ffnet":5378,"ebaoth":5379,"ĠKop":5380,"bewer":5381,"Ġvorber":5382,"appt":5383,"ĠEinzel":5384,"Wel":5385,"asten":5386,"itor":5387,"deck":5388,"Ġjung":5389,"Ġgesamten":5390,"Etwas":5391,"ĠInstagram":5392,"Jahr":5393,"bruch":5394,"frei":5395,"ĠGang":5396,"ĠDach":5397,"ĠLib":5398,"ĠJapan":5399,"ĠRealitÃ¤t":5400,"ĠTechnologien":5401,"Habe":5402,"ĠSol":5403,"ĠPunkte":5404,"ĠZebaoth":5405,"arriere":5406,"ĠFeind":5407,"ĠKnechte":5408,"ĠwÃ¤rst":5409,"RA":5410,"Ġdest":5411,"ieder":5412,"iti":5413,"enny":5414,"Ġgepl":5415,"rucht":5416,"ĠRosen":5417,"ĠMotor":5418,"Ġbetrachten":5419,"ret":5420,"za":5421,"ĠTom":5422,"ĠEngel":5423,"ĠPlug":5424,"Schauen":5425,"Ġrechts":5426,"ĠErwachsen":5427,"Sol":5428,"chtern":5429,"ĠEing":5430,"Ġbeenden":5431,"ktober":5432,"Ġpassen":5433,"ĠStatus":5434,"ĠMedikamente":5435,"bieren":5436,"schirm":5437,"ĠBa":5438,"ĠKil":5439,"ĠLink":5440,"Ġmitt":5441,"ĠâĤ¬":5442,"rim":5443,"werke":5444,"Ġsolches":5445,"Warte":5446,"mos":5447,"ĠwÃ¼ten":5448,"ĠSm":5449,"rop":5450,"ĠCity":5451,"oment":5452,"DafÃ¼r":5453,"ward":5454,"ĠMeth":5455,"Ġmedizin":5456,"berg":5457,"produ":5458,"ĠDVB":5459,"Halt":5460,"Mar":5461,"seit":5462,"ĠWal":5463,"Ġvorsichtig":5464,"angt":5465,"ĠKlasse":5466,"ĠBesitz":5467,"ĠStift":5468,"ĠSchwier":5469,"ĠKurs":5470,"ilde":5471,"Ġeigenes":5472,"ĠSteuer":5473,"Ġoffensichtlich":5474,"ĠzerstÃ¶rt":5475,"CA":5476,"Ġsamt":5477,"ĠSitz":5478,"Ġfiel":5479,"ĠBat":5480,"ĠBud":5481,"ĠZw":5482,"ĠSchick":5483,"ĠSpielen":5484,"barkeit":5485,"ĠSpieler":5486,"ĠSchmerz":5487,"OM":5488,"gelassen":5489,"plan":5490,"Ġfinanz":5491,"dienst":5492,"Ġsitzt":5493,"ĠAug":5494,"gemacht":5495,"ĠBefehl":5496,"stÃ¤nde":5497,"tent":5498,"ĠMeter":5499,"ĠPaar":5500,"Ġabonn":5501,"ĠInhalt":5502,"Ã¤hle":5503,"ĠTechnik":5504,"ĠtÃ¤glich":5505,"Zie":5506,"nehm":5507,"ĠMÃ¼n":5508,"ĠHals":5509,"Ġleisten":5510,"Ġstud":5511,"Ġechte":5512,"Ġ199":5513,"wirtschaft":5514,"Ġselten":5515,"ĠOrganisation":5516,"ĠÃ¼berprÃ¼fen":5517,"besch":5518,"eting":5519,"spe":5520,"antie":5521,"umente":5522,"afr":5523,"ĠBlumenhÃ¤ndler":5524,"ĠGutes":5525,"ĠStudien":5526,"ĠKleid":5527,"ĠGrÃ¼nde":5528,"Neu":5529,"erin":5530,"ĠLesen":5531,"Ġ500":5532,"ĠStrate":5533,"gefunden":5534,"ĠWissenschaftler":5535,"ĠzerstÃ¶ren":5536,"tegr":5537,"ĠGuten":5538,"Ġsozialen":5539,"Ġbeobachten":5540,"Ġautomatisch":5541,"Ġthe":5542,"Ġwunderbar":5543,"ĠTrick":5544,"ĠSekunde":5545,"ĠPublikum":5546,"linge":5547,"samen":5548,"ieten":5549,"ĠFei":5550,"ĠLauf":5551,"Ġaufgrund":5552,"ierende":5553,"Ġgesucht":5554,"ington":5555,"ĠClub":5556,"Ġnormal":5557,"Selbst":5558,"ĠSach":5559,"Ġkm":5560,"Ġabge":5561,"ĠAnruf":5562,"spruch":5563,"ogel":5564,"Ġantwortete":5565,"Ġmm":5566,"ĠWitz":5567,"ĠKÃ¶":5568,"Ġerfor":5569,"zubringen":5570,"ĠUTC":5571,"obald":5572,"Verd":5573,"Ġheruntergeladen":5574,"IA":5575,"afe":5576,"dass":5577,"kÃ¼":5578,"Ġzogen":5579,"istor":5580,"ĠOrte":5581,"kehren":5582,"ĠEinzige":5583,"Ġleider":5584,"Ġbegeg":5585,"geld":5586,"ĠschieÃŁen":5587,"Ġschlug":5588,"ĠGelegenheit":5589,"ĠGeneration":5590,"ĠJugend":5591,"ĠSympt":5592,"ĠPlattform":5593,"glÃ¼ck":5594,"Ġkor":5595,"ĠMÃ¶rder":5596,"ĠWÃ¶rter":5597,"ĠArbeits":5598,"ĠGeburtstag":5599,"ĠSar":5600,"schm":5601,"gefÃ¼hl":5602,"ĠCop":5603,"ĠAnwalt":5604,"endung":5605,"ĠAltar":5606,"ĠLady":5607,"Immer":5608,"ĠErei":5609,"Ġ2015":5610,"ĠUnternehmens":5611,"ĠMenschheit":5612,"ferenz":5613,"ĠGeschlecht":5614,"Melden":5615,"uz":5616,"zut":5617,"ĠWÃ¤hr":5618,"ĠHunger":5619,"Ġdavor":5620,"uchs":5621,"ĠProgramme":5622,"Ġunbed":5623,"Ġphys":5624,"volle":5625,"ĠKÃ¼nstler":5626,"ĠFett":5627,"Ġpasst":5628,"ĠArschl":5629,"Ġgleichzeitig":5630,"ĠAugenblick":5631,"ĠerwÃ¤hn":5632,"ĠNahrung":5633,"Tja":5634,"ĠÃ¤u":5635,"Ġorganis":5636,"Ġsichern":5637,"Ġeinzigen":5638,"wÃ¤rts":5639,"ĠRessourcen":5640,"Ġeinander":5641,"Ġfantast":5642,"ĠAbenteuer":5643,"zeichnen":5644,"Ġsteckt":5645,"Ġnah":5646,"hrt":5647,"Ġdeswegen":5648,"Ġrufe":5649,"wÃ¼rdig":5650,"ĠArchite":5651,"ĠArmee":5652,"Eigen":5653,"Ohne":5654,"Ġenthalten":5655,"ogra":5656,"ĠDeal":5657,"Dort":5658,"Ġbi":5659,"ĠEuer":5660,"ĠPrÃ¼":5661,"reib":5662,"ĠBeweise":5663,"Eines":5664,"Ġverwir":5665,"ĠPhara":5666,"Denken":5667,"ĠSchmerzen":5668,"lern":5669,"Ġfurcht":5670,"Ġaufhalten":5671,"Ġtie":5672,"Ġverbinden":5673,"underte":5674,"Ġgestohlen":5675,"Ġfreuen":5676,"ĠOption":5677,"ĠZustand":5678,"Ne":5679,"kan":5680,"uellen":5681,"Ã¤tzlich":5682,"Ġregel":5683,"Ġbesitzen":5684,"Ġgebrochen":5685,"ĠschÃ¶nen":5686,"ahnsinn":5687,"Ġkontaktieren":5688,"ĠSamm":5689,"Ġumgehen":5690,"Wird":5691,"ave":5692,"ĠMuse":5693,"Ġfalsche":5694,"ampe":5695,"rÃ¼stung":5696,"RE":5697,"ba":5698,"Ġat":5699,"Ġdiejenigen":5700,"orte":5701,"ĠTitel":5702,"olfen":5703,"Ġentweder":5704,"wood":5705,"Willkommen":5706,"ĠDetails":5707,"ĠGehen":5708,"Ġlern":5709,"ĠAnz":5710,"ĠFluss":5711,"ĠHandel":5712,"ĠFirmen":5713,"ĠpersÃ¶nlichen":5714,"ĠVieh":5715,"emente":5716,"Book":5717,"ĠSei":5718,"ith":5719,"ĠVÃ¶lker":5720,"ĠStar":5721,"Ġerforderlich":5722,"Ġunbedingt":5723,"ĠMart":5724,"ĠZeu":5725,"ĠRevolution":5726,"richtung":5727,"Ġverwende":5728,"fter":5729,"ĠAaron":5730,"ĠHol":5731,"ĠVÃ¤ter":5732,"etzten":5733,"Ġposit":5734,"Ġeinfacher":5735,"loser":5736,"ĠBasis":5737,"Glaubst":5738,"ĠBal":5739,"ĠRed":5740,"look":5741,"wendungen":5742,"ĠSchÃ¶nheit":5743,"ĠKommentar":5744,"ĠDorf":5745,"El":5746,"Guten":5747,"OT":5748,"bank":5749,"gÃ¤n":5750,"jÃ¤hr":5751,"Ġerr":5752,"ĠTau":5753,"Ġaufgeh":5754,"illen":5755,"ĠRegion":5756,"ĠHerausforderung":5757,"ĠnatÃ¼rliche":5758,"Bes":5759,"Mich":5760,"eisen":5761,"Ã¤be":5762,"Ã¤sst":5763,"Ġnachzu":5764,"ĠUnfall":5765,"ĠVorstellung":5766,"ĠmÃ¶glicherweise":5767,"Ġversteckt":5768,"ĠÃ¶ffentlichen":5769,"lad":5770,"ĠWann":5771,"ĠKol":5772,"ĠPil":5773,"lefon":5774,"Ġwartet":5775,"Ġgewalt":5776,"Ġ31":5777,"akte":5778,"ĠblÃ¶":5779,"ĠFrÃ¼hstÃ¼ck":5780,"ĠNutzung":5781,"ĠBotschaft":5782,"ĠbeschÃ¤ftigt":5783,"40":5784,"fragen":5785,"Ġverfolgen":5786,"Ġtausend":5787,"ĠLinie":5788,"ĠEbene":5789,"aptain":5790,"ĠKategorie":5791,"ĠGefangen":5792,"hek":5793,"Ġunterwegs":5794,"ĠAmerikaner":5795,"ĠMeister":5796,"ĠDisk":5797,"Ã¼rf":5798,"ĠEure":5799,"ĠVerst":5800,"Ġgehabt":5801,"Ġangefangen":5802,"daÃŁ":5803,"Ġzeige":5804,"ĠDich":5805,"ĠStuhl":5806,"ĠSender":5807,"Ġstirbt":5808,"80":5809,"ĠAls":5810,"Schau":5811,"ĠAngriff":5812,"Ġspezialisiert":5813,"figur":5814,"gier":5815,"ĠBein":5816,"ĠjÃ¼n":5817,"Ġ300":5818,"icro":5819,"Ġversuchte":5820,"ĠKÃ¶nige":5821,"ĠTheorie":5822,"Server":5823,"ĠPC":5824,"ĠLeiden":5825,"ags":5826,"wissen":5827,"ona":5828,"ĠAst":5829,"reffen":5830,"Ġtraf":5831,"Ġruss":5832,"Ġselber":5833,"ĠerklÃ¤rt":5834,"Ġeng":5835,"Ġschrecklich":5836,"enschen":5837,"Ġgesund":5838,"Ġirgendetwas":5839,"Ġvertrau":5840,"ĠStartseite":5841,"ĠMathemat":5842,"okratie":5843,"Ġdesto":5844,"lege":5845,"Ġumfang":5846,"ĠAnw":5847,"ular":5848,"Ġentgegen":5849,"ĠmÃ¼sste":5850,"ĠBeruf":5851,"ĠPhys":5852,"Ġbehandeln":5853,"Ġtraurig":5854,"ĠGre":5855,"ĠKom":5856,"ĠJose":5857,"Ġkommun":5858,"Daher":5859,"ĠMax":5860,"Macht":5861,"dessen":5862,"hÃ¶r":5863,"Ġsuche":5864,"arl":5865,"ĠBakter":5866,"ĠToten":5867,"ĠTasche":5868,"Ġ2013":5869,"stÃ¤ndnis":5870,"ĠUrs":5871,"ĠpersÃ¶nlich":5872,"Ġewiglich":5873,"Fl":5874,"NS":5875,"Ã¤s":5876,"abil":5877,"Ġpsych":5878,"ĠAnsicht":5879,"ĠIndustrie":5880,"ammelt":5881,"ĠgenÃ¼":5882,"Ġakzeptieren":5883,"geln":5884,"pack":5885,"orfen":5886,"Ġwirtschaft":5887,"cks":5888,"Ġtolle":5889,"ĠzurÃ¼ckzu":5890,"Ġgeschlagen":5891,"Ġgekauft":5892,"Ã¤chtnis":5893,"ĠTour":5894,"ĠFernsehen":5895,"kont":5896,"eider":5897,"itionen":5898,"Ġfei":5899,"Ġvoraus":5900,"behÃ¶r":5901,"ĠBeziehungen":5902,"ĠBrowser":5903,"Son":5904,"lÃ¶s":5905,"ird":5906,"ĠKey":5907,"Ġgehor":5908,"pfel":5909,"aki":5910,"ibel":5911,"Klicken":5912,"ĠPropheten":5913,"Dr":5914,"imen":5915,"ĠSchlacht":5916,"ĠÃľberwach":5917,"ĠÃľberrasch":5918,"alisierung":5919,"gress":5920,"Ġwichtigsten":5921,"ĠInstitut":5922,"echseln":5923,"ĠhÃ¶ch":5924,"Ġverheiratet":5925,"AL":5926,"eiÃŁe":5927,"ĠRiesen":5928,"Ġ26":5929,"Ġentsprechen":5930,"athan":5931,"Ġnahmen":5932,"ĠBahnreisen":5933,"mÃ¤ÃŁig":5934,"Ġfehlt":5935,"ĠCookies":5936,"Ġunsch":5937,"ĠHi":5938,"ĠverÃ¶ffentlicht":5939,"Ġentfernen":5940,"ĠSee":5941,"Ġdritten":5942,"ĠFernseh":5943,"ĠhÃ¼bsch":5944,"ĠIdiot":5945,"aste":5946,"Ġwach":5947,"Ã¤ste":5948,"ĠKug":5949,"ĠDam":5950,"Ġeffekt":5951,"ĠAbschluss":5952,"ĠPrem":5953,"Ġaufre":5954,"Ġbeweisen":5955,"rufe":5956,"Ġ2014":5957,"Ġgelassen":5958,"Ġcm":5959,"Ġhohen":5960,"duziert":5961,"HÃ¶ren":5962,"Ġfaszin":5963,"Ġtrifft":5964,"ahmen":5965,"ĠInternation":5966,"Ġgeliebt":5967,"Sh":5968,"ĠDeb":5969,"ĠVi":5970,"utage":5971,"Ġausl":5972,"illa":5973,"utzutage":5974,"ĠKrankheiten":5975,"meldung":5976,"iness":5977,"Ã¤um":5978,"ĠBier":5979,"ĠKÃ¶nnen":5980,"ĠWeis":5981,"gemeine":5982,"Ġextra":5983,"Ġeinzelnen":5984,"ĠFBI":5985,"ami":5986,"ruppe":5987,"Ġstelle":5988,"Sicher":5989,"Ġverf":5990,"ĠschlieÃŁen":5991,"ahrscheinlich":5992,"Ġspreche":5993,"Ġgeboten":5994,"ĠMillion":5995,"minister":5996,"ĠhÃ¤ngt":5997,"anda":5998,"ĠErst":5999,"ĠSchlag":6000,"ĠUntersuch":6001,"ersonen":6002,"ĠDoktor":6003,"Ġanzeigen":6004,"way":6005,"zten":6006,"ĠkÃ¼r":6007,"ĠSchatten":6008,"omit":6009,"programm":6010,"ios":6011,"meister":6012,"vin":6013,"Ġseg":6014,"irgend":6015,"ĠHall":6016,"ĠSchrift":6017,"ĠGeschwindigkeit":6018,"peratur":6019,"Ġweiteren":6020,"zusehen":6021,"Ġverursacht":6022,"aupt":6023,"atis":6024,"ĠDoch":6025,"ĠBeweis":6026,"ĠKÃ¶nigin":6027,"ĠBrust":6028,"ĠTÃ¼rk":6029,"linie":6030,"ĠBundes":6031,"Kont":6032,"Te":6033,"ĠMc":6034,"ĠNatÃ¼rlich":6035,"sprÃ¼n":6036,"blieben":6037,"arbeitung":6038,"Instant":6039,"ĠHaust":6040,"Ġsoziale":6041,"ĠÃ¼bertragen":6042,"Ġsucht":6043,"ĠDNA":6044,"ĠLoch":6045,"Ã¼tter":6046,"ĠKlima":6047,"ĠFlughafen":6048,"Ġstecken":6049,"ĠKostenlose":6050,"Ġgebeten":6051,"vel":6052,"ĠSC":6053,"Ġhandeln":6054,"ory":6055,"ĠEu":6056,"ulation":6057,"Ġredet":6058,"ĠschlÃ¤":6059,"ĠGenau":6060,"Habt":6061,"lafen":6062,"schrift":6063,"Ġtr":6064,"ĠJung":6065,"ĠArmen":6066,"Ġanstatt":6067,"Ġblieb":6068,"va":6069,"ĠTrau":6070,"ĠOff":6071,"Ġrechten":6072,"Ġdurchs":6073,"sondern":6074,"ĠDavids":6075,"ĠUrlaub":6076,"ĠAktivitÃ¤ten":6077,"col":6078,"ĠGrad":6079,"ĠHalt":6080,"ush":6081,"Ġschlie":6082,"Ġopf":6083,"ĠEinw":6084,"anzig":6085,"chtest":6086,"ĠSchuhe":6087,"ĠWorten":6088,"Ġebenfalls":6089,"ĠLiebling":6090,"ause":6091,"ĠBad":6092,"ĠKein":6093,"ĠVier":6094,"ĠCollege":6095,"Siehst":6096,"Ġspiel":6097,"ĠGefallen":6098,"PEG":6099,"ĠWel":6100,"formen":6101,"Keiner":6102,"ĠGarantie":6103,"ĠAktu":6104,"bleiben":6105,"ibst":6106,"netz":6107,"ĠApril":6108,"leg":6109,"Ġbewer":6110,"ĠGÃ¶tter":6111,"Ġumfangreich":6112,"itann":6113,"ĠMobil":6114,"ĠWest":6115,"ĠVogel":6116,"olden":6117,"ollt":6118,"Ã¼nd":6119,"eidet":6120,"ĠBox":6121,"ĠLeistung":6122,"ĠRundschreiben":6123,"iden":6124,"Ñģ":6125,"Ġsandte":6126,"Ġhandelt":6127,"ĠBob":6128,"ĠHunde":6129,"Ġerster":6130,"Ġabsch":6131,"ĠâĢĶ":6132,"ĠmÃ¼sst":6133,"ĠDete":6134,"ĠNichts":6135,"Ġerinnert":6136,"Ġaufw":6137,"ĠPhilister":6138,"ĠSchwierigkeiten":6139,"Ã¼gel":6140,"ĠHim":6141,"Ġschaff":6142,"ĠWebc":6143,"Ġwelchem":6144,"ĠNeues":6145,"ĠLÃ¶sungen":6146,"ĠstÃ¤rker":6147,"ĠBrandopfer":6148,"ĠBit":6149,"ĠBur":6150,"ĠWunsch":6151,"flug":6152,"Ġwelchen":6153,"zahlung":6154,"ĠMrs":6155,"ĠKnochen":6156,"ĠKommentare":6157,"ĠWeihnachten":6158,"ĠEreig":6159,"AM":6160,"ĠMer":6161,"anne":6162,"Ġgegessen":6163,"ĠZe":6164,"ĠFÃ¼ÃŁe":6165,"ĠDenken":6166,"ĠTÃ¶chter":6167,"Serverzeit":6168,"ĠMauer":6169,"Ġgeholfen":6170,"sph":6171,"ĠPapa":6172,"ĠVirus":6173,"ĠVÃ¶gel":6174,"ĠwÃ¼tend":6175,"Eigentlich":6176,"Kosten":6177,"frau":6178,"Ġtu":6179,"ĠJord":6180,"ĠSchaden":6181,"ildet":6182,"ĠPflanzen":6183,"WÃ¤hlen":6184,"Ġor":6185,"inos":6186,"Ġ..":6187,"ĠGÃ¼te":6188,"pfl":6189,"akten":6190,"ĠWeiÃŁt":6191,"Ġdorthin":6192,"Ġvermeiden":6193,"ĠStaats":6194,"Ġerledigt":6195,"ĠKÃ¼che":6196,"korb":6197,"ĠGnade":6198,"ĠKollegen":6199,"oÃŁen":6200,"Ġinspir":6201,"ĠHor":6202,"Ġentlang":6203,"ĠEinfluss":6204,"ĠOrten":6205,"Ġvermutlich":6206,"ĠBesonder":6207,"Ġverhaf":6208,"ĠPasswort":6209,"Ġabonnieren":6210,"ĠArschloch":6211,"arch":6212,"ĠEllen":6213,"Ġoffiz":6214,"ĠCO":6215,"ĠHaufen":6216,"Ġhole":6217,"behalten":6218,"ĠHaare":6219,"ĠLeviten":6220,"ius":6221,"ĠCom":6222,"Ġgeschaffen":6223,"ĠVerbrechen":6224,"Sir":6225,"aria":6226,"ĠAlex":6227,"ĠFakt":6228,"ago":6229,"ĠNase":6230,"Ġaussch":6231,"Ġrisk":6232,"Ġwillkommen":6233,"ektor":6234,"ĠLied":6235,"ĠPrinzip":6236,"Bet":6237,"Press":6238,"Ġschafft":6239,"Ġtradition":6240,"Ã¤nn":6241,"ĠAuswirkungen":6242,"ĠHauses":6243,"Ġdarfst":6244,"ĠErfahrungen":6245,"gnor":6246,"Ġentdeckt":6247,"Ġzufrieden":6248,"ĠVerÃ¤nderung":6249,"ena":6250,"Ġran":6251,"ĠBeach":6252,"opÃ¤":6253,"ida":6254,"leichen":6255,"Ġerledigen":6256,"bieten":6257,"ĠMethode":6258,"itannien":6259,"Gro":6260,"ĠSatz":6261,"ĠunabhÃ¤ng":6262,"ĠLeiche":6263,"ĠVamp":6264,"ĠNo":6265,"Ġleer":6266,"Ġvollkommen":6267,"Ġbehandelt":6268,"Ġverschwunden":6269,"ĠTests":6270,"Ġbrachten":6271,"ĠSÃ¼nde":6272,"Ġstopp":6273,"Ġkannte":6274,"Ġdritte":6275,"ĠFranc":6276,"ĠRezension":6277,"ĠwÃ¼sste":6278,"nehmer":6279,"ĠEhem":6280,"Ġdadurch":6281,"ics":6282,"ĠAust":6283,"Ġaktualisiert":6284,"ĠBedÃ¼rf":6285,"ĠzusÃ¤tzliche":6286,"Menschen":6287,"daten":6288,"Ġnation":6289,"ĠHelden":6290,"ĠlÃ¶":6291,"ĠRos":6292,"ĠNeben":6293,"ĠCal":6294,"ĠOhr":6295,"ErzÃ¤hl":6296,"ĠMond":6297,"Ġhohe":6298,"âĢľ":6299,"KÃ¶nnte":6300,"ĠerhÃ¶hen":6301,"Ġjeglicher":6302,"ĠBÃ¤ume":6303,"100":6304,"dru":6305,"kr":6306,"Ġhalt":6307,"ĠRÃ¤":6308,"ĠNet":6309,"ologen":6310,"ĠCharakter":6311,"ĠExperiment":6312,"Ġkontrollieren":6313,"far":6314,"ld":6315,"Ġdanken":6316,"ney":6317,"licherweise":6318,"Ġfalschen":6319,"ĠThemen":6320,"bieter":6321,"ĠOberflÃ¤che":6322,"Obwohl":6323,"ĠSkl":6324,"ĠGi":6325,"zif":6326,"ĠSchnitt":6327,"Ġverliebt":6328,"Sobald":6329,"Ġsteigen":6330,"riften":6331,"ĠElemente":6332,"zessin":6333,"Ġlautet":6334,"ĠKirche":6335,"ĠAuftrag":6336,"ehnten":6337,"ĠHal":6338,"Ġverraten":6339,"Ġmeinte":6340,"ĠenttÃ¤u":6341,"Ġdeut":6342,"freund":6343,"Ġprofession":6344,"Booking":6345,"02":6346,"alist":6347,"Ġangesehen":6348,"Ġschlau":6349,"ĠStau":6350,"ĠJahrz":6351,"Ġ36":6352,"rÃ¶h":6353,"britannien":6354,"ĠmÃ¼de":6355,"cial":6356,"wart":6357,"ĠrÃ¼":6358,"anstalt":6359,"ĠFo":6360,"ĠPop":6361,"ĠBevÃ¶lkerung":6362,"reng":6363,"Ġzieht":6364,"ĠKÃ¶rp":6365,"Ġfindest":6366,"ĠVorteile":6367,"ĠTreffen":6368,"ĠtrÃ¤gt":6369,"ĠBeitrag":6370,"ĠÃ¤uÃŁer":6371,"Ġmin":6372,"Ġko":6373,"ĠJames":6374,"ĠrÃ¼ber":6375,"ĠBlack":6376,"Ġredest":6377,"Ġaktivieren":6378,"ĠÃĦrger":6379,"Ġbemerken":6380,"ĠWeisheit":6381,"Jedes":6382,"Ġgolden":6383,"ĠMel":6384,"ĠDenn":6385,"ĠLade":6386,"sport":6387,"ĠUnglÃ¼ck":6388,"pport":6389,"Ã¼nft":6390,"ĠRespekt":6391,"ĠLizenz":6392,"Ġexistiert":6393,"ĠStruktur":6394,"ĠSymptome":6395,"Ġ000":6396,"ĠFÃ¤llen":6397,"rew":6398,"ĠCy":6399,"ĠOK":6400,"ĠPromotion":6401,"ĠBabys":6402,"ĠStaat":6403,"ĠProtok":6404,"08":6405,"zur":6406,"ask":6407,"ĠKarriere":6408,"igin":6409,"verm":6410,"Ġlebe":6411,"ĠfÃ¼hlte":6412,"alyse":6413,"ĠSchicksal":6414,"03":6415,"04":6416,"IG":6417,"TA":6418,"ones":6419,"Ġbilden":6420,"ĠHir":6421,"ĠLord":6422,"ĠÃ¼bernehmen":6423,"ĠOktober":6424,"ulieren":6425,"ungssystem":6426,"ĠAuÃŁen":6427,"ĠheiÃŁe":6428,"Ã¤ufer":6429,"reit":6430,"sb":6431,"ĠWetter":6432,"gegeben":6433,"ĠFehl":6434,"ĠLes":6435,"ĠLast":6436,"ĠNeb":6437,"ĠErste":6438,"ĠJahrhundert":6439,"essor":6440,"ĠMails":6441,"Ġverdammte":6442,"Jede":6443,"ĠEigenschaften":6444,"Ġlokaler":6445,"telsat":6446,"Ġy":6447,"Ġfing":6448,"ĠschÃ¤tzen":6449,"ĠZiele":6450,"ĠAmt":6451,"Ġebenso":6452,"Ġzeigte":6453,"InstantBooking":6454,"krie":6455,"Ġwin":6456,"ĠSem":6457,"Ġberuh":6458,"ologische":6459,"Ġwenigstens":6460,"ĠUpd":6461,"Jahrhundert":6462,"ĠzÃ¤hlen":6463,"ĠMult":6464,"ĠKe":6465,"ĠPeter":6466,"row":6467,"ĠRelig":6468,"Ġschul":6469,"Ġabh":6470,"ĠWeiter":6471,"steht":6472,"ĠKreis":6473,"Ġaufgew":6474,"ike":6475,"ĠAutor":6476,"ĠerzÃ¤hlte":6477,"ĠUSD":6478,"ĠSalomo":6479,"ĠDienste":6480,"pa":6481,"ĠMesser":6482,"werte":6483,"maz":6484,"ĠStrand":6485,"ĠMÃ¼ll":6486,"ĠGalax":6487,"ĠStÃ¤rke":6488,"TatsÃ¤chlich":6489,"karten":6490,"Ġinvest":6491,"ĠHyp":6492,"Ġsieh":6493,"Ġgesetzt":6494,"ternacht":6495,"Ġwahre":6496,"ĠTex":6497,"ĠOnkel":6498,"IE":6499,"Se":6500,"dat":6501,"fÃ¤lle":6502,"yt":6503,"ancen":6504,"ĠMont":6505,"bek":6506,"Dazu":6507,"ĠAufgaben":6508,"Ġletzter":6509,"Ġredete":6510,"ĠBescheid":6511,"ĠMilch":6512,"ĠTransponder":6513,"zunehmen":6514,"Ã¤ger":6515,"ĠWeniger":6516,"Ġerleben":6517,"ĠlaÃŁ":6518,"ĠNorden":6519,"rafen":6520,"Ġherein":6521,"geschÃ¤fte":6522,"ĠLebensmittel":6523,"ĠSyn":6524,"ĠSÃ¼ÃŁ":6525,"Ġeinzelne":6526,"Ġkonzentrieren":6527,"ĠAugust":6528,"ĠEcke":6529,"ĠSchild":6530,"ĠStock":6531,"imp":6532,"ĠmÃ¶glichen":6533,"Ġhoffen":6534,"Ġschwanger":6535,"ĠFilme":6536,"ĠKleidung":6537,"cel":6538,"ĠAktion":6539,"ĠFach":6540,"Ġausw":6541,"ĠEinstellungen":6542,"Ġpassierte":6543,"Ġwenige":6544,"ĠDatenschutz":6545,"Ġnormalerweise":6546,"Ġentdecken":6547,"Ġidentifiz":6548,"enken":6549,"Ġsauer":6550,"atoren":6551,"Ġletztes":6552,"ĠComm":6553,"ĠVerkehr":6554,"Ġstehe":6555,"Ġerwischt":6556,"ony":6557,"schau":6558,"ĠHot":6559,"umor":6560,"ĠRand":6561,"ometer":6562,"ĠDemokratie":6563,"Wen":6564,"fil":6565,"ifor":6566,"ĠEvolution":6567,"ĠÃ¼brigens":6568,"jahr":6569,"Ġdisk":6570,"Ġgaben":6571,"ĠRuf":6572,"bewert":6573,"ĠVerstÃ¤ndnis":6574,"ĠInnov":6575,"ĠAltern":6576,"ĠExpress":6577,"ĠSyr":6578,"ĠHenry":6579,"ĠInstallation":6580,"ĠJoseph":6581,"Ġinf":6582,"ĠAnwendungen":6583,"ĠAusbildung":6584,"Ġbegonnen":6585,"phÃ¤re":6586,"ĠGroÃŁbritannien":6587,"Ġarbeitete":6588,"ffizien":6589,"Ġverstecken":6590,"akete":6591,"griffen":6592,"mutter":6593,"alog":6594,"Ġfe":6595,"ĠRing":6596,"Ġmanche":6597,"schlÃ¼ssel":6598,"Ġzerb":6599,"iforn":6600,"log":6601,"mord":6602,"por":6603,"ĠMosk":6604,"Erst":6605,"Ġverstehst":6606,"ĠBerlin":6607,"ĠShop":6608,"ĠhÃ¤ltst":6609,"TE":6610,"maÃŁ":6611,"Ð¸":6612,"onie":6613,"osh":6614,"Ã¶rdern":6615,"ĠErklÃ¤rung":6616,"ĠAud":6617,"ĠQuelle":6618,"ĠFloristen":6619,"ĠNational":6620,"Ġeinfachen":6621,"lant":6622,"Ġnirgend":6623,"ĠAp":6624,"ĠBil":6625,"gezogen":6626,"Ġverab":6627,"ĠRein":6628,"Ġabgeschlossen":6629,"iller":6630,"ĠSpion":6631,"eldet":6632,"Ġbegren":6633,"ĠGerÃ¤u":6634,"ctive":6635,"ĠTrÃ¤ume":6636,"Ġvorhanden":6637,"ĠNovember":6638,"kre":6639,"gegangen":6640,"ĠTherap":6641,"ĠZiv":6642,"Ġbrauchte":6643,"ĠSpezie":6644,"ĠDeutsch":6645,"ĠMichael":6646,"ĠTur":6647,"bereich":6648,"ĠRot":6649,"ĠCr":6650,"Ġspeichern":6651,"ĠBedro":6652,"Ã¤cheln":6653,"ĠOutlook":6654,"ebe":6655,"Ġsetzte":6656,"Ġis":6657,"ily":6658,"bezogen":6659,"ĠzwÃ¶l":6660,"ĠKonzept":6661,"ĠMex":6662,"linien":6663,"ĠZusammenhang":6664,"ĠbenÃ¶tigt":6665,"ĠzufÃ¤llig":6666,"ĠSoldaten":6667,"ĠWordPress":6668,"Ġnotwendig":6669,"ĠEhemann":6670,"23":6671,"ny":6672,"ĠSher":6673,"ĠHirn":6674,"geschichte":6675,"Ġniemandem":6676,"ĠCharlie":6677,"ĠBakterien":6678,"ĠgenÃ¼gend":6679,"funk":6680,"gewicht":6681,"Ġtesten":6682,"ĠKriegs":6683,"Ġentschuldigen":6684,"ĠStimmen":6685,"ĠEntwicklungs":6686,"Ġherunterladen":6687,"hafte":6688,"ĠSignal":6689,"ĠIdentitÃ¤t":6690,"IV":6691,"Senden":6692,"ĠÃ¤ndert":6693,"eide":6694,"Ġvis":6695,"ĠNieder":6696,"ĠNeuigkeiten":6697,"Ġirgendwann":6698,"ograph":6699,"Ġumfangreiches":6700,"anter":6701,"ĠBlei":6702,"ĠPaul":6703,"ĠIntelligen":6704,"ĠgehÃ¶r":6705,"rÃ¼ndet":6706,"Ġemotion":6707,"aÃŁt":6708,"mack":6709,"nitten":6710,"âĻ":6711,"einst":6712,"ĠfÃ¤hrt":6713,"Ġverder":6714,"Ġangem":6715,"ĠMitternacht":6716,"Manche":6717,"ĠErnst":6718,"Bleib":6719,"07":6720,"27":6721,"Ġsetzt":6722,"ĠsaÃŁ":6723,"Ġgrau":6724,"Ġkre":6725,"ĠKern":6726,"ĠCor":6727,"ĠMannes":6728,"ĠGottlosen":6729,"Ġgeschw":6730,"ĠStellen":6731,"ĠMethoden":6732,"ĠToil":6733,"ĠChef":6734,"ĠJesus":6735,"ĠNerven":6736,"ĠSzen":6737,"ĠWachstum":6738,"Ġverein":6739,"ĠfÃ¼rchten":6740,"ĠAusrÃ¼stung":6741,"Ġ2011":6742,"ĠSeptember":6743,"Ġca":6744,"Ġproduzieren":6745,"ĠKÃ¶rbe":6746,"Deswegen":6747,"ĠSchulen":6748,"ĠSÃ¼nden":6749,"istrieren":6750,"preis":6751,"zz":6752,"asi":6753,"genie":6754,"ĠEind":6755,"ĠLÃ¼gen":6756,"Ġ29":6757,"ĠInhalte":6758,"Ġwoher":6759,"Ġbesorgt":6760,"ordet":6761,"ĠBeth":6762,"ĠRichter":6763,"MÃ¶chten":6764,"DF":6765,"Reg":6766,"ĠSehen":6767,"ĠverrÃ¼ck":6768,"amb":6769,"leb":6770,"hmen":6771,"Ġuntersuchen":6772,"Ġglaub":6773,"ĠAbsicht":6774,"ĠvollstÃ¤ndig":6775,"ĠTermin":6776,"gedacht":6777,"Ġbekomme":6778,"Ġkomisch":6779,"21":6780,"Ġmut":6781,"Ġaufgenommen":6782,"teln":6783,"ĠAbm":6784,"Ġlebendig":6785,"istenz":6786,"Ġjene":6787,"ĠPlugin":6788,"ĠHimbe":6789,"grÃ¶":6790,"Ġmerk":6791,"Ġfein":6792,"Ġschne":6793,"Ġtro":6794,"etze":6795,"icke":6796,"ptop":6797,"ĠÃĦl":6798,"eignet":6799,"Ġfreue":6800,"Ġrote":6801,"ĠFlorist":6802,"Ġgib":6803,"ĠBin":6804,"ĠBeine":6805,"ĠEier":6806,"ĠWerkzeuge":6807,"ĠMilitÃ¤r":6808,"ĠEisen":6809,"drÃ¼cken":6810,"obe":6811,"ĠGanz":6812,"ĠWichtig":6813,"ĠRay":6814,"Ġgezogen":6815,"attung":6816,"Ã¤mpfen":6817,"Ġexp":6818,"Ġvertraut":6819,"ĠHex":6820,"ĠWechselkurs":6821,"Ġoptim":6822,"Dir":6823,"bliche":6824,"ring":6825,"ĠMas":6826,"Ġlieferen":6827,"ĠBlumengeschÃ¤fte":6828,"Ġtreten":6829,"Ġreichen":6830,"Zur":6831,"Ġeinst":6832,"tert":6833,"ĠVit":6834,"agd":6835,"ĠSpur":6836,"ĠZusch":6837,"ĠBildschirm":6838,"kohol":6839,"Verdammt":6840,"ikt":6841,"ĠSuch":6842,"ĠAff":6843,"Ġfrem":6844,"leute":6845,"ĠZelle":6846,"ĠStil":6847,"ĠOsten":6848,"rimin":6849,"ĠLiebes":6850,"Ġangezeigt":6851,"ĠForsch":6852,"Ġamerikanischen":6853,"bÃ¼ros":6854,"ĠdurchgefÃ¼hrt":6855,"ĠTipps":6856,"mel":6857,"ĠMicro":6858,"ĠDamen":6859,"ĠDrink":6860,"bergen":6861,"ĠCaptain":6862,"ĠprÃ¼":6863,"Ġ45":6864,"ĠInstr":6865,"Ġinteressante":6866,"ĠObjekt":6867,"ĠLaptop":6868,"Ex":6869,"aim":6870,"leitung":6871,"ya":6872,"Ġbrechen":6873,"ĠFer":6874,"ĠPoten":6875,"ĠLernen":6876,"ĠRich":6877,"ĠSchritte":6878,"omas":6879,"bliot":6880,"Ã¼tze":6881,"Ġdeutlich":6882,"Ġverdammten":6883,"ĠVerlust":6884,"Ġperfekte":6885,"ĠgroÃŁartige":6886,"Ġanschauen":6887,"ĠSmart":6888,"ĠMathematik":6889,"TS":6890,"Ġx":6891,"Ġwitz":6892,"ĠAtem":6893,"ĠZurÃ¼ck":6894,"Ġumher":6895,"reien":6896,"Ġaktuelle":6897,"ĠMeeres":6898,"right":6899,"ĠHeimat":6900,"ĠZentrum":6901,"200":6902,"Mal":6903,"Pass":6904,"ging":6905,"jas":6906,"nissen":6907,"pe":6908,"umm":6909,"itiv":6910,"ĠAbt":6911,"Ġscheinen":6912,"Ġabgel":6913,"âĢĵ":6914,"ĠFormen":6915,"fÃ¼hlt":6916,"Jeden":6917,"ĠursprÃ¼n":6918,"Holen":6919,"une":6920,"Ġkostet":6921,"ĠRahmen":6922,"Ġstanden":6923,"ikal":6924,"eiligt":6925,"ĠweiÃŁe":6926,"Ġklug":6927,"Ġkeinem":6928,"Ġgeschlafen":6929,"Ã¤lte":6930,"Ġversteht":6931,"Ġbegr":6932,"ĠGeneral":6933,"Ġheutigen":6934,"ĠgÃ¤be":6935,"Ġeingesch":6936,"ĠFro":6937,"ĠSpiegel":6938,"Ġgeschlossen":6939,"ordnung":6940,"ĠGuthaben":6941,"Ġerstes":6942,"frist":6943,"ĠBeginn":6944,"markt":6945,"sc":6946,"sicher":6947,"Ã¤den":6948,"alent":6949,"uth":6950,"oppelt":6951,"ĠZusammenarbeit":6952,"Sam":6953,"jamin":6954,"lesen":6955,"ĠSamen":6956,"ĠPre":6957,"Ġlangen":6958,"Ġvorne":6959,"Ġnachgedacht":6960,"opt":6961,"ict":6962,"ĠKonfl":6963,"ĠnÃ¤chstes":6964,"ĠJourn":6965,"ĠgrÃ¶ÃŁere":6966,"ĠVorteil":6967,"Ġbaute":6968,"schlÃ¤ge":6969,"82":6970,"Drei":6971,"ĠSat":6972,"Ġschuldig":6973,"ĠStich":6974,"Ġrepar":6975,"maÃŁen":6976,"ĠRichtige":6977,"ĠNeue":6978,"Ã¤tzchen":6979,"ĠBusiness":6980,"Ġoberen":6981,"Ġwesent":6982,"ness":6983,"Ġide":6984,"ĠAmaz":6985,"ĠSchie":6986,"ĠAnder":6987,"ĠMars":6988,"Ġbleibe":6989,"ĠVolks":6990,"ĠBrun":6991,"ĠJerem":6992,"Ġermordet":6993,"Ġerfunden":6994,"zwischen":6995,"ĠermÃ¶glichen":6996,"ĠPharao":6997,"falt":6998,"ĠMaul":6999,"ĠGas":7000,"Ġpar":7001,"ĠArab":7002,"ĠGegend":7003,"Ġdrinnen":7004,"ĠHintergrund":7005,"ĠnÃ¼tzlich":7006,"35":7007,"ĠBesser":7008,"ĠHut":7009,"Ġto":7010,"ĠÃ¼berzeugen":7011,"Ġwenigen":7012,"ĠNews":7013,"ĠFolgen":7014,"Ġkostenlose":7015,"Ġerschien":7016,"ĠÃ¼berraschen":7017,"ĠZufall":7018,"Ġreisen":7019,"Ġmiss":7020,"ĠSel":7021,"ĠHeb":7022,"Ġsoweit":7023,"ĠSpitze":7024,"ĠReden":7025,"Ġgegenseit":7026,"aven":7027,"Zuhause":7028,"aire":7029,"ĠeuropÃ¤":7030,"mt":7031,"ĠfrÃ¶h":7032,"ĠPet":7033,"isser":7034,"Ġ197":7035,"ĠVerbesser":7036,"Ġschlechter":7037,"Denkst":7038,"ĠZweck":7039,"abrik":7040,"ĠHeld":7041,"ĠZer":7042,"ĠvorÃ¼ber":7043,"antas":7044,"Ġgering":7045,"quen":7046,"alismus":7047,"ĠKapit":7048,"Ã¼glich":7049,"Ġeingeladen":7050,"geber":7051,"ĠTu":7052,"Ã¤tsel":7053,"ĠWash":7054,"schiede":7055,"ĠMai":7056,"ĠMarken":7057,"ĠGerÃ¤ten":7058,"ĠRock":7059,"ĠerwÃ¤hnt":7060,"osen":7061,"ĠmÃ¤nn":7062,"Ġhassen":7063,"onard":7064,"ĠWild":7065,"ĠNor":7066,"ĠVergn":7067,"ĠAndere":7068,"ĠErm":7069,"ĠVerbindungen":7070,"ĠAbendessen":7071,"ĠFarben":7072,"Ġeurer":7073,"ZurÃ¼ck":7074,"aw":7075,"ly":7076,"Ġus":7077,"ĠFle":7078,"ĠDrei":7079,"Ġerlauben":7080,"ĠInse":7081,"ĠReview":7082,"orgung":7083,"Ġerlebt":7084,"ĠKompl":7085,"ĠGolf":7086,"26":7087,"fÃ¤lt":7088,"swert":7089,"Ġwisst":7090,"ĠSinne":7091,"ĠWid":7092,"istischen":7093,"ĠUntern":7094,"ĠEinkommen":7095,"ĠBlock":7096,"eldon":7097,"quem":7098,"ologischen":7099,"Werden":7100,"Nachdem":7101,"ehmt":7102,"Ġsowieso":7103,"ĠVortrag":7104,"ĠGrÃ¼nden":7105,"waltung":7106,"ĠSpeicher":7107,"Ġgeplant":7108,"iellen":7109,"ĠKommen":7110,"Ġerstellt":7111,"ĠEcht":7112,"Ġoff":7113,"Ġabgesch":7114,"ĠÃ¼berzeugt":7115,"Ġhinterlassen":7116,"ĠMisset":7117,"ĠOzean":7118,"yd":7119,"Ġdauer":7120,"esk":7121,"ĠEhren":7122,"umb":7123,"ĠgeÃ¶ffnet":7124,"ĠVerfahren":7125,"Ġstreiten":7126,"ĠBauch":7127,"ĠFÃ¼hrer":7128,"Ġinternationale":7129,"verlÃ¤ss":7130,"SS":7131,"gert":7132,"rennt":7133,"Ġche":7134,"Ġheilen":7135,"ĠLang":7136,"utze":7137,"olly":7138,"ĠlieÃŁen":7139,"DarÃ¼ber":7140,"ffentlichkeit":7141,"ucken":7142,"ĠMeilen":7143,"ĠAf":7144,"Ġtanzen":7145,"ĠPromo":7146,"spielen":7147,"Ġanderem":7148,"Ġgelten":7149,"ission":7150,"Ġhalb":7151,"01":7152,"schriften":7153,"Ġerzeugen":7154,"Ã¼ndigt":7155,"rachte":7156,"Ġantworten":7157,"Ġempfehlen":7158,"ĠArmut":7159,"ĠPrÃ¤sidenten":7160,"ĠÃĦrzte":7161,"Ġheiligen":7162,"Ġinternationalen":7163,"ĠCoupon":7164,"Ġbeantworten":7165,"lÃ¶sung":7166,"Egal":7167,"Ġsodass":7168,"ĠOder":7169,"Ã¤tzt":7170,"ĠAbmelden":7171,"Ġlanger":7172,"ondere":7173,"Ġmagst":7174,"ĠParam":7175,"Ġunbegren":7176,"Ġform":7177,"gefÃ¼gt":7178,"ĠTick":7179,"ĠNoch":7180,"etzung":7181,"herz":7182,"Ġbetrifft":7183,"ĠKatze":7184,"ĠExperten":7185,"Ġschwarz":7186,"ĠOperation":7187,"Ġgarantieren":7188,"Ġbegraben":7189,"Ġignor":7190,"ichtbar":7191,"ĠAmm":7192,"ĠBord":7193,"ĠIran":7194,"ĠhÃ¶rst":7195,"Ġstarke":7196,"Ġergibt":7197,"Ġlegte":7198,"ĠErinnerung":7199,"ebt":7200,"pass":7201,"techn":7202,"irk":7203,"itis":7204,"eta":7205,"ĠGÃ¤ste":7206,"ĠTieren":7207,"Ġausgeb":7208,"ĠInfe":7209,"Ġherauf":7210,"ĠRech":7211,"Ã¼cken":7212,"ĠPlÃ¤ne":7213,"enntnis":7214,"ĠauÃŁergewÃ¶hn":7215,"Ġstoppen":7216,"krieg":7217,"stat":7218,"ĠMeg":7219,"ehnen":7220,"ĠKu":7221,"Ġgestellte":7222,"Ġwovon":7223,"ĠKlappe":7224,"Ġbesseren":7225,"ĠZucker":7226,"ĠauÃŁerdem":7227,"ĠÃĦgyptenland":7228,"ĠWirklichkeit":7229,"ĠSpezies":7230,"OK":7231,"Sc":7232,"giss":7233,"hÃ¼":7234,"vid":7235,"Ġeingeb":7236,"Ġbat":7237,"abb":7238,"ierenden":7239,"ĠIngenie":7240,"ĠErf":7241,"Ġreagieren":7242,"ĠAusdruck":7243,"Ġfolgt":7244,"ĠDaddy":7245,"Ġglobalen":7246,"ĠSachverstÃ¤nd":7247,"LL":7248,"hone":7249,"vier":7250,"ĠPersÃ¶n":7251,"Ġanmelden":7252,"ĠâĢĺ":7253,"richtungen":7254,"ĠWeiÃŁ":7255,"ĠVoraus":7256,"ĠRose":7257,"ĠWorld":7258,"ĠEngland":7259,"Ġkommunizieren":7260,"uft":7261,"Ġnenne":7262,"ĠAbl":7263,"Ġderselben":7264,"aming":7265,"riffe":7266,"eichert":7267,"Ġfolgende":7268,"Ġchines":7269,"Mann":7270,"vo":7271,"ĠMatt":7272,"ĠGur":7273,"ĠTel":7274,"ĠTax":7275,"Ġschme":7276,"indust":7277,"Ġauss":7278,"ĠVerschw":7279,"Einfach":7280,"ĠmÃ¶chtest":7281,"Ġsolch":7282,"ĠGedÃ¤chtnis":7283,"2019":7284,"ĠGegenteil":7285,"ĠWarenkorb":7286,"bewertungen":7287,"Gruppen":7288,"Ġintelligen":7289,"ĠFEC":7290,"Ġwirkt":7291,"Ġpromo":7292,"Ġfragt":7293,"Ġgespielt":7294,"Ġbeliebte":7295,"ĠJuli":7296,"Ġgrundlegen":7297,"Ġdunkel":7298,"Ġill":7299,"Ġvergangen":7300,"ĠBlÃ¶":7301,"ĠGesetze":7302,"ĠEigent":7303,"Ġbeobachtet":7304,"kÃ¼nft":7305,"ĠprÃ¤sent":7306,"ĠRepu":7307,"ĠÃľberraschung":7308,"hel":7309,"ĠhÃ¤ngen":7310,"ĠLassen":7311,"igar":7312,"Ġaufger":7313,"Ġdieselbe":7314,"spieler":7315,"Ġteuer":7316,"ĠMaterialien":7317,"Dem":7318,"Ger":7319,"vol":7320,"vater":7321,"aser":7322,"abet":7323,"ĠOst":7324,"ĠgewÃ¤hlt":7325,"Ġdennoch":7326,"ody":7327,"ĠSec":7328,"ĠVerteid":7329,"coin":7330,"Ġheutzutage":7331,"ĠProfessor":7332,"ĠWashington":7333,"Muss":7334,"het":7335,"kle":7336,"ĠSehr":7337,"ĠMaster":7338,"ideo":7339,"gewalt":7340,"Ġjederzeit":7341,"ĠEuro":7342,"Ġerwachsen":7343,"ĠÃĸffentlichkeit":7344,"Ġbegannen":7345,"ĠPrinzessin":7346,"Ġmerken":7347,"ĠLaufe":7348,"ĠPferd":7349,"ĠVergnÃ¼gen":7350,"industrie":7351,"band":7352,"pag":7353,"Ġeint":7354,"Ġbuchen":7355,"ĠZie":7356,"hlung":7357,"ĠErbe":7358,"Ġentkommen":7359,"essungen":7360,"gerÃ¤t":7361,"ĠUnterhaltung":7362,"ĠWoher":7363,"ĠFalle":7364,"jenige":7365,"Ġbelieb":7366,"Ġbeeinflussen":7367,"ĠgÃ¼ltig":7368,"rick":7369,"ssen":7370,"ĠSR":7371,"ĠBack":7372,"ikationen":7373,"Ġruf":7374,"ĠBenjamin":7375,"Ġbeeindru":7376,"Ġdankbar":7377,"ĠSachverstÃ¤ndige":7378,"ĠSing":7379,"llung":7380,"Ġzul":7381,"ĠAg":7382,"ĠGeht":7383,"Ġwirk":7384,"ĠZunge":7385,"zukommen":7386,"Ġwohnt":7387,"ĠVerÃ¤nderungen":7388,"ĠSachverstÃ¤ndigebÃ¼ros":7389,"hilfe":7390,"kind":7391,"enter":7392,"Ġverfl":7393,"Ġannehmen":7394,"Ġangetan":7395,"ĠZit":7396,"Ġausgehen":7397,"ĠAnd":7398,"Ġbring":7399,"ĠKundenservice":7400,"weisungen":7401,"ĠSalz":7402,"ĠDokument":7403,"ĠnervÃ¶s":7404,"ĠPresse":7405,"Kon":7406,"Leider":7407,"cl":7408,"Ġrot":7409,"Ġgeist":7410,"ĠVielen":7411,"Ġdurchschnitt":7412,"ĠGesamt":7413,"Ġco":7414,"ĠBras":7415,"ĠBibliot":7416,"ĠHostel":7417,"sphÃ¤re":7418,"Halten":7419,"Ġse":7420,"alys":7421,"ĠDate":7422,"agiert":7423,"leun":7424,"Ġabgeh":7425,"Ġunters":7426,"Ġsagtest":7427,"ĠMary":7428,"ĠerhÃ¤lt":7429,"ĠEntschuldigung":7430,"zwungen":7431,"ĠZweifel":7432,"Ġversprochen":7433,"struktur":7434,"ĠEphr":7435,"Ġrespekt":7436,"ini":7437,"inkt":7438,"ĠMassen":7439,"ĠWes":7440,"ehrte":7441,"istisch":7442,"Ġdarunter":7443,"soft":7444,"ĠWerbung":7445,"ĠBÃ¼hne":7446,"ĠHarry":7447,"ĠzwÃ¶lf":7448,"ĠGraf":7449,"oto":7450,"Ġvorbehalten":7451,"artig":7452,"ĠHof":7453,"ĠQuad":7454,"Ġerscheinen":7455,"Kunden":7456,"SC":7457,"iffe":7458,"ws":7459,"ĠAUS":7460,"ĠFa":7461,"ĠDame":7462,"olo":7463,"Ġallgemein":7464,"ili":7465,"spart":7466,"adem":7467,"neut":7468,"Ġ2012":7469,"zieht":7470,"ĠÃľberprÃ¼":7471,"ĠbetrÃ¼":7472,"Ġvermisst":7473,"offer":7474,"ĠMoab":7475,"ĠMitglieder":7476,"kurse":7477,"Ġbemerkt":7478,"Ġkaputt":7479,"ĠSchnee":7480,"Ġfreundlich":7481,"ĠMuseum":7482,"ĠAudio":7483,"Hol":7484,"SA":7485,"aja":7486,"fert":7487,"ih":7488,"kraft":7489,"tu":7490,"ente":7491,"Ġmon":7492,"ĠSMS":7493,"schauen":7494,"ĠBienen":7495,"ĠWarte":7496,"ĠTanz":7497,"Wirklich":7498,"uliert":7499,"ĠwofÃ¼r":7500,"logen":7501,"ĠPlast":7502,"ĠAustr":7503,"gangs":7504,"ELEC":7505,"ĠGleiche":7506,"Ġangeboten":7507,"Ġwette":7508,"ĠMater":7509,"ĠRett":7510,"ĠNick":7511,"weite":7512,"ĠSchwein":7513,"ĠMarke":7514,"Ġschwach":7515,"ĠMedia":7516,"ĠerfÃ¼llen":7517,"Ġwitzig":7518,"ghan":7519,"van":7520,"ora":7521,"itieren":7522,"Ġgenet":7523,"Ġunterhalten":7524,"Ġechten":7525,"ĠÃ¼berlebt":7526,"ĠLeib":7527,"ĠWettbewer":7528,"ĠUnsere":7529,"Neue":7530,"Ġopfern":7531,"Seid":7532,"Ġwenden":7533,"ĠBarbie":7534,"ĠVan":7535,"ffer":7536,"Weitere":7537,"ĠAtmos":7538,"Ġvorbereitet":7539,"Ġverwendeten":7540,"Pal":7541,"dige":7542,"jemand":7543,"ris":7544,"zy":7545,"Ġseht":7546,"Ġzeich":7547,"able":7548,"scheine":7549,"ĠHem":7550,"Ġschaut":7551,"ĠSchwer":7552,"ĠVerw":7553,"endes":7554,"ĠEinsch":7555,"formationen":7556,"Start":7557,"ĠMole":7558,"ĠJosua":7559,"MA":7560,"kern":7561,"lass":7562,"ĠSD":7563,"ĠgÃ¼nst":7564,"ary":7565,"Ã¶ser":7566,"ĠHei":7567,"ĠHab":7568,"ĠHÃ¤ufig":7569,"reibe":7570,"ivir":7571,"que":7572,"Ġbeschlossen":7573,"ĠWillkommen":7574,"ĠHimmels":7575,"gleichen":7576,"Ã¶rderung":7577,"Ġeurem":7578,"ĠDaniel":7579,"Ġnachzudenken":7580,"ĠEutelsat":7581,"Offen":7582,"ugen":7583,"atisch":7584,"ĠMPEG":7585,"decken":7586,"ĠOffen":7587,"chtung":7588,"ĠEnd":7589,"ungsst":7590,"ĠChancen":7591,"Ġ2010":7592,"Ġfeiern":7593,"zum":7594,"steigen":7595,"Ġsinn":7596,"Ġsingen":7597,"ĠStern":7598,"ĠzukÃ¼nft":7599,"ĠKombin":7600,"Ġverpasst":7601,"ĠSchÃ¤d":7602,"Ġhinab":7603,"ĠDepress":7604,"kerl":7605,"organ":7606,"ynam":7607,"ĠTemperatur":7608,"ĠerfÃ¼llt":7609,"Ġhingehen":7610,"Ġfurchtbar":7611,"nummer":7612,"zwei":7613,"Ġmoch":7614,"Ã¤tern":7615,"ĠFrie":7616,"ĠEintrag":7617,"Ã¼tz":7618,"ĠTeilen":7619,"ĠBehand":7620,"ĠInteressen":7621,"ĠpersÃ¶nliche":7622,"Ġirgendwelche":7623,"ĠVampir":7624,"FF":7625,"stieg":7626,"ano":7627,"oral":7628,"ĠSchalt":7629,"ĠÃ¼bersch":7630,"immy":7631,"Ġgener":7632,"Ġliebst":7633,"eidigen":7634,"ĠWeiber":7635,"Ġherausgefunden":7636,"ĠTÃ¼ren":7637,"box":7638,"ĠnatÃ¼rlichen":7639,"Versuchen":7640,"ĠSpanien":7641,"ĠJordan":7642,"mod":7643,"ĠrÃ¼ck":7644,"Ġdi":7645,"ĠzÃ¤hlt":7646,"ĠMaus":7647,"Ġangeh":7648,"ĠArbeiten":7649,"ĠschwÃ¶re":7650,"ĠSerie":7651,"ĠFahrer":7652,"eugte":7653,"ĠCarol":7654,"32":7655,"Fol":7656,"gs":7657,"ĠfÃ¶rdern":7658,"ĠDreck":7659,"igungs":7660,"Ġbedro":7661,"Ġausgel":7662,"Ġmeint":7663,"ĠVeranstalt":7664,"Ġhinweg":7665,"reiche":7666,"ĠDefin":7667,"ĠBetreiber":7668,"rypt":7669,"Ġfreien":7670,"oppel":7671,"Ġhalbe":7672,"ĠTransport":7673,"stoffe":7674,"Ġpraktisch":7675,"FÃ¼":7676,"For":7677,"Glauben":7678,"tliche":7679,"enk":7680,"Ġmeist":7681,"Ġmax":7682,"Ġangesch":7683,"Ġlog":7684,"ĠZigar":7685,"ĠArg":7686,"Ġmehreren":7687,"Wieder":7688,"ĠHersteller":7689,"echan":7690,"ĠKons":7691,"Ã¶ses":7692,"ĠMagie":7693,"ĠMaÃŁnahmen":7694,"Ġmittler":7695,"quenzen":7696,"Gesch":7697,"Leute":7698,"klei":7699,"macht":7700,"agte":7701,"Ġtyp":7702,"ĠSchool":7703,"zugehen":7704,"ĠAlkohol":7705,"Ġdrehen":7706,"ĠManagement":7707,"Ġerschossen":7708,"ĠErinnerungen":7709,"Ġdiskut":7710,"sÃ¤tze":7711,"Ġwechseln":7712,"aucht":7713,"ĠMitt":7714,"ĠLo":7715,"Ġstimm":7716,"ĠAnn":7717,"pfung":7718,"echten":7719,"scheinend":7720,"ĠÂ©":7721,"ĠRobert":7722,"Weiter":7723,"ĠSupport":7724,"ĠZahlungen":7725,"ĠIndivid":7726,"PSK":7727,"ĠVenedig":7728,"ifornien":7729,"gelt":7730,"heil":7731,"kopf":7732,"zehn":7733,"ĠGru":7734,"Ġerschie":7735,"ĠTie":7736,"ĠTsch":7737,"Ġlasst":7738,"reckt":7739,"ĠCamp":7740,"omin":7741,"ĠRec":7742,"gesamt":7743,"digung":7744,"Ġallerdings":7745,"Bevor":7746,"stÃ¤ndige":7747,"Bring":7748,"Ges":7749,"blichen":7750,"maschine":7751,"Ð°":7752,"ichen":7753,"Ġunw":7754,"ala":7755,"ĠTed":7756,"Ġanges":7757,"Ġschien":7758,"Ġtrain":7759,"ĠSchafe":7760,"ĠAnbieter":7761,"ellschaften":7762,"ĠWerte":7763,"Ġlangweil":7764,"ĠGene":7765,"Ã¤usern":7766,"ĠerhÃ¶ht":7767,"Ġriesige":7768,"ĠgegrÃ¼ndet":7769,"ĠiPhone":7770,"anzÃ¶sisch":7771,"ĠFortschritt":7772,"28":7773,"Best":7774,"Hz":7775,"HÃ¶rt":7776,"lasse":7777,"Ðµ":7778,"ĠfÃ¤ngt":7779,"Ġfuhr":7780,"ĠTast":7781,"ĠTode":7782,"ÃŁig":7783,"Ġangenommen":7784,"ommy":7785,"ĠCenter":7786,"Ġpfl":7787,"osition":7788,"Ġrichten":7789,"undzw":7790,"adel":7791,"Ġgewartet":7792,"ĠGeschmack":7793,"ĠFlucht":7794,"ĠSeelen":7795,"âĢ¦":7796,"ĠDurchschnitt":7797,"Ġumfassen":7798,"ĠZeugen":7799,"ps":7800,"uster":7801,"zÃ¼n":7802,"Ã¤ck":7803,"Ġfahre":7804,"ĠBos":7805,"ĠSchon":7806,"anzt":7807,"rÃ¤fte":7808,"Ġweiteres":7809,"ĠKlar":7810,"ĠMitgefÃ¼hl":7811,"ĠQuellen":7812,"besondere":7813,"zentrum":7814,"Ġblock":7815,"ĠJuden":7816,"ĠGeschÃ¤ftsbedingungen":7817,"ĠkÃ¼mmert":7818,"RO":7819,"yle":7820,"Ð¾":7821,"Ġendet":7822,"aust":7823,"auchen":7824,"ĠTaschen":7825,"ĠVIP":7826,"ĠstÃ¼r":7827,"ĠProjekte":7828,"ĠErzÃ¤hl":7829,"ĠFrequenz":7830,"ĠGras":7831,"Ġverwalten":7832,"Ġbegeist":7833,"ĠÃ¶ffentlich":7834,"ĠDenk":7835,"ĠProfil":7836,"ĠFrancis":7837,"Wechsel":7838,"heben":7839,"ummern":7840,"Ġwest":7841,"Ġseh":7842,"eiste":7843,"ĠbÃ¶sen":7844,"acher":7845,"Ġfair":7846,"ĠLeg":7847,"Ġvergeben":7848,"ĠRang":7849,"ends":7850,"Ġgenutzt":7851,"ĠLandschaft":7852,"ĠBeispiele":7853,"ĠBenutz":7854,"ĠMike":7855,"ĠPrivatsphÃ¤re":7856,"Ġlebte":7857,"WÃ¤re":7858,"haber":7859,"ĠHilf":7860,"igungen":7861,"Ġverfolgt":7862,"ĠStation":7863,"ĠStark":7864,"Ã¤hlte":7865,"ĠschÃ¶ner":7866,"upon":7867,"ĠMarketing":7868,"ĠKugel":7869,"Ġenden":7870,"Ġzentr":7871,"ita":7872,"Ġangew":7873,"Ġgekl":7874,"ĠEinheit":7875,"Ġwiederum":7876,"Ġgefol":7877,"ĠGeschÃ¤fte":7878,"Ġkonvert":7879,"aco":7880,"Ġ150":7881,"ĠKreuz":7882,"Ġnormale":7883,"ĠBefehle":7884,"ĠFÃ¼hrung":7885,"RT":7886,"nungs":7887,"out":7888,"ĠwÃ¤chst":7889,"Ã¼m":7890,"ĠGreu":7891,"ĠKen":7892,"ĠlÃ¤cher":7893,"Ġmitnehmen":7894,"ĠSchok":7895,"ĠSchande":7896,"laube":7897,"ĠBeob":7898,"ĠGeorge":7899,"Ġgemeint":7900,"ĠEntfern":7901,"ĠDecke":7902,"ĠMÃ¼he":7903,"vention":7904,"Ġkurze":7905,"Ġindivid":7906,"ĠMissetat":7907,"Fre":7908,"Ġdur":7909,"Ġmark":7910,"Ġmessen":7911,"Ġmelden":7912,"Ġnutz":7913,"ĠTabl":7914,"ĠJane":7915,"ando":7916,"best":7917,"ĠAnge":7918,"alth":7919,"Ġzweimal":7920,"ĠCha":7921,"Ġsicherlich":7922,"Andere":7923,"rechnung":7924,"ĠPortug":7925,"Ġtechnische":7926,"Ġkurzen":7927,"ĠSchwarz":7928,"hÃ¤user":7929,"offe":7930,"pol":7931,"ĠSens":7932,"Ġerneut":7933,"ĠInnen":7934,"ĠGrab":7935,"ĠAbra":7936,"ĠMonats":7937,"ĠWesten":7938,"ĠBegriff":7939,"ĠRadio":7940,"ĠÃľb":7941,"ĠCoupons":7942,"ĠStrategie":7943,"Wegen":7944,"oe":7945,"ses":7946,"auch":7947,"Ġhistor":7948,"itan":7949,"ĠBade":7950,"ĠHabe":7951,"Ġschmer":7952,"ĠStÃ¤":7953,"Erhalten":7954,"Ġ33":7955,"Ġwichtigste":7956,"ĠLux":7957,"ĠArchitektur":7958,"Trotz":7959,"gruppe":7960,"sse":7961,"angeb":7962,"ĠiOS":7963,"ĠkÃ¶rper":7964,"ĠAktionen":7965,"ĠNutzen":7966,"spar":7967,"ruh":7968,"Ġgefahren":7969,"Ã¤hren":7970,"ĠGrundlage":7971,"ĠRoy":7972,"Ġroten":7973,"ĠerzÃ¤hle":7974,"ĠReligion":7975,"holz":7976,"isiert":7977,"ĠÃ¼berlegen":7978,"Ġrel":7979,"ĠMaj":7980,"ĠTeen":7981,"inkel":7982,"Ġerkannt":7983,"ĠTheater":7984,"ĠmÃ¤chtig":7985,"ĠBatter":7986,"erren":7987,"Ġfassen":7988,"Ġanbieten":7989,"ckten":7990,"ĠNimm":7991,"Ġjunger":7992,"kturen":7993,"ĠStoff":7994,"ĠAnton":7995,"ĠGeheimnisse":7996,"ĠTastatur":7997,"29":7998,"LAN":7999,"darum":8000,"ford":8001,"Ġad":8002,"Ġatt":8003,"ors":8004,"ĠKurz":8005,"ĠKohlen":8006,"andid":8007,"sprache":8008,"ĠRezept":8009,"Ġliebte":8010,"erstoff":8011,"ĠtÃ¶tet":8012,"Ġengl":8013,"ĠwÃ¼nschen":8014,"Ġerscheint":8015,"actica":8016,"ĠBrasilien":8017,"Did":8018,"keln":8019,"Ġachten":8020,"erdings":8021,"Ã¤men":8022,"ĠMass":8023,"ura":8024,"ĠPause":8025,"ĠNorm":8026,"ĠCan":8027,"ĠSchlimm":8028,"Ġleichter":8029,"ĠAktivitÃ¤t":8030,"eligi":8031,"ĠWeihnachts":8032,"Ġglobale":8033,"Ġunschuldig":8034,"ĠRÃ¤tsel":8035,"ĠVerÃ¶ffentlicht":8036,"ĠAnsatz":8037,"Ġgeheim":8038,"Ġherab":8039,"Ġverlangt":8040,"Ġbewir":8041,"Ġallerlei":8042,"kehrt":8043,"stoÃŁen":8044,"ĠStaub":8045,"ĠEphraim":8046,"aj":8047,"gebÃ¼hren":8048,"David":8049,"ĠEntdeck":8050,"Ġzweit":8051,"ĠLippen":8052,"ĠDiagn":8053,"ĠParameter":8054,"49":8055,"Herr":8056,"dlichen":8057,"fÃ¤llt":8058,"sionen":8059,"Ġneg":8060,"arzt":8061,"ĠHon":8062,"ĠFÃ¤lle":8063,"ĠFrucht":8064,"ĠTar":8065,"amar":8066,"ĠCont":8067,"Ġrichte":8068,"ĠKlassen":8069,"Ġbleibst":8070,"ĠKindheit":8071,"ĠerwÃ¼r":8072,"ĠWillen":8073,"Ġempfangen":8074,"ĠLÃ¶wen":8075,"Ġpolitische":8076,"Ġnirgendwo":8077,"Ã¶ffentlich":8078,"ĠfÃ¤h":8079,"ahrt":8080,"ĠGratis":8081,"Ġgelaufen":8082,"ĠAntivir":8083,"ĠPatient":8084,"ĠStress":8085,"Ġkriegt":8086,"zusetzen":8087,"Ġverspreche":8088,"Ġpolitischen":8089,"irl":8090,"arre":8091,"ĠHann":8092,"allt":8093,"Ġtrug":8094,"Ġauseinander":8095,"Ã¤nner":8096,"ĠUni":8097,"ogar":8098,"ĠRegierungen":8099,"zahlen":8100,"ĠinterDid":8101,"Ġbestimmen":8102,"ĠModelle":8103,"ĠBrÃ¼dern":8104,"ĠStatist":8105,"Ġbetrachtet":8106,"ĠTempel":8107,"Ġunterschiedliche":8108,"tragung":8109,"ĠVermÃ¶gen":8110,"Ġbeeinflusst":8111,"Ġverhaftet":8112,"ĠinterDidactica":8113,"LA":8114,"OO":8115,"text":8116,"orten":8117,"ĠKenn":8118,"ĠKÃ¤m":8119,"ĠlÃ¼gen":8120,"achtung":8121,"ĠSchwanz":8122,"ĠGebote":8123,"Anzahl":8124,"Zuerst":8125,"Ġverursachen":8126,"Ġamerikanische":8127,"ĠReservierung":8128,"Ah":8129,"Waren":8130,"ĠungewÃ¶hn":8131,"ĠSieg":8132,"usion":8133,"legt":8134,"ehre":8135,"reif":8136,"Ġ....":8137,"Ġvieles":8138,"Ġgerufen":8139,"ĠAlb":8140,"Verzei":8141,"Ġneuesten":8142,"ĠSymbol":8143,"ĠBesucher":8144,"ĠWolken":8145,"ahe":8146,"dauer":8147,"rieren":8148,"vollen":8149,"Ġdunk":8150,"Ġhey":8151,"Ġgibst":8152,"Ġzulassen":8153,"ĠDunkel":8154,"ĠPra":8155,"reden":8156,"isa":8157,"Ġwerd":8158,"echnet":8159,"Ġgetrennt":8160,"ips":8161,"Ġfressen":8162,"ĠThomas":8163,"ĠFuÃŁball":8164,"phen":8165,"stu":8166,"ĠSack":8167,"Ġnannte":8168,"ĠWurz":8169,"ĠKron":8170,"deten":8171,"anner":8172,"ĠNiemand":8173,"Ġvorn":8174,"elev":8175,"wortet":8176,"ĠerklÃ¤r":8177,"Ġbasiert":8178,"Ġelektr":8179,"09":8180,"Live":8181,"Seht":8182,"wunsch":8183,"ĠBrÃ¼cke":8184,"Ġmitkommen":8185,"Ġgep":8186,"Ġtreiben":8187,"Ġjagen":8188,"entl":8189,"ĠBeer":8190,"Ġentstehen":8191,"Ġgeraten":8192,"loss":8193,"armherz":8194,"Ġbesondere":8195,"Ġkompliziert":8196,"Sollte":8197,"Ġerstaunlich":8198,"Ġgebraucht":8199,"ĠKilometer":8200,"ĠZwischen":8201,"ĠAustausch":8202,"ĠfrÃ¶hlich":8203,"Vert":8204,"eden":8205,"kaufen":8206,"zÃ¼g":8207,"Ã§":8208,"Ġehe":8209,"ĠMahl":8210,"ĠVern":8211,"ĠSteine":8212,"Ġspringen":8213,"ĠGeruch":8214,"Naja":8215,"ĠFormat":8216,"ĠStÃ¼cke":8217,"rechner":8218,"ĠModus":8219,"prÃ¤sent":8220,"ĠImmobil":8221,"Zeit":8222,"dam":8223,"mittag":8224,"Ã¤sche":8225,"Ġintegr":8226,"ĠHu":8227,"ĠHeute":8228,"igner":8229,"ĠlÃ¼":8230,"Ġlegt":8231,"ĠStahl":8232,"ila":8233,"Ġausges":8234,"Ġpersonen":8235,"ĠAbw":8236,"Ġgelangen":8237,"geschlagen":8238,"ĠLeonard":8239,"ĠGewinn":8240,"ĠApple":8241,"ĠForscher":8242,"ĠKnie":8243,"Ġrom":8244,"Ãĸff":8245,"ĠAtmosphÃ¤re":8246,"Brau":8247,"uckt":8248,"Ġup":8249,"chern":8250,"ichter":8251,"its":8252,"ĠBach":8253,"barung":8254,"ordin":8255,"ĠGebir":8256,"ĠPflege":8257,"Ġhalben":8258,"ĠChris":8259,"ĠPflicht":8260,"MÃ¶chtest":8261,"Ġgegenseitig":8262,"pte":8263,"ye":8264,"Ġeindeut":8265,"Ã¤hm":8266,"Ġkauf":8267,"orien":8268,"ĠMerk":8269,"ĠFakten":8270,"ĠTha":8271,"Ġangen":8272,"ield":8273,"ĠEinen":8274,"ebs":8275,"rachten":8276,"ĠgewÃ¼n":8277,"Ġgewusst":8278,"Ġverbracht":8279,"âĢĻ":8280,"ĠWahrscheinlich":8281,"board":8282,"ĠSÃ¼ÃŁe":8283,"ĠHeiligt":8284,"rÃ¤nkt":8285,"ĠKrÃ¤fte":8286,"ĠBibliothek":8287,"eiÃŁen":8288,"Ġzeugte":8289,"ata":8290,"schiff":8291,"ĠBran":8292,"ĠFig":8293,"Ġerfolgen":8294,"Ġmitgebracht":8295,"Ġwarm":8296,"ĠWerke":8297,"Ġinteressieren":8298,"Ġdreht":8299,"ĠZahlungs":8300,"Ã¤chtigen":8301,"ĠGesundheits":8302,"schule":8303,"imente":8304,"Ġeffektiv":8305,"ĠAmazon":8306,"ĠTaxi":8307,"dien":8308,"Ġmar":8309,"Ġeinsam":8310,"ders":8311,"ĠFurcht":8312,"Ġerhe":8313,"eitag":8314,"ĠRennen":8315,"ĠRache":8316,"ĠEinstellung":8317,"Ã¤nderte":8318,"zeichnung":8319,"ĠManager":8320,"WeiÃŁ":8321,"Ġruin":8322,"Ġenorm":8323,"ĠDiskuss":8324,"ĠChaos":8325,"Danach":8326,"baum":8327,"do":8328,"iam":8329,"Ðº":8330,"Ã¶hnen":8331,"ĠLou":8332,"Ġsowas":8333,"ĠRi":8334,"Ġreduzieren":8335,"Ġklass":8336,"aker":8337,"merzen":8338,"Ġsolcher":8339,"ĠHerrlichkeit":8340,"Ã¤use":8341,"ĠgrÃ¶ÃŁeren":8342,"ĠÃ¶ffentliche":8343,"ĠSauerstoff":8344,"Ġlernte":8345,"ĠDetective":8346,"ĠAfghan":8347,"Dabei":8348,"EM":8349,"mond":8350,"elst":8351,"ĠGanze":8352,"ehnte":8353,"ĠVÃ¤tern":8354,"ischem":8355,"pflicht":8356,"Ġsicherzustellen":8357,"Ġhelfe":8358,"ĠProdukten":8359,"Ġbrit":8360,"graben":8361,"ĠRechts":8362,"ĠVision":8363,"ĠÃľberwachung":8364,"ĠIntelligenz":8365,"ĠInsekten":8366,"Ġmaxim":8367,"rent":8368,"Ġwirken":8369,"ĠPDF":8370,"ĠTausende":8371,"Ġsogen":8372,"ĠScher":8373,"lock":8374,"Ġbeschreiben":8375,"ĠAmy":8376,"urteilen":8377,"ction":8378,"Ġnormalen":8379,"Sonst":8380,"ĠUntersuchung":8381,"ĠProtokoll":8382,"ĠauswÃ¤hlen":8383,"OP":8384,"rum":8385,"ĠSagen":8386,"Ġnutzt":8387,"Ġgn":8388,"ĠMay":8389,"ĠAffen":8390,"Ã¼ren":8391,"ĠSche":8392,"ĠCra":8393,"ĠÃ¼bersetzen":8394,"istische":8395,"iene":8396,"Ġreligi":8397,"verstanden":8398,"ĠSchlampe":8399,"ĠGutscheincode":8400,"ĠGedanke":8401,"ÃľberprÃ¼":8402,"ĠKatzen":8403,"Ġwichtigen":8404,"ĠObersten":8405,"ĠContent":8406,"ĠDiensten":8407,"haften":8408,"ĠFelde":8409,"ĠPhysik":8410,"ĠEinwohner":8411,"Art":8412,"Cl":8413,"HERR":8414,"John":8415,"ci":8416,"funktion":8417,"ĠBÃ¶se":8418,"ĠKoffer":8419,"otionen":8420,"Erinner":8421,"ĠBesten":8422,"erseits":8423,"ĠFlÃ¼gel":8424,"ordnet":8425,"ĠGutscheine":8426,"ĠfrÃ¼hen":8427,"gorit":8428,"ymp":8429,"Ġ27500":8430,"fÃ¤higkeit":8431,"ĠToilette":8432,"ĠRichard":8433,"Ġromant":8434,"con":8435,"gy":8436,"gut":8437,"ks":8438,"oÃŁ":8439,"Ġersetzen":8440,"ĠSchle":8441,"Ġausb":8442,"ĠSprach":8443,"Ġdiesmal":8444,"immungen":8445,"Ã¼ndigen":8446,"ĠmÃ¼ssten":8447,"Ġ198":8448,"ĠOrdner":8449,"count":8450,"ĠKomponen":8451,"ĠKalifornien":8452,"Moment":8453,"ieÃŁt":8454,"ston":8455,"ĠSha":8456,"ĠWollen":8457,"ĠKabel":8458,"ĠLaufen":8459,"ĠLeichen":8460,"isieren":8461,"Ġgeeignet":8462,"ĠZum":8463,"ĠSchuss":8464,"zulernen":8465,"ĠVorschlag":8466,"Ġverboten":8467,"Ġruft":8468,"drom":8469,"ĠBehÃ¶r":8470,"Ġunglaubliche":8471,"hÃ¤ltnis":8472,"Ġgeglaubt":8473,"Ġspezielle":8474,"ĠCyber":8475,"Beim":8476,"EO":8477,"bon":8478,"gÃ¼lt":8479,"stÃ¤nden":8480,"ĠGei":8481,"ĠWÃ¤hrung":8482,"ĠKa":8483,"ĠTab":8484,"rogen":8485,"Ġschief":8486,"Ġsteig":8487,"igend":8488,"ĠRechten":8489,"fÃ¼llt":8490,"izza":8491,"perrt":8492,"iveau":8493,"Ġkennenzulernen":8494,"ĠJobs":8495,"onnie":8496,"aison":8497,"05":8498,"la":8499,"schten":8500,"ĠHan":8501,"ĠLim":8502,"reie":8503,"Ġsteigt":8504,"ĠAufnahme":8505,"ĠUnterricht":8506,"Ġbetrunken":8507,"Stimmt":8508,"ĠhinzugefÃ¼gt":8509,"ĠSpezial":8510,"leistung":8511,"ĠKannst":8512,"ĠGetrÃ¤n":8513,"ĠTraining":8514,"amerika":8515,"ĠNachbarn":8516,"ĠKÃ¶rpers":8517,"44":8518,"RI":8519,"wurf":8520,"Ġvirt":8521,"igma":8522,"ĠJeder":8523,"Ã¤tigkeit":8524,"ĠErsatz":8525,"ĠWirkung":8526,"Schreiben":8527,"Ġ400":8528,"ĠKonferenz":8529,"worfen":8530,"ĠApps":8531,"ĠGehirns":8532,"2017":8533,"ĠJoe":8534,"ĠKohle":8535,"ĠExtra":8536,"ĠausgewÃ¤hlt":8537,"ĠApartment":8538,"Ġusw":8539,"bi":8540,"Ġnachts":8541,"Ġbra":8542,"ĠBan":8543,"ĠWelche":8544,"ĠPy":8545,"rechte":8546,"Ġschreibt":8547,"steckt":8548,"ingu":8549,"gebiet":8550,"ĠIsa":8551,"Ġproduziert":8552,"problem":8553,"Ġschlechten":8554,"ĠVPNs":8555,"ĠKomplex":8556,"ĠbestÃ¤tigen":8557,"ĠTÃ¼rkei":8558,"bart":8559,"mehr":8560,"ĠEv":8561,"ison":8562,"gerichtet":8563,"ĠUnterschiede":8564,"ĠschÃ¶nes":8565,"ski":8566,"laubnis":8567,"ĠGlob":8568,"ippen":8569,"ĠFreitag":8570,"Ġkompliz":8571,"ĠHerausforderungen":8572,"ĠFremd":8573,"ĠUpdate":8574,"ĠZuschauer":8575,"ĠMicrosoft":8576,"ĠGuru":8577,"Seien":8578,"gruppen":8579,"prechen":8580,"Ã¤mmer":8581,"ĠMobile":8582,"ĠAv":8583,"ĠBlau":8584,"ĠGri":8585,"ĠFabrik":8586,"ĠZion":8587,"ĠSchach":8588,"ĠAnalyse":8589,"ope":8590,"Ġgesammelt":8591,"ammlung":8592,"Ġschwere":8593,"ĠOrganisationen":8594,"Ġsprichst":8595,"ĠjÃ¼nger":8596,"aupts":8597,"EI":8598,"FrÃ¼":8599,"ĠSAP":8600,"Ã¼mmer":8601,"Ã¼cher":8602,"Ġgrat":8603,"ĠBra":8604,"ĠverÃ¶ffent":8605,"ĠverfÃ¼gt":8606,"Ġlachen":8607,"rock":8608,"Uns":8609,"Ġstehlen":8610,"Ġ2000":8611,"ĠUlt":8612,"edia":8613,"Ġgerecht":8614,"ĠChic":8615,"klen":8616,"Ã¤mpft":8617,"ĠFÃ¼ÃŁen":8618,"Klingt":8619,"Ġlokalen":8620,"Ġriesigen":8621,"ĠPower":8622,"ĠPlastik":8623,"ĠMolekÃ¼":8624,"Ġpersonenbezogen":8625,"kosten":8626,"ton":8627,"Â¼":8628,"Ġra":8629,"orf":8630,"Ġaust":8631,"ĠBast":8632,"Ġleist":8633,"isierung":8634,"ĠInner":8635,"ĠAbs":8636,"sonst":8637,"ĠPersonal":8638,"ĠRundfunk":8639,"ĠBrunnen":8640,"ĠDefinition":8641,"Wahrscheinlich":8642,"Ġwe":8643,"unternehmen":8644,"Ġsorg":8645,"Ġzust":8646,"ĠBem":8647,"urity":8648,"ĠIll":8649,"agel":8650,"Ġbeendet":8651,"ĠZul":8652,"ĠCent":8653,"Ġums":8654,"Ã¤tter":8655,"ĠBerat":8656,"ĠÃľbersetzung":8657,"ĠKommt":8658,"ctor":8659,"ĠFahrt":8660,"ĠBeschreibung":8661,"Ġworauf":8662,"Ġexistieren":8663,"Ã¼chtig":8664,"name":8665,"zlichen":8666,"ĠdÃ¼n":8667,"asste":8668,"Ġhung":8669,"Ġhielten":8670,"ĠMi":8671,"ĠWellen":8672,"ĠWahnsinn":8673,"ĠEth":8674,"ĠTyr":8675,"Ġgeblieben":8676,"ĠStory":8677,"sprÃ¼":8678,"ĠChir":8679,"ices":8680,"ĠfÃ¼gen":8681,"Ġplanen":8682,"ĠhÃ¶rten":8683,"ĠGroÃŁmutter":8684,"ĠKleiner":8685,"Ã¤sser":8686,"ĠschlÃ¤gt":8687,"ĠSub":8688,"ĠMauern":8689,"ĠDutzen":8690,"Ġaufgeb":8691,"ĠRoll":8692,"Ġtrat":8693,"ĠJet":8694,"ĠOne":8695,"ĠAnweisungen":8696,"ĠZeitung":8697,"rian":8698,"rÃ¤gt":8699,"eidung":8700,"ĠzurÃ¼ckkehren":8701,"Ġversamm":8702,"Ġverbreitet":8703,"ĠDeals":8704,"ĠAnti":8705,"spielsweise":8706,"Ġbesonderen":8707,"ĠPfund":8708,"ĠTeams":8709,"ĠSelbstmord":8710,"ĠObjekte":8711,"ĠBombe":8712,"ĠInseln":8713,"ĠGreuel":8714,"ĠSchokol":8715,"Sollen":8716,"wechsel":8717,"zo":8718,"ĠPul":8719,"bekommen":8720,"ĠBestand":8721,"haltet":8722,"rÃ¤ger":8723,"Ġbetroffen":8724,"ĠFolgendes":8725,"ĠlÃ¤ÃŁt":8726,"ĠInterview":8727,"ĠfÃ¼hlst":8728,"Ġnimmst":8729,"ĠPayPal":8730,"Ġfantastisch":8731,"ĠAbmessungen":8732,"Ã¼d":8733,"Ġbeit":8734,"ĠMÃ¤d":8735,"bereit":8736,"ĠNav":8737,"ĠZerst":8738,"ĠSchÃ¶":8739,"ĠAnrufe":8740,"ĠUN":8741,"Ġhoff":8742,"ĠMetall":8743,"GenieÃŁen":8744,"Ġkriege":8745,"Ġaktuellen":8746,"Arb":8747,"Ġunterscheiden":8748,"ĠBedÃ¼rfnisse":8749,"to":8750,"Ġeil":8751,"Ġsech":8752,"lla":8753,"ĠAkte":8754,"ĠBarmherz":8755,"Ġleiten":8756,"andet":8757,"ĠStÃ¤tte":8758,"reibst":8759,"rÃ¤ume":8760,"ĠProblemen":8761,"ĠKleine":8762,"ĠerwÃ¤":8763,"boden":8764,"Ġfliehen":8765,"Ġunbek":8766,"hÃ¤ngig":8767,"ĠSlots":8768,"ĠSpanisch":8769,"ĠLeidenschaft":8770,"ĠUnternehmer":8771,"hes":8772,"ĠSw":8773,"ĠSite":8774,"Ġeiniger":8775,"Ġverpf":8776,"rey":8777,"ĠZoll":8778,"ĠZeich":8779,"Ġpoten":8780,"ĠProbe":8781,"Ġentschl":8782,"ĠGrimm":8783,"ĠEsel":8784,"ĠAusgang":8785,"ĠgelÃ¶st":8786,"mail":8787,"Komment":8788,"zeichnungen":8789,"Ġangeforder":8790,"ĠBuchst":8791,"ĠKana":8792,"Ġblind":8793,"ĠSamuel":8794,"Ġchem":8795,"ĠTools":8796,"ĠBedrohung":8797,"ĠÃĦltesten":8798,"Beh":8799,"krank":8800,"Ġarm":8801,"ĠFuss":8802,"ĠDÃ¤m":8803,"Ġaufget":8804,"ĠJim":8805,"osoph":8806,"anders":8807,"Darauf":8808,"Ġaktiviert":8809,"aurier":8810,"ladung":8811,"ĠkÃ¼rzlich":8812,"ĠInnovation":8813,"ĠHimbeer":8814,"ĠKombination":8815,"BC":8816,"Neben":8817,"win":8818,"indern":8819,"Ġeiniges":8820,"Ġzeit":8821,"gent":8822,"ĠGR":8823,"Ġverbl":8824,"Ġleu":8825,"Ġladen":8826,"reiÃŁen":8827,"Ã¶rungen":8828,"Ġnachhalt":8829,"Ġunternehmen":8830,"ĠChin":8831,"Ġverletzen":8832,"ĠDeck":8833,"ĠBereit":8834,"ĠbeschÃ¤d":8835,"gehend":8836,"Ġ75":8837,"ĠHinweis":8838,"ĠAtom":8839,"zusagen":8840,"ĠDarf":8841,"ĠHarv":8842,"Ġhilfreich":8843,"ĠMexiko":8844,"47":8845,"ĠdrÃ¼cken":8846,"Ġweht":8847,"ĠSendung":8848,"Ġflo":8849,"ĠEffekt":8850,"ĠPa":8851,"ĠLÃ¼ge":8852,"Ġaufstehen":8853,"ĠRh":8854,"ĠRÃ¶":8855,"Ġgezwungen":8856,"ĠSturm":8857,"otten":8858,"Ġpein":8859,"osis":8860,"Ġherstellen":8861,"Ġhergestellt":8862,"Ġbesucht":8863,"Wohin":8864,"ĠBogen":8865,"ĠVolkes":8866,"ĠdrÃ¼ber":8867,"Ġausged":8868,"2018":8869,"ĠHeiligen":8870,"Ġheilig":8871,"Ġspezif":8872,"ĠprÃ¼fen":8873,"39":8874,"Kinder":8875,"fassung":8876,"teile":8877,"Ã¤me":8878,"ĠBauern":8879,"ĠJimmy":8880,"ĠSchlei":8881,"Ġumsonst":8882,"Wirst":8883,"rinken":8884,"Ġ32":8885,"ĠFlasche":8886,"ĠAnteil":8887,"ĠVersicher":8888,"ĠHÃ¶hen":8889,"ĠKampag":8890,"ativitÃ¤t":8891,"ĠHaustiere":8892,"ĠWebcams":8893,"ĠlÃ¶schen":8894,"kleber":8895,"Tun":8896,"Zusammen":8897,"back":8898,"mut":8899,"Ġweinen":8900,"Ġsatt":8901,"ĠGrie":8902,"denkt":8903,"ĠIrak":8904,"ĠscheiÃŁ":8905,"Ġbequem":8906,"omie":8907,"Ġgeschossen":8908,"ĠschlÃ¤ft":8909,"Ġangegriffen":8910,"testet":8911,"ĠEuropÃ¤":8912,"andelte":8913,"ĠPferde":8914,"Ġelektron":8915,"ĠenttÃ¤uscht":8916,"ĠBildern":8917,"ĠRepublik":8918,"Ġeingesetzt":8919,"ittel":8920,"aby":8921,"ĠGeben":8922,"ĠFlie":8923,"ĠLern":8924,"ĠLaut":8925,"ĠLetzte":8926,"usste":8927,"ĠAnzug":8928,"ĠSchwestern":8929,"ĠGehir":8930,"Ġexklus":8931,"Ġdringend":8932,"Gew":8933,"ĠSchlafzimmer":8934,"ĠSpeis":8935,"ĠWÃ¤hrungen":8936,"ĠBesonderes":8937,"ĠEntfernung":8938,"ĠBarmherzigkeit":8939,"59":8940,"Laut":8941,"kos":8942,"kul":8943,"arry":8944,"Ġerwei":8945,"ĠEU":8946,"ĠPenny":8947,"Ġgez":8948,"Ġetc":8949,"Ġjeweil":8950,"ĠAbonnen":8951,"Schn":8952,"ĠArbeiter":8953,"Ġmorgens":8954,"ĠKÃ¼hl":8955,"Ġstarben":8956,"Ġgespeichert":8957,"ĠViren":8958,"ĠAussage":8959,"Ġbekommst":8960,"ĠBomben":8961,"ĠUrsache":8962,"Ġchecken":8963,"Ġzuletzt":8964,"Ġbegeistert":8965,"Dank":8966,"oid":8967,"ĠSonder":8968,"Ġkombin":8969,"Ġerweiter":8970,"entwick":8971,"otograf":8972,"ĠVerbr":8973,"gelernt":8974,"ĠBereichen":8975,"ĠIsland":8976,"ĠGewebe":8977,"Ġsterbe":8978,"ausenden":8979,"ĠEmotionen":8980,"Klar":8981,"ĠCharles":8982,"Ġdahinter":8983,"Ġwohnten":8984,"ĠVielfalt":8985,"Ġtrocken":8986,"ĠfÃ¤hig":8987,"Gleich":8988,"gten":8989,"kar":8990,"pul":8991,"Ġwww":8992,"ller":8993,"ĠFit":8994,"ĠLot":8995,"ĠIrgend":8996,"Ġaufgeben":8997,"Ġrechte":8998,"mension":8999,"Ġverwandelt":9000,"Ġhoffentlich":9001,"ĠDrachen":9002,"ĠParad":9003,"Ġvergleichen":9004,"ĠKatast":9005,"Ġernsthaft":9006,"Ġverbrennen":9007,"komme":9008,"ĠImmun":9009,"Ġgebrauchen":9010,"Ġschnelle":9011,"Finden":9012,"MÃ¤r":9013,"era":9014,"Ġit":9015,"Ġzugreifen":9016,"abend":9017,"emal":9018,"ĠHur":9019,"ĠPool":9020,"ĠZent":9021,"Ã¤nomen":9022,"immern":9023,"Ġgefiel":9024,"apel":9025,"aks":9026,"ScheiÃŁe":9027,"Ġgelebt":9028,"Ġverwandeln":9029,"ĠDieser":9030,"ĠSchlagen":9031,"Vergiss":9032,"Ġinsbesondere":9033,"zeichneten":9034,"ĠKanada":9035,"Ġfreiwill":9036,"Denk":9037,"ĠWochenende":9038,"ĠGrÃ¶ÃŁen":9039,"ĠFlorida":9040,"Ġstarken":9041,"Ġqual":9042,"ĠNÃ¤chsten":9043,"Ġbehaupten":9044,"afrika":9045,"gÃ¤nglich":9046,"ĠAfghanistan":9047,"06":9048,"GB":9049,"Mag":9050,"grÃ¼n":9051,"hei":9052,"thalt":9053,"abatt":9054,"ĠGentl":9055,"ierer":9056,"ocht":9057,"ĠSchreiben":9058,"Ġgewinnt":9059,"fordern":9060,"forschung":9061,"Ġbringst":9062,"worte":9063,"Ġwunderbare":9064,"ĠUrteil":9065,"WÃ¼rden":9066,"ĠPrÃ¼fung":9067,"Ġtiefer":9068,"biert":9069,"hÃ¤ngen":9070,"Ġdoppelt":9071,"ĠMem":9072,"ĠHÃ¤u":9073,"ĠFische":9074,"ĠRas":9075,"ĠbefÃ¼r":9076,"Ġstets":9077,"ĠHerstellung":9078,"ĠSozial":9079,"Statt":9080,"ilead":9081,"mÃ¤ÃŁige":9082,"Entschuldigen":9083,"Ġbeinahe":9084,"afrikan":9085,"ĠWÃ¤hrungs":9086,"ĠJeremia":9087,"AD":9088,"NÃ¤ch":9089,"aat":9090,"sver":9091,"uÃŁt":9092,"xis":9093,"ĠSet":9094,"Ġfehlen":9095,"ĠGriff":9096,"ĠKos":9097,"ĠFan":9098,"Ġerzeugt":9099,"ĠTÃ¤":9100,"Ġaufnehmen":9101,"Ġtrauen":9102,"zelle":9103,"Ġreal":9104,"gerung":9105,"ĠPlus":9106,"Ġweiterer":9107,"Ġbeschissen":9108,"Ġvolle":9109,"ĠPlanet":9110,"ĠErkrank":9111,"ĠReservierungen":9112,"ĠSpeise":9113,"Morgen":9114,"gibt":9115,"liste":9116,"mÃ¶":9117,"oder":9118,"Ġmobil":9119,"Ġmoral":9120,"Ġzuzu":9121,"ĠAcker":9122,"ĠWit":9123,"ĠKiller":9124,"Ã¼rzt":9125,"ĠLÃ¤cheln":9126,"Ġjens":9127,"ĠCIA":9128,"Ġumge":9129,"ĠRebe":9130,"aku":9131,"sterreich":9132,"ĠFlÃ¼cht":9133,"Ġgelegt":9134,"selbe":9135,"ĠBeifall":9136,"ĠDatum":9137,"Ġplatz":9138,"front":9139,"ĠFranzÃ¶sisch":9140,"ĠwÃ¼nsche":9141,"ĠNotwend":9142,"Ġniedriger":9143,"ĠNarren":9144,"TeK":9145,"Su":9146,"ep":9147,"ĠMasse":9148,"elben":9149,"ĠauÃŁen":9150,"etr":9151,"ĠHIV":9152,"Ġlinken":9153,"Ġschuld":9154,"ĠClo":9155,"Ġstammt":9156,"Ġgehei":9157,"ĠzurÃ¼ckkommen":9158,"ĠHose":9159,"ĠFlÃ¼ge":9160,"qualitÃ¤t":9161,"ĠExistenz":9162,"Ġkurzem":9163,"ĠMagaz":9164,"ĠkÃ¼mmere":9165,"Ġschreien":9166,"ĠgrÃ¼nen":9167,"ĠRecei":9168,"Ġlangweilig":9169,"lim":9170,"zone":9171,"ichert":9172,"Ġmot":9173,"ĠSS":9174,"Ġzurecht":9175,"ĠLÃ¼g":9176,"umt":9177,"ĠEint":9178,"Ġbesitzt":9179,"Ġverliert":9180,"Ġirgendjemand":9181,"alender":9182,"Ġ2008":9183,"Ġhalf":9184,"Ġempfohlen":9185,"ĠGÃ¶tzen":9186,"ĠErwart":9187,"Ġunterschiedlichen":9188,"Ġirre":9189,"ĠPanik":9190,"ĠBesitzer":9191,"Ġidentifizieren":9192,"ĠErmitt":9193,"ĠlÃ¤cherlich":9194,"Apart":9195,"GlÃ¼ck":9196,"Hel":9197,"binden":9198,"ower":9199,"inik":9200,"Ġmil":9201,"Ġmass":9202,"Ã¼hen":9203,"telefon":9204,"Ġhand":9205,"onym":9206,"atische":9207,"Ġkop":9208,"ĠBay":9209,"ĠWall":9210,"ĠHeu":9211,"ĠFunk":9212,"ĠPen":9213,"reak":9214,"ĠReh":9215,"raht":9216,"ĠOm":9217,"ĠUnrecht":9218,"ungsmittel":9219,"ĠFree":9220,"Ġfreut":9221,"ĠAtlant":9222,"schneiden":9223,"ĠSÃ¼den":9224,"ĠHeilmittel":9225,"ĠArchiv":9226,"ĠStreet":9227,"Ġschwarze":9228,"Bleiben":9229,"Ġwinz":9230,"ĠEindruck":9231,"auptsÃ¤chlich":9232,"Beg":9233,"TER":9234,"ĠSur":9235,"schmerzen":9236,"ĠGHz":9237,"ĠEhr":9238,"Ġgetestet":9239,"Ġpre":9240,"Ġvoran":9241,"Ġmanip":9242,"Ġneugier":9243,"egenheiten":9244,"ĠfÃ¼llen":9245,"Ġirgendeine":9246,"ĠWerbe":9247,"Ġvertil":9248,"Ġkennengelernt":9249,"Ġerkennt":9250,"ĠWeTeK":9251,"ĠÃ¤hnliche":9252,"ĠHostels":9253,"ĠvernÃ¼nft":9254,"ĠVerbesserung":9255,"Ġmochte":9256,"ĠgnÃ¤d":9257,"33":9258,"HD":9259,"lam":9260,"Â®":9261,"enkt":9262,"erzie":9263,"ĠSein":9264,"Ġbuchst":9265,"ĠMess":9266,"ĠGilead":9267,"ĠKult":9268,"Ġledig":9269,"ĠweiÃŁen":9270,"ption":9271,"dukt":9272,"ĠKlang":9273,"ĠArbeitspl":9274,"ĠClaire":9275,"ĠStudio":9276,"Ġgemeinsame":9277,"ĠSÃ¶hnen":9278,"âĻ«":9279,"ĠDiagnose":9280,"ĠChicago":9281,"Chr":9282,"Sogar":9283,"ĠBraut":9284,"ĠKeller":9285,"ĠDoppel":9286,"Ġschwei":9287,"ĠJagd":9288,"rade":9289,"otte":9290,"otyp":9291,"rÃ¤cht":9292,"Ġgelogen":9293,"ĠMinister":9294,"Ġkonntest":9295,"Ġbefreien":9296,"Ġ99":9297,"ĠFahrzeug":9298,"Allerdings":9299,"Ġmedizinische":9300,"ĠSyrien":9301,"ĠForschungs":9302,"Kommentare":9303,"Mon":9304,"kreis":9305,"ĠÃ¤r":9306,"Ġharte":9307,"Ġzert":9308,"etwegen":9309,"denke":9310,"deckt":9311,"ĠFantas":9312,"annung":9313,"ĠNationen":9314,"ĠSpuren":9315,"ĠChines":9316,"ĠDumm":9317,"Verm":9318,"Ġcle":9319,"drehen":9320,"ĠAllgemein":9321,"ĠAllgemeine":9322,"ĠFahrrad":9323,"ĠPerspekt":9324,"rechung":9325,"ĠGÃ¶ttern":9326,"ĠAgenten":9327,"ĠErwachsene":9328,"ĠPremium":9329,"Aut":9330,"sitzen":9331,"Ġstell":9332,"Ġsuchte":9333,"Ġhasst":9334,"onach":9335,"Ã¶ch":9336,"ĠGift":9337,"Ġdenselben":9338,"ĠabhÃ¤ngig":9339,"ĠOch":9340,"ĠAnfrage":9341,"iertes":9342,"Ġentschied":9343,"ĠZeitraum":9344,"ĠLieb":9345,"Ġverborgen":9346,"Verst":9347,"Ġbreit":9348,"ĠBuchung":9349,"orea":9350,"ĠBestes":9351,"Ġerfordert":9352,"ĠAbonnenten":9353,"drÃ¼ck":9354,"lÃ¤ss":9355,"nel":9356,"reter":9357,"Ñĥ":9358,"ĠSenden":9359,"ĠGeg":9360,"ĠHaz":9361,"ĠFÃ¼nf":9362,"ĠschÃ¼t":9363,"reift":9364,"Ġvorhin":9365,"Erstens":9366,"ĠReicht":9367,"ĠWeisen":9368,"ĠKonse":9369,"Meinst":9370,"Ġerhielt":9371,"ĠUniversity":9372,"ĠImpf":9373,"Ġworum":9374,"Ġjener":9375,"ungsmaschine":9376,"Ġrussischen":9377,"Ġgeschworen":9378,"Ġkonvertieren":9379,"MÃ¤rz":9380,"ces":9381,"cast":9382,"Ã¼chtern":9383,"Ġeingehen":9384,"Ã¤ÃŁe":9385,"ĠWitze":9386,"ĠHT":9387,"Ġangeht":9388,"Ġlehren":9389,"ĠVER":9390,"ĠVersprechen":9391,"Ġstimmen":9392,"Ġvorzu":9393,"Ġbesorgen":9394,"Ġgeworfen":9395,"ĠWeltraum":9396,"echanis":9397,"aturen":9398,"ĠKontaktieren":9399,"ĠRisiken":9400,"ĠDiener":9401,"Bringt":9402,"ĠEreignisse":9403,"ĠAmmon":9404,"ĠLÃ¼gner":9405,"CK":9406,"Sagt":9407,"nimmt":9408,"ĠSeg":9409,"ĠhÃ¤ss":9410,"ĠzuverlÃ¤ss":9411,"ĠGrÃ¼":9412,"ĠDarum":9413,"ĠTatt":9414,"berge":9415,"ĠJÃ¼n":9416,"ikas":9417,"Ġdire":9418,"Ġwiederher":9419,"ĠAuÃŁer":9420,"ĠHandys":9421,"Ġbeschrieben":9422,"ĠDatenbank":9423,"ĠStrafe":9424,"âĢ¢":9425,"erkarte":9426,"aktionen":9427,"ĠErnÃ¤hrung":9428,"WÃ¼rdest":9429,"ĠBetriebssystem":9430,"31":9431,"Spr":9432,"Ġserv":9433,"arter":9434,"ĠzugÃ¤nglich":9435,"Ġergeben":9436,"sender":9437,"ĠVerk":9438,"ĠâĢļ":9439,"Ġherzustellen":9440,"ĠEinkauf":9441,"ĠChamp":9442,"ĠOrigin":9443,"Ã¤hlten":9444,"Ġverlangen":9445,"ĠAusl":9446,"ÃŁteil":9447,"Ã¤dt":9448,"ĠHandels":9449,"ĠUnterkunft":9450,"ĠGerechten":9451,"ĠGebet":9452,"Ġziehe":9453,"ĠCous":9454,"Ġfreie":9455,"Ġ2009":9456,"ifizierung":9457,"stoÃŁ":9458,"ĠKameras":9459,"Dezember":9460,"ĠFremden":9461,"ĠElektron":9462,"ĠzunÃ¤chst":9463,"Zieh":9464,"ĠGebirge":9465,"Tran":9466,"felt":9467,"kat":9468,"Â©":9469,"ï¿":9470,"ĠzuhÃ¶ren":9471,"Ġerb":9472,"ĠPir":9473,"ĠRel":9474,"ola":9475,"ĠStatt":9476,"Ġumgeben":9477,"undament":9478,"Ã¼nden":9479,"lod":9480,"Ġbereitet":9481,"Ġgetrunken":9482,"umenten":9483,"ĠNachmittag":9484,"ĠWahrnehm":9485,"Spielen":9486,"ĠUniversums":9487,"ĠunglÃ¼ck":9488,"ĠPolizist":9489,"Ġabsol":9490,"Ġtrennen":9491,"ĠAktualisiert":9492,"Ġinvestieren":9493,"Ġrelativ":9494,"GO":9495,"Res":9496,"fst":9497,"jet":9498,"Ġrad":9499,"Ġdient":9500,"Ġkoll":9501,"Ã¶scht":9502,"ĠBig":9503,"ckst":9504,"agramm":9505,"Ġtritt":9506,"raucht":9507,"Ġunsre":9508,"Ġdieselben":9509,"Ġwobei":9510,"ĠdurchfÃ¼hren":9511,"gerÃ¤te":9512,"ĠAlgorit":9513,"ĠHÃ¶hle":9514,"ĠNotfall":9515,"ĠHacker":9516,"Ġverbessert":9517,"ĠFeed":9518,"ĠEbenen":9519,"Ġbeinhaltet":9520,"Ġdigitalen":9521,"schuhe":9522,"ĠAparthotel":9523,"Ġkorre":9524,"ĠAnzeige":9525,"Ġangemessen":9526,"ologe":9527,"ĠMaterie":9528,"Ġgefolgt":9529,"stuhl":9530,"Ġwein":9531,"Ġwomit":9532,"auben":9533,"ĠEw":9534,"ĠThr":9535,"ĠLob":9536,"Ġanalys":9537,"Ġlas":9538,"Ġabl":9539,"ĠBek":9540,"ĠGestalt":9541,"ĠBlatt":9542,"Ã¼cke":9543,"geboren":9544,"ĠAlarm":9545,"ĠAufkleber":9546,"Ġgenauer":9547,"ĠfÃ¼hrten":9548,"ĠAtt":9549,"ĠAdmin":9550,"ĠBullen":9551,"Ġverzwei":9552,"ĠErdbe":9553,"Ġknapp":9554,"Ġerforschen":9555,"ĠaufgehÃ¶rt":9556,"ĠInternational":9557,"krebs":9558,"ĠKanaan":9559,"ï¿½":9560,"Ġstellten":9561,"ĠSegen":9562,"Ġkrei":9563,"orry":9564,"ĠHard":9565,"Ġverhalten":9566,"uman":9567,"utsch":9568,"Ġschaffe":9569,"Ġtrag":9570,"Ġbestellen":9571,"Ġbeachten":9572,"Ġ1000":9573,"ulgar":9574,"ohnung":9575,"okus":9576,"male":9577,"Ġgestartet":9578,"Ġseitdem":9579,"enntnisse":9580,"Ã¤ufe":9581,"mÃ¶glichkeiten":9582,"verstÃ¤ndlich":9583,"Ġerstaunliche":9584,"ĠSchmuck":9585,"ĠAustralien":9586,"Ġeindeutig":9587,"Techn":9588,"pn":9589,"ÑĢ":9590,"ĠPist":9591,"ĠLÃ¤nge":9592,"Ġlernt":9593,"Ġsomit":9594,"ĠBetrag":9595,"Ġdeaktiv":9596,"Ġschwerer":9597,"Ġwusstest":9598,"KÃ¶nnten":9599,"sprung":9600,"ĠbestÃ¤tigt":9601,"Ġaufregend":9602,"color":9603,"ĠKonflikt":9604,"Ġangeforderten":9605,"ĠSpeisopfer":9606,"handel":9607,"ration":9608,"ĠSeit":9609,"atsch":9610,"ĠkÃ¼nst":9611,"ĠMangel":9612,"Ġwiederhol":9613,"omputer":9614,"ĠReihen":9615,"ĠNetzwerke":9616,"ouv":9617,"ĠOptim":9618,"ĠAsien":9619,"ĠEmpfÃ¤nger":9620,"ĠVielzahl":9621,"ĠSchweiz":9622,"Ġbilliger":9623,"ĠSoldat":9624,"ĠAbraham":9625,"Eure":9626,"hi":9627,"hers":9628,"einbar":9629,"schuss":9630,"Ġveran":9631,"Ġtrage":9632,"egnet":9633,"aps":9634,"ical":9635,"ĠKongress":9636,"ĠSpielzeug":9637,"ĠJoab":9638,"Ġkriegst":9639,"Ã¤chstes":9640,"ĠRaub":9641,"ĠGemÃ¤l":9642,"ilisation":9643,"ĠErwachsenen":9644,"Kontakt":9645,"ĠunabhÃ¤ngig":9646,"AU":9647,"dliche":9648,"eman":9649,"ĠCre":9650,"ota":9651,"Ġgesandt":9652,"Ġbrauch":9653,"ĠSchlange":9654,"Ġjedenfalls":9655,"reme":9656,"ĠResort":9657,"unkten":9658,"ĠStandort":9659,"ĠAngeles":9660,"Ġprivaten":9661,"ĠFaktoren":9662,"ffizienz":9663,"Ġreparieren":9664,"ĠFitness":9665,"App":9666,"Hilf":9667,"anlage":9668,"eitern":9669,"Ġgott":9670,"Ġby":9671,"Ġbaut":9672,"Ġzut":9673,"ĠWin":9674,"ĠWach":9675,"ĠDist":9676,"ĠTruck":9677,"bericht":9678,"rol":9679,"ĠVeg":9680,"Ġabges":9681,"Ġpri":9682,"ĠAnh":9683,"ĠAnfÃ¼hrer":9684,"bares":9685,"Ã¤hrst":9686,"eicher":9687,"Ġschlage":9688,"Ġschwimmen":9689,"ntag":9690,"ĠSchulter":9691,"ĠHaft":9692,"Ġhttps":9693,"Ġaktualisieren":9694,"ĠDonner":9695,"ĠMoskau":9696,"EB":9697,"park":9698,"Ã¡":9699,"Ġmy":9700,"Ã¼ter":9701,"ĠWich":9702,"ĠDass":9703,"euten":9704,"Ġjahr":9705,"Ġstre":9706,"Erinn":9707,"ppel":9708,"ĠEins":9709,"Ġbeseit":9710,"ĠmÃ¶gliche":9711,"Ġgewisse":9712,"ĠFluch":9713,"klar":9714,"Ġzwanzig":9715,"Ġprogramm":9716,"ĠLeber":9717,"ĠPhase":9718,"Ġvermisse":9719,"Ġeinsetzen":9720,"ĠStudent":9721,"Ġbeeindruck":9722,"ĠworÃ¼ber":9723,"Ġtechnischen":9724,"Ġschreibe":9725,"ĠregelmÃ¤ÃŁig":9726,"ĠInfektion":9727,"ĠRechnung":9728,"ĠÃľberprÃ¼fung":9729,"55":9730,"mark":9731,"inent":9732,"ĠhauptsÃ¤chlich":9733,"ĠkÃ¼ssen":9734,"ĠKas":9735,"ĠKing":9736,"Ġverpassen":9737,"ĠRollen":9738,"rastruktur":9739,"beweg":9740,"Ġspiele":9741,"weile":9742,"Ġentf":9743,"ammern":9744,"Eins":9745,"Ġ37":9746,"utzung":9747,"Inter":9748,"ĠWeibe":9749,"Ã¤ub":9750,"ĠFestpl":9751,"ĠPrior":9752,"ÃľR":9753,"Ġaltern":9754,"ĠFortschritte":9755,"ĠViertel":9756,"ĠHonig":9757,"ĠWahrscheinlichkeit":9758,"bas":9759,"kÃ¶":9760,"po":9761,"Ġed":9762,"Ġwuchs":9763,"ĠGeister":9764,"ĠKost":9765,"ĠtrÃ¶":9766,"ĠErlaubnis":9767,"undet":9768,"ady":9769,"ulette":9770,"artige":9771,"Ġgelegen":9772,"Ant":9773,"ĠSatellit":9774,"Ġantun":9775,"ĠKnechten":9776,"Ġwissenschaftliche":9777,"ĠGefangenen":9778,"IM":9779,"Max":9780,"flich":9781,"set":9782,"ĠMachen":9783,"Ġangel":9784,"Ġlanden":9785,"Ã¤tten":9786,"ays":9787,"ĠGesellschaften":9788,"ĠAusnahme":9789,"odell":9790,"Schnell":9791,"schieben":9792,"Ġbekamen":9793,"ĠGroÃŁteil":9794,"ĠHinsicht":9795,"alerie":9796,"ĠGenerator":9797,"ifiziert":9798,"olitik":9799,"Ġarme":9800,"ĠMedikament":9801,"ĠspÃ¼ren":9802,"Ġbegegnet":9803,"inosaurier":9804,"Kundenservice":9805,"ĠNotwendigkeit":9806,"Hi":9807,"hte":9808,"mon":9809,"yright":9810,"Ġsh":9811,"auschen":9812,"arke":9813,"ĠWart":9814,"ĠFischer":9815,"ĠLock":9816,"ĠLiter":9817,"Ġanerk":9818,"agten":9819,"Ġauspro":9820,"ĠErweiter":9821,"Ġweitermachen":9822,"ĠAbschnitt":9823,"loses":9824,"Ġgestalten":9825,"erstattung":9826,"Ġbevorzu":9827,"ĠAmeisen":9828,"ĠRÃ¼ckkehr":9829,"weisung":9830,"ĠGegensatz":9831,"Ġarmen":9832,"ĠSituationen":9833,"Ġinstalliert":9834,"datum":9835,"sicherheit":9836,"Ġerweitern":9837,"Euer":9838,"Leg":9839,"ĠST":9840,"ĠSeh":9841,"ĠBart":9842,"ury":9843,"umpf":9844,"Ġbezeichnet":9845,"ĠSchiffe":9846,"raucher":9847,"ĠMenÃ¼":9848,"ĠSchwach":9849,"ĠBergen":9850,"Ġbenutz":9851,"atura":9852,"Ġvermute":9853,"iefert":9854,"Ġgekenn":9855,"ĠÃ¼berwachen":9856,"ĠPolitiker":9857,"ĠhÃ¤ufigsten":9858,"ĠBitcoin":9859,"ĠCrush":9860,"Ġlediglich":9861,"Go":9862,"II":9863,"Zeig":9864,"bro":9865,"hÃ¶rt":9866,"iat":9867,"pu":9868,"Ġmeiste":9869,"arren":9870,"ĠkÃ¶st":9871,"ĠBor":9872,"ĠGibt":9873,"ĠWegen":9874,"ĠHÃ¤ndler":9875,"ĠÃ¼bergeben":9876,"Ġstra":9877,"Ġbeigebracht":9878,"ĠErz":9879,"Ġentsteht":9880,"Ġentworfen":9881,"Ġgewisser":9882,"Davon":9883,"ĠAufen":9884,"Ġverlor":9885,"Ġsicheren":9886,"Ġrauf":9887,"ĠZubehÃ¶r":9888,"Ġbekannte":9889,"Ġlangfrist":9890,"ĠKonten":9891,"ĠBetracht":9892,"ĠFilter":9893,"ĠGeduld":9894,"ĠFirm":9895,"onna":9896,"strahlt":9897,"ĠBiologie":9898,"Ġerinnerst":9899,"ĠHÃ¼hn":9900,"ĠÃ¼berprÃ¼ft":9901,"ĠWiderstand":9902,"ĠSklaven":9903,"Ġaufgewachsen":9904,"ĠeuropÃ¤ischen":9905,"Ad":9906,"Bringen":9907,"Laden":9908,"ader":9909,"bu":9910,"brauch":9911,"gÃ¤nge":9912,"uhren":9913,"Ġdun":9914,"ĠRen":9915,"ĠRem":9916,"Ġbeten":9917,"ĠZut":9918,"Ġabw":9919,"Ġklin":9920,"samkeit":9921,"Ġinsgesamt":9922,"ĠSteve":9923,"Ġverteilt":9924,"Ġverkn":9925,"Ã¶lkern":9926,"iana":9927,"ĠDesigner":9928,"ĠFeinden":9929,"ĠFrÃ¼chte":9930,"ĠBereiche":9931,"aketen":9932,"ĠWiedersehen":9933,"Ġschaue":9934,"ĠÃľbung":9935,"Ġblauen":9936,"Ġbauten":9937,"Engl":9938,"ĠKopie":9939,"ĠInstitutionen":9940,"ĠWettbewerb":9941,"ĠerschieÃŁen":9942,"ouverne":9943,"Haus":9944,"Mark":9945,"Norm":9946,"Tek":9947,"card":9948,"stab":9949,"Ã¤blich":9950,"ĠMs":9951,"ĠWut":9952,"ĠWik":9953,"ĠKab":9954,"ĠTrag":9955,"ĠRub":9956,"ĠZell":9957,"ogn":9958,"ico":9959,"flÃ¤chen":9960,"Ġbleib":9961,"phet":9962,"ĠQual":9963,"Ġerkannte":9964,"Ġtelefon":9965,"ĠJoj":9966,"uldigt":9967,"version":9968,"Ġwertvoll":9969,"ĠEdom":9970,"smann":9971,"WÃ¼rde":9972,"ĠDokumente":9973,"Ġkrit":9974,"ĠGerÃ¤usch":9975,"ĠBehandlungen":9976,"Mom":9977,"fan":9978,"las":9979,"Â°":9980,"informationen":9981,"unruh":9982,"ĠSich":9983,"ĠSant":9984,"Ġunrein":9985,"Ġhell":9986,"Ġbo":9987,"Ġkochen":9988,"eland":9989,"ĠAP":9990,"ĠWil":9991,"Ġerho":9992,"ĠlÃ¤ngst":9993,"steck":9994,"Ġweise":9995,"opul":9996,"fell":9997,"ĠHerde":9998,"Ġglaubte":9999,"ĠUSB":10000,"ĠGlÃ¼ckwunsch":10001,"ĠSystems":10002,"ĠHinweise":10003,"Ġrosa":10004,"ĠGegenwart":10005,"Ġehemal":10006,"Stell":10007,"Ġlauter":10008,"fÃ¤hig":10009,"Ġirgendeinem":10010,"ĠVerstÃ¤r":10011,"ĠAnsichten":10012,"Ð¸Ð":10013,"Ġpeinlich":10014,"een":10015,"iche":10016,"Ġsan":10017,"ĠMak":10018,"ĠGPS":10019,"ĠWen":10020,"ĠWandel":10021,"ĠDNS":10022,"ĠTradition":10023,"Ġechter":10024,"Ġkonkur":10025,"ĠAbonn":10026,"Ġ48":10027,"Ġwahren":10028,"ĠKontakte":10029,"ĠtÃ¶tete":10030,"Ġwundervoll":10031,"stÃ¤ndigen":10032,"ĠGroÃŁvater":10033,"ĠKrise":10034,"ĠberÃ¼hren":10035,"ĠHÃ¼gel":10036,"vermÃ¶gen":10037,"Erinnerst":10038,"69":10039,"Barbie":10040,"Hilfe":10041,"Qu":10042,"Ruf":10043,"Ġeinges":10044,"athemat":10045,"ĠMagen":10046,"ĠHom":10047,"ĠDinosaurier":10048,"ĠEst":10049,"ĠLungen":10050,"Ġaufbauen":10051,"raktiv":10052,"ĠSchanden":10053,"ĠAnf":10054,"ĠIntegr":10055,"Ã¤rme":10056,"Ã¤len":10057,"ĠDep":10058,"ĠIslam":10059,"rengen":10060,"euerung":10061,"ĠÃ¶fter":10062,"ĠSong":10063,"Ġfeststellen":10064,"ĠServern":10065,"ĠLinien":10066,"ĠAdressen":10067,"ĠBewegungen":10068,"Ġentspricht":10069,"Ã¼stet":10070,"ĠbezÃ¼glich":10071,"Ġtrans":10072,"Ġinformieren":10073,"Ġatmen":10074,"ĠBenutzern":10075,"ĠShaw":10076,"ĠAufenthalt":10077,"Fr":10078,"Geb":10079,"IR":10080,"Jack":10081,"fisch":10082,"ville":10083,"Ġdick":10084,"Ġmel":10085,"Ġmoment":10086,"aufe":10087,"onstr":10088,"ĠWLAN":10089,"ĠKuss":10090,"Ġverurt":10091,"rophe":10092,"ĠJust":10093,"Ġoh":10094,"bef":10095,"Ġgeho":10096,"ĠreprÃ¤sent":10097,"ĠentfÃ¼hrt":10098,"locken":10099,"eitete":10100,"ĠbegrÃ¼":10101,"ĠTeilnehmer":10102,"ĠPhÃ¤nomen":10103,"Ġmeistens":10104,"ĠFÃ¼rst":10105,"Ġfragten":10106,"ĠElektro":10107,"Ġstudieren":10108,"impan":10109,"lebnis":10110,"Daten":10111,"gste":10112,"sÃ¤":10113,"andern":10114,"Ġeinverstanden":10115,"ĠfÃ¼n":10116,"ĠHure":10117,"ĠPenn":10118,"ĠSchnell":10119,"ĠCS":10120,"ĠProje":10121,"leiter":10122,"ĠFlÃ¼ss":10123,"Ġversuchten":10124,"Ġsichere":10125,"plÃ¤tze":10126,"brigen":10127,"bringt":10128,"ĠKindes":10129,"Ġangekommen":10130,"ĠSheldon":10131,"Ġverkauf":10132,"Ġoffenbar":10133,"Ġfliegt":10134,"ĠDiam":10135,"ĠAdam":10136,"ĠÃĦgypter":10137,"rÃ¤nkungen":10138,"Zumindest":10139,"Ġsexy":10140,"produkte":10141,"ĠÃ¤uÃŁerst":10142,"grÃ¶ÃŁe":10143,"Ġuntersucht":10144,"ĠPraxis":10145,"emie":10146,"schlieÃŁen":10147,"ĠHome":10148,"urst":10149,"Ġverring":10150,"Ġsoviel":10151,"ĠNik":10152,"ĠCA":10153,"ĠCap":10154,"beg":10155,"Ġbeispielsweise":10156,"ĠEinfach":10157,"ria":10158,"Ġgewissen":10159,"Ġberichtet":10160,"klass":10161,"Schw":10162,"Ġsicherer":10163,"ĠverstÃ¤nd":10164,"renz":10165,"ĠGebÃ¼hren":10166,"igtausend":10167,"Ġbeteiligt":10168,"ĠMuskel":10169,"Ġinteressanter":10170,"ĠGlÃ¼cks":10171,"Hoffentlich":10172,"getragen":10173,"atelliten":10174,"orean":10175,"ĠLevel":10176,"Ġmoderne":10177,"Ġschwarzen":10178,"ĠÃ¼berwinden":10179,"Irgendw":10180,"Entschuldige":10181,"Ġtauschen":10182,"Ġschmutz":10183,"Ġschickte":10184,"ungskraft":10185,"ĠStifts":10186,"ictor":10187,"Ġschmerz":10188,"37":10189,"Kennst":10190,"cer":10191,"à¦":10192,"Ġult":10193,"Ġapp":10194,"stre":10195,"anon":10196,"Ġunend":10197,"Ġzuge":10198,"Ġzugeben":10199,"Ġfotograf":10200,"ĠLeiter":10201,"Ġverp":10202,"Ġaufpassen":10203,"Ġsteuern":10204,"ikalien":10205,"Ġwozu":10206,"Ġwiederholen":10207,"ahs":10208,"ahle":10209,"ĠÃľbertragung":10210,"ĠRegistr":10211,"Ġbeweg":10212,"ĠPartei":10213,"Spiel":10214,"ĠBehinder":10215,"ĠSky":10216,"ĠVisum":10217,"Ġverbrannt":10218,"ĠEingang":10219,"Ġverwirrt":10220,"ĠSchÃ¤del":10221,"ĠAntonio":10222,"Setz":10223,"Woll":10224,"wald":10225,"Ġsim":10226,"Ã¼se":10227,"atik":10228,"Ġfett":10229,"ĠWÃ¤l":10230,"ĠKart":10231,"ĠTurm":10232,"ĠLED":10233,"Ġverbergen":10234,"Ġanhalten":10235,"ĠVin":10236,"eucht":10237,"Ġrette":10238,"ĠIniti":10239,"hmus":10240,"Ġwurdest":10241,"barer":10242,"Ġverbindet":10243,"Ġbeschleun":10244,"ĠbekÃ¤mpfen":10245,"dreht":10246,"ĠDreh":10247,"ĠMilliarde":10248,"ĠTrÃ¤nen":10249,"ĠÃ¼berwÃ¤lt":10250,"ĠFelsen":10251,"ĠSÃ¤ulen":10252,"Ġexplod":10253,"Ġbeliebtesten":10254,"LaÃŁ":10255,"seln":10256,"szeit":10257,"Ġwahnsinn":10258,"ĠSabb":10259,"ĠVÃ¶lkern":10260,"ĠNarr":10261,"ĠtÃ¤t":10262,"Ã¶nt":10263,"ĠausfÃ¼hren":10264,"ottet":10265,"ĠVerwaltung":10266,"Ġwoanders":10267,"ĠKino":10268,"SchlieÃŁlich":10269,"esenheit":10270,"ziehung":10271,"ĠgroÃŁzÃ¼g":10272,"ordentlich":10273,"lieÃŁend":10274,"ampen":10275,"Ġstattdessen":10276,"ĠberÃ¼hrt":10277,"Ġworan":10278,"ĠMotiv":10279,"ĠErkenntnis":10280,"Ġdigitale":10281,"agnost":10282,"ĠEreignis":10283,"ĠGrafik":10284,"ĠDunkelheit":10285,"Ġwandeln":10286,"ĠKais":10287,"ĠTaste":10288,"ĠRick":10289,"ĠNote":10290,"Ġta":10291,"ives":10292,"Ġbesessen":10293,"flix":10294,"ĠSocial":10295,"geschwindigkeit":10296,"ĠInformations":10297,"mitglie":10298,"ĠVersionen":10299,"ĠBuchungsmaschine":10300,"ĠÃĸff":10301,"finder":10302,"ĠTheme":10303,"versorgung":10304,"ĠFeatur":10305,"Entschuldigung":10306,"ĠAnzeigen":10307,"ĠMartin":10308,"ĠUrsachen":10309,"Ġdiskutieren":10310,"Ġverpflich":10311,"DE":10312,"Fast":10313,"HÃ¤tte":10314,"eckt":10315,"Â¤":10316,"ieber":10317,"Ġmult":10318,"ĠMes":10319,"ĠMunde":10320,"ĠMindest":10321,"ĠGouverne":10322,"ĠKÃ¼r":10323,"ĠKok":10324,"ĠEid":10325,"ĠTy":10326,"ĠLegen":10327,"bereitung":10328,"ĠNr":10329,"Ġwart":10330,"ĠCher":10331,"ĠVerhÃ¤ltnis":10332,"iens":10333,"ĠAuff":10334,"ĠSchloss":10335,"ĠSchweden":10336,"host":10337,"Ġausgestrahlt":10338,"ĠMorgens":10339,"Ġjeglichen":10340,"verlust":10341,"sprogramm":10342,"ografie":10343,"ĠDieses":10344,"Ġlebten":10345,"ĠDomain":10346,"Ġspielte":10347,"ĠWidder":10348,"ĠEchtzeit":10349,"ĠThail":10350,"ĠKampagne":10351,"38":10352,"doch":10353,"Ġfrie":10354,"ĠKell":10355,"ĠPack":10356,"ĠTante":10357,"ĠLat":10358,"ĠIN":10359,"ĠNehmen":10360,"ĠJas":10361,"eutel":10362,"rauÃŁ":10363,"Ġpf":10364,"ĠOS":10365,"ĠVerwand":10366,"ĠErbt":10367,"ĠEinzahlung":10368,"Ġvieler":10369,"icer":10370,"ĠLandwirtschaft":10371,"ĠEli":10372,"ĠElement":10373,"Ġverteidigen":10374,"Ġerheben":10375,"Ġverschwindet":10376,"ĠGesichter":10377,"setzungen":10378,"Ã¶rdert":10379,"ĠFinstern":10380,"ĠLaw":10381,"Ġschreckliche":10382,"Ġwohnte":10383,"Ġakzeptiert":10384,"Ġunterschiedlich":10385,"ĠInfrastruktur":10386,"Ġprofessionelle":10387,"ĠTexas":10388,"ĠverÃ¶ffentlichen":10389,"ĠbuchstÃ¤blich":10390,"Eur":10391,"ket":10392,"lein":10393,"Ġungeh":10394,"ĠMÃ¼tter":10395,"achricht":10396,"ĠKalender":10397,"Ġinnen":10398,"igste":10399,"ĠViet":10400,"Ġtreibt":10401,"ray":10402,"Ġabgesehen":10403,"Ã¤nzen":10404,"ĠVerzei":10405,"laut":10406,"estÃ¤t":10407,"Ġgeschm":10408,"underten":10409,"Ġbewahren":10410,"Ġbrill":10411,"ĠHindern":10412,"ĠausgefÃ¼hrt":10413,"sprozess":10414,"Ġbasierend":10415,"Ġspeziell":10416,"ĠTricolor":10417,"Ġumfasst":10418,"ĠSnow":10419,"ĠTimes":10420,"ĠauslÃ¤nd":10421,"ĠSchnittstelle":10422,"Ġschmeckt":10423,"Besser":10424,"Januar":10425,"beln":10426,"gÃ¤nger":10427,"Ġag":10428,"iedr":10429,"Ġgreifen":10430,"Ġbricht":10431,"Ġkultur":10432,"schrank":10433,"ĠBang":10434,"Ġint":10435,"Ġersetzt":10436,"ĠTaten":10437,"ÃŁte":10438,"Ġtausende":10439,"ĠSchimpan":10440,"Ġumzubringen":10441,"ĠOffiz":10442,"Ġ250":10443,"orth":10444,"weist":10445,"rustr":10446,"werken":10447,"ĠGrand":10448,"Ġleeren":10449,"ĠMini":10450,"ĠGenie":10451,"Beide":10452,"ĠFront":10453,"ĠGenerationen":10454,"ĠBÃ¼rgermeister":10455,"ĠWÃ¼rde":10456,"Ġriecht":10457,"ĠBudget":10458,"OTEL":10459,"Ġschaffst":10460,"ĠSheriff":10461,"75":10462,"AH":10463,"Abl":10464,"FÃ¼nf":10465,"fleisch":10466,"ident":10467,"pal":10468,"ĠBio":10469,"ĠTore":10470,"ĠStan":10471,"etzungen":10472,"zufÃ¼gen":10473,"rugen":10474,"ops":10475,"Ã¼sst":10476,"edoch":10477,"leid":10478,"ĠEinheiten":10479,"Ġkommerzie":10480,"ĠFlag":10481,"Ġlege":10482,"Ġschweren":10483,"ĠKreativitÃ¤t":10484,"Ġfrisch":10485,"ĠElef":10486,"ĠMehrheit":10487,"Ġdefinitiv":10488,"ĠberÃ¼hmt":10489,"ĠHalb":10490,"etaill":10491,"Startseite":10492,"ĠBeratung":10493,"ĠGriechen":10494,"Besch":10495,"Warten":10496,"Ġafrikan":10497,"eihen":10498,"ĠSark":10499,"Ġunf":10500,"ĠhÃ¤uf":10501,"iraki":10502,"schalten":10503,"ĠWien":10504,"ĠWÃ¼n":10505,"Ġverar":10506,"ĠVar":10507,"Ġtrafen":10508,"ĠJemand":10509,"ĠStufe":10510,"ĠstÃ¶ren":10511,"Ġvorgestellt":10512,"istrat":10513,"Ġdarnach":10514,"ĠEinrichtung":10515,"Ã¤hrungs":10516,"ĠKlick":10517,"ĠUmstÃ¤nden":10518,"Ange":10519,"Ġ65":10520,"waffe":10521,"ĠShirt":10522,"ĠZahlung":10523,"ĠPolizisten":10524,"ĠBroad":10525,"ĠFarren":10526,"Ġschaute":10527,"Ġinformiert":10528,"ĠSyndrom":10529,"Ġverderben":10530,"Ġdunkle":10531,"ĠBuchstaben":10532,"On":10533,"cus":10534,"gro":10535,"namen":10536,"swerte":10537,"tag":10538,"vas":10539,"ĴÐ":10540,"ied":10541,"alisten":10542,"orter":10543,"ĠMisch":10544,"ĠHolen":10545,"ĠverlieÃŁ":10546,"Ġanziehen":10547,"ĠZy":10548,"ĠkÃ¶nne":10549,"weiten":10550,"ĠZeitalter":10551,"Ġdurchzu":10552,"eball":10553,"aufnahme":10554,"ĠtÃ¶te":10555,"Ġvermissen":10556,"Ġletztendlich":10557,"ĠWeTek":10558,"azitÃ¤t":10559,"ĠPatent":10560,"ĠTorrent":10561,"Ġschwieriger":10562,"Ġprivate":10563,"staaten":10564,"Flug":10565,"ĠVitamin":10566,"ĠSmartph":10567,"Ġaufgeregt":10568,"Ġneugierig":10569,"48":10570,"68":10571,"Ru":10572,"The":10573,"ĠsÃ¤":10574,"ĠBern":10575,"ĠWay":10576,"Ġwirksam":10577,"ĠPizza":10578,"Ġlive":10579,"ĠRunde":10580,"ĠZus":10581,"Ġausgesch":10582,"ĠAnst":10583,"Erfahren":10584,"Ġwohne":10585,"ĠEinladung":10586,"ĠgeschÃ¼tzt":10587,"Ġberichten":10588,"wendig":10589,"ĠCount":10590,"ĠResult":10591,"cover":10592,"Ġerschienen":10593,"ĠIndones":10594,"Ġaktuell":10595,"kampf":10596,"ĠSÃ¤ug":10597,"ĠiPad":10598,"ĠNeuronen":10599,"ĠGreen":10600,"ĠNebenwirkungen":10601,"ĠTherapie":10602,"ĠTeenager":10603,"ĠSchokolade":10604,"ĠGemÃ¤lde":10605,"ĠAbonnement":10606,"Ġgehofft":10607,"ICH":10608,"Ph":10609,"xy":10610,"station":10611,"ani":10612,"ĠGad":10613,"ĠHuren":10614,"ĠFliegen":10615,"ĠerÃ¶ff":10616,"ĠLeit":10617,"ĠNull":10618,"Ġdemokrat":10619,"Ġrelev":10620,"ĠBeam":10621,"Verschw":10622,"Ġzwingen":10623,"ĠLektion":10624,"Ġentwickelten":10625,"Ġregistrieren":10626,"Ġarbeitest":10627,"ĠSternen":10628,"ĠStreaming":10629,"ĠChemikalien":10630,"ĠTerroristen":10631,"ĠerklÃ¤rte":10632,"Ġclever":10633,"ĠGegner":10634,"Hin":10635,"leit":10636,"Ã±":10637,"ichern":10638,"arnt":10639,"Ġkrieg":10640,"schrau":10641,"Ġintens":10642,"ĠHitze":10643,"ĠSieh":10644,"ĠTonnen":10645,"ĠLasst":10646,"ĠNan":10647,"reide":10648,"Ġwiedersehen":10649,"ĠGeschw":10650,"aket":10651,"ĠberÃ¼ck":10652,"ĠSchweine":10653,"ĠUmstÃ¤nde":10654,"endete":10655,"ippe":10656,"ĠfranzÃ¶s":10657,"ĠÃĦnderung":10658,"ĠAussicht":10659,"hÃ¶he":10660,"ĠExplos":10661,"Ġriskieren":10662,"ĠSzene":10663,"ĠWesent":10664,"Ġbedroht":10665,"Ġwehtun":10666,"ĠgnÃ¤dig":10667,"DA":10668,"Lesen":10669,"drÃ¼cke":10670,"wich":10671,"Ġdro":10672,"ĠBÃ¶ses":10673,"ĠKiste":10674,"ĠHub":10675,"ĠTrink":10676,"Ġanpassen":10677,"Ġanzusehen":10678,"ĠIT":10679,"usse":10680,"Ġscharf":10681,"ĠJan":10682,"andy":10683,"Ġbeunruh":10684,"Ġstarte":10685,"Ġraten":10686,"ulator":10687,"ĠUnsinn":10688,"Ġhinunter":10689,"akes":10690,"gesellschaft":10691,"Ġverbreiten":10692,"ĠUmfrage":10693,"ĠVerteilung":10694,"iskia":10695,"ĠFire":10696,"ĠFrÃ¼hl":10697,"ĠVerhaltens":10698,"ĠGemÃ¼se":10699,"ĠAhas":10700,"Ġwissenschaftlichen":10701,"Solange":10702,"ĠAlternative":10703,"Ġbeliebigen":10704,"ĠmilitÃ¤r":10705,"ĠKonsequenzen":10706,"Ġdunklen":10707,"LE":10708,"Wow":10709,"bit":10710,"fers":10711,"ize":10712,"pter":10713,"ÐĲ":10714,"Ġunangen":10715,"ĠMun":10716,"Ġderjenige":10717,"ĠKoch":10718,"ĠKandid":10719,"ĠEsp":10720,"Ġjapan":10721,"ĠSchaf":10722,"ĠOFF":10723,"Ġstehst":10724,"Ġsolltet":10725,"ĠEinrichtungen":10726,"ĠMenschenkind":10727,"ella":10728,"formation":10729,"Ġreinigen":10730,"Ġdram":10731,"wege":10732,"ĠkÃ¤mpf":10733,"Ġaufzubauen":10734,"ĠBriefe":10735,"iverse":10736,"Ġbedienen":10737,"ĠSignale":10738,"herapie":10739,"ĠAssyr":10740,"ĠMittagessen":10741,"Ġschicke":10742,"ĠZwecke":10743,"ĠKrieger":10744,"ĠMobiltelefon":10745,"fÃ¤ltig":10746,"ĠFrancisco":10747,"ĠÃľbungen":10748,"ĠKomponenten":10749,"FrÃ¼her":10750,"ĠCloud":10751,"wehr":10752,"ieden":10753,"eiÃŁt":10754,"gende":10755,"ĠMid":10756,"Ġderer":10757,"gefÃ¼hrt":10758,"ĠHass":10759,"ĠFÃ¶rderung":10760,"ĠTot":10761,"ĠTank":10762,"Ġwaschen":10763,"istent":10764,"Ġbeides":10765,"Ġgeheiratet":10766,"Ġreagiert":10767,"ĠGebrauch":10768,"ĠKontext":10769,"Ġbewaff":10770,"gewiesen":10771,"Ã¤hern":10772,"ĠRoulette":10773,"ifik":10774,"ocker":10775,"wegnetz":10776,"Ġgemeinsamen":10777,"Sollten":10778,"ĠSÃ¼nd":10779,"konom":10780,"Ġlangsamer":10781,"ĠKrone":10782,"ĠFusswegnetz":10783,"AblÃ¤uft":10784,"Wollt":10785,"cess":10786,"ĠSeb":10787,"Ġnette":10788,"gener":10789,"ema":10790,"ĠBurg":10791,"ĠHafen":10792,"ĠPsal":10793,"Ġbestellt":10794,"ĠAnkl":10795,"Ġbeibringen":10796,"opfen":10797,"ĠEnkel":10798,"ĠBlitz":10799,"Ġgewann":10800,"ĠgewÃ¤hr":10801,"ĠgemÃ¤ÃŁ":10802,"Ġbegangen":10803,"same":10804,"Ġzusammenarbeiten":10805,"losigkeit":10806,"ĠRegierungs":10807,"ĠDating":10808,"ĠGeistes":10809,"reuen":10810,"ĠTony":10811,"ĠzusÃ¤tzlichen":10812,"ĠJonathan":10813,"Ġeitel":10814,"Ġbegegnen":10815,"Ġorganisieren":10816,"Ġtraditionellen":10817,"Ġminim":10818,"ĠAbteilung":10819,"ĠPersÃ¶nlichkeit":10820,"ĠBehÃ¶rden":10821,"ĠGrippe":10822,"ĠReichtum":10823,"ĠErbteil":10824,"Leben":10825,"dÃ¤":10826,"fest":10827,"gott":10828,"komp":10829,"offen":10830,"wenn":10831,"ĠðŁĴĲ":10832,"Ġsuchst":10833,"anwalt":10834,"Ġisst":10835,"ĠHob":10836,"ĠDol":10837,"ĠDÃ¶r":10838,"lichkeiten":10839,"annel":10840,"ĠNat":10841,"ĠRepar":10842,"rÃ¤umen":10843,"verkehr":10844,"Ġ38":10845,"gebiete":10846,"ffekte":10847,"ĠMaria":10848,"ĠMarrak":10849,"Ġloswerden":10850,"ĠMomente":10851,"abelle":10852,"ĠLuc":10853,"ĠBestimmungen":10854,"Ġlokale":10855,"Ġweshalb":10856,"ĠTricks":10857,"Ġnationalen":10858,"Jahrhunderts":10859,"ĠEntdeckung":10860,"Em":10861,"Per":10862,"fast":10863,"Ġdetaill":10864,"ĠSun":10865,"etrie":10866,"ĠBibel":10867,"ĠGehe":10868,"ĠWander":10869,"ĠKrypt":10870,"ĠSieht":10871,"ĠTaf":10872,"ĠgefÃ¼hlt":10873,"euen":10874,"ĠStad":10875,"ĠInspir":10876,"Ġrech":10877,"Ã¼ndig":10878,"werten":10879,"imeter":10880,"ĠHoward":10881,"ĠVorfahren":10882,"ĠAuflÃ¶sung":10883,"quelle":10884,"ĠGebot":10885,"Ġbeschloss":10886,"ĠBetrug":10887,"Ġoffenen":10888,"ĠHerzens":10889,"Ġfragst":10890,"Ġauftreten":10891,"ĠKÃ¶pfe":10892,"jÃ¤hrigen":10893,"ĠblÃ¶d":10894,"8217":10895,"ĠErfindung":10896,"ĠZerstÃ¶rung":10897,"ĠerwÃ¤hnen":10898,"ĠErwartungen":10899,"ĠWichser":10900,"70":10901,"fakt":10902,"ressen":10903,"sÃ¤tzlich":10904,"tlichen":10905,"ãĥ":10906,"Ġunge":10907,"ĠMos":10908,"urde":10909,"Ġanwenden":10910,"sens":10911,"ros":10912,"ĠNiveau":10913,"ĠSchÃ¤tzchen":10914,"ĠCD":10915,"ĠCart":10916,"ĠÃ¼bersetzt":10917,"Ġ120":10918,"rÃ¤ter":10919,"Ġ39":10920,"ĠWird":10921,"ĠSozi":10922,"Ġeinziges":10923,"Ġbeherr":10924,"gehalten":10925,"Ġverschwenden":10926,"ĠSchulden":10927,"rÃ¤nken":10928,"ĠSterben":10929,"ĠKapitel":10930,"ĠGesprÃ¤che":10931,"Ġblieben":10932,"ĠgewÃ¶hnt":10933,"ĠgÃ¼ltige":10934,"Ġoffiziell":10935,"Jedenfalls":10936,"undzwanzig":10937,"Ġattraktiv":10938,"ĠPerspektive":10939,"Akt":10940,"dar":10941,"kal":10942,"nam":10943,"nchen":10944,"ynt":10945,"Ġdicht":10946,"Ġwid":10947,"Ã¶ÃŁt":10948,"ĠHas":10949,"ĠFinden":10950,"mma":10951,"Ġdenk":10952,"rollen":10953,"Ġopfer":10954,"ĠZert":10955,"ĠSchreibt":10956,"ĠVerz":10957,"ĠVerwenden":10958,"ĠAnkunft":10959,"ĠAnnahme":10960,"ĠProphet":10961,"Ġrest":10962,"Ġheran":10963,"Ins":10964,"ĠAusmaÃŁ":10965,"ĠHandt":10966,"ĠKlinik":10967,"Wohl":10968,"quis":10969,"geschÃ¤ft":10970,"geschrieben":10971,"work":10972,"ĠInteress":10973,"erkennung":10974,"ĠBedarf":10975,"ĠOperationen":10976,"Ġkonzentriert":10977,"Ġliefert":10978,"Ġdefinieren":10979,"ĠHolm":10980,"Ġbewerten":10981,"Trotzdem":10982,"ĠDiskussion":10983,"Ġgratis":10984,"Aktiv":10985,"BS":10986,"Car":10987,"Ehr":10988,"aft":10989,"lag":10990,"wÃ¤sche":10991,"zn":10992,"anlagen":10993,"ĠSuchen":10994,"ĠALL":10995,"ĠKuh":10996,"ĠPier":10997,"ĠPingu":10998,"igem":10999,"Ġlhr":11000,"ĠlaÃŁt":11001,"oler":11002,"ĠVerpack":11003,"ĠAnlage":11004,"ĠAnzeichen":11005,"ĠSpy":11006,"ĠEner":11007,"Ġgewohnt":11008,"Ġschlugen":11009,"ĠMonaco":11010,"ĠQue":11011,"Ġdreh":11012,"ove":11013,"ĠDipl":11014,"Ġehren":11015,"Ġverschm":11016,"Ġschneiden":11017,"ographie":11018,"ĠFerien":11019,"Ġwesentlich":11020,"Ġvergangenen":11021,"ĠTÃ¤gliche":11022,"Februar":11023,"Kurz":11024,"Th":11025,"dann":11026,"fliegen":11027,"lÃ¤sst":11028,"messer":11029,"uste":11030,"wandel":11031,"ieÃŁe":11032,"steh":11033,"Ġsens":11034,"eier":11035,"Ġunmittel":11036,"ĠAspe":11037,"ĠWÃ¤hlen":11038,"ĠHÃ¶ren":11039,"ĠFarm":11040,"Ġlo":11041,"see":11042,"ĠVerh":11043,"Ġspann":11044,"gere":11045,"ĠGran":11046,"ĠverlÃ¤sst":11047,"ĠBoten":11048,"ĠFreundschaft":11049,"Ġbetrogen":11050,"ĠSonntag":11051,"ĠDiagramm":11052,"Ġregion":11053,"ĠBlumenstrauÃŁ":11054,"ĠWolke":11055,"Ġprofitieren":11056,"ĠGnaden":11057,"ĠSchweizer":11058,"ĠStrukturen":11059,"ĠKrieges":11060,"ĠNetflix":11061,"ĠBesseres":11062,"Ġgrundlegende":11063,"ĠSecurity":11064,"iliate":11065,"ĠOriginal":11066,"Ġverpflichtet":11067,"ĠAssyrien":11068,"Geld":11069,"Li":11070,"gab":11071,"litz":11072,"rang":11073,"vit":11074,"stud":11075,"Ġfil":11076,"ĠDay":11077,"Ġausgesetzt":11078,"spiegel":11079,"rucken":11080,"Wozu":11081,"Ġbesseres":11082,"ĠNachkommen":11083,"Ġrauchen":11084,"ĠReiter":11085,"pret":11086,"Ġbedeckt":11087,"Ã¤chtige":11088,"Ġechtes":11089,"ĠPfeil":11090,"ĠPrÃ¤sent":11091,"ĠendgÃ¼lt":11092,"Ġmodern":11093,"ĠAussehen":11094,"Ã¼hrt":11095,"Ġvorbereiten":11096,"Ġmedizinischen":11097,"ĠAstron":11098,"Ġzerbrochen":11099,"ĠScherz":11100,"Ġfreiwillig":11101,"41":11102,"42":11103,"BA":11104,"Bel":11105,"Baby":11106,"Damals":11107,"Gr":11108,"eut":11109,"nes":11110,"zar":11111,"erkt":11112,"ario":11113,"achung":11114,"ĠWalter":11115,"ĠKunde":11116,"ĠPest":11117,"Ġanscheinend":11118,"olis":11119,"omos":11120,"ĠVerschlÃ¼ssel":11121,"adne":11122,"ĠMengen":11123,"ĠRef":11124,"rix":11125,"utenant":11126,"ĠSof":11127,"ĠFalls":11128,"ĠMuskeln":11129,"ĠKnast":11130,"ĠJohnny":11131,"ĠAller":11132,"Ġregistr":11133,"ĠHammer":11134,"Ġleise":11135,"ĠRauch":11136,"ĠMistkerl":11137,"ĠJones":11138,"ĠOpenELEC":11139,"ĠFaliraki":11140,"ĠSarah":11141,"Ġvertraue":11142,"ĠTicket":11143,"Ġwahnsinnig":11144,"ĠFinsternis":11145,"Fi":11146,"Zug":11147,"care":11148,"gin":11149,"pad":11150,"zesse":11151,"stÃ¤d":11152,"Ġsitze":11153,"esh":11154,"ĠSow":11155,"Ġnetter":11156,"Ġeingestellt":11157,"derung":11158,"ĠHorm":11159,"ĠLÃ¤rm":11160,"ĠJed":11161,"stecken":11162,"ĠCat":11163,"begren":11164,"Ġstabil":11165,"Ġunsern":11166,"ĠReese":11167,"Ġkeines":11168,"ĠRegionen":11169,"Ġzieh":11170,"ĠGewissen":11171,"ĠManasse":11172,"ĠfÃ¼hre":11173,"ĠDiabet":11174,"ĠCarter":11175,"ĠExperimente":11176,"alya":11177,"portieren":11178,"ATIS":11179,"ĠEmpfang":11180,"ĠPlattformen":11181,"ĠhÃ¶chsten":11182,"Ġfesten":11183,"ĠFavor":11184,"36":11185,"blichkeit":11186,"hab":11187,"hÃ¤usern":11188,"ji":11189,"rer":11190,"anischen":11191,"anmeldung":11192,"ĠSaison":11193,"ĠAstra":11194,"ĠHong":11195,"ĠFutter":11196,"ischte":11197,"ehrten":11198,"ĠCrew":11199,"ĠAnna":11200,"leiden":11201,"Ġkonfigur":11202,"Ġgeladen":11203,"ĠzusÃ¤tzlich":11204,"ĠAntrag":11205,"zahlungen":11206,"lands":11207,"ĠBetrÃ¼":11208,"ĠVerlangen":11209,"ĠVereinbarung":11210,"esezeichen":11211,"ĠDirektor":11212,"Zweitens":11213,"Ġspeziellen":11214,"ĠExtr":11215,"Ġeinzigartige":11216,"ĠHamburg":11217,"ĠFernseher":11218,"Ã¤umt":11219,"ĠZivilisation":11220,"ĠHeiligtum":11221,"ĠFirmware":11222,"58":11223,"KW":11224,"wesen":11225,"zeigen":11226,"áĢ":11227,"Ġholt":11228,"ĠKid":11229,"ĠRam":11230,"Ġtoten":11231,"Ġstaat":11232,"ĠGest":11233,"Ġentlassen":11234,"ĠEinnahmen":11235,"Ġbesiegen":11236,"ĠwÃ¤hl":11237,"aufgaben":11238,"zieh":11239,"Ġeinziger":11240,"ĠKonzentr":11241,"ĠKonkur":11242,"Ġbedeute":11243,"ĠLee":11244,"ĠKÃ¼ste":11245,"ĠFinch":11246,"ĠPhilosoph":11247,"ĠGleichgewicht":11248,"ĠPrim":11249,"ĠbeschÃ¤ftigen":11250,"ĠWolf":11251,"ĠDeinem":11252,"ridge":11253,"ĠAbstand":11254,"ĠVerteidigung":11255,"Ġbeeindruckt":11256,"Ġdiagnost":11257,"ĠIsaak":11258,"Ġpersonenbezogenen":11259,"kosystem":11260,"Aparthotel":11261,"Don":11262,"aver":11263,"fassen":11264,"li":11265,"punkte":11266,"undern":11267,"Ġunn":11268,"Ġhunderte":11269,"Ġzuhause":11270,"emon":11271,"ĠLok":11272,"ĠRitu":11273,"Ġtollen":11274,"ĠSpekt":11275,"opa":11276,"ĠUnder":11277,"Ġentstanden":11278,"leib":11279,"werben":11280,"Ã¼ttern":11281,"ĠHoheit":11282,"ĠverstÃ¤r":11283,"ĠArth":11284,"Ġbegleiten":11285,"ards":11286,"ĠGehalt":11287,"Ġlebend":11288,"ianer":11289,"Ġheutige":11290,"ĠStrategien":11291,"ĠSammlung":11292,"Ġwirtschaftlichen":11293,"ĠIndividuen":11294,"althcare":11295,"ĠLuxus":11296,"ĠWahrnehmung":11297,"Kennen":11298,"Russ":11299,"Wisst":11300,"findet":11301,"oon":11302,"sitz":11303,"waffen":11304,"Ġsichtbar":11305,"ĠSÃ¤tze":11306,"Ġhob":11307,"ĠbrÃ¼":11308,"ĠMig":11309,"ĠTief":11310,"ĠIM":11311,"ĠVari":11312,"ĠNin":11313,"Ġbearbeiten":11314,"stechn":11315,"ĠVerarbeitung":11316,"ĠAnspruch":11317,"ĠEinfÃ¼hrung":11318,"Ġbesprechen":11319,"rÃ¤umt":11320,"ican":11321,"ĠSchwanger":11322,"oween":11323,"ited":11324,"Ġinteragieren":11325,"Ġbeheben":11326,"ĠStraf":11327,"Ġtreffe":11328,"ĠVertrieb":11329,"ĠÃĸsterreich":11330,"ĠDrittel":11331,"ĠMagnet":11332,"ĠScott":11333,"Ġaufgegeben":11334,"ĠJeff":11335,"verstÃ¤ndnis":11336,"Ġblaue":11337,"ĠTalent":11338,"Liebe":11339,"ĠIdioten":11340,"ĠBaal":11341,"ministerium":11342,"ĠmerkwÃ¼rdig":11343,"ĠInstrument":11344,"Ã¼mmert":11345,"Ġaufgebaut":11346,"Ġmotiv":11347,"ĠPistole":11348,"kamen":11349,"mÃ¤dchen":11350,"stet":11351,"Ġeinnehmen":11352,"abeth":11353,"Ã¶die":11354,"ettern":11355,"Ġferne":11356,"ĠWi":11357,"ĠDial":11358,"lichem":11359,"leger":11360,"ĠNAS":11361,"Ġwarf":11362,"ktop":11363,"ĠOP":11364,"ula":11365,"Ġreduziert":11366,"lieÃŁt":11367,"Ġgefeuert":11368,"gebnisse":11369,"acke":11370,"fahrer":11371,"ĠSchlÃ¤":11372,"zipl":11373,"ĠGenom":11374,"Ġ600":11375,"ĠRabattCode":11376,"ĠhÃ¶chst":11377,"ĠÃĸkosystem":11378,"ĠClient":11379,"ĠServices":11380,"ĠMagd":11381,"ukadne":11382,"ĠhÃ¶here":11383,"Ġherrschen":11384,"klusive":11385,"ĠWebcam":11386,"ĠQuadrat":11387,"Ġmonat":11388,"ĠTiefe":11389,"ĠKohlenstoff":11390,"ĠHTML":11391,"Fragen":11392,"Lu":11393,"zÃ¼ge":11394,"Ġmobile":11395,"Ã¼pfen":11396,"Ġheben":11397,"Ġzerr":11398,"ittern":11399,"emin":11400,"ĠMale":11401,"Ġfielen":11402,"ĠBulgar":11403,"ĠWai":11404,"ĠKlo":11405,"ĠDigit":11406,"ĠPur":11407,"ĠLein":11408,"Ġversprechen":11409,"Ġang":11410,"ĠlÃ¤nd":11411,"ĠID":11412,"aller":11413,"Ġschaden":11414,"ftig":11415,"Ġpm":11416,"sprach":11417,"riz":11418,"Ġprobieren":11419,"ibiot":11420,"ĠKonfigur":11421,"Ġbrennen":11422,"gehÃ¶r":11423,"wirkung":11424,"Ġkostenlosen":11425,"ĠGesichts":11426,"Ġermut":11427,"ĠflieÃŁt":11428,"Ġergreifen":11429,"Ġbeliebt":11430,"Ġvernichten":11431,"ĠOlymp":11432,"ĠAccount":11433,"ĠLibanon":11434,"ĠhÃ¶chste":11435,"ĠAffiliate":11436,"ĠRettung":11437,"ĠMajestÃ¤t":11438,"ĠKÃ¤mpfer":11439,"ĠGouverneur":11440,"Angezeigt":11441,"ĠSchreibtisch":11442,"CO":11443,"Suchen":11444,"TP":11445,"Zone":11446,"fo":11447,"Ġmathemat":11448,"oret":11449,"ĠWache":11450,"Ġvergewalt":11451,"ision":11452,"Ġschickt":11453,"ĠNTV":11454,"ĠZehn":11455,"ĠZÃ¼ge":11456,"ĠStab":11457,"Ġpol":11458,"ienung":11459,"ĠUnsch":11460,"ĠReal":11461,"Ġklingen":11462,"ungsbedingungen":11463,"ĠWeiÃŁen":11464,"ĠVorsicht":11465,"Ġverbrachte":11466,"ĠbeschÃ¼tzt":11467,"play":11468,"Kommst":11469,"ĠSubst":11470,"ĠStimmung":11471,"umpen":11472,"ĠLehre":11473,"ĠNebukadne":11474,"Ġberuhigen":11475,"ĠHexe":11476,"Ġignorieren":11477,"Ġbeitragen":11478,"ĠEwigkeit":11479,"Bild":11480,"Lang":11481,"gas":11482,"ule":11483,"Î»":11484,"Ã¼chte":11485,"achel":11486,"ĠFast":11487,"ĠEll":11488,"ĠTurn":11489,"ĠLow":11490,"Ġvoneinander":11491,"Ġbester":11492,"ilber":11493,"ĠChal":11494,"Ġabgeb":11495,"Ġabgest":11496,"Ġstieg":11497,"ience":11498,"ĠrÃ¤":11499,"ĠmÃ¼sse":11500,"verd":11501,"Ġneulich":11502,"Ġversorgen":11503,"ĠVorlage":11504,"ĠBerichte":11505,"ĠAntlitz":11506,"ĠMalaria":11507,"Ġerstklass":11508,"ĠgroÃŁem":11509,"ĠBruders":11510,"ĠJerobe":11511,"Ġ2007":11512,"aune":11513,"ĠBegleiten":11514,"ĠKapital":11515,"kommst":11516,"Ġvorhers":11517,"ĠGalaxien":11518,"ĠReceiver":11519,"Sprich":11520,"Hinter":11521,"ous":11522,"Ġu":11523,"inke":11524,"asa":11525,"ĠSeine":11526,"Ã¤g":11527,"ĠTumor":11528,"ĠLight":11529,"ĠRum":11530,"Ġtrugen":11531,"Ġausgeben":11532,"ĠÃ¼bersehen":11533,"ĠErsch":11534,"ĠBlu":11535,"key":11536,"Ġbrauchten":11537,"ĠAusgabe":11538,"Ġbegreifen":11539,"ĠDean":11540,"ĠKonz":11541,"hai":11542,"itzer":11543,"ĠHÃ¶hlen":11544,"ĠKnopf":11545,"Ġerleicht":11546,"ĠFrÃ¼h":11547,"ĠtÃ¤glichen":11548,"Versuch":11549,"Ġkontrolliert":11550,"ĠTunnel":11551,"ĠKatastrophe":11552,"Ġbeeindruckend":11553,"brigens":11554,"PA":11555,"furt":11556,"map":11557,"tran":11558,"ÑĤ":11559,"Ø±":11560,"erte":11561,"Ġsetze":11562,"Ġheu":11563,"atischen":11564,"ĠGabe":11565,"ĠKetten":11566,"ĠFans":11567,"ĠLaÃŁ":11568,"ĠVictor":11569,"andten":11570,"ĠSchrecken":11571,"Ġumzu":11572,"rauchen":11573,"Ġherkommen":11574,"Ġberuf":11575,"ĠAbsal":11576,"ĠAutom":11577,"Ġexper":11578,"ifikation":11579,"ĠGemeinden":11580,"ĠLinux":11581,"ĠBilly":11582,"ĠSchauspieler":11583,"Ġbehauptet":11584,"Ġorganisiert":11585,"ĠZeuge":11586,"wissenschaft":11587,"Ġinspiriert":11588,"Ġgoldene":11589,"ĠverrÃ¼ckte":11590,"ĠKammer":11591,"Ġhungrig":11592,"ĠDutzend":11593,"ĠWaisen":11594,"ĠAbsalom":11595,"EST":11596,"Gar":11597,"Setzen":11598,"Tags":11599,"let":11600,"arkt":11601,"Ġinnov":11602,"ĠPres":11603,"ĠPillen":11604,"umin":11605,"inda":11606,"ĠStÃ¶rung":11607,"Ġetliche":11608,"ĠUR":11609,"ĠLebensst":11610,"ĠÃľberzeug":11611,"Ġlebst":11612,"ologisch":11613,"Ġbetreffen":11614,"ĠNachts":11615,"ehlt":11616,"ĠBildungs":11617,"Ġhochwert":11618,"mittelt":11619,"ĠRichtlinien":11620,"arrang":11621,"ĠSamstag":11622,"Ġerfassen":11623,"ĠAlters":11624,"ĠPrototyp":11625,"ĠWirtschafts":11626,"ĠBeitrÃ¤ge":11627,"Ġertragen":11628,"Solche":11629,"Ġwirtschaftliche":11630,"ĠschlieÃŁt":11631,"legung":11632,"ĠEntwicklungsl":11633,"Wechselkurse":11634,"ĠImmobilie":11635,"ĠGRATIS":11636,"67":11637,"Hoch":11638,"Kategorie":11639,"Raus":11640,"Rufen":11641,"bur":11642,"fir":11643,"wachsen":11644,"Ð»":11645,"Ġsystem":11646,"Ġhm":11647,"hrop":11648,"ĠMIT":11649,"schul":11650,"ĠBÃ¶sen":11651,"ĠKra":11652,"ĠKrimin":11653,"ĠHumor":11654,"ĠHOTEL":11655,"ĠFels":11656,"ĠDarm":11657,"Ġerreich":11658,"ĠerÃ¶ffnet":11659,"ĠPin":11660,"Ġverarbeiten":11661,"ĠIS":11662,"Ġsozusagen":11663,"oli":11664,"Ġallzu":11665,"menge":11666,"Ġgewiss":11667,"izont":11668,"Ã¼tig":11669,"ĠAbfall":11670,"ĠWeiÃŁe":11671,"geworfen":11672,"appy":11673,"Ġkennenlernen":11674,"ĠHintern":11675,"Daran":11676,"ĠDaran":11677,"ĠBestimmung":11678,"Ġneur":11679,"ĠStandards":11680,"ĠWeihnacht":11681,"Ġseltsame":11682,"ĠEtwas":11683,"ĠChristus":11684,"ĠChemie":11685,"Ġkomplexe":11686,"Ġstudiert":11687,"ĠBobby":11688,"Ġgoldenen":11689,"Frank":11690,"My":11691,"UK":11692,"smittel":11693,"uern":11694,"woch":11695,"ender":11696,"aumen":11697,"Ġunges":11698,"ĠGil":11699,"ĠDinger":11700,"ĠTin":11701,"ĠTasse":11702,"ĠschÃ¤d":11703,"Ġbezeichnen":11704,"ĠZiegen":11705,"ĠjÃ¼d":11706,"Ġausziehen":11707,"Diesen":11708,"otter":11709,"ĠObst":11710,"ĠAnlagen":11711,"ĠEric":11712,"ĠBez":11713,"Ġgemeldet":11714,"ĠKlicken":11715,"Ġbenutze":11716,"Ġentwickelte":11717,"azier":11718,"iley":11719,"ĠPfad":11720,"ĠTreppe":11721,"ashion":11722,"ĠÃ¤ltere":11723,"stÃ¼cke":11724,"Ġpositiv":11725,"Ġmutig":11726,"ĠSchieds":11727,"ĠMÃ¤dels":11728,"ĠOchsen":11729,"90":11730,"DS":11731,"ble":11732,"kap":11733,"lÃ¶sen":11734,"mas":11735,"nem":11736,"swÃ¼rdig":11737,"wÃ¶rter":11738,"ĠAkten":11739,"ĠWelten":11740,"Ġinzwischen":11741,"ĠHill":11742,"ĠHiskia":11743,"ĠDauer":11744,"Ã¼re":11745,"ĠTenn":11746,"ĠLeitung":11747,"Ġlohnt":11748,"annter":11749,"ĠSchock":11750,"ĠStill":11751,"ĠVerpflicht":11752,"Ġimpl":11753,"Ġgesunde":11754,"rief":11755,"ĠAlice":11756,"Ġloszu":11757,"Ġneueste":11758,"Ġjedermann":11759,"ĠHeilung":11760,"ĠHarold":11761,"ĠfrÃ¼heren":11762,"ĠÃ¶ffnet":11763,"Ġirr":11764,"ĠMotorrad":11765,"GroÃŁ":11766,"ĠHypot":11767,"logger":11768,"Ġisol":11769,"ĠNiederl":11770,"ĠVeranstaltungen":11771,"ĠStÃ¤mme":11772,"ĠKomplexitÃ¤t":11773,"Super":11774,"ĠSchimpansen":11775,"Is":11776,"Recht":11777,"Zw":11778,"bÃ¤":11779,"mine":11780,"Ġdan":11781,"Ġsorge":11782,"Ġhind":11783,"Ġnackt":11784,"ettel":11785,"Ġfahr":11786,"ĠBir":11787,"ĠWow":11788,"ĠWÃ¤chter":11789,"ĠTher":11790,"Ġschrie":11791,"Ġspaz":11792,"ĠGeorg":11793,"ado":11794,"Ġdarstellen":11795,"Ġunteren":11796,"lied":11797,"Ġ55":11798,"ĠJac":11799,"Ġbenutzer":11800,"ĠMantel":11801,"ĠFlugzeuge":11802,"Ġausgestat":11803,"ĠSamaria":11804,"Ġkomplette":11805,"versicht":11806,"Warst":11807,"ĠLÃ¶we":11808,"ĠHosting":11809,"ĠLeistungen":11810,"Ġniedrigsten":11811,"Bereit":11812,"ĠspÃ¼re":11813,"ĠInvestition":11814,"ĠausschlieÃŁlich":11815,"ĠBatterie":11816,"Do":11817,"Ed":11818,"Halte":11819,"Haltet":11820,"bilder":11821,"cript":11822,"krÃ¤fte":11823,"ois":11824,"sg":11825,"utern":11826,"eres":11827,"eise":11828,"ito":11829,"ĠAqu":11830,"ĠGlaube":11831,"mmel":11832,"ĠPorn":11833,"ĠTruppen":11834,"ĠLohn":11835,"ĠNeg":11836,"ĠNest":11837,"Ġoper":11838,"Ġabst":11839,"ĠOx":11840,"ĠOOO":11841,"Ġunterr":11842,"geschen":11843,"Ġversagt":11844,"ĠVorstell":11845,"ĠDieb":11846,"ĠBoston":11847,"Ġgenaue":11848,"ĠSpiels":11849,"rotten":11850,"Ġbefohlen":11851,"Ġangegeben":11852,"ĠGroÃŁe":11853,"ĠSumme":11854,"Ã¤chtig":11855,"Ġfrische":11856,"Ġarbeiteten":11857,"ĠEpid":11858,"Ġverhindert":11859,"Ġdefiniert":11860,"ĠZauberer":11861,"aveat":11862,"Ġpositive":11863,"ĠJungfrau":11864,"ĠPromotionCode":11865,"ĠMontag":11866,"ĠPotenzial":11867,"ĠChinesisch":11868,"Jo":11869,"rÃ¤t":11870,"ual":11871,"Ġuk":11872,"stock":11873,"anal":11874,"Ġvierte":11875,"gefallen":11876,"ĠHit":11877,"ĠTommy":11878,"Ġlande":11879,"ĠRussen":11880,"ĠfÃ¼rchtet":11881,"ĠJÃ¤ger":11882,"Ġausreich":11883,"ĠÃ¼berlassen":11884,"iente":11885,"ric":11886,"ĠHouse":11887,"Ġkons":11888,"Ġbeglei":11889,"mith":11890,"Ġerkunden":11891,"ĠSkript":11892,"ĠKram":11893,"ĠPrinz":11894,"ĠCheck":11895,"ĠHinterlasse":11896,"ĠStammes":11897,"bewesen":11898,"Play":11899,"ĠMÃ¼nzen":11900,"Ġrussische":11901,"Ġgehorchen":11902,"ĠGalaxie":11903,"ĠgehÃ¶rte":11904,"angebote":11905,"Ġmomentan":11906,"300":11907,"65":11908,"izen":11909,"jo":11910,"kuchen":11911,"lager":11912,"tial":11913,"iner":11914,"ĠmaÃŁ":11915,"Ã¼sten":11916,"igstens":11917,"Ġland":11918,"ĠRakete":11919,"ĠRaketen":11920,"ĠNoten":11921,"ĠSchicht":11922,"ĠCle":11923,"Ġdemselben":11924,"beten":11925,"Ġsteh":11926,"ikte":11927,"sprecher":11928,"Ã¤rten":11929,"Ġgenannten":11930,"Ġklasse":11931,"obs":11932,"Ġ2022":11933,"imel":11934,"echnen":11935,"ĠAlbt":11936,"Ġgelang":11937,"Ġzusehen":11938,"Ġbekannten":11939,"ĠUmgang":11940,"Ġerkenne":11941,"ĠÃ¼ben":11942,"ĠRuhm":11943,"ĠWilliam":11944,"Entweder":11945,"ĠDoug":11946,"GefÃ¤llt":11947,"Ġfordern":11948,"ĠAhab":11949,"ĠSchauspiel":11950,"ĠgewÃ¶hnlich":11951,"ĠSolar":11952,"kriegen":11953,"Ġunbegrenzt":11954,"Gerade":11955,"zumachen":11956,"ĠBeerdigung":11957,"ĠKulturen":11958,"ĠMarrakesch":11959,"BER":11960,"Bed":11961,"Ihnen":11962,"KE":11963,"Or":11964,"TI":11965,"Vier":11966,"Zus":11967,"gsten":11968,"Â«":11969,"statt":11970,"Ġunheim":11971,"Ġnannten":11972,"ores":11973,"ĠGrau":11974,"ĠHunderte":11975,"ĠEmail":11976,"Ġverwei":11977,"Ġverges":11978,"Ġvermitteln":11979,"Ġaufmerksam":11980,"ĠSchrank":11981,"ĠCaf":11982,"Ã¤rter":11983,"Ġliest":11984,"Ġgetrieben":11985,"Ġkonfront":11986,"ĠHotelbewertungen":11987,"hotels":11988,"Dennoch":11989,"gling":11990,"ipps":11991,"ĠGemeinschaften":11992,"ĠDoc":11993,"ĠPassag":11994,"ĠVisa":11995,"sichtigt":11996,"ĠRoman":11997,"ĠGeschlechtern":11998,"ÑģÐº":11999,"ĠLeser":12000,"ĠWichtigste":12001,"Ġwirkliche":12002,"ĠDepression":12003,"ĠBastard":12004,"ĠGehirne":12005,"ĠSchwangerschaft":12006,"Frauen":12007,"OST":12008,"Richtig":12009,"Â´":12010,"à¤":12011,"Ġarrang":12012,"Ġsendet":12013,"any":12014,"Ġbit":12015,"Ġindustrie":12016,"Ġerober":12017,"Ġlagen":12018,"ĠImmer":12019,"ĠRinder":12020,"sey":12021,"ĠNÃ¤chstes":12022,"ĠZur":12023,"omi":12024,"ĠOp":12025,"ĠVerÃ¶ffentlich":12026,"Ġkannten":12027,"ades":12028,"ĠEinige":12029,"Ġgerichtet":12030,"Ã¤uber":12031,"ichtete":12032,"ible":12033,"ĠAntibiot":12034,"ĠKontroll":12035,"ova":12036,"ronen":12037,"ĠDave":12038,"ĠUniversitÃ¤ten":12039,"Ġerwarte":12040,"ĠBukar":12041,"Ġschwierige":12042,"ĠPrivate":12043,"oberflÃ¤che":12044,"utton":12045,"UnterstÃ¼t":12046,"ĠPete":12047,"ĠWordpress":12048,"staat":12049,"ĠKapitÃ¤n":12050,"oidose":12051,"Stattdessen":12052,"aveatrain":12053,"Co":12054,"Vom":12055,"bett":12056,"ssel":12057,"eingang":12058,"ĠSara":12059,"Ġha":12060,"attet":12061,"ĠMur":12062,"geant":12063,"ĠFRE":12064,"ĠEffizienz":12065,"ĠTime":12066,"Ġverun":12067,"ĠRog":12068,"stete":12069,"oma":12070,"omÃ¶glich":12071,"ĠVerrÃ¤ter":12072,"ĠstoÃŁen":12073,"ikeln":12074,"ĠJahrh":12075,"Ġklappt":12076,"ĠamÃ¼s":12077,"geburt":12078,"okl":12079,"okument":12080,"Schatz":12081,"ĠÃľbert":12082,"Ġproblem":12083,"unterladen":12084,"2020":12085,"Ġreinkommen":12086,"fordert":12087,"ĠTechniken":12088,"Ġvierzig":12089,"ĠEmp":12090,"ĠzerstÃ¶r":12091,"ĠBaseball":12092,"Ġarab":12093,"Produkt":12094,"ĠSauls":12095,"Ġtransport":12096,"Ġeinzigartig":12097,"ĠKevin":12098,"Ġdauerte":12099,"ĠGrube":12100,"ĠStatistiken":12101,"Ġleuchten":12102,"ĠKaiser":12103,"ĠPsalm":12104,"Ehrlich":12105,"ĠBukarest":12106,"43":12107,"EIN":12108,"HL":12109,"glaub":12110,"ii":12111,"iber":12112,"ml":12113,"Ġ00":12114,"iegt":12115,"Ġmod":12116,"telle":12117,"llte":12118,"itern":12119,"itiert":12120,"ĠBass":12121,"ĠWÃ¤rme":12122,"ĠKette":12123,"ĠFokus":12124,"berry":12125,"Ġallgemeine":12126,"Ġpacken":12127,"astung":12128,"Ã¤ttern":12129,"ĠâĢĭ":12130,"Ġherzu":12131,"Ġhergekommen":12132,"herstellung":12133,"ĠAbsch":12134,"Ġsicherstellen":12135,"ĠEntsp":12136,"Vergessen":12137,"folger":12138,"Ġhoher":12139,"ĠUmfeld":12140,"ĠBrille":12141,"ĠGewohn":12142,"skop":12143,"iano":12144,"ĠIndik":12145,"ĠKrit":12146,"iegelt":12147,"ukle":12148,"Ġjegliche":12149,"ĠberÃ¼hmte":12150,"Welches":12151,"gÃ¤nz":12152,"ollywood":12153,"ĠEigentum":12154,"Ġwestlichen":12155,"Ġkaufte":12156,"ĠFigur":12157,"Ġverzweifelt":12158,"ĠSÃ¼ndopfer":12159,"ĠExtrar":12160,"Ø±Ø":12161,"Gl":12162,"Miss":12163,"TH":12164,"dringen":12165,"squ":12166,"Ġdreck":12167,"ĠSus":12168,"Ã¶ten":12169,"ĠWunden":12170,"ĠHalle":12171,"Ġerfinden":12172,"Ġesse":12173,"ĠLy":12174,"bereiten":12175,"Ġanstellen":12176,"enna":12177,"ĠNap":12178,"ĠNathan":12179,"Ġwarnen":12180,"ĠJess":12181,"Ġabt":12182,"Ġpreis":12183,"sparen":12184,"opft":12185,"Ġgesendet":12186,"heorie":12187,"schafter":12188,"Alter":12189,"ĠChannel":12190,"sterdam":12191,"Ġheira":12192,"Ġheimlich":12193,"ĠAufnahmen":12194,"ĠSound":12195,"ĠBrennst":12196,"ĠPhot":12197,"ĠerwÃ¤hlt":12198,"ĠgekÃ¤mpft":12199,"ĠInteraktion":12200,"ktivitÃ¤t":12201,"ĠFreizeit":12202,"ĠCarl":12203,"Ġkeinerlei":12204,"ĠSprung":12205,"bewohner":12206,"ferenzen":12207,"ĠWhite":12208,"ĠPrÃ¼f":12209,"ĠÃľberwachungs":12210,"ĠIngenieur":12211,"Ġcoupon":12212,"Ġdurfte":12213,"ĠLouis":12214,"ĠFlÃ¼ssigkeit":12215,"ĠInspiration":12216,"Ġhindurch":12217,"66":12218,"77":12219,"Jul":12220,"bai":12221,"dach":12222,"jagt":12223,"tÃ¤t":12224,"zliche":12225,"stitut":12226,"ĠSPI":12227,"Ġkg":12228,"ĠMand":12229,"schild":12230,"ĠAcht":12231,"ĠAspekt":12232,"ĠDunk":12233,"ĠPrakt":12234,"ĠLag":12235,"ĠJeh":12236,"ĠStufen":12237,"ĠCam":12238,"ĠÃ¼bers":12239,"ĠOt":12240,"schafft":12241,"rib":12242,"gespr":12243,"ĠÃĦhn":12244,"ĠElena":12245,"ĠTepp":12246,"ĠWebseiten":12247,"zeichnis":12248,"zeichnete":12249,"ĠGroup":12250,"Ġoffene":12251,"Ġaltes":12252,"ĠHauptstadt":12253,"ĠglÃ¼cklicher":12254,"Ġerschrecken":12255,"ĠPerform":12256,"partner":12257,"untu":12258,"ĠZeugnis":12259,"ĠzufÃ¤ll":12260,"ĠÃľbel":12261,"Arch":12262,"ĠÃ¼berlegt":12263,"ĠWohlstand":12264,"ĠSnap":12265,"ĠDamon":12266,"ĠSingap":12267,"Ġzeichnen":12268,"Normalerweise":12269,"Ġkonkurrieren":12270,"ĠLeinwand":12271,"tellekt":12272,"ĠExtrarabatt":12273,"AG":12274,"Fahr":12275,"lings":12276,"ieb":12277,"ĠShe":12278,"ĠGÃ¼ter":12279,"ĠWa":12280,"deuten":12281,"ĠPes":12282,"ĠPreisen":12283,"ĠPunkten":12284,"ĠRenn":12285,"Ġgebar":12286,"ĠtÃ¤u":12287,"Ġunsichtbar":12288,"Ġvorzustellen":12289,"Ġmanchen":12290,"ĠErschein":12291,"ĠSpa":12292,"Ġverlang":12293,"Ġgelandet":12294,"Ġ42":12295,"fÃ¼hrten":12296,"ĠYor":12297,"ĠGewinner":12298,"Ġausgest":12299,"Ġmenschliches":12300,"ĠSprich":12301,"Ġentdeckte":12302,"IDS":12303,"Ġentspannen":12304,"ĠÃ¤lteren":12305,"Ġunerwar":12306,"Ġgarantiert":12307,"Ġfaszinierend":12308,"ĠKlimawandel":12309,"GroÃŁe":12310,"ĠGibe":12311,"bewegung":12312,"ĠThailand":12313,"ĠNASA":12314,"Ġukrain":12315,"At":12316,"Voll":12317,"fels":12318,"iÃŁ":12319,"iffen":12320,"person":12321,"saveatrain":12322,"aris":12323,"abor":12324,"ĠAuch":12325,"ĠBreite":12326,"ĠGalerie":12327,"Ġwirft":12328,"ĠValent":12329,"ĠNiger":12330,"ĠColl":12331,"Ã¤tzung":12332,"spitze":12333,"ĠUK":12334,"Ġherzlich":12335,"ĠRechen":12336,"blut":12337,"Ġgetragen":12338,"ragende":12339,"Ġgelehrt":12340,"ĠTeilchen":12341,"ĠAmor":12342,"ĠRichtlinie":12343,"ĠLichter":12344,"Ġverdammter":12345,"ĠParl":12346,"Ġtoller":12347,"ĠBroker":12348,"Ġschlimmsten":12349,"sproblem":12350,"ĠGerichts":12351,"ĠLeistungs":12352,"Ġanfing":12353,"ĠKreditkarten":12354,"Char":12355,"Dadurch":12356,"Welcher":12357,"ĠCops":12358,"ĠZivil":12359,"ĠInstrumente":12360,"Ġbeeindrucken":12361,"Ġstimme":12362,"ĠBranche":12363,"NÃ¤chste":12364,"Erinnern":12365,"Ġtapfer":12366,"OL":12367,"SE":12368,"Weg":12369,"ockt":12370,"à¸":12371,"unÃ¤chst":12372,"Ã¤nen":12373,"orsam":12374,"Ġfange":12375,"ĠKim":12376,"ĠKate":12377,"Ġerschw":12378,"ĠRitter":12379,"Ġohn":12380,"Ġunserm":12381,"adi":12382,"angehen":12383,"Ġentstand":12384,"Ġentwerfen":12385,"block":12386,"ĠHerbst":12387,"ĠHaushalt":12388,"Ġbewiesen":12389,"Ġvierten":12390,"agerten":12391,"ĠFormel":12392,"Ġsiebenten":12393,"systeme":12394,"alyt":12395,"Ġteilnehmen":12396,"ĠBÃ¤umen":12397,"ĠKurse":12398,"ĠFeier":12399,"September":12400,"ĠÃ¼berraschend":12401,"Ġchinesischen":12402,"Ġpotenzie":12403,"Ġjenseits":12404,"Helfen":12405,"ĠFantasie":12406,"ĠErdbeben":12407,"Ġverurteilt":12408,"CC":12409,"Fahren":12410,"Nehmt":12411,"Pap":12412,"maschinen":12413,"ene":12414,"ĠSurf":12415,"ira":12416,"Ġkult":12417,"Ã¶cke":12418,"Ã¶pft":12419,"Ġerfolgt":12420,"Ġankommen":12421,"ĠIron":12422,"eugen":12423,"Ġout":12424,"andia":12425,"Ã¶rm":12426,"chtig":12427,"ikro":12428,"Ġrichtet":12429,"opath":12430,"zepte":12431,"ĠgesÃ¼ndigt":12432,"ĠUND":12433,"aka":12434,"Ġgeteilt":12435,"ĠNachfrage":12436,"ideos":12437,"Ġsonder":12438,"Ġhotel":12439,"ĠbetrÃ¤gt":12440,"ĠvollstÃ¤ndige":12441,"Ġverschiedener":12442,"ĠGroÃŁen":12443,"ĠSchuh":12444,"folgung":12445,"ĠRÃ¼ckerstattung":12446,"ĠvergrÃ¶":12447,"Ġerschreckt":12448,"ĠPermal":12449,"ĠgroÃŁartigen":12450,"holung":12451,"ĠRussisch":12452,"Ġjenem":12453,"Ġverschlossen":12454,"ĠRestaurants":12455,"behÃ¶rde":12456,"ĠGerÃ¤usche":12457,"Ġilleg":12458,"Ġillegal":12459,"Ġdurchschnittliche":12460,"Ġallgemeinen":12461,"ĠAntivirus":12462,"Ġkorrekt":12463,"Flughafen":12464,"ĠExplosion":12465,"ĠDiabetes":12466,"Bo":12467,"brochen":12468,"haut":12469,"yan":12470,"ziel":12471,"iebte":12472,"Ġwagen":12473,"ĠwuÃŁ":12474,"ati":12475,"emp":12476,"ĠApfel":12477,"ĠWÃ¤nde":12478,"ĠHig":12479,"ĠDick":12480,"Ã¼rt":12481,"ĠEM":12482,"ÃŁern":12483,"Ġtrank":12484,"ĠState":12485,"Ġras":12486,"ĠErlebnis":12487,"ĠSpenden":12488,"Ġgesellschaft":12489,"Einmal":12490,"Ġgewarnt":12491,"ĠAlten":12492,"Ġgeschn":12493,"klasse":12494,"Ã¤ule":12495,"ype":12496,"Verb":12497,"Ġseist":12498,"sichts":12499,"Hole":12500,"ĠAmerikan":12501,"ĠFrankfurt":12502,"ĠFreiwill":12503,"ĠBasket":12504,"ĠLÃ¶cher":12505,"Irgendwie":12506,"ĠhÃ¶heren":12507,"ĠAngelegenheit":12508,"ĠEngagement":12509,"ĠNÃ¤chste":12510,"kanal":12511,"konto":12512,"ĠJahrzehnt":12513,"ĠSela":12514,"Ġtrainieren":12515,"ĠBadezimmer":12516,"ĠSchlimmste":12517,"ĠChirur":12518,"ĠWÃ¤hrungsrechner":12519,"ĠVerzeihung":12520,"ĠAspekte":12521,"54":12522,"brÃ¼":12523,"bran":12524,"zel":12525,"Ġord":12526,"ĠaÃŁ":12527,"ĨĴ":12528,"ĠwÃ¼st":12529,"eifen":12530,"ĠmuÃŁt":12531,"ĠSÃ¤nger":12532,"ichtung":12533,"Ġfingen":12534,"ĠfÃ¤hrst":12535,"ĠHoll":12536,"ĠFertig":12537,"Ġlhre":12538,"Ġmitgenommen":12539,"Ġscheinbar":12540,"ĠStolz":12541,"ĠProben":12542,"ĠErnte":12543,"Ã¤chte":12544,"ĠzurÃ¼ckgehen":12545,"ĠgetrÃ¤umt":12546,"klagen":12547,"ĠLebewesen":12548,"rott":12549,"alisierte":12550,"uba":12551,"Ġtolles":12552,"ĠOrgan":12553,"ĠHaken":12554,"ĠDanny":12555,"Ġbeobachte":12556,"Ġquasi":12557,"Etwa":12558,"ĠGetreide":12559,"Ġbeantwortet":12560,"Ġeifers":12561,"Worauf":12562,"ĠKugeln":12563,"Ġabhauen":12564,"Ġkreativ":12565,"ĠWurzeln":12566,"Ġangenehm":12567,"ĠHazel":12568,"ĠElefanten":12569,"ĠURL":12570,"Ġausgestattet":12571,"95":12572,"AND":12573,"Kaufen":12574,"Mama":12575,"inu":12576,"aubt":12577,"Ġunvor":12578,"Ġeinig":12579,"empf":12580,"ĠWell":12581,"ĠWarten":12582,"ĠWare":12583,"ĠHell":12584,"Ã¼rtel":12585,"ĠPakete":12586,"ĠTja":12587,"Ġangehen":12588,"ĠlÃ¶st":12589,"Ġtats":12590,"ĠStimmt":12591,"ĠkÃ¶nig":12592,"halter":12593,"here":12594,"essel":12595,"ĠChip":12596,"ĠAusland":12597,"WofÃ¼r":12598,"ĠAufbau":12599,"ĠGenehm":12600,"ĠNamens":12601,"Ġrechtzeitig":12602,"ifest":12603,"kunst":12604,"ĠParteien":12605,"ĠKnoten":12606,"ĠernÃ¤hren":12607,"Ġeures":12608,"ĠRobin":12609,"ĠJacke":12610,"ĠtrÃ¤gst":12611,"Ġschnappen":12612,"ĠModel":12613,"Ġbegrenzt":12614,"ĠTeddy":12615,"ĠThron":12616,"Ġgekennzeichneten":12617,"ĠlÃ¤ndlichen":12618,"ĠChaldÃ¤":12619,"88":12620,"Echt":12621,"Lesezeichen":12622,"ec":12623,"ior":12624,"usch":12625,"zog":12626,"ÐĴÐ":12627,"Ġser":12628,"aner":12629,"ĠSmith":12630,"Ġhacken":12631,"Ã¶gern":12632,"ĠAM":12633,"etit":12634,"ĠBarb":12635,"ĠBÃ¤ren":12636,"ĠKy":12637,"ĠEch":12638,"ĠTru":12639,"red":12640,"ussten":12641,"Ã¤nglich":12642,"ĠOma":12643,"ĠOsc":12644,"ĠVerab":12645,"adet":12646,"issenschaft":12647,"Ġunterrichten":12648,"antes":12649,"ĠGeschrei":12650,"ĠChief":12651,"Ġgebot":12652,"ĠAntalya":12653,"rottel":12654,"gehÃ¶rt":12655,"ault":12656,"ĠSerien":12657,"arrt":12658,"ĠGegenstÃ¤nde":12659,"Ġschlechtes":12660,"ĠTatort":12661,"Schlag":12662,"WorÃ¼ber":12663,"ĠSitzung":12664,"abilitÃ¤t":12665,"ĠKeyboard":12666,"Kostenlose":12667,"celona":12668,"ĠMaske":12669,"ĠMoabiter":12670,"Ġbewirken":12671,"Runter":12672,"ials":12673,"uzin":12674,"Ġwandte":12675,"Ġsau":12676,"Ġsorgt":12677,"ĠAU":12678,"ĠAsche":12679,"ĠBah":12680,"ĠKanz":12681,"ĠDun":12682,"ĠTitan":12683,"Ġaufgel":12684,"eue":12685,"ĠZwill":12686,"ĠAnerkennung":12687,"ĠSpitzen":12688,"Ġgesunden":12689,"Ġgesegnet":12690,"immst":12691,"ĠUnabhÃ¤ng":12692,"Ġgenehm":12693,"verfahren":12694,"ĠVorstand":12695,"Ġdreimal":12696,"gewandelt":12697,"Ġschwul":12698,"Meinen":12699,"Ġvollen":12700,"ĠWohin":12701,"Stud":12702,"Ġangezogen":12703,"osex":12704,"ĠWissens":12705,"Ġausgegeben":12706,"ĠGesetzes":12707,"ĠkÃ¤mpft":12708,"Ġperfekten":12709,"ĠScan":12710,"ĠProtein":12711,"mÃ¤ÃŁigen":12712,"Ġteilweise":12713,"ĠRomant":12714,"ĠFremde":12715,"Ġanfassen":12716,"Ġherrscht":12717,"ĠRezensionen":12718,"ĠColon":12719,"ĠReaktionen":12720,"ĠWalker":12721,"Ġbewertet":12722,"Ġnationale":12723,"ĠJahrzehnten":12724,"Ġruiniert":12725,"ĠVerschlÃ¼sselung":12726,"Bas":12727,"Host":12728,"OV":12729,"haufen":12730,"pool":12731,"su":12732,"ĠÎ":12733,"Ã¼chten":12734,"Ã¼hungen":12735,"onne":12736,"Ġzorn":12737,"schutzer":12738,"ĠNummern":12739,"ĠNorth":12740,"ĠZo":12741,"ĠAnim":12742,"zuf":12743,"ĠSpazier":12744,"Ġbesagt":12745,"Ġbereiten":12746,"Ġkonstru":12747,"ĠSchwÃ¤che":12748,"ĠAufzeichnungen":12749,"Ġzwang":12750,"Ġbedeut":12751,"echselt":12752,"Ġausgezeichnet":12753,"ĠDrohnen":12754,"ĠdÃ¼rfte":12755,"Ġeleg":12756,"freie":12757,"betreiber":12758,"Ġriechen":12759,"ĠOfficer":12760,"ĠTexte":12761,"ĠSÃ¼ÃŁigkeiten":12762,"ĠBlÃ¶d":12763,"ĠFrÃ¼hling":12764,"ĠPermalink":12765,"bÃ¼cher":12766,"«Ð":12767,"Ġorgan":12768,"ietet":12769,"ĠMuss":12770,"Ġfrustr":12771,"ĠKass":12772,"ĠKaut":12773,"ĠFÃľR":12774,"ĠPH":12775,"Ġverge":12776,"ĠverÃ¤nderte":12777,"sex":12778,"agent":12779,"waschen":12780,"ĠEnigma":12781,"fÃ¼hlen":12782,"rip":12783,"Inner":12784,"ĠKÃ¶nigen":12785,"eichte":12786,"Ġgebunden":12787,"ĠGebiete":12788,"zÃ¤hlt":12789,"Ġeinzus":12790,"Ġbetreten":12791,"Ġ85":12792,"ĠBuchungs":12793,"ĠLuke":12794,"ĠEuren":12795,"ĠfÃ¼nfzig":12796,"Spe":12797,"Ġerfreut":12798,"ĠBelohnung":12799,"ymph":12800,"ĠOrganismen":12801,"ĠKorallen":12802,"ĠPalast":12803,"ĠFreuden":12804,"ĠNÃ¤chte":12805,"ĠKÃ¤se":12806,"Ġbezwei":12807,"ĠDomin":12808,"schmutzung":12809,"ĠHalloween":12810,"ĠTrauer":12811,"ErzÃ¤hlen":12812,"ĠursprÃ¼nglichen":12813,"kleidung":12814,"ĠverblÃ¼":12815,"Ġmobilen":12816,"reakfast":12817,"ĠRegistrierung":12818,"schrauber":12819,"Junge":12820,"Sorry":12821,"We":12822,"buntu":12823,"feln":12824,"kÃ¼r":12825,"rige":12826,"wache":12827,"Ð½":12828,"Ġsign":12829,"ĠSend":12830,"Ġbzw":12831,"ĠMio":12832,"iga":12833,"Ġmittel":12834,"agon":12835,"ĠNob":12836,"kton":12837,"ilen":12838,"Ġausmachen":12839,"riebe":12840,"gebÃ¤u":12841,"Indem":12842,"gelaufen":12843,"Ġversuch":12844,"Sofort":12845,"VerÃ¶ffentlicht":12846,"Ġbetrieben":12847,"Ġbrut":12848,"Ġ800":12849,"gefangen":12850,"Ġblut":12851,"ehmend":12852,"Darnach":12853,"ĠflieÃŁen":12854,"ĠStandorten":12855,"syl":12856,"struktion":12857,"ĠGastanmeldung":12858,"ĠVerdammt":12859,"Ġauftauchen":12860,"ĠFingerab":12861,"Ġherrlich":12862,"Reden":12863,"Endlich":12864,"ĠjÃ¤hrlich":12865,"Ziemlich":12866,"ĠZigaretten":12867,"ĠlÃ¼gt":12868,"Ġsteigern":12869,"heimer":12870,"ĠAllgemeinen":12871,"Ġerhoben":12872,"ĠVerstÃ¤rkung":12873,"ĠBasketball":12874,"Bob":12875,"Bald":12876,"Video":12877,"field":12878,"over":12879,"put":12880,"pÃ¤ck":12881,"ror":12882,"uge":12883,"chin":12884,"anc":12885,"esa":12886,"Ã¼mer":12887,"arja":12888,"ĠBarr":12889,"ĠBird":12890,"ĠWÃ¤hrend":12891,"ĠKÃ¤ufer":12892,"ĠverÃ¤r":12893,"ĠverfÃ¼gen":12894,"Ġaufrecht":12895,"ĠRatte":12896,"ĠViele":12897,"ĠgefÃ¼llt":12898,"rake":12899,"ĠÃ¼berqu":12900,"ĠstÃ¶rt":12901,"Ġrennen":12902,"iving":12903,"Ġgeholt":12904,"heber":12905,"telt":12906,"ĠBlÃ¤tter":12907,"Ġglaubten":12908,"ĠJava":12909,"Ġganzem":12910,"Ġwahrhaft":12911,"ĠAutismus":12912,"Ġbetreiben":12913,"garten":12914,"ĠStellung":12915,"ĠVerbrecher":12916,"Ġerwe":12917,"Ġtreu":12918,"ĠSystemen":12919,"ĠNeugier":12920,"aunen":12921,"ĠVideosp":12922,"Ġschrecklichen":12923,"gesichts":12924,"kommunikation":12925,"ĠMedikamenten":12926,"ĠSandwich":12927,"ĠMoral":12928,"ĠjÃ¤hrige":12929,"jÃ¤hrige":12930,"ĠDepressionen":12931,"ĠSchaltflÃ¤che":12932,"Ġenorme":12933,"ĠGentlemen":12934,"ĠArthur":12935,"schutzerklÃ¤rung":12936,"Chin":12937,"Dan":12938,"Glaub":12939,"Kenn":12940,"LS":12941,"Power":12942,"UL":12943,"UN":12944,"Wh":12945,"bein":12946,"bad":12947,"ga":12948,"kord":12949,"tv":12950,"Ġwild":12951,"einhalb":12952,"einigt":12953,"Ġisl":12954,"Ġneigen":12955,"schritt":12956,"Ġfro":12957,"ĠFord":12958,"ĠTÃ¤n":12959,"ĠNieren":12960,"Ġabholen":12961,"reitete":12962,"lauch":12963,"ickte":12964,"ĠklÃ¤ren":12965,"pflege":12966,"ĠVorgang":12967,"ĠUmlauf":12968,"zahlt":12969,"ĠPolen":12970,"ĠStefan":12971,"wirken":12972,"Ġ2006":12973,"Ġverglichen":12974,"ĠFahrzeuge":12975,"Ġhaltet":12976,"Ġtrinke":12977,"ĠCarrie":12978,"Ã¼sselt":12979,"ĠEngine":12980,"ĠFranÃ§":12981,"ĠKreditkarte":12982,"Ġausgerottet":12983,"wissenschaften":12984,"ĠHirten":12985,"ĠReinigung":12986,"âĻª":12987,"Ġmissb":12988,"ĠHemd":12989,"ĠTschech":12990,"Ġblockiert":12991,"ĠsorgfÃ¤ltig":12992,"ĠHardware":12993,"ĠBulgarien":12994,"ĠNebukadnezar":12995,"Famil":12996,"Legen":12997,"codes":12998,"kÃ¶rper":12999,"lor":13000,"rich":13001,"ĠÃ¤h":13002,"Ġmisst":13003,"Ġnehm":13004,"alia":13005,"ĠDÃ¼r":13006,"isierte":13007,"ĠStief":13008,"Ġausget":13009,"ĠCost":13010,"Ġstreng":13011,"istin":13012,"Ġgesetz":13013,"Ġeffizien":13014,"altung":13015,"sterben":13016,"ĠFlÃ¤che":13017,"ĠPlÃ¤tze":13018,"ĠAbsatz":13019,"Ġhotels":13020,"ĠBron":13021,"ĠBrit":13022,"sichtigen":13023,"ĠKnaben":13024,"ĠComputern":13025,"iums":13026,"ĠAmerican":13027,"Ġchron":13028,"Ġerfuhr":13029,"ĠTreue":13030,"PIO":13031,"cyc":13032,"Ġzeigten":13033,"ĠwÃ¼ssten":13034,"New":13035,"Besonder":13036,"Ġentsprechend":13037,"ĠHexen":13038,"Ġbritischen":13039,"ÑĥÑģ":13040,"ĠFeatures":13041,"ĠWesentlichen":13042,"imelech":13043,"AF":13044,"Buchen":13045,"Eben":13046,"Fer":13047,"Nie":13048,"SÃ¼":13049,"TZ":13050,"xid":13051,"Ġdomin":13052,"strecken":13053,"ĠSid":13054,"Ġgucken":13055,"onien":13056,"ĠMS":13057,"schei":13058,"ĠButton":13059,"ĠKau":13060,"Ġlese":13061,"amaki":13062,"Ġschock":13063,"leicht":13064,"ĠNadel":13065,"ĠVerfassung":13066,"Ġstammen":13067,"Ġsolle":13068,"lauen":13069,"oppt":13070,"ulin":13071,"ulpt":13072,"Ġdargestellt":13073,"ĠRechn":13074,"Ġuntert":13075,"fÃ¼llen":13076,"ĠWeltkrieg":13077,"ĠzurÃ¼ckge":13078,"ĠHosen":13079,"ĠAbschied":13080,"ĠgelÃ¶scht":13081,"ĠKontinent":13082,"hole":13083,"ĠerzÃ¤hlst":13084,"ĠRohr":13085,"Ġhinterher":13086,"eigung":13087,"Ġfestgestellt":13088,"Ġ01":13089,"ĠKerle":13090,"ĠStudios":13091,"ĠTrend":13092,"ĠFris":13093,"ĠPriestern":13094,"ĠPubl":13095,"entral":13096,"achstums":13097,"ĠTrost":13098,"ĠMÃ¶chten":13099,"ĠKriege":13100,"ĠZentral":13101,"handlungen":13102,"Ġzunehmend":13103,"ĠInternationale":13104,"Sheldon":13105,"coln":13106,"Ġemotionale":13107,"Ġgrausam":13108,"ĠungewÃ¶hnlich":13109,"Ġbeseitigen":13110,"rizitÃ¤t":13111,"ĠParlament":13112,"34":13113,"Alex":13114,"Frag":13115,"IC":13116,"Kopf":13117,"MT":13118,"how":13119,"oster":13120,"ves":13121,"sters":13122,"Ġsuchten":13123,"ĠSeil":13124,"ĠSIE":13125,"ĠnÃ¶r":13126,"ĠGrÃ¤":13127,"ĠHung":13128,"dek":13129,"ĠFieber":13130,"ĠVilla":13131,"ragend":13132,"ĠOd":13133,"Ġsprecht":13134,"ruhen":13135,"attform":13136,"ĠVorsitzen":13137,"ĠBerater":13138,"Ġbestand":13139,"ĠVersuche":13140,"landschaft":13141,"urelle":13142,"ĠPlanung":13143,"ĠVerletzungen":13144,"Gebt":13145,"ĠFriedens":13146,"Ãľbrigens":13147,"Ġhilfst":13148,"ĠNachbarschaft":13149,"ways":13150,"ĠabschlieÃŁen":13151,"Ġschulde":13152,"ĠzukÃ¼nftigen":13153,"Ġmarkiert":13154,"ĠSarkoidose":13155,"ĠYorker":13156,"ÑĥÑģÑģÐº":13157,"46":13158,"Ihm":13159,"Jedoch":13160,"SCH":13161,"bus":13162,"rist":13163,"Ø§":13164,"chron":13165,"Ġsc":13166,"ĠSeid":13167,"auten":13168,"Ã¼ht":13169,"Ġnimmer":13170,"ĠMechanis":13171,"Ġfeuern":13172,"ĠBanken":13173,"ĠFarb":13174,"ĠTok":13175,"Ġverlei":13176,"ĠNah":13177,"ĠZimmern":13178,"Ġpost":13179,"Ġvorschlagen":13180,"ikon":13181,"Ġspir":13182,"ĠInc":13183,"iva":13184,"ĠErle":13185,"ĠArzn":13186,"ĠBell":13187,"ĠUnion":13188,"blasen":13189,"ungslos":13190,"esseln":13191,"ĠWasch":13192,"otto":13193,"ĠKÃ¶nnte":13194,"etti":13195,"ĠLieutenant":13196,"issionen":13197,"ĠSteuern":13198,"Ġexter":13199,"ĠBeta":13200,"ĠHinblick":13201,"Vorige":13202,"2015":13203,"Ġbasierte":13204,"ĠUntersuchungen":13205,"Ġsegne":13206,"ĠPrinzipien":13207,"ĠRÃ¤ume":13208,"farbe":13209,"ĠenttÃ¤uschen":13210,"ĠSyrer":13211,"Ġinfiziert":13212,"ĠprÃ¤sentieren":13213,"ĠArgument":13214,"ĠMagazin":13215,"Verstehst":13216,"ĠMischung":13217,"ziplin":13218,"Ġdaneben":13219,"51":13220,"Dich":13221,"Gegen":13222,"Mutter":13223,"Natura":13224,"frauen":13225,"hund":13226,"vÃ¶":13227,"Ðĺ":13228,"iefer":13229,"unen":13230,"asy":13231,"Ã¼hle":13232,"Ġhallo":13233,"Ġgei":13234,"atar":13235,"Ġkauft":13236,"ĠMall":13237,"Ġflex":13238,"Ġfuhren":13239,"ĠBeute":13240,"ĠBeinen":13241,"ĠDamit":13242,"ĠDrag":13243,"Ġangreifen":13244,"ĠRatten":13245,"Ġschenken":13246,"ĠJandia":13247,"ĠSchreib":13248,"Ġumgewandelt":13249,"ĠBege":13250,"ĠBedenken":13251,"ĠGefahren":13252,"ĠUs":13253,"arth":13254,"Ġdurchaus":13255,"eidigt":13256,"Ġgewachsen":13257,"ĠDusche":13258,"ĠPlatten":13259,"Ġverstand":13260,"ĠVorgehen":13261,"ĠGere":13262,"Ġbeschreibt":13263,"ĠMitleid":13264,"ĠAutob":13265,"ĠGelÃ¼b":13266,"ĠGewinne":13267,"Ġrichtiger":13268,"Ġtrinkt":13269,"dimension":13270,"ixel":13271,"ĠsÃ¼ÃŁen":13272,"Irgendwas":13273,"ĠTerrorismus":13274,"produktion":13275,"vermiet":13276,"ĠCommun":13277,"Wenigstens":13278,"ĠTickets":13279,"ĠauÃŁergewÃ¶hnlich":13280,"Ġgrundlegenden":13281,"ĠAndrew":13282,"ĠAntiviren":13283,"ĠImmunsystem":13284,"Ġitalien":13285,"Reserv":13286,"Irgendwann":13287,"ĠPresident":13288,"BO":13289,"Pat":13290,"Tag":13291,"Wes":13292,"bul":13293,"gÃ¤ng":13294,"iop":13295,"mischen":13296,"ni":13297,"ntet":13298,"una":13299,"ĠSad":13300,"Ġgrauen":13301,"aton":13302,"schicht":13303,"school":13304,"ĠTa":13305,"ĠII":13306,"Ġaufmachen":13307,"ĠVerrÃ¼ck":13308,"ĠUfer":13309,"Ġgenial":13310,"ĠÃľbergang":13311,"ĠBewohner":13312,"ĠBruce":13313,"Ġbefreit":13314,"ĠQuanten":13315,"athol":13316,"eintrÃ¤cht":13317,"ĠHauptmann":13318,"ĠTelefonnummer":13319,"zusp":13320,"ails":13321,"ĠKapazitÃ¤t":13322,"affung":13323,"ĠAngelegenheiten":13324,"ĠReichweite":13325,"ĠBrown":13326,"Ġfasziniert":13327,"Ġyou":13328,"ĠCaroline":13329,"ĠerÃ¶ffnen":13330,"ĠReparatur":13331,"Ġzerrissen":13332,"Ġspazieren":13333,"ĠSPIEL":13334,"AC":13335,"It":13336,"Priv":13337,"del":13338,"iode":13339,"iale":13340,"kinder":13341,"enke":13342,"star":13343,"Ġeinstellen":13344,"arat":13345,"Ġziv":13346,"hrer":13347,"achter":13348,"ĠKot":13349,"ĠKasse":13350,"ĠHad":13351,"ĠPor":13352,"senden":13353,"ĠVo":13354,"ĠZone":13355,"rack":13356,"chenkt":13357,"ĠweiÃŁer":13358,"ĠZeitungen":13359,"herine":13360,"artigen":13361,"Ġhinsichtlich":13362,"ape":13363,"ĠgeschÃ¤ft":13364,"ĠAusstellung":13365,"ypen":13366,"ĠYog":13367,"ĠBenzin":13368,"ĠÃ¶st":13369,"ĠHerzin":13370,"getrieben":13371,"ĠRaumschiff":13372,"straÃŁe":13373,"ĠEditor":13374,"ĠÃ¤hnlichen":13375,"ĠPalace":13376,"ĠMÃ¤rchen":13377,"ĠsaÃŁen":13378,"ĠÐł":13379,"Ġreserv":13380,"ĠberÃ¼hmten":13381,"Ġkomplexen":13382,"Ġeinzigartigen":13383,"Ġmitteilen":13384,"ĠMÃ¼nchen":13385,"film":13386,"ĠAffÃ¤re":13387,"ĠMolekÃ¼le":13388,"ĠbeschÃ¤digt":13389,"ĠdurchzufÃ¼hren":13390,"ĠAnstreng":13391,"ki":13392,"lingen":13393,"ueller":13394,"Ġwonach":13395,"ĠSP":13396,"Ã¼bt":13397,"Ã¼pft":13398,"alk":13399,"ĠBrian":13400,"ĠWinkel":13401,"ĠPosten":13402,"ĠTÃ¤tigkeit":13403,"ĠRon":13404,"ĠAnmeldung":13405,"ĠProzesse":13406,"sponder":13407,"izabeth":13408,"okoll":13409,"ĠMannschaft":13410,"ĠAlbert":13411,"Ã¤ltst":13412,"Ġbrennt":13413,"ĠRabatte":13414,"ĠMusl":13415,"Ġ95":13416,"ĠRuben":13417,"ĠImpul":13418,"ĠDosen":13419,"ĠScience":13420,"andelten":13421,"Ġzahlt":13422,"iegeln":13423,"Ġjenen":13424,"Ġformen":13425,"Mrs":13426,"Ġantworteten":13427,"Ġdumme":13428,"ĠPrice":13429,"Ġsexuelle":13430,"operation":13431,"ĠFaktor":13432,"Ġtraditionelle":13433,"Ġchinesische":13434,"Ġwiederholt":13435,"Ġjahrel":13436,"ĠZutaten":13437,"Ġverringern":13438,"Ġultim":13439,"ĠFREE":13440,"Ġverunrein":13441,"Innerhalb":13442,"Preise":13443,"cca":13444,"fertig":13445,"gift":13446,"unft":13447,"Ġsetzten":13448,"Ġmechan":13449,"ĠAN":13450,"ĠAven":13451,"Ġficken":13452,"ĠGirl":13453,"ĠHalten":13454,"ĠFing":13455,"ĠPore":13456,"Ġanh":13457,"rog":13458,"ĠNu":13459,"Ġdaheim":13460,"ĠChl":13461,"ĠOfen":13462,"Ġweisen":13463,"ĠAngaben":13464,"ĠSpace":13465,"asso":13466,"edy":13467,"aya":13468,"akult":13469,"ahel":13470,"ĠAusgaben":13471,"Ġbegab":13472,"ĠManh":13473,"ĠAmsterdam":13474,"Ġ09":13475,"Ġverschwand":13476,"Hatte":13477,"ĠEmily":13478,"Ġentschuldige":13479,"ĠFormular":13480,"ĠAllah":13481,"Ġmenschlicher":13482,"ĠDienstag":13483,"Ġinneren":13484,"ĠBahnhof":13485,"Ã¼sseln":13486,"ĠWarnung":13487,"ĠPostfach":13488,"ĠKoordin":13489,"ĠRauchen":13490,"Ġliebsten":13491,"ĠElektrizitÃ¤t":13492,"ĠTelesk":13493,"ebsite":13494,"Ġsogenannten":13495,"ĠNavig":13496,"ĠGriechenland":13497,"Ġkonfrontiert":13498,"squo":13499,"ĠPeso":13500,"ĠeifersÃ¼chtig":13501,"Ext":13502,"UM":13503,"bzig":13504,"diger":13505,"eah":13506,"vi":13507,"xBet":13508,"Ġdienst":13509,"Ġdynam":13510,"ĠSoph":13511,"Ġzehnt":13512,"itsch":13513,"ĠAR":13514,"etik":13515,"ĠGN":13516,"ĠTv":13517,"ĠTrÃ¼":13518,"ĠTote":13519,"ĠLaser":13520,"Ġlocker":13521,"ĠVag":13522,"utr":13523,"ĠschÃ¼tzt":13524,"ĠNic":13525,"Ġbeeilen":13526,"ĠCast":13527,"Ġrsquo":13528,"ĠErb":13529,"ĠErstellen":13530,"spunkt":13531,"zell":13532,"Ġents":13533,"essa":13534,"loÃŁ":13535,"acks":13536,"ĠselbstverstÃ¤ndlich":13537,"ĠHausaufgaben":13538,"Ġlebenden":13539,"ĠKommission":13540,"âĢĺ":13541,"ĠfrÃ¼he":13542,"ĠSuppe":13543,"ĠDesktop":13544,"Ġverhandeln":13545,"ĠSpezif":13546,"ĠPuzz":13547,"Ġstattfinden":13548,"HÃ¶rst":13549,"Ġaufgefallen":13550,"lowak":13551,"ĠTrÃ¤umen":13552,"Ġmerke":13553,"ĠNÃ¤chster":13554,"splan":13555,"Healthcare":13556,"ĠMÃ¼nze":13557,"ĠPremier":13558,"Ġaufwachen":13559,"ĠRosse":13560,"ĠPotential":13561,"ĠursprÃ¼nglich":13562,"ĠVerbreitung":13563,"Ġkopieren":13564,"Englisch":13565,"Ð¸Ð¹":13566,"ĠHubschrauber":13567,"ĠKonzentration":13568,"ĠSingapur":13569,"HÃ¤nde":13570,"Rein":13571,"obt":13572,"well":13573,"zheimer":13574,"Ã¢":13575,"ĠGitter":13576,"ĠKro":13577,"ĠHorn":13578,"ĠTabelle":13579,"Ġansieht":13580,"Ġlinke":13581,"ĠRiv":13582,"ĠgeprÃ¼":13583,"also":13584,"ĠOpf":13585,"Ġdesselben":13586,"ĠErhalten":13587,"ĠErfinder":13588,"Ġrealen":13589,"riegt":13590,"verhalten":13591,"ido":13592,"odi":13593,"klang":13594,"ĠHandlungen":13595,"ĠKlim":13596,"Wovon":13597,"Ġzusammenzu":13598,"ĠVerbraucher":13599,"Ġvertreten":13600,"ĠHerrschaft":13601,"zugreifen":13602,"dingung":13603,"ĠFÃ¼gen":13604,"boy":13605,"Ãľberall":13606,"ĠLinken":13607,"ĠKrankenschw":13608,"Ġarch":13609,"ĠKorru":13610,"ĠSchÃ¶ne":13611,"Ġentscheidend":13612,"ĠverfÃ¼gbaren":13613,"Ġreizen":13614,"ĠStammzellen":13615,"Ġmerkte":13616,"ĠTrack":13617,"ĠUpdates":13618,"ĠMulti":13619,"Ġinfo":13620,"Ġfremden":13621,"Ġverflucht":13622,"ĠEinschrÃ¤nkungen":13623,"zÃ¼ndung":13624,"Verzeihung":13625,"ĠBemÃ¼hungen":13626,"Ġexklusiven":13627,"ĠErkrankungen":13628,"ĠArbeitsplatz":13629,"ĠPrioritÃ¤t":13630,"ĠWayne":13631,"ĠDialog":13632,"ĠAntibiotika":13633,"ĠKeyboarding":13634,"Lin":13635,"LOS":13636,"Sechs":13637,"cing":13638,"material":13639,"packen":13640,"Â»":13641,"Ġreiten":13642,"Ġdokument":13643,"arn":13644,"itch":13645,"etern":13646,"ĠGord":13647,"ĠGramm":13648,"ĠGPIO":13649,"ĠKek":13650,"ĠHabt":13651,"Ã¼rzen":13652,"ĠEffekte":13653,"ĠPech":13654,"ĠTasten":13655,"Ġanstelle":13656,"rest":13657,"rost":13658,"ally":13659,"ĠNÃ¤hr":13660,"ĠSchauen":13661,"ĠCur":13662,"Ġweibliche":13663,"mensionen":13664,"immel":13665,"blog":13666,"Ġbesuchte":13667,"fekt":13668,"elles":13669,"gesp":13670,"Ġgeliefert":13671,"ahme":13672,"ĠUnterhalt":13673,"quellen":13674,"ĠGebÃ¼hr":13675,"ĠÃĦra":13676,"ĠUmfang":13677,"ĠVersuchen":13678,"Ġ64":13679,"ianischen":13680,"Ġplus":13681,"Beste":13682,"ĠSergeant":13683,"ĠLieferanten":13684,"ĠFirst":13685,"ĠWahlen":13686,"ĠBargeld":13687,"ffizient":13688,"ĠstÃ¤rk":13689,"ĠPakistan":13690,"ĠGraphen":13691,"ĠLogo":13692,"ĠPlayer":13693,"ĠFoot":13694,"Ġkooper":13695,"ĠHypoth":13696,"ĠFried":13697,"ĠFriede":13698,"ĠBosheit":13699,"ĠPazif":13700,"ĠHindernisse":13701,"ĠSmartphone":13702,"ĠMunition":13703,"ĠAmoriter":13704,"ĠtatsÃ¤ch":13705,"dom":13706,"fÃ¶rm":13707,"ihr":13708,"not":13709,"tes":13710,"val":13711,"wan":13712,"zwe":13713,"Ġweich":13714,"Ġsal":13715,"Ġeinget":13716,"oro":13717,"ĠMent":13718,"ĠMiet":13719,"derm":13720,"ĠGit":13721,"ĠPR":13722,"rede":13723,"Ġmithilfe":13724,"ĠOhne":13725,"ego":13726,"ĠAnkÃ¼n":13727,"Ã¤tigung":13728,"heken":13729,"sohn":13730,"liegt":13731,"Ġeinfaches":13732,"ĠmÃ¶ge":13733,"Ġgefreut":13734,"atem":13735,"ĠgemÃ¼t":13736,"ĠverstoÃŁen":13737,"ĠSouth":13738,"Ġfunktionierte":13739,"ska":13740,"ĠMeeting":13741,"ĠForex":13742,"ĠgekÃ¼mmert":13743,"Ġplant":13744,"ension":13745,"ĠDeshalb":13746,"Genauso":13747,"ĠSkulpt":13748,"ĠWohnungen":13749,"ĠVerletzung":13750,"strahlung":13751,"ĠEdelst":13752,"Ġweltweiten":13753,"ĠCash":13754,"willen":13755,"ĠSaal":13756,"ĠFelder":13757,"useeland":13758,"ĠHighschool":13759,"ĠInvestitionen":13760,"Ġerretten":13761,"ĠPilot":13762,"Ġspielst":13763,"ĠAktualisierung":13764,"pflanzen":13765,"Ġinvestiert":13766,"Ġangemeldet":13767,"ĠAnderson":13768,"Ġrichtete":13769,"Artikel":13770,"ĠUltra":13771,"Ġleistungsst":13772,"ĠHarvard":13773,"ĠReihenfolge":13774,"ĠLiteratur":13775,"stÃ¤dte":13776,"ĠFranÃ§ais":13777,"Ferien":13778,"ÑĥÑģÑģÐºÐ¸Ð¹":13779,"ĠHerzinfar":13780,"Gu":13781,"Min":13782,"Red":13783,"ZunÃ¤chst":13784,"roren":13785,"winkel":13786,"Ġter":13787,"Ġhern":13788,"Ġguck":13789,"alamar":13790,"ĠkÃ¤me":13791,"ĠFahren":13792,"ĠPok":13793,"ĠRet":13794,"ĠRasse":13795,"etztlich":13796,"ĠBewer":13797,"mensch":13798,"bstahl":13799,"gerissen":13800,"verter":13801,"ĠVorbereitung":13802,"ĠschÃ¶nsten":13803,"ĠAmate":13804,"Ġ123":13805,"Ġgedauert":13806,"ĠEntwickler":13807,"sident":13808,"Ġflog":13809,"ĠDurchfÃ¼hrung":13810,"ĠstÃ¤rken":13811,"Ġniedrigen":13812,"ĠDrucker":13813,"ĠwunderschÃ¶ne":13814,"ĠSpeicherkarte":13815,"ĠTrainer":13816,"ĠJakobs":13817,"ĠInfos":13818,"Ġphysikal":13819,"ĠKeylogger":13820,"Ġdeutschen":13821,"Ġbegrenzte":13822,"ĠBleib":13823,"ĠJournalisten":13824,"Ġhistorischen":13825,"ĠWurzel":13826,"ĠunglÃ¼cklich":13827,"ĠFeedback":13828,"Interess":13829,"befehl":13830,"ĠDiamanten":13831,"ĠAnklage":13832,"ĠVerÃ¶ffentlichung":13833,"DV":13834,"MÃ¶glich":13835,"drei":13836,"fÃ¤llen":13837,"wÃ¤hrung":13838,"ÂŁ":13839,"ĠÃ¶rt":13840,"strÃ¶":13841,"ĠwomÃ¶glich":13842,"eis":13843,"auscht":13844,"ĠgÃ¤ng":13845,"aring":13846,"atch":13847,"Ġkenn":13848,"ĠFang":13849,"ĠEvent":13850,"ĠToll":13851,"ĠLas":13852,"ĠLor":13853,"Ġbeurteilen":13854,"ĠStirn":13855,"Ġausrichten":13856,"Ġunsicher":13857,"ĠInt":13858,"leisten":13859,"lohen":13860,"ĠMake":13861,"Ġrauszu":13862,"geholt":13863,"ĠHeilige":13864,"ĠDarstellung":13865,"ĠAktien":13866,"ĠAkadem":13867,"ĠgrÃ¼ne":13868,"Ġideal":13869,"ĠZitat":13870,"ĠAnnie":13871,"ĠIndividu":13872,"ĠInneren":13873,"ĠLiebhaber":13874,"Ġaggress":13875,"leitungen":13876,"ĠUnabhÃ¤ngigkeit":13877,"MÃ¤nner":13878,"Vater":13879,"Wem":13880,"Zeigen":13881,"ky":13882,"rigen":13883,"rats":13884,"¢Ð":13885,"chester":13886,"anische":13887,"ĠSE":13888,"Ġginge":13889,"onus":13890,"alph":13891,"itive":13892,"elia":13893,"Ã¶pfe":13894,"defin":13895,"ĠFass":13896,"ĠTen":13897,"Ġanony":13898,"ĠanfÃ¼hlt":13899,"allel":13900,"Ġschade":13901,"Ġbeauft":13902,"olf":13903,"olzen":13904,"rac":13905,"ĠSchall":13906,"ĠVerlauf":13907,"ĠAnschluss":13908,"istik":13909,"Ã¤tt":13910,"Ġnachher":13911,"zustand":13912,"anzer":13913,"eldorf":13914,"ĠAlan":13915,"Ġberechnen":13916,"Ġwegnehmen":13917,"Ġrausfinden":13918,"andert":13919,"ĠRout":13920,"ioxid":13921,"Ġangestellt":13922,"Ġvermass":13923,"Ġruhen":13924,"ĠVertreter":13925,"ĠfÃ¼hrenden":13926,"ĠDritte":13927,"ĠOrgane":13928,"ĠLincoln":13929,"ĠPrivats":13930,"Ġaufzuhalten":13931,"Ġstartet":13932,"stoffen":13933,"ĠSchweigen":13934,"ĠLogik":13935,"verbindung":13936,"swesen":13937,"Ġirgendeiner":13938,"ĠAnwesenheit":13939,"kriegt":13940,"ĠMultip":13941,"ĠgehÃ¶rst":13942,"ĠHebron":13943,"ĠMiami":13944,"Ġentschlossen":13945,"ĠhÃ¤sslich":13946,"ĠTragÃ¶die":13947,"Ġerschwing":13948,"Nov":13949,"PC":13950,"dieren":13951,"kÃ¼ste":13952,"lucht":13953,"sat":13954,"wel":13955,"Ã³":13956,"ÃŃ":13957,"Ġï":13958,"Ġhy":13959,"Ġnennst":13960,"Ã¤ht":13961,"Ġkehrte":13962,"orient":13963,"ĠAct":13964,"ĠGB":13965,"ĠFax":13966,"Ã¼rk":13967,"ĠLt":13968,"Ġverschieben":13969,"reicht":13970,"Ġmittels":13971,"ĠscheiÃŁe":13972,"ĠScham":13973,"Ġdazwischen":13974,"ĠStore":13975,"Ġabnehmen":13976,"Ġhiermit":13977,"ĠâĨĴ":13978,"Ġdarstellt":13979,"ucher":13980,"immte":13981,"ĠUbuntu":13982,"ĠEinstein":13983,"ogramm":13984,"attan":13985,"ĠAlzheimer":13986,"ĠPlat":13987,"Ġversuchst":13988,"ĠAusweg":13989,"ĠVorschriften":13990,"ĠMalware":13991,"ĠKommun":13992,"Ġgeklaut":13993,"ĠgekÃ¼sst":13994,"Ġ03":13995,"Ġverschwinde":13996,"ĠDiÃ¤t":13997,"abteilung":13998,"ĠKrist":13999,"ĠgefÃ¤hrliche":14000,"Ġstandard":14001,"Ġgrus":14002,"ĠMÃ¤rkte":14003,"Ġbemerkte":14004,"ĠExtrem":14005,"ĠDVD":14006,"ĠMorde":14007,"ĠDebatte":14008,"ĠSchriftsteller":14009,"ĠKreislauf":14010,"Ġabgehauen":14011,"ĠZigarette":14012,
[...]
